unsigned char policy_model[] = {
    0x1c, 0x00, 0x00, 0x00, 0x54, 0x46, 0x4c, 0x33, 0x14, 0x00, 0x20, 0x00, 0x1c, 0x00, 0x18, 0x00, 0x14, 0x00, 0x10,
    0x00, 0x0c, 0x00, 0x00, 0x00, 0x08, 0x00, 0x04, 0x00, 0x14, 0x00, 0x00, 0x00, 0x1c, 0x00, 0x00, 0x00, 0x1c, 0x00,
    0x00, 0x00, 0x74, 0x00, 0x00, 0x00, 0x30, 0x15, 0x00, 0x00, 0x40, 0x15, 0x00, 0x00, 0x5c, 0x1a, 0x00, 0x00, 0x03,
    0x00, 0x00, 0x00, 0x00, 0x00, 0x00, 0x00, 0x02, 0x00, 0x00, 0x00, 0x34, 0x00, 0x00, 0x00, 0x04, 0x00, 0x00, 0x00,
    0xdc, 0xff, 0xff, 0xff, 0x0e, 0x00, 0x00, 0x00, 0x04, 0x00, 0x00, 0x00, 0x13, 0x00, 0x00, 0x00, 0x43, 0x4f, 0x4e,
    0x56, 0x45, 0x52, 0x53, 0x49, 0x4f, 0x4e, 0x5f, 0x4d, 0x45, 0x54, 0x41, 0x44, 0x41, 0x54, 0x41, 0x00, 0x08, 0x00,
    0x0c, 0x00, 0x08, 0x00, 0x04, 0x00, 0x08, 0x00, 0x00, 0x00, 0x0d, 0x00, 0x00, 0x00, 0x04, 0x00, 0x00, 0x00, 0x13,
    0x00, 0x00, 0x00, 0x6d, 0x69, 0x6e, 0x5f, 0x72, 0x75, 0x6e, 0x74, 0x69, 0x6d, 0x65, 0x5f, 0x76, 0x65, 0x72, 0x73,
    0x69, 0x6f, 0x6e, 0x00, 0x0f, 0x00, 0x00, 0x00, 0xb8, 0x14, 0x00, 0x00, 0xb0, 0x14, 0x00, 0x00, 0x9c, 0x14, 0x00,
    0x00, 0x04, 0x14, 0x00, 0x00, 0x74, 0x13, 0x00, 0x00, 0x64, 0x03, 0x00, 0x00, 0x54, 0x01, 0x00, 0x00, 0xc4, 0x00,
    0x00, 0x00, 0xbc, 0x00, 0x00, 0x00, 0xb4, 0x00, 0x00, 0x00, 0xac, 0x00, 0x00, 0x00, 0xa4, 0x00, 0x00, 0x00, 0x9c,
    0x00, 0x00, 0x00, 0x7c, 0x00, 0x00, 0x00, 0x04, 0x00, 0x00, 0x00, 0x9e, 0xeb, 0xff, 0xff, 0x04, 0x00, 0x00, 0x00,
    0x68, 0x00, 0x00, 0x00, 0x10, 0x00, 0x00, 0x00, 0x00, 0x00, 0x00, 0x00, 0x08, 0x00, 0x0e, 0x00, 0x08, 0x00, 0x04,
    0x00, 0x08, 0x00, 0x00, 0x00, 0x14, 0x00, 0x00, 0x00, 0x2c, 0x00, 0x00, 0x00, 0x00, 0x00, 0x0a, 0x00, 0x0c, 0x00,
    0x08, 0x00, 0x00, 0x00, 0x07, 0x00, 0x0a, 0x00, 0x00, 0x00, 0x00, 0x00, 0x00, 0x01, 0x04, 0x00, 0x00, 0x00, 0x00,
    0x00, 0x00, 0x00, 0x0c, 0x00, 0x18, 0x00, 0x14, 0x00, 0x10, 0x00, 0x0c, 0x00, 0x04, 0x00, 0x0c, 0x00, 0x00, 0x00,
    0x21, 0x7f, 0x57, 0x4b, 0xf5, 0x89, 0x65, 0x8c, 0x03, 0x00, 0x00, 0x00, 0x02, 0x00, 0x00, 0x00, 0x04, 0x00, 0x00,
    0x00, 0x06, 0x00, 0x00, 0x00, 0x32, 0x2e, 0x32, 0x31, 0x2e, 0x30, 0x00, 0x00, 0x12, 0xec, 0xff, 0xff, 0x04, 0x00,
    0x00, 0x00, 0x10, 0x00, 0x00, 0x00, 0x31, 0x2e, 0x31, 0x34, 0x2e, 0x30, 0x00, 0x00, 0x00, 0x00, 0x00, 0x00, 0x00,
    0x00, 0x00, 0x00, 0xf8, 0xe6, 0xff, 0xff, 0xfc, 0xe6, 0xff, 0xff, 0x00, 0xe7, 0xff, 0xff, 0x04, 0xe7, 0xff, 0xff,
    0x08, 0xe7, 0xff, 0xff, 0x42, 0xec, 0xff, 0xff, 0x04, 0x00, 0x00, 0x00, 0x80, 0x00, 0x00, 0x00, 0x7e, 0x2b, 0x35,
    0xbe, 0x0d, 0x7b, 0x1d, 0xbd, 0x07, 0xd9, 0x2b, 0xbe, 0x5d, 0x97, 0x97, 0xbe, 0x31, 0x5a, 0xd9, 0xbd, 0x3e, 0xbb,
    0xa9, 0x3e, 0x7e, 0x32, 0x9e, 0xbd, 0x84, 0xf8, 0xd4, 0xbe, 0x28, 0xf5, 0xb7, 0xbc, 0xbe, 0xbb, 0x8c, 0xbd, 0x3d,
    0x35, 0xae, 0xbe, 0x0f, 0xaf, 0x6b, 0xbe, 0x02, 0x47, 0xc6, 0xbd, 0xcd, 0x36, 0xaa, 0xbe, 0x0d, 0x35, 0xd4, 0xbe,
    0x16, 0x03, 0x95, 0xbe, 0x71, 0xba, 0x65, 0x3c, 0x5e, 0x81, 0x1b, 0xbf, 0xa5, 0xe8, 0xc3, 0x3e, 0xbd, 0xa4, 0x6b,
    0xbf, 0xb2, 0x77, 0x52, 0xbc, 0xea, 0xc5, 0x04, 0xbe, 0x58, 0xb7, 0xbe, 0xbe, 0x53, 0xc5, 0x94, 0x3d, 0x91, 0x18,
    0x81, 0x3d, 0x96, 0xf4, 0x8c, 0xbd, 0x29, 0xcc, 0xc7, 0xbe, 0x4d, 0x0e, 0xcc, 0xbe, 0x63, 0xfe, 0x26, 0xbf, 0x1c,
    0xd4, 0x9e, 0xbf, 0x2c, 0xfc, 0xf9, 0xbe, 0xf9, 0xa1, 0xa1, 0x3c, 0xce, 0xec, 0xff, 0xff, 0x04, 0x00, 0x00, 0x00,
    0x00, 0x02, 0x00, 0x00, 0x07, 0x89, 0xb7, 0x3e, 0x59, 0xb0, 0x8c, 0x3e, 0xec, 0x0c, 0x83, 0x3e, 0x31, 0xd5, 0x58,
    0x3f, 0xb5, 0x96, 0xf6, 0xbe, 0x7f, 0xd2, 0x78, 0xbf, 0x86, 0x0e, 0x17, 0x3f, 0x2d, 0x9f, 0x4a, 0x3f, 0xea, 0x61,
    0x00, 0x3c, 0xc2, 0x68, 0x8e, 0x3d, 0x4b, 0xff, 0x85, 0xbd, 0x7f, 0x57, 0xed, 0x3c, 0x41, 0x22, 0x66, 0x3d, 0x55,
    0xad, 0xb0, 0x3d, 0x1b, 0xbe, 0x4b, 0x3e, 0xae, 0x9a, 0xed, 0x3e, 0xba, 0xfd, 0x0e, 0x3e, 0xaf, 0x04, 0xde, 0x3c,
    0x79, 0xbe, 0xed, 0x3d, 0x3a, 0xc4, 0x8d, 0x3e, 0x2b, 0x43, 0x3f, 0x3e, 0xdd, 0x24, 0x13, 0x3d, 0x0a, 0xb3, 0x72,
    0xbe, 0x76, 0xa4, 0xdc, 0xbf, 0x18, 0x27, 0xce, 0xbc, 0x2e, 0x48, 0x5c, 0xbe, 0xfa, 0x5c, 0x0d, 0xbf, 0x77, 0xaf,
    0xc1, 0xbe, 0x57, 0xd5, 0x81, 0x3e, 0xdf, 0x12, 0xd1, 0x3d, 0xdc, 0x8b, 0x20, 0x3e, 0xd5, 0x1f, 0x85, 0x3e, 0xbc,
    0x56, 0x4a, 0xbd, 0xaf, 0x2f, 0x9d, 0x3d, 0x7d, 0x60, 0x92, 0x3e, 0xb0, 0x27, 0x63, 0x3e, 0x95, 0x85, 0x02, 0x3f,
    0x79, 0xe9, 0xd8, 0xbf, 0xbb, 0x8e, 0x1c, 0x3f, 0x78, 0xb9, 0x1a, 0xbf, 0x01, 0x5c, 0x94, 0xbd, 0xc0, 0x65, 0x84,
    0x40, 0x0b, 0x91, 0x0f, 0xbf, 0x91, 0x31, 0x44, 0x3f, 0x2b, 0xf2, 0x96, 0xbd, 0x7e, 0xb0, 0xca, 0xbd, 0x65, 0x00,
    0xb1, 0x3e, 0x9a, 0xfc, 0x06, 0x3f, 0x56, 0xdd, 0x33, 0xbd, 0x8f, 0xe2, 0xb9, 0x3d, 0x64, 0x5c, 0x96, 0x3c, 0xd7,
    0x39, 0x97, 0x3c, 0xda, 0xd9, 0x96, 0x3d, 0x66, 0x03, 0xfe, 0x3f, 0x6a, 0xd6, 0x8a, 0xbe, 0x15, 0x23, 0x96, 0x3a,
    0xf6, 0x7e, 0xd8, 0x3e, 0x1a, 0x1b, 0x51, 0x3e, 0xe4, 0x1c, 0x4d, 0x3e, 0x53, 0x83, 0xc1, 0x3e, 0xf3, 0x13, 0x35,
    0x3e, 0x3c, 0x9a, 0xea, 0xbe, 0x34, 0xd3, 0xc8, 0xbe, 0x39, 0xc5, 0xc1, 0x3f, 0xa4, 0x14, 0x16, 0xbe, 0x4e, 0x6b,
    0x2e, 0x3e, 0x7c, 0xd1, 0x17, 0x3f, 0x73, 0x39, 0xcf, 0x3e, 0xce, 0x42, 0x30, 0xbf, 0x34, 0x54, 0x37, 0xbf, 0xfe,
    0x19, 0x1b, 0x3f, 0x2c, 0xe6, 0x38, 0x3f, 0x40, 0xd7, 0x10, 0xbe, 0x0f, 0x53, 0x7b, 0xbf, 0xc2, 0x0e, 0x24, 0x3f,
    0x94, 0xeb, 0x0d, 0xc0, 0x20, 0xb5, 0x8e, 0x3f, 0x62, 0x6f, 0x0f, 0x3f, 0xc3, 0x8f, 0xa4, 0x3d, 0x92, 0x2b, 0x08,
    0x3f, 0x54, 0xe6, 0xae, 0xbe, 0x06, 0x56, 0x87, 0xbc, 0x46, 0x7e, 0x10, 0x3f, 0xe9, 0x71, 0xfd, 0x3e, 0x5c, 0x31,
    0x04, 0x3f, 0x6a, 0x47, 0x0a, 0xbd, 0x72, 0xfc, 0xc0, 0x3e, 0x8e, 0xfc, 0x78, 0x3f, 0xf0, 0xe4, 0x01, 0xbf, 0xd0,
    0xaf, 0x11, 0xbf, 0x1a, 0xc8, 0x27, 0x3f, 0xec, 0x90, 0x9d, 0x3f, 0x8c, 0x00, 0x13, 0xbe, 0x6f, 0x50, 0xa6, 0x3e,
    0x8e, 0x41, 0x2a, 0x3f, 0x96, 0xcc, 0xca, 0x3e, 0x33, 0xd7, 0x3d, 0x3e, 0xab, 0x45, 0xbc, 0xbf, 0x00, 0x8d, 0x8d,
    0x3e, 0x1d, 0x09, 0x86, 0x3f, 0xa1, 0x0f, 0x50, 0xbe, 0x64, 0xda, 0x9d, 0x3d, 0x8a, 0x55, 0xbb, 0xbe, 0x02, 0x4d,
    0x8b, 0xbf, 0x85, 0x48, 0x82, 0xbf, 0xd8, 0x3d, 0x45, 0xbf, 0x0b, 0x41, 0x9a, 0x3e, 0xc5, 0x4b, 0x2e, 0x3f, 0xe5,
    0x0a, 0xc4, 0x3e, 0x0a, 0x4f, 0xc5, 0xbe, 0x21, 0x62, 0x18, 0xbf, 0x17, 0x55, 0x5e, 0xbe, 0x00, 0xc0, 0xf9, 0x3e,
    0x30, 0x20, 0x38, 0x3f, 0x5c, 0xc1, 0x70, 0x3f, 0xb4, 0x1a, 0xe3, 0x3d, 0x4b, 0xa2, 0x0f, 0xbf, 0xb5, 0x6d, 0x76,
    0x3f, 0x95, 0xef, 0x20, 0xbf, 0x13, 0xa7, 0x04, 0xbf, 0x90, 0x17, 0x44, 0xbf, 0xfb, 0x3a, 0xd8, 0x3e, 0xd1, 0x99,
    0x45, 0x3f, 0xb8, 0x41, 0x02, 0xbf, 0x1d, 0x2a, 0xb8, 0xbd, 0x1b, 0x9e, 0x92, 0x3d, 0xc7, 0xed, 0x3c, 0x3e, 0x5b,
    0xac, 0xea, 0x3d, 0xda, 0xee, 0xff, 0xff, 0x04, 0x00, 0x00, 0x00, 0x00, 0x10, 0x00, 0x00, 0xf4, 0xb9, 0x1e, 0xbf,
    0xc0, 0xc0, 0x7f, 0xbe, 0xb6, 0xd6, 0x59, 0xbc, 0x5f, 0xdf, 0xae, 0xbe, 0x31, 0x46, 0xfe, 0xbd, 0xd1, 0x1a, 0x9c,
    0xbe, 0x70, 0xcc, 0x51, 0xbd, 0xec, 0x16, 0xb4, 0x3e, 0x0a, 0xe2, 0xc8, 0x3d, 0x93, 0x1a, 0x3f, 0x3d, 0xac, 0xff,
    0x4d, 0xbe, 0xf8, 0x37, 0xbd, 0x3d, 0x6a, 0x32, 0x71, 0x3e, 0x83, 0xe4, 0x93, 0xbe, 0xbb, 0xed, 0xa3, 0x3e, 0x40,
    0x8d, 0x2e, 0xbf, 0xa6, 0x69, 0x7f, 0xbf, 0xc5, 0x83, 0xa8, 0xbe, 0xe0, 0x8a, 0xeb, 0x3c, 0x56, 0xdb, 0xb4, 0x3e,
    0x39, 0xae, 0xaa, 0xbe, 0x59, 0x10, 0x4a, 0xbe, 0xc0, 0x36, 0x6e, 0xbf, 0xa3, 0x67, 0x6a, 0xbf, 0x4a, 0xd5, 0xa0,
    0x3e, 0x07, 0xa4, 0x9a, 0xbe, 0x03, 0x1d, 0x17, 0xbf, 0xe2, 0xe0, 0xb6, 0x3e, 0x8b, 0x4e, 0x25, 0x3f, 0x80, 0x1f,
    0x26, 0x3e, 0x0b, 0x27, 0xd8, 0xbd, 0x3a, 0xf8, 0x8e, 0x3e, 0x77, 0x6c, 0xf1, 0x3d, 0x3b, 0x1a, 0x97, 0x3d, 0x18,
    0x0f, 0xb7, 0x3c, 0x3a, 0x1d, 0xa0, 0x3e, 0xcf, 0x4b, 0xa5, 0x3e, 0xf4, 0xc5, 0x25, 0x3e, 0x23, 0xdf, 0x80, 0xbf,
    0x7c, 0x2e, 0xfd, 0x3b, 0x74, 0xde, 0x08, 0x3f, 0x84, 0xeb, 0x72, 0x3d, 0xe4, 0xde, 0x8a, 0xbe, 0x2a, 0x80, 0xcb,
    0x3e, 0x64, 0xde, 0x93, 0xbd, 0x1e, 0x6b, 0x98, 0x3e, 0xed, 0x85, 0x98, 0xbd, 0xbc, 0x67, 0x16, 0x3e, 0xeb, 0x3c,
    0x88, 0x3f, 0xd8, 0xaa, 0x0b, 0x3f, 0x72, 0xaa, 0xbb, 0x3d, 0xd4, 0xc6, 0x06, 0xbe, 0x18, 0x56, 0x18, 0x3f, 0xfd,
    0xe4, 0x11, 0x3e, 0xc4, 0x54, 0xe2, 0xbc, 0xec, 0x3b, 0x7e, 0x3f, 0x6a, 0xb0, 0x08, 0x3c, 0x23, 0x16, 0x3f, 0xbf,
    0x7f, 0xa7, 0xa0, 0x3e, 0x56, 0xfe, 0xd1, 0xbe, 0x3f, 0x84, 0x79, 0x3e, 0x6b, 0x11, 0x6b, 0xbe, 0xb1, 0x2f, 0xa9,
    0x3d, 0xb3, 0xf2, 0x65, 0x3e, 0x2f, 0xad, 0x80, 0xbd, 0x8f, 0x86, 0x8b, 0x3d, 0xff, 0xa4, 0x23, 0xbe, 0x0e, 0x6f,
    0xfc, 0xbd, 0xec, 0xa9, 0xb1, 0xbd, 0x74, 0xb9, 0xd9, 0x3d, 0xb4, 0x07, 0xc2, 0xbd, 0x8c, 0x96, 0x21, 0xbe, 0xad,
    0x56, 0xc9, 0x3d, 0xe5, 0xa6, 0x31, 0xbd, 0x90, 0x12, 0xce, 0xbd, 0xaa, 0x44, 0x20, 0x3e, 0xab, 0x89, 0x86, 0xbd,
    0xd0, 0x15, 0x3c, 0x3e, 0x8f, 0x6e, 0xb8, 0x3c, 0x2f, 0x8a, 0xf0, 0x3d, 0xac, 0x00, 0x19, 0x3e, 0xc9, 0x73, 0xe2,
    0x3d, 0x08, 0x56, 0x97, 0x3c, 0x2d, 0xfe, 0x35, 0x3d, 0xe9, 0x4f, 0x19, 0xbd, 0x1d, 0xeb, 0x42, 0x3e, 0x14, 0x2a,
    0xe1, 0xbe, 0xf8, 0x71, 0x49, 0x3c, 0x3d, 0xf0, 0x1f, 0x3d, 0xda, 0x99, 0x81, 0xbd, 0xa2, 0xce, 0xa7, 0x3d, 0x76,
    0x7a, 0x2d, 0xbe, 0x31, 0x4e, 0x16, 0xbe, 0xf0, 0x45, 0xfa, 0x3d, 0xc2, 0x82, 0xad, 0xbd, 0xfc, 0xe3, 0x96, 0x3c,
    0xd9, 0xfe, 0x83, 0xbe, 0xdb, 0xe6, 0x3c, 0xbf, 0xa5, 0x87, 0xfd, 0xbc, 0xf3, 0x16, 0x8c, 0x3e, 0xf5, 0x37, 0x48,
    0x3f, 0xb5, 0x8a, 0x35, 0x3d, 0xf3, 0x6e, 0xc5, 0x3d, 0x70, 0xe7, 0xc0, 0x3e, 0x97, 0x1b, 0x3a, 0x3e, 0x82, 0x75,
    0x61, 0xbe, 0x04, 0x60, 0xe2, 0xbe, 0xed, 0x9c, 0xf0, 0xbd, 0xdf, 0xf3, 0xe5, 0x3e, 0xf2, 0x45, 0x96, 0xbd, 0x2c,
    0x70, 0x94, 0x3e, 0x77, 0xd9, 0x89, 0xbf, 0x8e, 0xe9, 0x9a, 0xbd, 0x6f, 0xd7, 0x40, 0xbf, 0xc8, 0x4d, 0x75, 0x3d,
    0xfb, 0x77, 0xea, 0xbe, 0xf5, 0xce, 0x08, 0xbf, 0xa6, 0x41, 0x3c, 0x3f, 0x7e, 0x18, 0x43, 0xbf, 0x2d, 0x6f, 0x0b,
    0x3d, 0xf5, 0x3a, 0x0e, 0x3e, 0xd1, 0x49, 0x09, 0xbf, 0xf7, 0x82, 0xee, 0xbe, 0x85, 0xae, 0x57, 0x3f, 0x13, 0x2a,
    0x91, 0x3f, 0xb5, 0x27, 0x12, 0x3f, 0x88, 0xcc, 0x69, 0x3e, 0x4d, 0x12, 0xd8, 0xbc, 0x57, 0xd1, 0x15, 0x3e, 0xfb,
    0x55, 0x2c, 0xbe, 0xad, 0x33, 0xf4, 0xbd, 0x6f, 0xdd, 0x80, 0xbe, 0x3b, 0x67, 0xc4, 0xbc, 0xeb, 0x37, 0x65, 0x3c,
    0x83, 0xcc, 0x06, 0x3e, 0x8e, 0x49, 0x10, 0x3e, 0xd8, 0x84, 0x29, 0x3e, 0xbc, 0xb1, 0x0a, 0x3e, 0x8c, 0xbf, 0x24,
    0xbd, 0x0e, 0x8e, 0x95, 0x3e, 0x6f, 0x61, 0x6c, 0x3d, 0x4f, 0x37, 0x0d, 0x3e, 0x94, 0xe7, 0x18, 0xbd, 0x07, 0x2c,
    0x90, 0xbd, 0x64, 0x02, 0xbf, 0xbd, 0xa9, 0x83, 0xcc, 0xbd, 0x40, 0xa0, 0xa7, 0xbd, 0x6f, 0xbe, 0xa6, 0xbd, 0x6a,
    0xd5, 0x69, 0xbd, 0x4a, 0x9b, 0x0f, 0xbe, 0xf5, 0x47, 0xa0, 0x3e, 0x57, 0xc2, 0x84, 0xbe, 0x43, 0x52, 0x2d, 0xbd,
    0x3c, 0x09, 0x4d, 0x3d, 0x55, 0x49, 0x5e, 0x3c, 0xf4, 0x33, 0x36, 0xbe, 0x51, 0xec, 0x10, 0xbd, 0x11, 0x78, 0x5d,
    0xbe, 0x1d, 0xaa, 0xb7, 0xbd, 0x33, 0x36, 0x93, 0xbd, 0xb5, 0xe6, 0xa4, 0xbc, 0x5e, 0x2a, 0x6a, 0x3d, 0x76, 0x34,
    0xd2, 0xbd, 0x6a, 0xd0, 0x3d, 0xbe, 0x61, 0xf3, 0x56, 0x3d, 0x28, 0xbd, 0x69, 0xbe, 0x28, 0xcb, 0x67, 0x3b, 0x6f,
    0x82, 0x38, 0xbd, 0x23, 0x78, 0x9a, 0x3d, 0x10, 0x77, 0x0c, 0x3b, 0xfa, 0xfc, 0x3f, 0x3d, 0x48, 0x86, 0x70, 0x3e,
    0x4c, 0x4c, 0x2a, 0x3e, 0xf2, 0x79, 0xd0, 0xbc, 0x88, 0xb4, 0x1d, 0x3e, 0xcc, 0xf5, 0xdc, 0x3c, 0xf1, 0x27, 0x88,
    0x3d, 0xb2, 0x44, 0x3b, 0xbe, 0xfc, 0xd1, 0x04, 0x3d, 0x8c, 0x00, 0xca, 0xbd, 0xd9, 0x80, 0x8e, 0xbd, 0xee, 0x75,
    0x2c, 0xbe, 0xc0, 0xb9, 0x11, 0x3d, 0x12, 0x39, 0xcb, 0x3d, 0xab, 0x6c, 0x85, 0xbc, 0x0b, 0x39, 0x8a, 0x3e, 0x1b,
    0xa1, 0x70, 0x3c, 0x58, 0x69, 0xa5, 0x3e, 0x3f, 0x23, 0x39, 0x3e, 0x83, 0xe3, 0x01, 0xbe, 0x0a, 0xdc, 0x1d, 0xbd,
    0x99, 0xf3, 0xc8, 0x3d, 0x8d, 0x8b, 0xc9, 0x3e, 0x20, 0x2b, 0x86, 0xbe, 0xf1, 0x17, 0x16, 0x3e, 0xc5, 0x79, 0x90,
    0x3d, 0xd1, 0x2e, 0x8c, 0x3e, 0x18, 0xba, 0x41, 0xbf, 0x1c, 0x48, 0x9a, 0x3e, 0xc6, 0x86, 0x8b, 0x3d, 0xe8, 0x34,
    0x89, 0xbe, 0x7d, 0x76, 0x45, 0xbe, 0xe0, 0x86, 0xf6, 0x3d, 0xcc, 0x99, 0x94, 0xbc, 0x26, 0xa3, 0x41, 0xbd, 0xe3,
    0x18, 0x10, 0x3f, 0x08, 0xf8, 0x57, 0x3e, 0xd6, 0x1c, 0xfe, 0x3e, 0x7b, 0xbb, 0x88, 0xbe, 0xad, 0x86, 0x43, 0xbd,
    0x8e, 0xd6, 0xde, 0xbf, 0x31, 0x79, 0x0b, 0x3d, 0x14, 0xd3, 0xea, 0xbe, 0xb8, 0x78, 0xa1, 0x3e, 0x89, 0xc9, 0xe9,
    0x3e, 0x88, 0x04, 0xc7, 0xbd, 0x8a, 0x71, 0x8b, 0x3e, 0x0c, 0x12, 0xcf, 0xbe, 0xd2, 0x42, 0x5c, 0xbe, 0x55, 0x18,
    0x50, 0x3e, 0x0a, 0x2b, 0x50, 0x3d, 0xab, 0x22, 0x0e, 0xbf, 0x3a, 0xf5, 0x11, 0xbf, 0x07, 0xaa, 0x7d, 0xbe, 0x4d,
    0x91, 0x6f, 0xbc, 0xa2, 0x98, 0xb6, 0x3c, 0xc3, 0x92, 0xb4, 0xbe, 0x2c, 0xe2, 0x4b, 0x3d, 0x97, 0x8e, 0x6e, 0x3d,
    0x1b, 0x8b, 0x44, 0xbb, 0xec, 0x79, 0x01, 0xbd, 0xa5, 0x31, 0xef, 0x3d, 0xc9, 0xaa, 0x7e, 0xbe, 0xc6, 0x6f, 0x64,
    0x3d, 0x19, 0xb2, 0xb4, 0xbd, 0x5c, 0xf2, 0x12, 0xbe, 0x84, 0x3c, 0x58, 0xbe, 0xa6, 0x45, 0x6d, 0x3e, 0x83, 0x32,
    0x60, 0xbe, 0xe7, 0xc2, 0x24, 0x3c, 0x13, 0x94, 0x55, 0x3d, 0xbf, 0x3b, 0xa5, 0xbd, 0x3e, 0xb7, 0x25, 0xbd, 0xb6,
    0x3c, 0x28, 0xbe, 0x27, 0x07, 0xc6, 0xbd, 0xf1, 0x99, 0x94, 0xbd, 0xed, 0xc7, 0x8d, 0x3e, 0x64, 0x7a, 0x73, 0x3d,
    0xd3, 0x82, 0xd9, 0xbd, 0x66, 0x4e, 0x82, 0xbe, 0xa4, 0x87, 0xd3, 0xbd, 0xd8, 0xb8, 0xa8, 0x3e, 0x86, 0x12, 0xea,
    0x3d, 0x11, 0x8e, 0xe1, 0x3c, 0xcc, 0x3a, 0x5f, 0x3e, 0xf8, 0x76, 0xf2, 0xbd, 0x0a, 0xcb, 0x14, 0xbf, 0x41, 0x37,
    0x3b, 0xbf, 0x52, 0xa1, 0x1f, 0x3c, 0x24, 0xe0, 0xdf, 0xbe, 0x1e, 0x26, 0x04, 0x3e, 0xa9, 0x82, 0x4c, 0xbf, 0x21,
    0x19, 0xc9, 0x3c, 0x60, 0x60, 0xb6, 0xbd, 0x82, 0xa1, 0x18, 0x3c, 0x8e, 0x1c, 0xef, 0xbf, 0xa9, 0x5a, 0xcc, 0x3e,
    0x68, 0xd1, 0x1c, 0xbd, 0x91, 0x24, 0xc4, 0x3d, 0xd9, 0x18, 0xe3, 0x3d, 0x6b, 0x4f, 0xb3, 0x3c, 0xdc, 0x02, 0xad,
    0xbf, 0xf5, 0x37, 0x46, 0xbe, 0x03, 0x3a, 0x87, 0xbe, 0xa3, 0xef, 0x0c, 0xc0, 0xf2, 0x6f, 0x20, 0x3f, 0xe6, 0x0e,
    0xcb, 0x3d, 0xa8, 0x55, 0x95, 0xbe, 0x86, 0x9f, 0xba, 0xbf, 0x42, 0xbf, 0xec, 0xbe, 0x15, 0x17, 0x80, 0xbf, 0xab,
    0x66, 0x1d, 0xbf, 0x69, 0x5f, 0x97, 0xbe, 0x52, 0x67, 0xb6, 0xbd, 0xa7, 0x07, 0xc0, 0x3e, 0xc3, 0xd5, 0x74, 0xbf,
    0x97, 0x99, 0x10, 0xbf, 0x02, 0xf2, 0x88, 0x3e, 0x2f, 0x79, 0x80, 0xbd, 0xeb, 0x29, 0xfe, 0xbc, 0xc0, 0xa9, 0x21,
    0xbe, 0x13, 0xe3, 0x44, 0x3d, 0x0a, 0x7a, 0x7f, 0xbd, 0x34, 0x3f, 0x28, 0x3e, 0x32, 0x41, 0xb0, 0xbd, 0x28, 0x4a,
    0x75, 0xbd, 0xbb, 0x89, 0xc2, 0xbc, 0x70, 0x7f, 0x1b, 0x3e, 0xc8, 0x29, 0xe7, 0xba, 0xb7, 0x55, 0x22, 0xbd, 0x4e,
    0x04, 0x49, 0xbe, 0xde, 0x79, 0x93, 0x3d, 0x06, 0x18, 0x62, 0xbc, 0xe7, 0x48, 0x9f, 0x3e, 0xcf, 0xa6, 0x0e, 0x3f,
    0x86, 0xde, 0x99, 0x3e, 0x1d, 0x11, 0x28, 0xbe, 0x6d, 0xc1, 0x65, 0x3e, 0x5e, 0x1f, 0x46, 0x3e, 0xa4, 0x05, 0xc9,
    0xbe, 0xfb, 0x90, 0x5a, 0xbe, 0xcc, 0x64, 0xea, 0x3e, 0x7b, 0x31, 0xa7, 0xbc, 0x91, 0xeb, 0x18, 0xbd, 0x38, 0xa5,
    0x2f, 0x3e, 0x6e, 0x82, 0xec, 0x3b, 0x2d, 0x34, 0xac, 0x3e, 0x6b, 0x71, 0x84, 0xbe, 0xcf, 0x37, 0x17, 0x3d, 0x7f,
    0xaf, 0x17, 0x3e, 0x86, 0x06, 0xd5, 0xbd, 0x0c, 0x31, 0x0d, 0xbf, 0x87, 0x0a, 0xb9, 0xbe, 0x68, 0x9f, 0x26, 0xbe,
    0x98, 0x6a, 0xa6, 0x3e, 0x6c, 0x5e, 0xd9, 0xbe, 0x42, 0x8b, 0x93, 0x3e, 0x74, 0x23, 0xa0, 0xbe, 0x14, 0x72, 0x10,
    0xbe, 0xd8, 0x62, 0x2e, 0xbf, 0x7c, 0xdb, 0x83, 0x3e, 0x91, 0xea, 0x1a, 0xbf, 0xfc, 0x80, 0x60, 0x3e, 0x5f, 0x98,
    0xf9, 0xbe, 0x36, 0x3a, 0x5e, 0x3e, 0xe4, 0x16, 0x70, 0xbe, 0x2e, 0x0d, 0x64, 0x3e, 0x7b, 0xa6, 0x14, 0xbf, 0x86,
    0x83, 0x94, 0x3e, 0x44, 0xdd, 0x2d, 0x3c, 0x5a, 0xd3, 0xa9, 0x3d, 0x32, 0x4c, 0xe8, 0xbe, 0x5b, 0x5f, 0x15, 0xbf,
    0x4e, 0xde, 0x23, 0x3f, 0x2d, 0x27, 0x9c, 0xbf, 0x5d, 0x9e, 0xdd, 0x3e, 0xdf, 0xac, 0xa4, 0xbe, 0x31, 0x43, 0xd7,
    0xbe, 0xb2, 0x78, 0xa4, 0x3e, 0xa6, 0x0a, 0x5e, 0xbd, 0x3b, 0x0c, 0x4f, 0x3f, 0x53, 0xfd, 0x10, 0x3e, 0x09, 0x13,
    0x55, 0xbf, 0x97, 0x97, 0xd8, 0xbe, 0x6f, 0xfc, 0x4f, 0x3f, 0xc4, 0xb4, 0x09, 0xbf, 0xc2, 0x88, 0x7e, 0xbd, 0x6d,
    0xd2, 0xc2, 0x3e, 0x6c, 0x33, 0xf7, 0x3e, 0x10, 0x6f, 0x24, 0x3e, 0xde, 0x23, 0x28, 0xbf, 0xe0, 0x05, 0x6f, 0x3e,
    0x84, 0x70, 0x02, 0x3f, 0x66, 0x29, 0x3f, 0x3d, 0x13, 0x68, 0x00, 0xbe, 0x92, 0x17, 0x4d, 0xbe, 0x63, 0xe2, 0xb6,
    0xbd, 0xff, 0x30, 0xb5, 0xbe, 0x4f, 0x51, 0x2d, 0xbf, 0x44, 0xf4, 0x8d, 0x3e, 0xf5, 0x32, 0x3f, 0x3d, 0x2a, 0x23,
    0x29, 0x3f, 0xc4, 0xbb, 0x6e, 0xbf, 0x13, 0xde, 0x2b, 0xbf, 0xe0, 0x42, 0x27, 0xbe, 0xd8, 0x59, 0x4a, 0xbf, 0x21,
    0x75, 0x5a, 0x3e, 0x20, 0x5c, 0x86, 0xbe, 0x06, 0xeb, 0x3e, 0x3f, 0xba, 0x00, 0x36, 0x3e, 0xe9, 0xb4, 0xdb, 0x3e,
    0x31, 0x07, 0x82, 0xbf, 0x59, 0x73, 0x4e, 0x3e, 0x29, 0x6d, 0xbe, 0xbe, 0x4d, 0xc3, 0x4d, 0xbf, 0xc3, 0xee, 0x91,
    0xbf, 0x32, 0x7e, 0xa5, 0x3d, 0xc7, 0xd4, 0xb0, 0xbc, 0x91, 0x56, 0x54, 0xbe, 0xd6, 0x25, 0xba, 0x3d, 0x52, 0xd2,
    0xe0, 0xbc, 0x62, 0x42, 0x3d, 0x3d, 0xff, 0x2a, 0x60, 0x3d, 0x3a, 0xc6, 0x8b, 0xbf, 0x9a, 0x9f, 0xf6, 0xbe, 0xcb,
    0xcb, 0x84, 0xbe, 0x9f, 0x8a, 0xaf, 0x3d, 0xbb, 0x54, 0x6e, 0xbe, 0xe2, 0xd6, 0xdf, 0xbe, 0xb0, 0x10, 0x86, 0xbe,
    0x32, 0xaf, 0x98, 0x3d, 0xcc, 0x22, 0xae, 0xbe, 0xcf, 0x85, 0x52, 0x3e, 0x75, 0x1c, 0xdf, 0xbe, 0x3e, 0xd1, 0x2b,
    0x3d, 0x4b, 0x16, 0xb2, 0xbf, 0xe4, 0x46, 0x77, 0xbf, 0x88, 0xd3, 0x0f, 0x3e, 0x97, 0xcb, 0x1b, 0xc0, 0x41, 0x06,
    0xd3, 0x3e, 0x3d, 0x61, 0x1e, 0xbf, 0xbb, 0xd8, 0x7a, 0x3e, 0xb5, 0x85, 0x32, 0x3f, 0x8c, 0xfd, 0x68, 0xbf, 0x0b,
    0xf4, 0xc8, 0x3f, 0x98, 0x7f, 0x50, 0x3d, 0x0a, 0x7f, 0xde, 0x3d, 0x00, 0xf4, 0xb7, 0xbe, 0x89, 0xc1, 0x90, 0xbe,
    0xad, 0x13, 0x38, 0x3d, 0x88, 0x39, 0xb8, 0x3e, 0x65, 0x0d, 0xcc, 0xbe, 0xcc, 0x57, 0x0c, 0xbf, 0x16, 0xf0, 0x5d,
    0xbd, 0xc0, 0xfc, 0xb7, 0x3e, 0x33, 0xd1, 0x4c, 0xbf, 0x80, 0xb1, 0x25, 0x3e, 0x7b, 0x1b, 0x53, 0xbe, 0x04, 0xf3,
    0x73, 0x3c, 0xbe, 0xe1, 0x27, 0xbf, 0x31, 0x5a, 0x6e, 0x3e, 0xe9, 0x1c, 0x12, 0x3e, 0x2e, 0x3b, 0x5f, 0x3f, 0xd9,
    0x60, 0x3b, 0xbf, 0x0f, 0x0d, 0xb1, 0x3e, 0xc5, 0x0f, 0xc6, 0x3e, 0xc1, 0x9f, 0x1d, 0x3f, 0xef, 0xb6, 0x18, 0x3e,
    0x2d, 0xbf, 0xf3, 0xbe, 0x93, 0x90, 0x82, 0x3f, 0xc2, 0x50, 0x2a, 0xbf, 0xfa, 0x4f, 0x9e, 0xbe, 0x8c, 0xf9, 0x43,
    0xbf, 0x54, 0xfd, 0x3b, 0x3e, 0xc0, 0x6b, 0x39, 0xbe, 0xa7, 0x49, 0xf4, 0xbe, 0x9b, 0x6a, 0x51, 0x3e, 0x69, 0xdf,
    0xbc, 0x3d, 0x1e, 0x35, 0xa7, 0x3d, 0x8a, 0xd3, 0x5f, 0x3c, 0x6e, 0x2b, 0x39, 0x3e, 0x01, 0x9c, 0x68, 0xbe, 0x3a,
    0xed, 0x6d, 0xbe, 0x99, 0x83, 0xf6, 0x3d, 0x84, 0x06, 0xfe, 0x3a, 0x90, 0x1d, 0x0f, 0xbe, 0xe7, 0x5d, 0x02, 0xbe,
    0x92, 0x9d, 0x26, 0x3e, 0xb0, 0x0e, 0x98, 0xbc, 0x9a, 0x59, 0xd6, 0x3c, 0x33, 0xf6, 0xd3, 0x3d, 0x11, 0xc0, 0x06,
    0x3e, 0xf1, 0xa0, 0x85, 0x3a, 0x51, 0x29, 0x9a, 0x3e, 0xd5, 0xd6, 0xa8, 0x3d, 0x0b, 0xd3, 0x5a, 0x3d, 0x4e, 0x61,
    0x35, 0xbe, 0xc6, 0x7f, 0x2d, 0xbd, 0xca, 0xa7, 0x0d, 0xbd, 0xe8, 0x19, 0x43, 0xbe, 0xc2, 0x90, 0x98, 0xbe, 0x6f,
    0x2f, 0xe5, 0x3d, 0x8d, 0x7b, 0xde, 0x3d, 0x10, 0x94, 0x84, 0xbd, 0xc0, 0xb7, 0xde, 0x3d, 0x3d, 0xd3, 0x2d, 0x3d,
    0xa1, 0xcc, 0x5d, 0x3e, 0x67, 0x1c, 0xa6, 0xbe, 0xb1, 0x73, 0x9a, 0x3d, 0x10, 0xc6, 0x1a, 0xbd, 0x51, 0x6e, 0xbe,
    0xbe, 0x44, 0xcf, 0x88, 0xbe, 0x2f, 0x51, 0x2e, 0x3e, 0xb0, 0x66, 0x59, 0xbe, 0x13, 0xeb, 0xc8, 0xbd, 0xd9, 0x36,
    0x74, 0xbf, 0xbf, 0x4a, 0x0d, 0x3f, 0x42, 0xe5, 0x1e, 0x3e, 0x5a, 0xff, 0xe0, 0xbd, 0x8f, 0x58, 0xcd, 0xbe, 0x05,
    0x75, 0x52, 0xc0, 0x30, 0x34, 0x85, 0x3e, 0x49, 0xd5, 0xbe, 0x3d, 0x4d, 0x00, 0x79, 0xbf, 0xd3, 0x25, 0x54, 0xbd,
    0xa9, 0x11, 0xe9, 0xbe, 0x90, 0x58, 0x38, 0x3e, 0xac, 0xbe, 0xa5, 0xbe, 0x6c, 0xf8, 0x83, 0xbd, 0x21, 0xa4, 0x24,
    0xbe, 0x7b, 0x87, 0x11, 0xbe, 0xb3, 0x95, 0x09, 0xbf, 0x92, 0x0f, 0xe2, 0xbd, 0x14, 0xab, 0x96, 0x3e, 0x44, 0x0d,
    0x5d, 0xbe, 0xd1, 0xf1, 0xd7, 0xbe, 0x05, 0x9e, 0x3f, 0xbf, 0x3c, 0x1e, 0xf7, 0xbc, 0x16, 0xb4, 0xc0, 0x3e, 0x44,
    0x2f, 0x81, 0xbd, 0x76, 0x4e, 0xbe, 0x3e, 0x4c, 0xe2, 0x21, 0x3e, 0x5b, 0x86, 0x69, 0xbe, 0x05, 0x4a, 0x3e, 0xbd,
    0x1b, 0xfb, 0x18, 0x3e, 0x46, 0xf7, 0x2c, 0xbe, 0x21, 0x46, 0xc3, 0xbd, 0xd9, 0x8c, 0x15, 0xbf, 0x2a, 0xd4, 0x56,
    0x3f, 0x42, 0x56, 0xdb, 0x3c, 0x07, 0x29, 0x00, 0x3d, 0xd6, 0x7f, 0xec, 0x3e, 0x26, 0xc4, 0x35, 0x3f, 0x62, 0x16,
    0x39, 0xbe, 0x54, 0xf5, 0x07, 0x3f, 0x57, 0x12, 0x82, 0x3f, 0xb9, 0xd7, 0x8f, 0x3d, 0x16, 0xb4, 0x34, 0xbf, 0x97,
    0xd2, 0x0b, 0xbf, 0x0f, 0x98, 0x47, 0x3f, 0x05, 0x02, 0x84, 0xbe, 0x8f, 0x38, 0x9f, 0x3f, 0xd6, 0x2b, 0x12, 0xbe,
    0x2e, 0xd9, 0x5e, 0xbf, 0xc5, 0x39, 0x68, 0xbe, 0x34, 0x90, 0x89, 0xbe, 0x18, 0x91, 0xae, 0xbe, 0x00, 0x98, 0x10,
    0x3f, 0x1f, 0xa0, 0xa6, 0x3e, 0xc1, 0xe5, 0xdd, 0xbe, 0x6a, 0xde, 0x57, 0x3e, 0x7a, 0x1a, 0xb7, 0x3d, 0xb7, 0x21,
    0x57, 0x3e, 0x4a, 0x67, 0xb1, 0x3e, 0xe8, 0x10, 0x6c, 0xbe, 0x7e, 0x87, 0xbe, 0xbe, 0xf6, 0x98, 0xda, 0xbd, 0xcd,
    0xca, 0x96, 0xbe, 0x4a, 0x86, 0x8d, 0xbd, 0x1f, 0x8f, 0x58, 0xbf, 0xe2, 0xdf, 0x27, 0x3f, 0xb3, 0x62, 0x3d, 0x3e,
    0xa3, 0x1c, 0xec, 0x3d, 0xfe, 0x9f, 0x98, 0xbf, 0x8f, 0xb8, 0xdd, 0xbd, 0x2d, 0x82, 0xf3, 0xbe, 0x62, 0x95, 0x02,
    0x3e, 0x33, 0x2e, 0x37, 0x3e, 0x75, 0x1b, 0xae, 0xbd, 0x83, 0x48, 0x0a, 0xbf, 0x30, 0xed, 0x14, 0xbf, 0x08, 0x8a,
    0x01, 0xbd, 0xf9, 0xbf, 0xdc, 0xbf, 0x71, 0xaa, 0x06, 0x3f, 0x04, 0xb7, 0x5a, 0xbf, 0xbf, 0x0e, 0x52, 0xbe, 0x3d,
    0x62, 0xea, 0xbe, 0x02, 0xc4, 0xfe, 0xbe, 0x32, 0xce, 0x28, 0xbf, 0x68, 0x65, 0xc3, 0x3d, 0x50, 0x6c, 0x2f, 0xbd,
    0x3b, 0x3d, 0xba, 0x3e, 0xed, 0x88, 0x81, 0x3d, 0x96, 0x0a, 0x89, 0xbf, 0x80, 0x6a, 0x0f, 0xbe, 0x80, 0xc7, 0xd1,
    0xbe, 0x0b, 0xd8, 0x97, 0x3e, 0xd8, 0xa5, 0xb9, 0xbe, 0xbf, 0xee, 0x52, 0xbe, 0x30, 0x88, 0x8b, 0xbe, 0x83, 0x94,
    0x95, 0xbe, 0x7b, 0x72, 0x50, 0xbe, 0xd8, 0x1e, 0x0c, 0xbf, 0xa0, 0x17, 0x5f, 0xbe, 0xac, 0x2a, 0x89, 0x3c, 0x76,
    0xa3, 0x7c, 0xbe, 0xde, 0xc1, 0x1a, 0xbf, 0x24, 0xb6, 0x77, 0xbd, 0x55, 0x9d, 0x2c, 0x3e, 0x64, 0xea, 0x72, 0xbf,
    0xf9, 0xc9, 0xf2, 0xbe, 0xf8, 0x58, 0x34, 0x3e, 0x8a, 0x04, 0x7a, 0xbd, 0x6f, 0xc1, 0x48, 0xbf, 0xb4, 0x3e, 0x5b,
    0x3c, 0x54, 0x9d, 0x18, 0xbf, 0x75, 0x5a, 0x09, 0xbf, 0xf5, 0x9e, 0xdf, 0xbd, 0xda, 0xfc, 0xa8, 0xbe, 0xbd, 0xb5,
    0x64, 0xbe, 0x59, 0x19, 0x97, 0xbe, 0x00, 0xf0, 0x73, 0xbe, 0x47, 0x13, 0x08, 0x3e, 0x12, 0x51, 0x81, 0xbe, 0xdb,
    0xdc, 0xfa, 0xbe, 0xf9, 0xd4, 0xed, 0xbd, 0x8d, 0xf1, 0x2d, 0xbf, 0xd5, 0x0d, 0x30, 0x3d, 0x70, 0xeb, 0xb4, 0x3e,
    0x4a, 0x3f, 0x34, 0x3e, 0x84, 0xcc, 0x9f, 0xbe, 0xb7, 0xad, 0x77, 0x3e, 0xc7, 0x9e, 0x7e, 0x3e, 0xb9, 0xba, 0xc3,
    0xbe, 0x6a, 0x3b, 0x77, 0xbf, 0xd0, 0xc4, 0x0e, 0xbe, 0xa9, 0x5e, 0x63, 0x3e, 0xc4, 0x4c, 0xa1, 0xbe, 0x11, 0x50,
    0x9c, 0xbe, 0x84, 0xf9, 0xe7, 0x3e, 0x61, 0x21, 0xde, 0xbe, 0x04, 0x9f, 0xd2, 0x3d, 0x28, 0x56, 0x6e, 0xbe, 0xa8,
    0xa8, 0x8e, 0x3d, 0x61, 0xde, 0x46, 0x3f, 0xfc, 0x44, 0x13, 0x3d, 0x21, 0x49, 0x85, 0xbe, 0x90, 0xda, 0xcd, 0xbe,
    0xb6, 0x44, 0x18, 0x3f, 0x4c, 0xad, 0x76, 0x3e, 0x63, 0xa7, 0x03, 0x3f, 0x59, 0x8d, 0x31, 0x3f, 0x6e, 0xda, 0x9a,
    0x3e, 0x07, 0xcf, 0xa3, 0xbe, 0x27, 0x40, 0x49, 0xbf, 0x2a, 0xeb, 0x29, 0xbf, 0xcf, 0x6c, 0x7c, 0x3e, 0xf7, 0xa1,
    0xb7, 0xbe, 0xbb, 0x1c, 0x63, 0x3e, 0xe7, 0xb4, 0xdc, 0x3d, 0x9c, 0xc6, 0x16, 0x3d, 0x08, 0x39, 0xe0, 0xbd, 0x9e,
    0x96, 0xaf, 0x3d, 0x76, 0xf8, 0x11, 0x3c, 0x87, 0x65, 0x58, 0x3d, 0xa0, 0xdd, 0xcf, 0x3d, 0x3a, 0xaf, 0xb7, 0xbc,
    0x91, 0x74, 0x28, 0xbc, 0x3d, 0xfe, 0xf4, 0x3c, 0x04, 0x0f, 0x07, 0x3e, 0x76, 0x96, 0x46, 0x3c, 0xa5, 0xc0, 0xb4,
    0x3d, 0xa6, 0xfd, 0x05, 0x3e, 0x08, 0xb2, 0x53, 0x3d, 0xb4, 0x9c, 0xbd, 0xbd, 0xa2, 0x49, 0x35, 0xbd, 0x5e, 0x78,
    0x9f, 0xbe, 0x40, 0x59, 0xed, 0xbd, 0x8e, 0xdd, 0x07, 0xbe, 0x84, 0xb1, 0x0e, 0xbe, 0x0c, 0x82, 0x83, 0x3e, 0x90,
    0xe9, 0xda, 0xbc, 0x7c, 0x54, 0x2d, 0x3e, 0x38, 0x98, 0xc2, 0xbc, 0xe2, 0xbb, 0x9d, 0xbd, 0x53, 0xf0, 0x07, 0xbe,
    0x07, 0x20, 0x62, 0x3d, 0xd3, 0x8e, 0xa0, 0x3e, 0x96, 0x96, 0xbc, 0x3d, 0xda, 0x39, 0x14, 0xbe, 0x7d, 0x6e, 0x78,
    0x3e, 0x0d, 0xa8, 0xc5, 0xbd, 0x7f, 0x6f, 0x62, 0x39, 0xd7, 0xe3, 0x3d, 0xbe, 0x58, 0xc4, 0x41, 0xbc, 0x71, 0xab,
    0x07, 0xbd, 0xe5, 0x84, 0x51, 0x3f, 0xd8, 0xc9, 0x3f, 0x3d, 0x01, 0x23, 0xf4, 0xbd, 0x2b, 0x03, 0x9a, 0x3e, 0x42,
    0xc7, 0x53, 0x3e, 0x8a, 0x3b, 0x4e, 0xbf, 0x9d, 0x3a, 0xf4, 0x3e, 0xb4, 0x80, 0xfd, 0xbd, 0x42, 0xb4, 0x4b, 0x3f,
    0x3a, 0x51, 0x2a, 0x3f, 0xd1, 0x39, 0x28, 0x3f, 0x73, 0x90, 0x9e, 0xbe, 0x73, 0x90, 0x1d, 0x3f, 0x37, 0x4f, 0x88,
    0xbe, 0x52, 0xbd, 0xee, 0xbe, 0xd6, 0x9b, 0xa0, 0x3f, 0x77, 0x94, 0x92, 0x3e, 0xe5, 0xbc, 0x9f, 0x3e, 0x09, 0x2f,
    0xce, 0xbe, 0x3e, 0xec, 0x61, 0x3f, 0xf3, 0x59, 0xb5, 0xbe, 0xc1, 0x9e, 0x8f, 0x3e, 0x0d, 0x47, 0xcd, 0xbd, 0xd7,
    0x6c, 0x69, 0x3d, 0x0b, 0xe5, 0x69, 0x3f, 0xe1, 0x04, 0xf2, 0xbd, 0x68, 0x51, 0x3a, 0x3f, 0xfa, 0x85, 0x01, 0x3f,
    0xfb, 0xf2, 0x83, 0x3e, 0x1d, 0x02, 0x80, 0x3c, 0x71, 0x7e, 0x92, 0xbd, 0x33, 0xa5, 0x4a, 0x3d, 0x9f, 0xf9, 0xd0,
    0xbc, 0x34, 0x0f, 0xda, 0xbd, 0x24, 0x73, 0xe4, 0xbc, 0xdb, 0x06, 0xb6, 0xbd, 0xd3, 0x9d, 0xdd, 0xbc, 0xbe, 0xc5,
    0x44, 0x3c, 0x9a, 0xbe, 0xfc, 0x3b, 0xf6, 0x10, 0x6a, 0x3d, 0xee, 0x76, 0x4f, 0xbe, 0xfb, 0x4b, 0xca, 0xbd, 0x1f,
    0x83, 0x7b, 0xbe, 0x7f, 0x8b, 0x27, 0xbd, 0x7c, 0x4f, 0xdb, 0xbd, 0xf9, 0x63, 0x5b, 0x3e, 0x31, 0xb8, 0x42, 0x3c,
    0x9e, 0x8c, 0x84, 0x3d, 0xed, 0xd5, 0x64, 0xbd, 0x82, 0x93, 0xa3, 0xbd, 0x03, 0x8e, 0x94, 0x3d, 0x12, 0x6d, 0x81,
    0xbe, 0x47, 0x79, 0x0e, 0xbd, 0xaf, 0xe7, 0x00, 0x3e, 0x13, 0xe1, 0x39, 0xbe, 0x0c, 0xca, 0x95, 0xbe, 0xd4, 0xaa,
    0x18, 0x3e, 0x30, 0x84, 0xd5, 0x3c, 0x55, 0x1c, 0x16, 0xbe, 0x70, 0xbf, 0x33, 0xbe, 0x7a, 0xfe, 0xb4, 0xbd, 0x33,
    0xee, 0x06, 0xbe, 0xe5, 0xc4, 0xa5, 0x3d, 0x16, 0xf4, 0x7c, 0xbd, 0x17, 0x74, 0x8d, 0xbd, 0x36, 0x7d, 0xff, 0x3a,
    0xa2, 0xda, 0x44, 0xbb, 0x20, 0xa8, 0xd4, 0xbd, 0x07, 0xb1, 0xa4, 0x3b, 0x4b, 0xb3, 0x5e, 0xbc, 0xa4, 0x57, 0x51,
    0x3d, 0xaf, 0xa3, 0xd6, 0x3d, 0x62, 0x61, 0x34, 0x3b, 0x71, 0x36, 0x38, 0xbd, 0xd3, 0x11, 0x69, 0x3c, 0x83, 0x5d,
    0x84, 0x3c, 0xd0, 0x63, 0x26, 0xbc, 0x51, 0x02, 0x83, 0xbd, 0xe3, 0xc5, 0xac, 0xbc, 0xaf, 0xc0, 0x2b, 0xbd, 0x35,
    0x36, 0x71, 0xbd, 0x09, 0xf0, 0xb2, 0x3d, 0xbf, 0x5e, 0xf6, 0xbd, 0x67, 0x00, 0x35, 0x3e, 0x95, 0x1f, 0x11, 0x3e,
    0x1f, 0xcb, 0xb2, 0x3d, 0x02, 0xaf, 0x01, 0x3e, 0xe3, 0x72, 0x80, 0xbd, 0xa1, 0x64, 0xed, 0xbc, 0xe5, 0x76, 0x17,
    0xbe, 0x36, 0x30, 0xbc, 0xbb, 0x9a, 0xf8, 0xfe, 0xbc, 0xb3, 0x1c, 0xe9, 0x3e, 0xb4, 0x62, 0xe4, 0x3e, 0xba, 0xf4,
    0xfb, 0x3d, 0xa2, 0xc1, 0xab, 0x3e, 0xea, 0x31, 0xeb, 0xbd, 0x01, 0x95, 0xd7, 0xbf, 0x50, 0x81, 0x6f, 0xbb, 0xc8,
    0x02, 0x1e, 0x3e, 0x76, 0x9f, 0x1f, 0x3e, 0x5e, 0x67, 0x85, 0xbf, 0x60, 0xf8, 0xc2, 0xbd, 0xf1, 0x93, 0x55, 0x3e,
    0xea, 0x7c, 0x1b, 0x3e, 0xa3, 0xcc, 0x79, 0xbe, 0x30, 0x61, 0x18, 0xbd, 0x0b, 0x20, 0x3c, 0x3f, 0xb4, 0x20, 0x1f,
    0x3e, 0x2f, 0x08, 0xff, 0x3e, 0xd6, 0xf0, 0xda, 0xbf, 0xea, 0x72, 0x8a, 0xbe, 0xcc, 0xe2, 0x92, 0x3e, 0xc9, 0x1f,
    0x2c, 0xbd, 0x3a, 0x59, 0x16, 0x3f, 0x64, 0x69, 0x60, 0xbc, 0xa6, 0x43, 0xc6, 0xbe, 0x01, 0x94, 0x6a, 0x3b, 0x43,
    0xe5, 0x15, 0x3f, 0x6a, 0x31, 0x70, 0x3d, 0x2f, 0xe0, 0x1e, 0xbe, 0xd3, 0xb7, 0xb2, 0x3e, 0x7d, 0xac, 0x1a, 0xbe,
    0xca, 0x88, 0x11, 0x3e, 0xd1, 0x06, 0xa2, 0xbb, 0x76, 0xbf, 0x12, 0xbd, 0xd0, 0x0e, 0x8d, 0x3d, 0x14, 0xc6, 0x0d,
    0x3e, 0x0e, 0x80, 0xeb, 0x3c, 0xd4, 0xbd, 0xf3, 0x3c, 0xf4, 0x10, 0x95, 0x3e, 0x2b, 0x4b, 0x2d, 0xbd, 0x8f, 0xf0,
    0x96, 0xbb, 0x1c, 0x47, 0x4e, 0x3c, 0x6d, 0x9d, 0x9e, 0x3d, 0xf1, 0xaf, 0xc7, 0x3d, 0x24, 0x3a, 0x64, 0x3e, 0xd2,
    0x0d, 0x75, 0xbd, 0x60, 0x22, 0x28, 0x3e, 0xc8, 0x1c, 0x09, 0xbd, 0xd2, 0x2e, 0xe7, 0x3d, 0xf2, 0xd5, 0xc8, 0xbd,
    0x80, 0xeb, 0x9f, 0xbd, 0x71, 0x9b, 0x2d, 0xbe, 0xd7, 0xa7, 0x39, 0xbd, 0x78, 0x66, 0xdd, 0x3d, 0x16, 0x84, 0x45,
    0xbe, 0x93, 0x84, 0x46, 0x3e, 0xe5, 0x67, 0xc5, 0x3d, 0x04, 0x69, 0xeb, 0x3c, 0xf4, 0xac, 0x6c, 0x3e, 0x31, 0xe2,
    0x3f, 0x3e, 0x8d, 0x3f, 0xd1, 0xbd, 0x2d, 0x5c, 0x10, 0xbe, 0xf4, 0x2b, 0xc4, 0x3d, 0x22, 0x07, 0x2b, 0x3c, 0xdf,
    0x78, 0xbf, 0xbe, 0x15, 0x6c, 0xb3, 0xbe, 0x06, 0x69, 0x18, 0xbe, 0x84, 0x36, 0xf1, 0xbd, 0xf0, 0x22, 0x8e, 0xbe,
    0xc6, 0x6f, 0xf0, 0xbd, 0x24, 0x0f, 0xb5, 0x3e, 0x42, 0xab, 0xd3, 0x3e, 0xe3, 0xb0, 0x48, 0xbc, 0x42, 0xbb, 0x98,
    0xbe, 0x80, 0x79, 0x1b, 0xbd, 0x35, 0x70, 0xbd, 0x3d, 0x9d, 0xc1, 0x45, 0xbe, 0xd7, 0x68, 0xf6, 0xbc, 0x5c, 0x0b,
    0x84, 0x3e, 0x4a, 0x75, 0x7c, 0xbe, 0xb3, 0xd5, 0x83, 0xbf, 0xb9, 0x87, 0xee, 0x3c, 0x40, 0xb8, 0xa0, 0xbd, 0xb2,
    0x9f, 0xab, 0xbd, 0xdb, 0x9c, 0x01, 0xbe, 0x23, 0x16, 0xba, 0x3e, 0x7d, 0xa8, 0xea, 0x3c, 0xd4, 0xcc, 0x7a, 0xbf,
    0x64, 0xce, 0x0a, 0x3e, 0xbe, 0x47, 0x4d, 0x3e, 0x87, 0xe8, 0xc1, 0xbe, 0xad, 0x21, 0x50, 0x3f, 0x20, 0xde, 0x0f,
    0xbf, 0xcd, 0x87, 0x89, 0xbf, 0x68, 0x3f, 0x91, 0x3d, 0xa1, 0xc1, 0x95, 0x3c, 0x34, 0x36, 0x72, 0x3d, 0xa1, 0xc3,
    0x87, 0xbe, 0x8f, 0xf2, 0x15, 0x3f, 0x7b, 0x34, 0xc4, 0x3e, 0xfc, 0xcf, 0x28, 0x3f, 0x9c, 0x5a, 0x0f, 0x3e, 0xcb,
    0x05, 0x2c, 0xbe, 0xdf, 0xb5, 0x6f, 0x3f, 0x34, 0xb1, 0xd6, 0xbd, 0xcb, 0x10, 0xa3, 0xbe, 0x43, 0x96, 0x2e, 0xbe,
    0x18, 0x75, 0x49, 0x3e, 0x30, 0xff, 0x93, 0x3d, 0xeb, 0xd2, 0x88, 0x3e, 0x47, 0x80, 0x18, 0x3f, 0x0a, 0x21, 0x2f,
    0x3f, 0xed, 0x21, 0xb8, 0xbd, 0xa5, 0xe3, 0xa2, 0x3d, 0xa9, 0x50, 0x18, 0x3e, 0x39, 0x0a, 0x2f, 0x3f, 0x6a, 0x14,
    0x8b, 0xbe, 0xd7, 0x7d, 0x36, 0x3e, 0xde, 0x6f, 0x93, 0x3e, 0xff, 0x29, 0x96, 0xbd, 0xe2, 0x23, 0xe4, 0xba, 0x0f,
    0x8f, 0xea, 0xbd, 0x2e, 0xb1, 0x35, 0x3e, 0xce, 0xc0, 0x5f, 0x3f, 0x4e, 0x00, 0x80, 0x3f, 0x8d, 0x05, 0x8d, 0xbd,
    0x15, 0xb3, 0x37, 0x3f, 0x69, 0x8a, 0x8c, 0xbe, 0x83, 0x7e, 0xc6, 0xbd, 0xa0, 0xa6, 0x57, 0x3e, 0xcb, 0x5c, 0x4f,
    0xbc, 0x37, 0xb4, 0x82, 0x3d, 0x8b, 0xfb, 0xa6, 0x3d, 0x11, 0xfb, 0x82, 0x3c, 0x3c, 0xb1, 0x78, 0x3e, 0x8c, 0x2a,
    0x51, 0x3d, 0x0f, 0xb3, 0xc5, 0x3d, 0x80, 0x8e, 0x35, 0xbd, 0xb0, 0x3c, 0xe5, 0x3d, 0xbb, 0xab, 0x59, 0xbd, 0x3a,
    0x04, 0xa1, 0x3d, 0xee, 0x78, 0xf3, 0xbd, 0xc9, 0xe1, 0xb4, 0x3d, 0x50, 0xb7, 0xcf, 0xbd, 0xcc, 0xd0, 0xb4, 0x3d,
    0xb3, 0x06, 0x49, 0xbe, 0xdd, 0x83, 0x9c, 0xbd, 0xd8, 0xb1, 0x5a, 0xbe, 0x8c, 0x32, 0xd8, 0xbc, 0x0c, 0x40, 0xc9,
    0x3e, 0x2d, 0x6d, 0x54, 0xbd, 0x8c, 0xb9, 0x3b, 0x3e, 0xc9, 0xc6, 0x7b, 0xbd, 0xac, 0xb6, 0xd4, 0x3c, 0x2c, 0xb1,
    0x5b, 0x3e, 0x5c, 0x45, 0xbb, 0x3e, 0xf1, 0x86, 0x6e, 0xbe, 0xb8, 0x9b, 0xa3, 0xbc, 0xda, 0x30, 0xf8, 0x3d, 0xf5,
    0xcb, 0x1a, 0x3d, 0xb4, 0xb3, 0x1e, 0x3d, 0x2d, 0x5b, 0x1b, 0xbd, 0x31, 0x49, 0x86, 0x3d, 0x08, 0x66, 0xeb, 0x3d,
    0x51, 0x10, 0xbe, 0xbd, 0xf1, 0x3e, 0x02, 0xbe, 0x2d, 0x3d, 0x10, 0xbe, 0x52, 0xbe, 0x18, 0x3e, 0x3c, 0x23, 0xab,
    0x3d, 0x94, 0x5b, 0x46, 0x3b, 0x19, 0xd7, 0x0e, 0x3c, 0x87, 0xbe, 0x9f, 0xbd, 0xb5, 0xa4, 0xe2, 0x3b, 0x52, 0xa5,
    0xbc, 0x3d, 0x5d, 0x78, 0xc7, 0xbd, 0xec, 0x27, 0x09, 0xbe, 0x73, 0xf9, 0x17, 0x3e, 0xf0, 0x7e, 0xd4, 0xbe, 0xd1,
    0xfb, 0x12, 0x3d, 0x6e, 0xee, 0x17, 0xbc, 0x0d, 0x2e, 0x86, 0x3c, 0x75, 0xae, 0x3b, 0xbc, 0x6f, 0xe3, 0x40, 0x3e,
    0x60, 0x25, 0xab, 0xbd, 0xc1, 0xdc, 0x81, 0x3c, 0x6b, 0x5a, 0x2e, 0x3e, 0x23, 0x01, 0x83, 0x3e, 0x4b, 0x17, 0xab,
    0x3e, 0x43, 0xbe, 0x82, 0xbd, 0xdb, 0x02, 0x40, 0xbe, 0xc6, 0x8a, 0x06, 0x3d, 0xa0, 0x9d, 0x13, 0xbd, 0x52, 0x1b,
    0x67, 0xbd, 0xb2, 0xd4, 0x48, 0xbd, 0x4e, 0x0a, 0x81, 0x3e, 0xa5, 0xf3, 0x82, 0x3e, 0xfb, 0xe0, 0x34, 0x3f, 0xdb,
    0x43, 0xca, 0xbe, 0xbd, 0x33, 0x12, 0xbf, 0x88, 0x80, 0x18, 0x3f, 0x50, 0xd5, 0x86, 0x3e, 0x5d, 0xa6, 0x2a, 0xbe,
    0x6d, 0xe9, 0x53, 0x3e, 0x6f, 0x1b, 0xc7, 0x3e, 0xa7, 0x0e, 0xde, 0x3e, 0x23, 0x55, 0x8e, 0xbe, 0x8f, 0xfd, 0x31,
    0x3f, 0x20, 0x09, 0x64, 0xbe, 0x75, 0x95, 0x03, 0xbd, 0x2e, 0x8d, 0xde, 0xbe, 0x35, 0xa6, 0xbc, 0x3e, 0x93, 0x07,
    0x32, 0x3f, 0x01, 0x83, 0x27, 0x3e, 0x23, 0x21, 0x86, 0xbd, 0x4a, 0xa5, 0x1d, 0xbf, 0xe0, 0xfa, 0x68, 0x3e, 0x10,
    0x88, 0xb5, 0xbe, 0x35, 0xc0, 0x79, 0xbf, 0x99, 0xe5, 0x33, 0xbe, 0xb6, 0x82, 0xa2, 0xbd, 0xe1, 0xa4, 0xd8, 0x3e,
    0xbd, 0x1e, 0x60, 0xbe, 0x36, 0xbc, 0xf0, 0xbe, 0xd7, 0x0d, 0x9b, 0x3e, 0x9a, 0x2b, 0x2b, 0xbf, 0xe5, 0x09, 0xaa,
    0xbd, 0x8f, 0x60, 0x2c, 0xbe, 0x10, 0x44, 0x81, 0xbe, 0xc7, 0xe0, 0xb3, 0xbd, 0x79, 0xed, 0x16, 0x3f, 0xcd, 0x12,
    0x26, 0x3d, 0x93, 0xa2, 0xae, 0xbe, 0xae, 0x0b, 0x07, 0x3e, 0x36, 0x1f, 0xa0, 0xbe, 0x83, 0x45, 0x60, 0xbf, 0x7f,
    0x38, 0x89, 0xbe, 0x0c, 0xe8, 0xd2, 0x3a, 0xcd, 0xc9, 0x47, 0xbf, 0xf9, 0x95, 0xd7, 0xbe, 0x18, 0x53, 0xa2, 0xbe,
    0x0e, 0x4d, 0x32, 0x3e, 0x2f, 0x34, 0x26, 0xbf, 0x94, 0x02, 0xfe, 0x3e, 0xfb, 0xca, 0x2b, 0xbf, 0x62, 0x06, 0x03,
    0x3e, 0x20, 0x34, 0x2d, 0xbf, 0x28, 0x50, 0x4d, 0xbf, 0x72, 0xce, 0xbf, 0x3d, 0x50, 0x67, 0xbc, 0xbe, 0x19, 0x5f,
    0x0e, 0x3f, 0x06, 0x79, 0xbb, 0xbe, 0x28, 0x14, 0x87, 0xbc, 0x0f, 0x70, 0xef, 0xbe, 0xe8, 0x30, 0x44, 0x3e, 0x39,
    0x59, 0x6b, 0xbe, 0xd4, 0x2a, 0xa1, 0x3d, 0xe6, 0xfe, 0xff, 0xff, 0x04, 0x00, 0x00, 0x00, 0x80, 0x00, 0x00, 0x00,
    0x64, 0x4a, 0x38, 0x3a, 0x97, 0x1c, 0xa9, 0xbd, 0x00, 0x8c, 0x16, 0x3b, 0xf2, 0x8d, 0x35, 0x3b, 0xe4, 0x1e, 0x93,
    0x3b, 0x5f, 0x99, 0x09, 0xbb, 0x75, 0xe9, 0xf3, 0xbe, 0x38, 0x6d, 0x0a, 0xbc, 0x04, 0x3e, 0x0f, 0xbf, 0x0a, 0xa6,
    0x40, 0xbb, 0x40, 0x24, 0xc5, 0xbd, 0x13, 0x22, 0xe9, 0x3d, 0x6e, 0xb4, 0x1c, 0xbf, 0xb3, 0x23, 0x96, 0x3d, 0x40,
    0xa2, 0xd1, 0xbb, 0xd5, 0x9d, 0x9a, 0xbc, 0xcc, 0xc7, 0x7b, 0x3e, 0xf7, 0xca, 0x34, 0xbe, 0x02, 0xec, 0x31, 0x3b,
    0x6d, 0x4a, 0x3e, 0x3d, 0xc6, 0xa1, 0x0b, 0xbc, 0x3d, 0xd0, 0x9d, 0x3d, 0xd6, 0xe3, 0x13, 0x3c, 0x95, 0x25, 0x89,
    0xb9, 0x57, 0x5e, 0x4a, 0xbf, 0xbc, 0x75, 0x53, 0xbb, 0x6f, 0x56, 0x54, 0x3d, 0x05, 0x5b, 0xf4, 0x3d, 0xea, 0xa4,
    0xbc, 0x3a, 0x64, 0xfa, 0x8f, 0xbb, 0xbf, 0xbb, 0x3b, 0x3d, 0xff, 0x39, 0x25, 0x3f, 0x72, 0xff, 0xff, 0xff, 0x04,
    0x00, 0x00, 0x00, 0x80, 0x00, 0x00, 0x00, 0x92, 0x04, 0x8c, 0xbe, 0xf0, 0x6c, 0xa9, 0xbe, 0xfc, 0x0f, 0x09, 0xbe,
    0xcd, 0x63, 0x09, 0xbf, 0x29, 0x85, 0x99, 0xbd, 0xf6, 0x4b, 0x58, 0xbc, 0x6b, 0xf4, 0xe1, 0x3d, 0xfa, 0xad, 0xe3,
    0x3d, 0xad, 0xc5, 0x7a, 0xbf, 0xdc, 0x2b, 0xd5, 0xbe, 0xd2, 0x90, 0xaf, 0x3e, 0x4f, 0x14, 0x3b, 0xbf, 0xe3, 0xae,
    0x86, 0xbf, 0xe4, 0x9d, 0xe2, 0x3e, 0x10, 0x22, 0x01, 0xbf, 0x1b, 0x83, 0x23, 0xbf, 0x68, 0xb1, 0x6d, 0xbf, 0x71,
    0xb2, 0xa8, 0xbe, 0xba, 0xe8, 0x4f, 0x3d, 0x81, 0x50, 0x38, 0xbf, 0x2e, 0x87, 0xb6, 0x3d, 0x92, 0x99, 0x25, 0xbf,
    0x7b, 0x98, 0x20, 0x3d, 0xb1, 0xcf, 0x74, 0xbe, 0x6a, 0x61, 0x8e, 0xbd, 0xe7, 0x7f, 0x12, 0xbe, 0x21, 0x20, 0x2e,
    0x3d, 0x2e, 0x5e, 0x70, 0xbf, 0x49, 0x50, 0x27, 0xbe, 0x2e, 0x6b, 0x7b, 0xbd, 0x15, 0x17, 0x6e, 0xbe, 0xf7, 0x5b,
    0x20, 0x3d, 0x00, 0x00, 0x06, 0x00, 0x08, 0x00, 0x04, 0x00, 0x06, 0x00, 0x00, 0x00, 0x04, 0x00, 0x00, 0x00, 0x04,
    0x00, 0x00, 0x00, 0x2d, 0x55, 0xc4, 0xbe, 0xe0, 0xfa, 0xff, 0xff, 0xe4, 0xfa, 0xff, 0xff, 0x0f, 0x00, 0x00, 0x00,
    0x4d, 0x4c, 0x49, 0x52, 0x20, 0x43, 0x6f, 0x6e, 0x76, 0x65, 0x72, 0x74, 0x65, 0x64, 0x2e, 0x00, 0x01, 0x00, 0x00,
    0x00, 0x14, 0x00, 0x00, 0x00, 0x00, 0x00, 0x0e, 0x00, 0x18, 0x00, 0x14, 0x00, 0x10, 0x00, 0x0c, 0x00, 0x08, 0x00,
    0x04, 0x00, 0x0e, 0x00, 0x00, 0x00, 0x14, 0x00, 0x00, 0x00, 0x1c, 0x00, 0x00, 0x00, 0x1c, 0x01, 0x00, 0x00, 0x20,
    0x01, 0x00, 0x00, 0x24, 0x01, 0x00, 0x00, 0x04, 0x00, 0x00, 0x00, 0x6d, 0x61, 0x69, 0x6e, 0x00, 0x00, 0x00, 0x00,
    0x05, 0x00, 0x00, 0x00, 0xd0, 0x00, 0x00, 0x00, 0x9c, 0x00, 0x00, 0x00, 0x5c, 0x00, 0x00, 0x00, 0x38, 0x00, 0x00,
    0x00, 0x04, 0x00, 0x00, 0x00, 0x52, 0xff, 0xff, 0xff, 0x10, 0x00, 0x00, 0x00, 0x00, 0x00, 0x00, 0x08, 0x0c, 0x00,
    0x00, 0x00, 0x10, 0x00, 0x00, 0x00, 0x64, 0xfb, 0xff, 0xff, 0x01, 0x00, 0x00, 0x00, 0x0b, 0x00, 0x00, 0x00, 0x03,
    0x00, 0x00, 0x00, 0x0a, 0x00, 0x00, 0x00, 0x03, 0x00, 0x00, 0x00, 0x01, 0x00, 0x00, 0x00, 0xae, 0xff, 0xff, 0xff,
    0x0c, 0x00, 0x00, 0x00, 0x10, 0x00, 0x00, 0x00, 0x01, 0x00, 0x00, 0x00, 0x01, 0x00, 0x00, 0x00, 0x0a, 0x00, 0x00,
    0x00, 0x01, 0x00, 0x00, 0x00, 0x09, 0x00, 0x00, 0x00, 0xa2, 0xff, 0xff, 0xff, 0x10, 0x00, 0x00, 0x00, 0x00, 0x00,
    0x00, 0x08, 0x0c, 0x00, 0x00, 0x00, 0x10, 0x00, 0x00, 0x00, 0xb4, 0xfb, 0xff, 0xff, 0x01, 0x00, 0x00, 0x00, 0x09,
    0x00, 0x00, 0x00, 0x03, 0x00, 0x00, 0x00, 0x08, 0x00, 0x00, 0x00, 0x04, 0x00, 0x00, 0x00, 0x02, 0x00, 0x00, 0x00,
    0x00, 0x00, 0x0a, 0x00, 0x10, 0x00, 0x0c, 0x00, 0x08, 0x00, 0x04, 0x00, 0x0a, 0x00, 0x00, 0x00, 0x0c, 0x00, 0x00,
    0x00, 0x10, 0x00, 0x00, 0x00, 0x01, 0x00, 0x00, 0x00, 0x01, 0x00, 0x00, 0x00, 0x08, 0x00, 0x00, 0x00, 0x01, 0x00,
    0x00, 0x00, 0x07, 0x00, 0x00, 0x00, 0x00, 0x00, 0x0e, 0x00, 0x14, 0x00, 0x00, 0x00, 0x10, 0x00, 0x0c, 0x00, 0x0b,
    0x00, 0x04, 0x00, 0x0e, 0x00, 0x00, 0x00, 0x10, 0x00, 0x00, 0x00, 0x00, 0x00, 0x00, 0x08, 0x0c, 0x00, 0x00, 0x00,
    0x10, 0x00, 0x00, 0x00, 0x20, 0xfc, 0xff, 0xff, 0x01, 0x00, 0x00, 0x00, 0x07, 0x00, 0x00, 0x00, 0x03, 0x00, 0x00,
    0x00, 0x00, 0x00, 0x00, 0x00, 0x05, 0x00, 0x00, 0x00, 0x06, 0x00, 0x00, 0x00, 0x01, 0x00, 0x00, 0x00, 0x0b, 0x00,
    0x00, 0x00, 0x01, 0x00, 0x00, 0x00, 0x00, 0x00, 0x00, 0x00, 0x0c, 0x00, 0x00, 0x00, 0x98, 0x03, 0x00, 0x00, 0x40,
    0x03, 0x00, 0x00, 0xf0, 0x02, 0x00, 0x00, 0xa0, 0x02, 0x00, 0x00, 0x50, 0x02, 0x00, 0x00, 0x00, 0x02, 0x00, 0x00,
    0xb0, 0x01, 0x00, 0x00, 0x40, 0x01, 0x00, 0x00, 0xfc, 0x00, 0x00, 0x00, 0x88, 0x00, 0x00, 0x00, 0x40, 0x00, 0x00,
    0x00, 0x04, 0x00, 0x00, 0x00, 0xae, 0xfc, 0xff, 0xff, 0x00, 0x00, 0x00, 0x01, 0x10, 0x00, 0x00, 0x00, 0x10, 0x00,
    0x00, 0x00, 0x0c, 0x00, 0x00, 0x00, 0x18, 0x00, 0x00, 0x00, 0x98, 0xfc, 0xff, 0xff, 0x08, 0x00, 0x00, 0x00, 0x49,
    0x64, 0x65, 0x6e, 0x74, 0x69, 0x74, 0x79, 0x00, 0x00, 0x00, 0x00, 0x02, 0x00, 0x00, 0x00, 0x01, 0x00, 0x00, 0x00,
    0x01, 0x00, 0x00, 0x00, 0xe6, 0xfc, 0xff, 0xff, 0x00, 0x00, 0x00, 0x01, 0x10, 0x00, 0x00, 0x00, 0x10, 0x00, 0x00,
    0x00, 0x0b, 0x00, 0x00, 0x00, 0x24, 0x00, 0x00, 0x00, 0xd0, 0xfc, 0xff, 0xff, 0x15, 0x00, 0x00, 0x00, 0x6d, 0x6f,
    0x64, 0x65, 0x6c, 0x2f, 0x74, 0x66, 0x2e, 0x6e, 0x6e, 0x2e, 0x65, 0x6c, 0x75, 0x5f, 0x31, 0x2f, 0x45, 0x6c, 0x75,
    0x00, 0x00, 0x00, 0x02, 0x00, 0x00, 0x00, 0x01, 0x00, 0x00, 0x00, 0x20, 0x00, 0x00, 0x00, 0x2a, 0xfd, 0xff, 0xff,
    0x00, 0x00, 0x00, 0x01, 0x10, 0x00, 0x00, 0x00, 0x10, 0x00, 0x00, 0x00, 0x0a, 0x00, 0x00, 0x00, 0x50, 0x00, 0x00,
    0x00, 0x14, 0xfd, 0xff, 0xff, 0x42, 0x00, 0x00, 0x00, 0x6d, 0x6f, 0x64, 0x65, 0x6c, 0x2f, 0x74, 0x66, 0x2e, 0x6c,
    0x69, 0x6e, 0x61, 0x6c, 0x67, 0x2e, 0x6d, 0x61, 0x74, 0x6d, 0x75, 0x6c, 0x5f, 0x31, 0x2f, 0x4d, 0x61, 0x74, 0x4d,
    0x75, 0x6c, 0x3b, 0x6d, 0x6f, 0x64, 0x65, 0x6c, 0x2f, 0x74, 0x66, 0x2e, 0x5f, 0x5f, 0x6f, 0x70, 0x65, 0x72, 0x61,
    0x74, 0x6f, 0x72, 0x73, 0x5f, 0x5f, 0x2e, 0x61, 0x64, 0x64, 0x5f, 0x31, 0x2f, 0x41, 0x64, 0x64, 0x56, 0x32, 0x00,
    0x00, 0x02, 0x00, 0x00, 0x00, 0x01, 0x00, 0x00, 0x00, 0x20, 0x00, 0x00, 0x00, 0x9a, 0xfd, 0xff, 0xff, 0x00, 0x00,
    0x00, 0x01, 0x10, 0x00, 0x00, 0x00, 0x10, 0x00, 0x00, 0x00, 0x09, 0x00, 0x00, 0x00, 0x20, 0x00, 0x00, 0x00, 0x84,
    0xfd, 0xff, 0xff, 0x13, 0x00, 0x00, 0x00, 0x6d, 0x6f, 0x64, 0x65, 0x6c, 0x2f, 0x74, 0x66, 0x2e, 0x6e, 0x6e, 0x2e,
    0x65, 0x6c, 0x75, 0x2f, 0x45, 0x6c, 0x75, 0x00, 0x02, 0x00, 0x00, 0x00, 0x01, 0x00, 0x00, 0x00, 0x20, 0x00, 0x00,
    0x00, 0xda, 0xfd, 0xff, 0xff, 0x00, 0x00, 0x00, 0x01, 0x10, 0x00, 0x00, 0x00, 0x10, 0x00, 0x00, 0x00, 0x08, 0x00,
    0x00, 0x00, 0x4c, 0x00, 0x00, 0x00, 0xc4, 0xfd, 0xff, 0xff, 0x3e, 0x00, 0x00, 0x00, 0x6d, 0x6f, 0x64, 0x65, 0x6c,
    0x2f, 0x74, 0x66, 0x2e, 0x6c, 0x69, 0x6e, 0x61, 0x6c, 0x67, 0x2e, 0x6d, 0x61, 0x74, 0x6d, 0x75, 0x6c, 0x2f, 0x4d,
    0x61, 0x74, 0x4d, 0x75, 0x6c, 0x3b, 0x6d, 0x6f, 0x64, 0x65, 0x6c, 0x2f, 0x74, 0x66, 0x2e, 0x5f, 0x5f, 0x6f, 0x70,
    0x65, 0x72, 0x61, 0x74, 0x6f, 0x72, 0x73, 0x5f, 0x5f, 0x2e, 0x61, 0x64, 0x64, 0x2f, 0x41, 0x64, 0x64, 0x56, 0x32,
    0x00, 0x00, 0x02, 0x00, 0x00, 0x00, 0x01, 0x00, 0x00, 0x00, 0x20, 0x00, 0x00, 0x00, 0x46, 0xfe, 0xff, 0xff, 0x00,
    0x00, 0x00, 0x01, 0x10, 0x00, 0x00, 0x00, 0x10, 0x00, 0x00, 0x00, 0x07, 0x00, 0x00, 0x00, 0x30, 0x00, 0x00, 0x00,
    0x30, 0xfe, 0xff, 0xff, 0x20, 0x00, 0x00, 0x00, 0x6d, 0x6f, 0x64, 0x65, 0x6c, 0x2f, 0x74, 0x66, 0x2e, 0x5f, 0x5f,
    0x6f, 0x70, 0x65, 0x72, 0x61, 0x74, 0x6f, 0x72, 0x73, 0x5f, 0x5f, 0x2e, 0x61, 0x64, 0x64, 0x2f, 0x41, 0x64, 0x64,
    0x56, 0x32, 0x00, 0x00, 0x00, 0x00, 0x01, 0x00, 0x00, 0x00, 0x20, 0x00, 0x00, 0x00, 0x92, 0xfe, 0xff, 0xff, 0x00,
    0x00, 0x00, 0x01, 0x10, 0x00, 0x00, 0x00, 0x10, 0x00, 0x00, 0x00, 0x06, 0x00, 0x00, 0x00, 0x2c, 0x00, 0x00, 0x00,
    0x7c, 0xfe, 0xff, 0xff, 0x1d, 0x00, 0x00, 0x00, 0x6d, 0x6f, 0x64, 0x65, 0x6c, 0x2f, 0x74, 0x66, 0x2e, 0x6c, 0x69,
    0x6e, 0x61, 0x6c, 0x67, 0x2e, 0x6d, 0x61, 0x74, 0x6d, 0x75, 0x6c, 0x2f, 0x4d, 0x61, 0x74, 0x4d, 0x75, 0x6c, 0x00,
    0x00, 0x00, 0x02, 0x00, 0x00, 0x00, 0x20, 0x00, 0x00, 0x00, 0x04, 0x00, 0x00, 0x00, 0xde, 0xfe, 0xff, 0xff, 0x00,
    0x00, 0x00, 0x01, 0x10, 0x00, 0x00, 0x00, 0x10, 0x00, 0x00, 0x00, 0x05, 0x00, 0x00, 0x00, 0x2c, 0x00, 0x00, 0x00,
    0xc8, 0xfe, 0xff, 0xff, 0x1f, 0x00, 0x00, 0x00, 0x6d, 0x6f, 0x64, 0x65, 0x6c, 0x2f, 0x74, 0x66, 0x2e, 0x6c, 0x69,
    0x6e, 0x61, 0x6c, 0x67, 0x2e, 0x6d, 0x61, 0x74, 0x6d, 0x75, 0x6c, 0x5f, 0x31, 0x2f, 0x4d, 0x61, 0x74, 0x4d, 0x75,
    0x6c, 0x00, 0x02, 0x00, 0x00, 0x00, 0x20, 0x00, 0x00, 0x00, 0x20, 0x00, 0x00, 0x00, 0x2a, 0xff, 0xff, 0xff, 0x00,
    0x00, 0x00, 0x01, 0x10, 0x00, 0x00, 0x00, 0x10, 0x00, 0x00, 0x00, 0x04, 0x00, 0x00, 0x00, 0x2c, 0x00, 0x00, 0x00,
    0x14, 0xff, 0xff, 0xff, 0x1f, 0x00, 0x00, 0x00, 0x6d, 0x6f, 0x64, 0x65, 0x6c, 0x2f, 0x74, 0x66, 0x2e, 0x6c, 0x69,
    0x6e, 0x61, 0x6c, 0x67, 0x2e, 0x6d, 0x61, 0x74, 0x6d, 0x75, 0x6c, 0x5f, 0x32, 0x2f, 0x4d, 0x61, 0x74, 0x4d, 0x75,
    0x6c, 0x00, 0x02, 0x00, 0x00, 0x00, 0x01, 0x00, 0x00, 0x00, 0x20, 0x00, 0x00, 0x00, 0x76, 0xff, 0xff, 0xff, 0x00,
    0x00, 0x00, 0x01, 0x10, 0x00, 0x00, 0x00, 0x10, 0x00, 0x00, 0x00, 0x03, 0x00, 0x00, 0x00, 0x30, 0x00, 0x00, 0x00,
    0x60, 0xff, 0xff, 0xff, 0x22, 0x00, 0x00, 0x00, 0x6d, 0x6f, 0x64, 0x65, 0x6c, 0x2f, 0x74, 0x66, 0x2e, 0x5f, 0x5f,
    0x6f, 0x70, 0x65, 0x72, 0x61, 0x74, 0x6f, 0x72, 0x73, 0x5f, 0x5f, 0x2e, 0x61, 0x64, 0x64, 0x5f, 0x31, 0x2f, 0x41,
    0x64, 0x64, 0x56, 0x32, 0x00, 0x00, 0x01, 0x00, 0x00, 0x00, 0x20, 0x00, 0x00, 0x00, 0xc2, 0xff, 0xff, 0xff, 0x00,
    0x00, 0x00, 0x01, 0x10, 0x00, 0x00, 0x00, 0x10, 0x00, 0x00, 0x00, 0x02, 0x00, 0x00, 0x00, 0x20, 0x00, 0x00, 0x00,
    0xac, 0xff, 0xff, 0xff, 0x12, 0x00, 0x00, 0x00, 0x6d, 0x6f, 0x64, 0x65, 0x6c, 0x2f, 0x61, 0x63, 0x74, 0x69, 0x6f,
    0x6e, 0x2f, 0x41, 0x64, 0x64, 0x56, 0x32, 0x00, 0x00, 0x01, 0x00, 0x00, 0x00, 0x01, 0x00, 0x00, 0x00, 0x00, 0x00,
    0x16, 0x00, 0x18, 0x00, 0x14, 0x00, 0x00, 0x00, 0x10, 0x00, 0x0c, 0x00, 0x08, 0x00, 0x00, 0x00, 0x00, 0x00, 0x00,
    0x00, 0x07, 0x00, 0x16, 0x00, 0x00, 0x00, 0x00, 0x00, 0x00, 0x01, 0x14, 0x00, 0x00, 0x00, 0x14, 0x00, 0x00, 0x00,
    0x01, 0x00, 0x00, 0x00, 0x14, 0x00, 0x00, 0x00, 0x04, 0x00, 0x04, 0x00, 0x04, 0x00, 0x00, 0x00, 0x03, 0x00, 0x00,
    0x00, 0x6f, 0x62, 0x73, 0x00, 0x02, 0x00, 0x00, 0x00, 0x01, 0x00, 0x00, 0x00, 0x04, 0x00, 0x00, 0x00, 0x02, 0x00,
    0x00, 0x00, 0x20, 0x00, 0x00, 0x00, 0x04, 0x00, 0x00, 0x00, 0xf4, 0xff, 0xff, 0xff, 0x6f, 0x00, 0x00, 0x00, 0x00,
    0x00, 0x00, 0x6f, 0x0c, 0x00, 0x0c, 0x00, 0x0b, 0x00, 0x00, 0x00, 0x00, 0x00, 0x04, 0x00, 0x0c, 0x00, 0x00, 0x00,
    0x09, 0x00, 0x00, 0x00, 0x00, 0x00, 0x00, 0x09};
unsigned int policy_model_len = 6848;
