#pragma once

// Input normalisation (running mean / variance from SKRL preprocessor)
constexpr float MODEL_INPUT_MEAN[] = {0.06391177f, -0.02829939f, 0.00150732f, 0.97297859f, 0.08908236f};
constexpr float MODEL_INPUT_VAR[] = {0.00948837f, 0.33018705f, 0.02229713f, 0.03101818f, 5.92897272f};
constexpr int MODEL_INPUT_SIZE = 5;

inline constexpr unsigned char policy_model[] = {
    0x1c, 0x00, 0x00, 0x00, 0x54, 0x46, 0x4c, 0x33, 0x14, 0x00, 0x20, 0x00, 0x1c, 0x00, 0x18, 0x00, 0x14, 0x00, 0x10,
    0x00, 0x0c, 0x00, 0x00, 0x00, 0x08, 0x00, 0x04, 0x00, 0x14, 0x00, 0x00, 0x00, 0x1c, 0x00, 0x00, 0x00, 0x1c, 0x00,
    0x00, 0x00, 0x74, 0x00, 0x00, 0x00, 0xb8, 0x15, 0x00, 0x00, 0xc8, 0x15, 0x00, 0x00, 0x8c, 0x1b, 0x00, 0x00, 0x03,
    0x00, 0x00, 0x00, 0x00, 0x00, 0x00, 0x00, 0x02, 0x00, 0x00, 0x00, 0x34, 0x00, 0x00, 0x00, 0x04, 0x00, 0x00, 0x00,
    0xdc, 0xff, 0xff, 0xff, 0x0f, 0x00, 0x00, 0x00, 0x04, 0x00, 0x00, 0x00, 0x13, 0x00, 0x00, 0x00, 0x43, 0x4f, 0x4e,
    0x56, 0x45, 0x52, 0x53, 0x49, 0x4f, 0x4e, 0x5f, 0x4d, 0x45, 0x54, 0x41, 0x44, 0x41, 0x54, 0x41, 0x00, 0x08, 0x00,
    0x0c, 0x00, 0x08, 0x00, 0x04, 0x00, 0x08, 0x00, 0x00, 0x00, 0x0e, 0x00, 0x00, 0x00, 0x04, 0x00, 0x00, 0x00, 0x13,
    0x00, 0x00, 0x00, 0x6d, 0x69, 0x6e, 0x5f, 0x72, 0x75, 0x6e, 0x74, 0x69, 0x6d, 0x65, 0x5f, 0x76, 0x65, 0x72, 0x73,
    0x69, 0x6f, 0x6e, 0x00, 0x10, 0x00, 0x00, 0x00, 0x40, 0x15, 0x00, 0x00, 0x38, 0x15, 0x00, 0x00, 0x24, 0x15, 0x00,
    0x00, 0x8c, 0x14, 0x00, 0x00, 0xfc, 0x13, 0x00, 0x00, 0xec, 0x03, 0x00, 0x00, 0x5c, 0x01, 0x00, 0x00, 0xcc, 0x00,
    0x00, 0x00, 0xc4, 0x00, 0x00, 0x00, 0xbc, 0x00, 0x00, 0x00, 0xb4, 0x00, 0x00, 0x00, 0xac, 0x00, 0x00, 0x00, 0xa4,
    0x00, 0x00, 0x00, 0x9c, 0x00, 0x00, 0x00, 0x7c, 0x00, 0x00, 0x00, 0x04, 0x00, 0x00, 0x00, 0x1a, 0xeb, 0xff, 0xff,
    0x04, 0x00, 0x00, 0x00, 0x68, 0x00, 0x00, 0x00, 0x10, 0x00, 0x00, 0x00, 0x00, 0x00, 0x00, 0x00, 0x08, 0x00, 0x0e,
    0x00, 0x08, 0x00, 0x04, 0x00, 0x08, 0x00, 0x00, 0x00, 0x14, 0x00, 0x00, 0x00, 0x2c, 0x00, 0x00, 0x00, 0x00, 0x00,
    0x0a, 0x00, 0x0c, 0x00, 0x08, 0x00, 0x00, 0x00, 0x07, 0x00, 0x0a, 0x00, 0x00, 0x00, 0x00, 0x00, 0x00, 0x01, 0x04,
    0x00, 0x00, 0x00, 0x00, 0x00, 0x00, 0x00, 0x0c, 0x00, 0x18, 0x00, 0x14, 0x00, 0x10, 0x00, 0x0c, 0x00, 0x04, 0x00,
    0x0c, 0x00, 0x00, 0x00, 0xf9, 0x6e, 0xbe, 0x08, 0xe0, 0x73, 0xb6, 0x92, 0x03, 0x00, 0x00, 0x00, 0x02, 0x00, 0x00,
    0x00, 0x04, 0x00, 0x00, 0x00, 0x06, 0x00, 0x00, 0x00, 0x32, 0x2e, 0x32, 0x31, 0x2e, 0x30, 0x00, 0x00, 0x8e, 0xeb,
    0xff, 0xff, 0x04, 0x00, 0x00, 0x00, 0x10, 0x00, 0x00, 0x00, 0x31, 0x2e, 0x31, 0x34, 0x2e, 0x30, 0x00, 0x00, 0x00,
    0x00, 0x00, 0x00, 0x00, 0x00, 0x00, 0x00, 0xcc, 0xe5, 0xff, 0xff, 0xd0, 0xe5, 0xff, 0xff, 0xd4, 0xe5, 0xff, 0xff,
    0xd8, 0xe5, 0xff, 0xff, 0xdc, 0xe5, 0xff, 0xff, 0xe0, 0xe5, 0xff, 0xff, 0xc2, 0xeb, 0xff, 0xff, 0x04, 0x00, 0x00,
    0x00, 0x80, 0x00, 0x00, 0x00, 0xfc, 0xaf, 0x47, 0x3f, 0x2a, 0x4a, 0x1b, 0xbf, 0x02, 0x8b, 0xd9, 0x3d, 0x08, 0xd0,
    0x50, 0xbe, 0xee, 0x69, 0x29, 0xbf, 0x18, 0xe7, 0x19, 0xbe, 0x4d, 0x06, 0xfc, 0x3e, 0xc2, 0xc8, 0x48, 0x3e, 0x53,
    0xa3, 0x9c, 0xbd, 0x2b, 0x6e, 0x83, 0xbd, 0x7d, 0x63, 0x21, 0xbe, 0xfd, 0xd4, 0x0c, 0xbe, 0xc8, 0x6e, 0x46, 0x3e,
    0x19, 0x50, 0x94, 0xbe, 0x59, 0x30, 0x02, 0x3e, 0x99, 0x33, 0x20, 0xbd, 0xe6, 0x7c, 0x43, 0x3f, 0x08, 0x61, 0xa3,
    0x3e, 0xc8, 0x00, 0xfe, 0x3e, 0xe8, 0x4b, 0x98, 0xbe, 0x6c, 0x5a, 0x9c, 0x3d, 0x82, 0x2f, 0x07, 0x3e, 0x97, 0x7f,
    0xe1, 0xbe, 0xce, 0x47, 0x9f, 0xbd, 0x71, 0x5c, 0xfd, 0xbb, 0x28, 0xe1, 0x21, 0x3d, 0xb6, 0x38, 0x4f, 0x3e, 0xa2,
    0x3a, 0x30, 0xbf, 0x52, 0x61, 0xc2, 0xbe, 0xed, 0x94, 0xad, 0xbe, 0x15, 0xe0, 0xe3, 0xbe, 0x39, 0x5d, 0xde, 0xbe,
    0x4e, 0xec, 0xff, 0xff, 0x04, 0x00, 0x00, 0x00, 0x80, 0x02, 0x00, 0x00, 0x38, 0x99, 0x3c, 0xbe, 0xf9, 0xbb, 0x1b,
    0xbf, 0xd5, 0x1a, 0x1d, 0x3b, 0x44, 0x8c, 0x29, 0xbf, 0x50, 0x77, 0xde, 0xbe, 0x35, 0x6d, 0x3b, 0x3e, 0x75, 0xe5,
    0x50, 0x3e, 0xaa, 0x76, 0x6e, 0xbe, 0xbe, 0x4a, 0x61, 0x3d, 0x6a, 0x1e, 0xcf, 0x3b, 0x30, 0x8a, 0x66, 0xbe, 0xa8,
    0x3f, 0x16, 0xbe, 0x22, 0xf4, 0x98, 0x3e, 0x6e, 0x88, 0xe6, 0xbe, 0x85, 0xf1, 0xdb, 0x3e, 0x10, 0x15, 0xed, 0xbe,
    0x53, 0x7a, 0xea, 0xbe, 0x7c, 0x91, 0x40, 0xbf, 0x2e, 0x70, 0x44, 0x3e, 0x8f, 0x8f, 0x94, 0xbe, 0x47, 0xd1, 0x98,
    0x3d, 0xd9, 0xc1, 0x0e, 0x3e, 0xd5, 0xe2, 0x51, 0x3e, 0x52, 0xa9, 0xb8, 0xbd, 0x2a, 0x3c, 0x7a, 0x3e, 0x68, 0x38,
    0x8d, 0xbd, 0xe8, 0xca, 0x37, 0xbf, 0x4d, 0x8d, 0xc7, 0xbe, 0x30, 0xa5, 0x1d, 0x3f, 0x1f, 0x99, 0x6a, 0xbe, 0xa2,
    0x47, 0x7c, 0xbd, 0x98, 0x4e, 0xa0, 0xbe, 0xc3, 0xd3, 0x3a, 0xbd, 0x10, 0xfc, 0x92, 0xbe, 0x75, 0xa3, 0x97, 0xbf,
    0x86, 0x67, 0xbd, 0x3d, 0xbf, 0x07, 0xf0, 0x3a, 0x92, 0x5c, 0xb3, 0x3d, 0x97, 0x86, 0x2d, 0xbf, 0x70, 0x24, 0x2b,
    0x3c, 0xa3, 0xa7, 0xda, 0xbb, 0x50, 0x66, 0x2b, 0x3d, 0xfa, 0xf8, 0xd3, 0x3e, 0x44, 0x6c, 0xb5, 0xbd, 0x50, 0x7f,
    0xe2, 0x3e, 0x70, 0x59, 0xa4, 0x3e, 0x36, 0x0d, 0x2f, 0xbf, 0xcb, 0x97, 0x6e, 0xbd, 0x03, 0x6c, 0x2c, 0xbe, 0xb7,
    0xf3, 0xe8, 0x3e, 0x76, 0xbe, 0x38, 0xbd, 0x0f, 0x54, 0x9c, 0x3d, 0x04, 0xe4, 0xbb, 0x3e, 0x45, 0x61, 0xa3, 0x3e,
    0xcf, 0xf4, 0x47, 0x3e, 0x9b, 0x37, 0x3a, 0xbe, 0xed, 0xef, 0x2a, 0x3f, 0xa8, 0xf5, 0xbe, 0xbe, 0x7b, 0x8b, 0xbe,
    0x3e, 0x0d, 0xd4, 0x31, 0x3f, 0x8b, 0xe2, 0xed, 0xbd, 0xcd, 0xe3, 0x2d, 0xbf, 0xb3, 0xc4, 0x17, 0xbf, 0x26, 0xb3,
    0xa0, 0x3c, 0xb8, 0x1d, 0xdf, 0xbe, 0x53, 0x75, 0xb2, 0xbb, 0xc0, 0x15, 0x3b, 0xbe, 0x01, 0xe4, 0xa1, 0xbe, 0xb3,
    0x3e, 0x2c, 0x3f, 0xce, 0xea, 0x0e, 0xbf, 0xea, 0x75, 0x95, 0x3e, 0x7b, 0x6d, 0x1e, 0x3f, 0x3d, 0xa4, 0xff, 0x3d,
    0xde, 0xe0, 0x27, 0xbf, 0x63, 0x47, 0xef, 0x3e, 0xc6, 0x8e, 0xe6, 0xbd, 0x16, 0xe5, 0xce, 0xbe, 0x66, 0x1d, 0x90,
    0x3b, 0x36, 0x74, 0x06, 0x3f, 0xf4, 0xfc, 0x18, 0xbf, 0x9e, 0x6c, 0xe2, 0x3d, 0x7d, 0xbc, 0x25, 0x3f, 0x63, 0x25,
    0x3f, 0x3e, 0xf7, 0x4b, 0x33, 0x3f, 0x25, 0x57, 0xae, 0x3f, 0xa4, 0x00, 0x78, 0xbe, 0xf2, 0x3f, 0x9c, 0xbe, 0xe7,
    0xfa, 0xe5, 0xbe, 0x57, 0xa7, 0x56, 0x3f, 0xf6, 0xba, 0x1d, 0xbf, 0x79, 0xd8, 0x41, 0xbe, 0x9d, 0x18, 0x9e, 0xbd,
    0xb0, 0x68, 0xaf, 0x3d, 0xeb, 0xdc, 0x58, 0xbe, 0x45, 0xdf, 0x9f, 0x3e, 0x3e, 0x63, 0x68, 0xbe, 0xa3, 0x56, 0xd5,
    0xbd, 0x4f, 0xdd, 0xcd, 0xbb, 0x69, 0x79, 0xa4, 0xbe, 0xb0, 0x8b, 0x9e, 0xbd, 0x11, 0x02, 0x1d, 0xbf, 0x92, 0x2e,
    0x22, 0xbf, 0x54, 0xd4, 0xc8, 0xbe, 0xca, 0x67, 0x42, 0x3d, 0xa9, 0x32, 0xf0, 0x3d, 0xc5, 0xb5, 0xa9, 0xbd, 0x23,
    0x02, 0x42, 0x3e, 0x70, 0x73, 0x67, 0x3e, 0x44, 0x3e, 0x08, 0x3f, 0xb0, 0xa2, 0x8d, 0x3f, 0x37, 0x1a, 0x3e, 0xbe,
    0xb8, 0xfc, 0x38, 0xbd, 0x8a, 0xc0, 0xb5, 0x3e, 0xf8, 0x4d, 0xc7, 0x3e, 0x7e, 0x1c, 0x5b, 0x3e, 0x82, 0x18, 0x7c,
    0x3b, 0x35, 0x85, 0x9d, 0x3e, 0xe4, 0x9a, 0xb4, 0xbe, 0x80, 0xac, 0xd1, 0xbe, 0xa1, 0x98, 0x3b, 0x3e, 0x5b, 0xde,
    0x23, 0xbe, 0xc7, 0xbc, 0xa7, 0xbe, 0x10, 0x24, 0x0c, 0x3f, 0xb7, 0x21, 0x9d, 0x3e, 0x79, 0x72, 0x30, 0x3e, 0x89,
    0x20, 0x4e, 0xbe, 0x7d, 0xa5, 0x84, 0x3e, 0xa0, 0x57, 0x8d, 0xbe, 0x10, 0x5f, 0xe1, 0x3e, 0x05, 0x90, 0x27, 0x3f,
    0x4a, 0x45, 0xf4, 0xbd, 0x66, 0x43, 0x97, 0xbe, 0xd5, 0x63, 0x5b, 0xbe, 0xee, 0x93, 0xf4, 0xbd, 0xe0, 0xd5, 0x1c,
    0xbf, 0x97, 0xbd, 0x23, 0xbe, 0x83, 0x00, 0x07, 0xbf, 0x00, 0xcb, 0x40, 0xbd, 0x0f, 0xfc, 0x48, 0x3f, 0xcc, 0x2d,
    0xe2, 0xbd, 0x33, 0xf0, 0x9d, 0x3e, 0x06, 0x8d, 0x14, 0x3e, 0xf3, 0x07, 0x1e, 0x3d, 0x8f, 0x08, 0x2f, 0xbf, 0x87,
    0x53, 0xfa, 0xbe, 0x9e, 0xc4, 0x2c, 0xbe, 0x1f, 0xf5, 0xa2, 0xbe, 0x81, 0x50, 0x3e, 0x3f, 0x8b, 0x10, 0x0a, 0x3f,
    0x04, 0xb7, 0x28, 0xbe, 0x8a, 0xfc, 0xb4, 0x3e, 0xd1, 0xd7, 0xf0, 0xbd, 0xc4, 0xf8, 0xab, 0x3e, 0x4f, 0x69, 0x27,
    0xbf, 0x66, 0x1d, 0xb1, 0xbc, 0xd0, 0x0c, 0xf2, 0x3d, 0x5d, 0xfc, 0x3d, 0x3e, 0x9e, 0xc7, 0xd5, 0x3e, 0x2e, 0x61,
    0xdf, 0x3e, 0x32, 0x56, 0xd3, 0x3e, 0xda, 0xee, 0xff, 0xff, 0x04, 0x00, 0x00, 0x00, 0x00, 0x10, 0x00, 0x00, 0xaa,
    0xf6, 0x48, 0x3d, 0xde, 0x0a, 0xd1, 0xbd, 0x7f, 0x93, 0xc7, 0xba, 0xca, 0xd7, 0x2d, 0xbd, 0xa7, 0x38, 0x9f, 0xbb,
    0xa5, 0xd4, 0x2f, 0xbe, 0x54, 0x0e, 0x01, 0x3d, 0xb4, 0xf3, 0x45, 0xbe, 0x49, 0xeb, 0x1b, 0xbc, 0xa9, 0x1c, 0x20,
    0x3d, 0x30, 0x31, 0xa9, 0xbc, 0x62, 0x63, 0x79, 0xbd, 0x23, 0xc8, 0xad, 0x3d, 0x49, 0xa2, 0x8e, 0x3d, 0x25, 0x99,
    0x96, 0x3d, 0xb3, 0x33, 0xfa, 0xbd, 0x68, 0xfd, 0x9c, 0xbd, 0xca, 0x17, 0x61, 0x3c, 0x53, 0xfd, 0xdf, 0x3c, 0x38,
    0x89, 0xf6, 0x3d, 0x88, 0xb8, 0x0e, 0xbd, 0x6a, 0x5e, 0xa2, 0x3d, 0xe7, 0x69, 0xd3, 0xbd, 0x2b, 0x5e, 0xae, 0xba,
    0xf2, 0x9e, 0x87, 0xbd, 0xa2, 0x94, 0xa0, 0x3d, 0x3e, 0xf3, 0x52, 0xbd, 0xea, 0xe1, 0x06, 0x3e, 0x77, 0xa2, 0x7a,
    0xbc, 0xad, 0x2a, 0x81, 0x3c, 0xb8, 0x53, 0x16, 0x3d, 0x74, 0x68, 0x2c, 0x3d, 0x82, 0x6e, 0xab, 0xbe, 0x53, 0xa4,
    0x2d, 0xbe, 0xac, 0x4c, 0x9b, 0xbe, 0x71, 0x40, 0xe1, 0xbd, 0xa2, 0xcb, 0xf7, 0xbd, 0x22, 0x97, 0x12, 0x3f, 0xaa,
    0xe5, 0x25, 0x3d, 0xb9, 0x82, 0x57, 0xbe, 0x0f, 0xc6, 0x91, 0x3d, 0xb7, 0x72, 0x06, 0x3e, 0x84, 0x6a, 0x07, 0x3e,
    0xcb, 0x2d, 0x6c, 0xbf, 0x4f, 0x0b, 0x5d, 0xbc, 0xd1, 0xef, 0xf0, 0x3e, 0xcf, 0x4c, 0xf4, 0xbe, 0xd5, 0x99, 0xe3,
    0x3e, 0x38, 0x5b, 0x71, 0x3e, 0x32, 0xca, 0x7f, 0x3e, 0x39, 0x0c, 0xa7, 0x3d, 0x6d, 0xd3, 0x6b, 0xbe, 0x8e, 0x5b,
    0x98, 0xbe, 0x0d, 0x24, 0xab, 0xbd, 0x68, 0x5d, 0x09, 0x3e, 0x93, 0xfc, 0x40, 0xbe, 0xcf, 0xf4, 0x40, 0x3e, 0x5d,
    0xf1, 0x0b, 0xbd, 0x58, 0xcc, 0x20, 0x3c, 0x3e, 0xf5, 0x9e, 0x3d, 0x3e, 0x4a, 0x16, 0xbe, 0x3f, 0x21, 0x7b, 0x3e,
    0x04, 0x94, 0x43, 0xbd, 0x74, 0xa1, 0x8a, 0x3e, 0xe9, 0x90, 0x83, 0xbd, 0x89, 0x8f, 0xc4, 0x3d, 0xb7, 0xa8, 0x5a,
    0x3e, 0x8d, 0xe0, 0xbc, 0x3d, 0x71, 0x45, 0xc9, 0x3d, 0x0c, 0xee, 0xaf, 0x3d, 0x61, 0x6a, 0xe9, 0x3c, 0x41, 0xf0,
    0x37, 0xbd, 0x87, 0x1b, 0x5f, 0x3e, 0xf9, 0xfb, 0x1d, 0xbc, 0x25, 0x12, 0x3f, 0xbe, 0xc9, 0x2f, 0x38, 0xbd, 0x7b,
    0x04, 0x0f, 0x3d, 0x6e, 0xd7, 0x83, 0x3c, 0x47, 0x6d, 0x57, 0x3d, 0xd3, 0x26, 0xc9, 0x3d, 0x1c, 0x9d, 0xc1, 0x3d,
    0x75, 0x5f, 0xc6, 0xbd, 0xa1, 0xc3, 0x8c, 0xbc, 0x30, 0x1d, 0x66, 0x3e, 0xda, 0x9c, 0x89, 0xbd, 0xdc, 0xfa, 0x2e,
    0xbe, 0xf5, 0x93, 0xa0, 0xbe, 0xa5, 0x60, 0xa8, 0xbd, 0xc3, 0x81, 0x19, 0x3e, 0xa9, 0xed, 0x9d, 0xbd, 0xe1, 0x67,
    0xbb, 0xbd, 0x6b, 0x58, 0x04, 0xbe, 0x4b, 0xc7, 0x8e, 0xbd, 0x85, 0x1d, 0x8b, 0xbd, 0xf4, 0x9c, 0xa9, 0xbe, 0x9c,
    0x9d, 0x0c, 0x3e, 0xc3, 0xc0, 0x66, 0x3d, 0xef, 0x55, 0x08, 0xbd, 0x91, 0xf0, 0x9a, 0x3e, 0x6a, 0x4f, 0x0a, 0xbe,
    0x9c, 0xda, 0x9b, 0x3e, 0xf8, 0x3d, 0x97, 0xbd, 0xa6, 0x32, 0x25, 0x3e, 0xe9, 0x2a, 0x17, 0xbd, 0x17, 0x9c, 0x03,
    0x3e, 0xfb, 0xda, 0xdd, 0xbc, 0x13, 0xc2, 0x3d, 0xbd, 0x56, 0xce, 0x06, 0x3e, 0xff, 0x62, 0x1d, 0x3e, 0x46, 0xb9,
    0xb6, 0x3d, 0xaf, 0xe4, 0xdf, 0xbd, 0x5e, 0x6b, 0x38, 0xbe, 0xf0, 0xb7, 0x3f, 0x3e, 0xc9, 0x4a, 0x0e, 0x3e, 0x01,
    0x2e, 0x1f, 0xbe, 0x47, 0xdf, 0xb1, 0xbc, 0xe7, 0xc8, 0x3e, 0x3a, 0xff, 0xd9, 0x25, 0xbe, 0x48, 0x77, 0xbf, 0xba,
    0x7e, 0x77, 0xd4, 0x3d, 0xfd, 0x3e, 0x30, 0xbe, 0xbf, 0x61, 0x94, 0xbe, 0x20, 0x35, 0x57, 0xbe, 0x94, 0xdf, 0x91,
    0x3e, 0xd8, 0xb3, 0xd4, 0xbd, 0x66, 0x0a, 0xc1, 0x3d, 0x54, 0x84, 0x9a, 0xbd, 0x06, 0xf8, 0x45, 0xbd, 0x91, 0x1f,
    0x27, 0x3d, 0x82, 0xca, 0xac, 0xbb, 0xda, 0x7e, 0x87, 0xbe, 0x8e, 0x09, 0x76, 0xbb, 0xfa, 0xc2, 0x31, 0xbc, 0x1a,
    0x05, 0x53, 0x3e, 0xa5, 0x6e, 0xa2, 0x3d, 0xd3, 0xe3, 0x33, 0x3e, 0xf4, 0x4e, 0x3b, 0x3e, 0xa5, 0xb5, 0x83, 0xbd,
    0x11, 0x85, 0x1d, 0x3e, 0xf0, 0x56, 0x3f, 0xbd, 0x34, 0xbb, 0x4c, 0xbd, 0xa5, 0xbc, 0x6b, 0x3e, 0x2b, 0x89, 0x87,
    0xbc, 0x5c, 0x67, 0x92, 0xbd, 0xf4, 0xac, 0xe5, 0x3d, 0xe2, 0xbf, 0x04, 0xbe, 0x17, 0x02, 0x43, 0x3e, 0xb8, 0x17,
    0x3f, 0x3d, 0xaf, 0x57, 0x7e, 0x3c, 0x19, 0x11, 0x25, 0xbe, 0x48, 0xa6, 0x23, 0x3e, 0x47, 0xf3, 0xb1, 0xbd, 0xd2,
    0x13, 0xf5, 0xbd, 0xcd, 0x1b, 0x31, 0x3e, 0x84, 0xa8, 0x10, 0xbe, 0x82, 0x81, 0x90, 0x3d, 0x16, 0x76, 0x5c, 0x3c,
    0xcd, 0x6d, 0x23, 0x3c, 0x5b, 0x42, 0x43, 0xbd, 0xeb, 0x48, 0x41, 0xbe, 0x3b, 0x12, 0xa6, 0xbe, 0x7d, 0x23, 0xe3,
    0x3d, 0x1a, 0xdd, 0xab, 0xbe, 0xc5, 0xbd, 0x4c, 0x3a, 0x2d, 0xfb, 0x08, 0x3d, 0x97, 0x22, 0x41, 0x3e, 0x4f, 0xde,
    0x0c, 0xbf, 0x60, 0x18, 0x98, 0xbc, 0x74, 0xde, 0xd9, 0x3d, 0xe9, 0x72, 0xa1, 0xbe, 0xc8, 0x33, 0x38, 0x3e, 0x4d,
    0x3d, 0x0f, 0x3f, 0xc7, 0xe4, 0xdd, 0x3c, 0x09, 0x36, 0x6c, 0xbe, 0x2e, 0xca, 0x49, 0x3d, 0x23, 0xb7, 0xd6, 0xbe,
    0x9e, 0x8a, 0x99, 0xbd, 0x7a, 0x2e, 0x45, 0x3e, 0x40, 0x5a, 0xa9, 0x3d, 0xd0, 0x8e, 0xb9, 0xbe, 0x75, 0xa0, 0x0c,
    0x3d, 0x8e, 0x6e, 0x08, 0xbe, 0x0a, 0xe7, 0x9c, 0xbd, 0x24, 0x3c, 0x94, 0x3e, 0xf8, 0xcd, 0xba, 0xbd, 0xa0, 0xe8,
    0xc6, 0x3e, 0xc9, 0xde, 0x8c, 0xbe, 0x92, 0xf7, 0xcb, 0x3b, 0xae, 0x1a, 0x6f, 0xbe, 0x9d, 0x4c, 0x0b, 0x3d, 0xd3,
    0xfd, 0x76, 0xbe, 0x58, 0x53, 0xad, 0x3d, 0xab, 0x27, 0x08, 0xbd, 0xd7, 0xa6, 0x58, 0xbd, 0x2b, 0x77, 0xd8, 0xbc,
    0x04, 0x09, 0xe6, 0xbe, 0x26, 0x5d, 0xa7, 0xbe, 0x64, 0x83, 0x3a, 0xbe, 0xf5, 0x3f, 0x33, 0x3e, 0x59, 0xdc, 0x74,
    0xbe, 0x82, 0xa6, 0x1b, 0xbd, 0x35, 0xb3, 0x0e, 0x3f, 0x65, 0xe0, 0x9a, 0x3b, 0x50, 0x3b, 0x74, 0x3e, 0xc2, 0x4c,
    0x6d, 0xbe, 0x58, 0x0c, 0x01, 0xbf, 0x69, 0x3b, 0x6f, 0xbf, 0x8e, 0xb4, 0x7a, 0xbe, 0xda, 0xd0, 0x83, 0xbe, 0xf4,
    0x64, 0xad, 0xbd, 0x8c, 0x0b, 0xc5, 0xbd, 0x45, 0x86, 0x82, 0xbe, 0x44, 0xdb, 0x49, 0xbe, 0x88, 0x27, 0xdb, 0x3d,
    0x3e, 0x63, 0x68, 0x3d, 0x44, 0xb8, 0xde, 0xbd, 0x43, 0xde, 0xe1, 0x3d, 0xb8, 0x9c, 0x42, 0x3e, 0x4b, 0xf4, 0x1c,
    0xbe, 0x43, 0x8e, 0xa6, 0xbc, 0x92, 0xa7, 0x15, 0x3e, 0xd1, 0x08, 0x87, 0x3e, 0x6e, 0x93, 0x1c, 0xbf, 0xb9, 0xac,
    0x14, 0xbf, 0xcb, 0x77, 0x70, 0xbd, 0x52, 0x87, 0xb2, 0x3d, 0xbf, 0xf3, 0x09, 0xbd, 0x02, 0x3d, 0x60, 0x3d, 0xd0,
    0x62, 0x49, 0x3c, 0x6b, 0xb9, 0x02, 0xbd, 0x47, 0xd5, 0x1b, 0x3d, 0x29, 0xd5, 0x03, 0x3e, 0x16, 0x5b, 0x64, 0xbe,
    0x25, 0x75, 0x32, 0x3d, 0x5c, 0x37, 0xc9, 0xbd, 0xf9, 0xd1, 0x49, 0xbd, 0x86, 0x90, 0x93, 0x3b, 0x3d, 0x92, 0x19,
    0xbd, 0xe9, 0x16, 0x03, 0x3d, 0x3c, 0xa1, 0x0b, 0x3c, 0x50, 0xae, 0xaf, 0xbd, 0x9f, 0xa9, 0xc3, 0x3d, 0x70, 0x46,
    0x6b, 0x3d, 0xc9, 0xa8, 0x9a, 0x3d, 0xc5, 0x30, 0xc3, 0xbd, 0x66, 0x1e, 0xce, 0x3d, 0xd6, 0xd2, 0x5c, 0x3e, 0x74,
    0x6c, 0x91, 0xbd, 0xdb, 0xb4, 0x86, 0x3d, 0x0a, 0xc6, 0xe2, 0x3d, 0x6a, 0x82, 0xbd, 0xbd, 0x48, 0x9e, 0x7d, 0xbd,
    0xdf, 0x39, 0x0e, 0xbd, 0x50, 0x0b, 0xc2, 0xbc, 0xc9, 0x2c, 0xe7, 0x3d, 0x1e, 0xf2, 0x6e, 0xbc, 0x70, 0xe5, 0x04,
    0xbe, 0xcc, 0xa1, 0x66, 0x3e, 0x42, 0x8a, 0xfe, 0xbe, 0x16, 0x73, 0x90, 0x3e, 0x37, 0x87, 0xd2, 0xbe, 0xb1, 0x31,
    0x08, 0xbf, 0x96, 0x41, 0x99, 0xbe, 0x9c, 0xb7, 0x87, 0x3e, 0xae, 0x47, 0x6a, 0xbe, 0x8b, 0x0e, 0x48, 0xbe, 0xa0,
    0xe5, 0x2a, 0xbf, 0x3e, 0xb1, 0x88, 0x3e, 0xf8, 0xed, 0x95, 0xbe, 0x31, 0x17, 0xd1, 0x3e, 0xc1, 0x10, 0xd2, 0x3d,
    0x78, 0xf3, 0x29, 0x3e, 0x1f, 0x79, 0x80, 0xbe, 0x6e, 0x6f, 0x2e, 0xbf, 0x16, 0x51, 0x80, 0xbe, 0xb1, 0xad, 0xff,
    0x3d, 0xf0, 0x26, 0x6b, 0xbe, 0x35, 0xc9, 0x11, 0xbf, 0x4a, 0x93, 0x82, 0xbe, 0x57, 0xf4, 0xc7, 0x3e, 0x89, 0xbb,
    0x6d, 0xbf, 0x49, 0x36, 0xff, 0xbd, 0xfb, 0x23, 0xe0, 0x3e, 0xed, 0xc8, 0x7e, 0x3d, 0x34, 0x97, 0x55, 0x3f, 0xd3,
    0x76, 0x30, 0xbf, 0x5b, 0xb5, 0x59, 0x3f, 0x99, 0xd5, 0xce, 0xbe, 0xcf, 0x4d, 0x32, 0xbe, 0xf6, 0x10, 0xe6, 0xbd,
    0x24, 0xea, 0x51, 0xbe, 0xc8, 0x38, 0xe5, 0x3e, 0x29, 0xb7, 0x18, 0x3e, 0xef, 0xdd, 0x33, 0x3e, 0x56, 0x72, 0x46,
    0xbe, 0xa4, 0x23, 0xbd, 0xbd, 0x26, 0x2f, 0xa1, 0x3e, 0xfb, 0x70, 0x80, 0xbc, 0x54, 0x95, 0x6f, 0x3e, 0x69, 0x51,
    0x8c, 0xbc, 0xe8, 0xaf, 0x01, 0x3e, 0xe8, 0x9c, 0x8c, 0xbe, 0x69, 0x59, 0x1c, 0xbe, 0x49, 0x6d, 0x72, 0xbd, 0x3f,
    0x75, 0xc1, 0x3e, 0x34, 0xb7, 0x45, 0x3d, 0x8f, 0xa0, 0xc1, 0xbe, 0xc9, 0x96, 0x4e, 0x3e, 0xc2, 0xd5, 0xbf, 0xbd,
    0x56, 0x8f, 0x70, 0x3d, 0x94, 0x07, 0xc9, 0x3c, 0xd6, 0xe7, 0x48, 0x3d, 0x0c, 0x78, 0x14, 0xbd, 0xe6, 0x5d, 0x1d,
    0xbe, 0x63, 0xc7, 0x10, 0x3e, 0x3f, 0x6d, 0xe5, 0xbb, 0x1e, 0x0c, 0xcd, 0x3d, 0x6a, 0xaf, 0x85, 0xbd, 0x77, 0xae,
    0x25, 0x3e, 0xf1, 0xb5, 0x3b, 0x3f, 0x05, 0x27, 0x21, 0x3c, 0x86, 0xcc, 0x64, 0xbe, 0xca, 0xba, 0x56, 0xbd, 0x87,
    0xe5, 0xa5, 0x3c, 0xdc, 0x59, 0xbd, 0x3d, 0x2e, 0x82, 0x44, 0xbe, 0x87, 0x20, 0xb6, 0xbd, 0x22, 0x11, 0x0e, 0xbd,
    0x38, 0xa5, 0xc1, 0xbd, 0x0c, 0x51, 0xe8, 0x3d, 0x57, 0x7d, 0xeb, 0xbd, 0xab, 0x1a, 0x30, 0xbe, 0x58, 0x90, 0x8f,
    0xbd, 0x9a, 0x48, 0x22, 0x3d, 0x8e, 0xae, 0xca, 0x3d, 0x3e, 0xe1, 0x0b, 0x3c, 0xc4, 0x31, 0x35, 0xbc, 0xdd, 0xe9,
    0x96, 0x3d, 0xa2, 0x85, 0x09, 0xbc, 0x81, 0xca, 0xe1, 0x3d, 0xec, 0x46, 0xf1, 0x3c, 0x7f, 0xb0, 0xc0, 0xbd, 0x93,
    0x98, 0x0c, 0x3e, 0x59, 0x95, 0x84, 0x3c, 0xfe, 0xb5, 0x2b, 0x3d, 0x15, 0x8c, 0x41, 0x3e, 0xe2, 0x82, 0x08, 0x3c,
    0xdb, 0x38, 0xf7, 0xbc, 0xab, 0x4b, 0xe7, 0x3d, 0xf5, 0x86, 0x50, 0xbd, 0xc2, 0xa9, 0x86, 0x3d, 0xd1, 0x18, 0x14,
    0xbe, 0x7a, 0x66, 0xc3, 0x3c, 0x8a, 0xe4, 0xf3, 0xbc, 0x65, 0xe4, 0x90, 0x3d, 0x79, 0x11, 0x5c, 0xbd, 0xc0, 0x58,
    0x18, 0x3e, 0x04, 0xb8, 0x0f, 0x3e, 0xc6, 0x6c, 0xee, 0x3d, 0x6c, 0xc7, 0x09, 0xbe, 0x35, 0x3c, 0x1b, 0xbe, 0x0b,
    0x9d, 0x55, 0xbd, 0xcd, 0xe3, 0x0c, 0xbd, 0xaa, 0x98, 0xb9, 0xbc, 0x13, 0x6d, 0x0e, 0xbd, 0x89, 0x7d, 0x8f, 0xbd,
    0x96, 0xe3, 0x0a, 0xbd, 0xd3, 0x90, 0x5e, 0xbe, 0xc2, 0xbc, 0x89, 0x3d, 0x3f, 0xcf, 0x9c, 0x3d, 0x9f, 0x9b, 0xca,
    0xbc, 0x46, 0x30, 0x42, 0x3b, 0xc0, 0xbc, 0x1d, 0xbd, 0x16, 0x08, 0xc5, 0x3c, 0x4d, 0x31, 0x71, 0xbb, 0x6c, 0x00,
    0x0a, 0x3e, 0xb6, 0xe2, 0x92, 0x3d, 0xcf, 0x8c, 0x12, 0xbe, 0xe0, 0x9f, 0xb5, 0x3d, 0x99, 0x76, 0x60, 0x3d, 0x2e,
    0xa8, 0xc9, 0xbc, 0x84, 0x78, 0x6a, 0x3d, 0xf0, 0x75, 0x55, 0x3d, 0x39, 0x3f, 0xbb, 0x3d, 0x16, 0x69, 0xcb, 0xbe,
    0x5f, 0x54, 0x81, 0x3e, 0xf5, 0x81, 0xc8, 0x3d, 0xa3, 0x8a, 0x81, 0x3d, 0xf3, 0x3a, 0x30, 0xbd, 0x08, 0x20, 0x46,
    0xbe, 0xdd, 0xde, 0x89, 0xbe, 0xaa, 0x35, 0x36, 0x3e, 0xf2, 0x65, 0x8b, 0xbd, 0x74, 0x79, 0x4a, 0xbe, 0x39, 0x9e,
    0x4d, 0xbe, 0xf8, 0x27, 0x2e, 0xbd, 0x2c, 0xcb, 0x28, 0x3e, 0xd5, 0x23, 0x84, 0xbe, 0xc4, 0x30, 0x89, 0x3e, 0x5a,
    0xd8, 0x94, 0xbd, 0x57, 0x77, 0xbd, 0x3d, 0x9a, 0xef, 0xe3, 0x3e, 0xad, 0x14, 0xd5, 0xbd, 0x37, 0xeb, 0xea, 0xbe,
    0x70, 0x62, 0x27, 0xbe, 0xe6, 0x11, 0x1e, 0xbe, 0x4e, 0x17, 0x95, 0xbd, 0xf4, 0x4b, 0x9e, 0xbd, 0x00, 0x54, 0x9a,
    0x3c, 0xa4, 0x68, 0x5e, 0xbe, 0xa9, 0x24, 0x4e, 0xbe, 0xc9, 0x2c, 0x12, 0x3e, 0xcd, 0x78, 0xfd, 0x3d, 0xfb, 0xbe,
    0x07, 0xbe, 0xb1, 0xa4, 0x8f, 0x3e, 0xe4, 0x47, 0x8f, 0xbe, 0xe0, 0xf3, 0xd8, 0xbe, 0x46, 0x31, 0x0a, 0xbe, 0xcb,
    0x3c, 0x95, 0xbe, 0xfb, 0x28, 0xe0, 0x3d, 0x27, 0xef, 0x30, 0xbe, 0x3f, 0xf4, 0x0f, 0x3e, 0xcd, 0x67, 0x01, 0xbf,
    0xaf, 0x52, 0xc0, 0x3c, 0x81, 0xa6, 0x05, 0x3e, 0x2e, 0xdd, 0xde, 0xbe, 0x18, 0x81, 0x00, 0xbe, 0xc9, 0xfd, 0x1f,
    0xbd, 0x96, 0xdd, 0x22, 0xbe, 0xe5, 0x2f, 0x04, 0xbc, 0xad, 0x57, 0xe2, 0xbe, 0xb0, 0x61, 0x95, 0xbe, 0xce, 0xe3,
    0x2d, 0x3e, 0x22, 0xa8, 0x8f, 0x3e, 0x18, 0x15, 0x88, 0x3d, 0x5c, 0x1f, 0x0b, 0xbf, 0xe1, 0x3a, 0x5f, 0xbd, 0xc3,
    0x7a, 0xb3, 0xbe, 0x93, 0xc8, 0x74, 0xbc, 0x54, 0xbb, 0x23, 0x3e, 0x57, 0xdd, 0x91, 0x3e, 0xad, 0x5e, 0x61, 0x3d,
    0x01, 0xef, 0x5b, 0xbe, 0x51, 0x8d, 0x89, 0xbd, 0x0c, 0x9e, 0xc1, 0xbe, 0x62, 0x0e, 0xf6, 0x3d, 0x17, 0xed, 0x98,
    0xbe, 0xef, 0xfd, 0x6a, 0x3d, 0x8b, 0x96, 0xbb, 0xbf, 0xc3, 0xbc, 0x54, 0x3f, 0xd7, 0xaa, 0x95, 0x3e, 0x66, 0xe3,
    0x81, 0xbe, 0x62, 0x16, 0xc3, 0x3e, 0x5e, 0xbc, 0x5a, 0xbf, 0xb9, 0xb1, 0x99, 0xbf, 0xf1, 0xc5, 0x56, 0xbe, 0x47,
    0x59, 0x5b, 0x3d, 0x0e, 0x51, 0xfd, 0x3d, 0x48, 0x2b, 0x1d, 0xbe, 0xed, 0x03, 0x28, 0x3e, 0x24, 0xc5, 0xa5, 0xbf,
    0xb2, 0x31, 0x64, 0xbf, 0xd9, 0x52, 0xab, 0x3e, 0x5a, 0x96, 0xc7, 0xbe, 0x19, 0x38, 0x46, 0xbe, 0x93, 0xb1, 0xd9,
    0xbf, 0xa2, 0xcf, 0x03, 0xbf, 0xb6, 0xa6, 0xc9, 0x3e, 0x14, 0xfc, 0x86, 0x3d, 0x1b, 0xb1, 0x96, 0x3d, 0x99, 0xaf,
    0x81, 0x3e, 0xb6, 0xd0, 0x55, 0xbe, 0xcd, 0x7e, 0xe2, 0xbe, 0x90, 0x29, 0x4d, 0xbe, 0xed, 0xd6, 0x68, 0xbf, 0xe7,
    0xb9, 0xe6, 0x3e, 0x37, 0x77, 0x43, 0x3f, 0x0f, 0xeb, 0x2c, 0xbe, 0xef, 0x83, 0x5a, 0x3f, 0x26, 0xbd, 0x41, 0x3d,
    0x88, 0x29, 0x03, 0xbe, 0x6c, 0xf7, 0xc4, 0xbd, 0x8f, 0xdf, 0x68, 0xbe, 0x72, 0x68, 0x15, 0x3d, 0x94, 0x01, 0x81,
    0x3e, 0x45, 0xef, 0xa4, 0x3c, 0x12, 0xe5, 0x07, 0xbe, 0x0f, 0x18, 0x27, 0xbe, 0x95, 0x34, 0xd3, 0x3d, 0x99, 0x4c,
    0xa3, 0xbe, 0xcc, 0xea, 0x9c, 0xbd, 0x14, 0x9f, 0xc9, 0x3d, 0x14, 0xc0, 0x5f, 0x3e, 0xd8, 0x0f, 0x8e, 0xbd, 0x18,
    0x0e, 0x87, 0xbe, 0x53, 0xc5, 0x6e, 0x3e, 0xa9, 0x20, 0x8d, 0x3e, 0xf9, 0x55, 0x36, 0x3e, 0x57, 0x7f, 0x71, 0xbe,
    0xab, 0xe2, 0xc7, 0x3c, 0x34, 0x28, 0x58, 0x3e, 0xbc, 0x86, 0x89, 0x3d, 0x76, 0xbf, 0xdb, 0x3d, 0xf8, 0x9e, 0x83,
    0xbd, 0x60, 0x67, 0x21, 0xbe, 0xfd, 0xf9, 0x8c, 0xbe, 0x7f, 0x13, 0x03, 0xbe, 0xd7, 0x8b, 0xce, 0xbd, 0x5b, 0x7a,
    0xca, 0xbb, 0xca, 0xfe, 0x1b, 0x3a, 0xc8, 0x96, 0x09, 0x3e, 0x49, 0xa3, 0xeb, 0x3e, 0x8c, 0x1f, 0xea, 0xbe, 0x06,
    0x30, 0xcc, 0x3e, 0x0b, 0x6e, 0x0b, 0xbf, 0x90, 0xc3, 0x39, 0x3f, 0x30, 0xdd, 0x20, 0x3e, 0x8e, 0xf0, 0x33, 0x3e,
    0xfb, 0x78, 0xb3, 0xbc, 0x3c, 0xad, 0xd1, 0xbd, 0x6f, 0x2c, 0xd8, 0xbc, 0x29, 0xe8, 0x06, 0x3e, 0x8c, 0xd4, 0x90,
    0x3d, 0xf0, 0xf5, 0xce, 0xbe, 0x70, 0xd7, 0x89, 0x3e, 0x48, 0x75, 0x30, 0x3f, 0x77, 0x1d, 0xa0, 0xbe, 0xa6, 0xc5,
    0x7a, 0xbd, 0xf2, 0xc2, 0xe2, 0xbf, 0xad, 0xc6, 0xe8, 0x3d, 0x5f, 0xbc, 0x4f, 0xbf, 0x52, 0x61, 0xdc, 0x3e, 0x7d,
    0xae, 0x83, 0x3d, 0xd7, 0xac, 0xb7, 0xbe, 0xcf, 0x54, 0x94, 0x3e, 0xdc, 0x9b, 0x86, 0xbd, 0x80, 0x93, 0x1c, 0x3e,
    0x2f, 0xa8, 0xe6, 0xbe, 0x30, 0x91, 0x9f, 0xbd, 0x6e, 0x30, 0x6d, 0x3f, 0x45, 0xfd, 0x6e, 0xbc, 0xec, 0xc6, 0x32,
    0x3e, 0x5a, 0xe2, 0x48, 0x3e, 0xb4, 0x53, 0xd5, 0xbd, 0xa2, 0x94, 0xfc, 0x3c, 0x6c, 0x32, 0x2f, 0x3e, 0xe4, 0xde,
    0xc0, 0xbc, 0x5b, 0xe2, 0x4f, 0x3d, 0x48, 0xc0, 0xf0, 0xbd, 0xf6, 0xc0, 0x33, 0xbe, 0xe8, 0xe5, 0xf1, 0xbc, 0x5d,
    0x1b, 0x68, 0xbd, 0x10, 0x09, 0x84, 0x3e, 0xec, 0xf9, 0x6e, 0x3d, 0x55, 0x54, 0x1f, 0x3c, 0x36, 0xa5, 0xbe, 0x3d,
    0xdb, 0x24, 0xb0, 0x3d, 0x37, 0xc3, 0x9e, 0xbd, 0x08, 0x26, 0xd5, 0xbc, 0x83, 0x1f, 0x25, 0x3d, 0x7d, 0x75, 0x98,
    0xbd, 0x49, 0x65, 0x57, 0x3d, 0xac, 0xa8, 0x22, 0xbe, 0x46, 0xec, 0xd8, 0xbc, 0x85, 0x19, 0x2a, 0xbc, 0xc2, 0x44,
    0xe3, 0xbc, 0xe9, 0x26, 0x7e, 0x3c, 0x69, 0xda, 0xf3, 0xbd, 0x5e, 0xca, 0xa4, 0x3d, 0xff, 0x22, 0x8d, 0x3b, 0xad,
    0x1b, 0x1f, 0xbd, 0xee, 0xa9, 0x43, 0xbd, 0x04, 0x5f, 0x51, 0xbc, 0x97, 0x0a, 0x72, 0xbd, 0xc0, 0xf5, 0x90, 0x3d,
    0x38, 0x3b, 0x96, 0xbd, 0xd5, 0x66, 0xb4, 0xbd, 0xa7, 0x65, 0xe4, 0x3e, 0x79, 0xa1, 0x9c, 0xbc, 0xd5, 0xd6, 0x87,
    0x3e, 0xf6, 0xed, 0xc0, 0x3e, 0x37, 0x10, 0x00, 0x3f, 0x9f, 0x4d, 0xcd, 0xbe, 0xd0, 0x6a, 0x1a, 0xbf, 0x6f, 0x71,
    0xd1, 0xbc, 0x9e, 0x00, 0xfd, 0x3d, 0x17, 0x5c, 0x1a, 0xbd, 0x6a, 0x81, 0x11, 0x3e, 0x20, 0x7c, 0xf0, 0x3d, 0x36,
    0x07, 0x61, 0x3e, 0x07, 0xcb, 0xeb, 0x3e, 0xfe, 0x5a, 0x56, 0x3d, 0xdb, 0x6c, 0x85, 0xbf, 0x64, 0x19, 0x0f, 0xbd,
    0x1c, 0x86, 0xa8, 0x3c, 0xd9, 0xdd, 0xde, 0x3e, 0x4a, 0x25, 0x70, 0x3e, 0xed, 0x14, 0x02, 0xbf, 0x00, 0x61, 0xb2,
    0x3e, 0x91, 0x59, 0x53, 0x3e, 0x29, 0xf5, 0x7b, 0x3e, 0xf8, 0xba, 0x47, 0x3d, 0x5e, 0xb1, 0x44, 0xbe, 0x74, 0x8b,
    0x68, 0x3f, 0x07, 0x5b, 0x40, 0xbe, 0x75, 0xe6, 0xad, 0x3e, 0x54, 0xe2, 0x1f, 0x3e, 0xb3, 0xe0, 0x59, 0x3d, 0xd5,
    0x08, 0x91, 0xbe, 0xc2, 0x44, 0x9f, 0x3e, 0xe4, 0x91, 0xd4, 0xbd, 0x1a, 0x9b, 0x27, 0xbf, 0x48, 0xad, 0x6e, 0xbd,
    0x0f, 0xb3, 0x92, 0xbe, 0xc5, 0xfe, 0x0f, 0xbf, 0x0c, 0xed, 0x11, 0x3e, 0x59, 0xa9, 0xdf, 0xbd, 0x19, 0xc0, 0x90,
    0xbe, 0x00, 0xc2, 0x9a, 0xbe, 0x84, 0xeb, 0x69, 0x3d, 0x62, 0xee, 0xb8, 0xbe, 0x53, 0x1d, 0x2b, 0xbd, 0x7b, 0x12,
    0x32, 0x3e, 0x9d, 0xc8, 0xbf, 0xbb, 0x39, 0x41, 0x13, 0xbe, 0xce, 0x72, 0xb2, 0xbe, 0x53, 0xbd, 0xc9, 0xbd, 0x6c,
    0x57, 0x1f, 0xbe, 0xa9, 0x29, 0xf9, 0xbe, 0x9a, 0xfe, 0xc9, 0xbd, 0x2f, 0x6f, 0xa4, 0xbd, 0x7f, 0x44, 0x70, 0x3e,
    0x74, 0xb0, 0x74, 0xbe, 0x87, 0xc3, 0xb2, 0xbd, 0xa6, 0x40, 0x38, 0x3d, 0xde, 0x7e, 0xd5, 0xbd, 0x94, 0x86, 0x19,
    0xbd, 0x11, 0xe0, 0x57, 0x3d, 0x6f, 0xe8, 0xb4, 0x3e, 0x2a, 0x42, 0x78, 0xbd, 0xda, 0x1a, 0x00, 0x3e, 0x44, 0x40,
    0xfc, 0xbc, 0x1b, 0x7f, 0x8e, 0xbc, 0x24, 0x69, 0x8b, 0xbd, 0x0d, 0xf8, 0xc4, 0x3d, 0x49, 0x39, 0xef, 0x3c, 0x87,
    0x29, 0x95, 0x3c, 0x73, 0xe4, 0x30, 0xbe, 0x81, 0xb0, 0x57, 0x3e, 0x54, 0x9c, 0xf5, 0x3c, 0x12, 0xdc, 0x8c, 0x3d,
    0x0b, 0x52, 0x4a, 0x3e, 0x36, 0x7f, 0x5c, 0xbd, 0x1e, 0x33, 0x5e, 0xbc, 0x25, 0x6e, 0x15, 0xbe, 0xda, 0xdc, 0x07,
    0xbe, 0x1b, 0x07, 0x08, 0x3c, 0x15, 0x40, 0xf8, 0x3a, 0x01, 0xc9, 0x93, 0xbd, 0x28, 0x25, 0x0f, 0x3c, 0x4e, 0x79,
    0xe6, 0x3d, 0x42, 0xae, 0x67, 0xbd, 0x6d, 0x75, 0x2a, 0x3a, 0x32, 0x20, 0xa0, 0x3d, 0x8a, 0xaf, 0x05, 0xbe, 0xb3,
    0x05, 0xb0, 0xbe, 0x20, 0x1b, 0x00, 0xbe, 0x42, 0x29, 0xb8, 0x3d, 0xf6, 0x78, 0xc2, 0x3c, 0xe0, 0xc6, 0x96, 0xbd,
    0xef, 0xe2, 0xaa, 0xbc, 0x88, 0x5b, 0x87, 0xba, 0xc2, 0xab, 0xb4, 0xba, 0x46, 0x2c, 0x09, 0xbe, 0xe3, 0x53, 0x8d,
    0x3e, 0x52, 0xc4, 0xcc, 0x3c, 0xb4, 0x98, 0x41, 0x3e, 0x7e, 0xba, 0x4f, 0x3d, 0xf5, 0xdc, 0xf2, 0x3c, 0x57, 0xdd,
    0xa0, 0xbd, 0xcf, 0xca, 0x17, 0xbe, 0x31, 0x91, 0x13, 0xbe, 0x23, 0x97, 0x6e, 0xbd, 0x4d, 0x95, 0x6a, 0xbe, 0x75,
    0x5d, 0x23, 0x3e, 0x01, 0x53, 0xe8, 0xbc, 0x7b, 0x73, 0x6c, 0xbd, 0xb4, 0xb6, 0x8e, 0xbe, 0x8e, 0x26, 0x10, 0x3d,
    0x0e, 0x4e, 0x3d, 0xbd, 0xd7, 0xa8, 0xdf, 0x3d, 0x1f, 0xc2, 0x95, 0x3c, 0xf7, 0x76, 0x4c, 0xbe, 0xb8, 0x33, 0x80,
    0xbe, 0x2b, 0xda, 0xa7, 0xbe, 0x4b, 0x31, 0x2b, 0x3c, 0xf4, 0xaf, 0x5d, 0x3e, 0x9c, 0x21, 0xa4, 0x3e, 0xfc, 0x29,
    0x8b, 0xbd, 0x01, 0xb5, 0x42, 0x3c, 0xbc, 0x3e, 0x76, 0xbd, 0xe0, 0x47, 0x3f, 0x3d, 0x78, 0x1b, 0x8b, 0xbd, 0x49,
    0x3f, 0xff, 0x3d, 0xa4, 0x9a, 0x29, 0x3d, 0x85, 0x78, 0xc1, 0x3c, 0x24, 0x3f, 0x23, 0xbd, 0xbe, 0xfe, 0x15, 0x3d,
    0x09, 0x51, 0xbc, 0x3c, 0x4a, 0xf0, 0x9c, 0x3d, 0x2a, 0xe5, 0xad, 0xbd, 0xe5, 0x2f, 0x25, 0x3e, 0xd1, 0x2b, 0xfc,
    0xbd, 0x0d, 0x00, 0x7d, 0xbd, 0x29, 0x2e, 0xf4, 0xbc, 0xb1, 0x53, 0x19, 0x3d, 0x9a, 0xdb, 0x35, 0xbd, 0xb3, 0x33,
    0x70, 0x3d, 0x62, 0xae, 0xcf, 0x3b, 0x3f, 0x18, 0xaa, 0xbd, 0x8e, 0xe6, 0xa9, 0xbd, 0x83, 0xbb, 0x1c, 0x3e, 0x61,
    0x61, 0x84, 0x3d, 0x20, 0x7a, 0x5f, 0xbe, 0x51, 0x64, 0x6f, 0xbd, 0x3c, 0x53, 0x3e, 0x3e, 0xa5, 0x40, 0xa6, 0x3d,
    0x06, 0xbb, 0x08, 0xbe, 0xcb, 0xe7, 0xc2, 0xbb, 0x72, 0x42, 0x85, 0x3d, 0x51, 0x20, 0x6c, 0x3d, 0x08, 0x81, 0xd1,
    0xbd, 0xfb, 0x89, 0x0e, 0x3e, 0xfe, 0x07, 0xfc, 0x3d, 0xe5, 0x51, 0xda, 0x3c, 0x0b, 0x6b, 0x86, 0xbd, 0x02, 0x0a,
    0x26, 0x3e, 0x8f, 0xc2, 0x28, 0xbe, 0x47, 0xe8, 0x19, 0xbc, 0xb2, 0x9f, 0xcf, 0x3d, 0x18, 0x6e, 0x82, 0x3c, 0x60,
    0xd0, 0x70, 0x3b, 0x15, 0x98, 0xfd, 0xbd, 0x8d, 0x55, 0xe8, 0x3a, 0xf2, 0x42, 0xbe, 0xbd, 0x2b, 0xeb, 0x82, 0xbd,
    0x40, 0x7e, 0xad, 0x3d, 0x39, 0xc7, 0xdd, 0x3d, 0x5e, 0x52, 0xbd, 0xbd, 0xae, 0x32, 0x7c, 0x3d, 0xe1, 0x6f, 0x16,
    0x3d, 0x14, 0x0e, 0x21, 0x3d, 0x23, 0x4d, 0xf0, 0xbc, 0x40, 0xaf, 0x49, 0xbd, 0x90, 0xaa, 0x33, 0x3d, 0x3f, 0x89,
    0x2e, 0xbe, 0x52, 0x23, 0xa0, 0xbd, 0x7d, 0x9f, 0x9e, 0x3d, 0xb9, 0x9a, 0x12, 0xbe, 0xbc, 0x1c, 0x59, 0x3d, 0x8d,
    0x3a, 0xba, 0x3c, 0xb0, 0x1c, 0x94, 0xbd, 0x04, 0x6a, 0x03, 0x3d, 0x6d, 0x16, 0xf6, 0x3d, 0xdd, 0x37, 0xb5, 0x3d,
    0x93, 0x79, 0x33, 0x3d, 0xf7, 0xaf, 0xc9, 0xbc, 0xb5, 0xfc, 0x0b, 0xbd, 0x90, 0x9f, 0x15, 0x3e, 0x31, 0x17, 0xf3,
    0xb9, 0x74, 0xa2, 0x3f, 0xbe, 0x06, 0x12, 0xc2, 0xbd, 0xe1, 0x19, 0xad, 0xbd, 0x10, 0x88, 0x1e, 0x3d, 0x74, 0x45,
    0x3e, 0xbd, 0x65, 0xf9, 0x82, 0x3c, 0xe0, 0x29, 0x83, 0xbe, 0xf2, 0x22, 0x24, 0xbd, 0x4a, 0x9a, 0x0f, 0x3c, 0x60,
    0xb7, 0x58, 0x3e, 0x69, 0x80, 0x4d, 0x3b, 0xb6, 0x8f, 0xf0, 0xbd, 0xec, 0xd1, 0x94, 0x3d, 0x86, 0x78, 0x36, 0xbe,
    0x1c, 0xd2, 0xa5, 0xbe, 0x35, 0xd5, 0x55, 0x3c, 0x8a, 0x5d, 0x5e, 0x3e, 0x21, 0x42, 0xe1, 0xbc, 0x30, 0x48, 0xb5,
    0xbb, 0x81, 0xee, 0x90, 0x3e, 0x33, 0x0f, 0x78, 0x3e, 0x47, 0xf1, 0xbf, 0xbd, 0x87, 0x1e, 0xf0, 0x3c, 0xea, 0x3f,
    0x21, 0xbe, 0x03, 0x2f, 0x48, 0xbe, 0x9e, 0x2d, 0x4d, 0xbd, 0xd4, 0x8e, 0x42, 0x3e, 0x28, 0xcf, 0x66, 0xbd, 0xa0,
    0x9f, 0xc5, 0x3d, 0xd5, 0x44, 0xb1, 0xbe, 0xb8, 0xa2, 0x8d, 0x3e, 0xa1, 0x53, 0xec, 0xbe, 0xa1, 0x93, 0x81, 0x3d,
    0x55, 0xba, 0xdd, 0xbe, 0xeb, 0xf3, 0x6f, 0xbe, 0x66, 0x82, 0x3e, 0xbe, 0x1f, 0x40, 0xf5, 0xbe, 0xdb, 0x06, 0x32,
    0x3d, 0x4f, 0xd9, 0xa0, 0x3e, 0xa8, 0xca, 0x21, 0x3d, 0x0e, 0x7b, 0x4f, 0x3d, 0x84, 0x1e, 0x10, 0x3f, 0x2f, 0x37,
    0xac, 0xbe, 0xea, 0x4d, 0x4c, 0xbf, 0xf0, 0xa9, 0x7c, 0x3c, 0x2b, 0x2e, 0xef, 0xbe, 0x28, 0x18, 0xdd, 0x3e, 0xd1,
    0xf9, 0x7d, 0xba, 0x69, 0x03, 0x36, 0x3e, 0xf1, 0x70, 0xcd, 0xbd, 0x3b, 0xa8, 0xb8, 0xbe, 0xe8, 0x9a, 0x7a, 0x3e,
    0x90, 0x6b, 0xa3, 0x3d, 0xe8, 0x5e, 0xc7, 0x3c, 0x5f, 0x5d, 0xa0, 0x3e, 0xa3, 0x22, 0xa7, 0x3e, 0x4d, 0x64, 0xec,
    0xbd, 0x71, 0x53, 0xa4, 0xbd, 0x15, 0xad, 0x4c, 0xbe, 0xbc, 0x62, 0xa7, 0xbd, 0xa7, 0xdd, 0x45, 0xbe, 0xe8, 0x0f,
    0xbd, 0xbe, 0x0c, 0x27, 0x9a, 0x3d, 0x7c, 0xa9, 0x4c, 0x3e, 0xd6, 0x31, 0x1d, 0xbd, 0xe5, 0x40, 0xc5, 0x3d, 0xf1,
    0xc3, 0x6f, 0xbd, 0x6a, 0xaf, 0x08, 0x3d, 0xb0, 0x78, 0xaf, 0x3d, 0x38, 0x1e, 0xb3, 0x3d, 0xa8, 0xf6, 0x53, 0x3d,
    0x21, 0xd2, 0x81, 0x3c, 0x8e, 0x03, 0x79, 0x3d, 0xaa, 0xdb, 0x99, 0x3d, 0x88, 0xfa, 0xb1, 0xbc, 0x8a, 0x47, 0x97,
    0xbe, 0xa0, 0xa5, 0x74, 0xbd, 0xac, 0xe4, 0x51, 0x3b, 0x76, 0x4c, 0x80, 0x3b, 0xb3, 0x75, 0x84, 0x3d, 0xea, 0x7d,
    0xa8, 0xbd, 0x4c, 0x0c, 0x97, 0x3d, 0x56, 0x3f, 0x7f, 0xbd, 0xd6, 0x40, 0xed, 0xbd, 0x00, 0x6c, 0xd0, 0xbd, 0xe3,
    0x31, 0xc4, 0xbd, 0xba, 0x3e, 0x24, 0x3e, 0x19, 0xc5, 0x2c, 0xbe, 0x44, 0xd2, 0x9d, 0x3d, 0x24, 0xec, 0xed, 0x3c,
    0xf9, 0xd7, 0x35, 0x3d, 0x09, 0xf3, 0x02, 0xbd, 0xef, 0x8f, 0x9d, 0xbd, 0x2b, 0x8c, 0xd9, 0x3d, 0xae, 0xb0, 0x94,
    0xbe, 0xdc, 0x5f, 0xa7, 0x3c, 0xbf, 0x90, 0x1e, 0x3e, 0x14, 0xfc, 0xa7, 0xbe, 0xb1, 0x10, 0x0b, 0x3f, 0xeb, 0x76,
    0x4a, 0x3c, 0x0a, 0xd3, 0xe6, 0xbe, 0x92, 0x5b, 0xb0, 0xbc, 0x82, 0xfa, 0xc5, 0x3e, 0x9d, 0xbe, 0x34, 0xbe, 0x91,
    0x68, 0x37, 0x3e, 0xab, 0x1d, 0x5e, 0x3e, 0x72, 0xf4, 0x63, 0xbe, 0x3d, 0x4f, 0x90, 0xbd, 0x52, 0x63, 0xdf, 0xbd,
    0x60, 0x05, 0x29, 0xbe, 0xdb, 0xf8, 0xbc, 0xbe, 0x1f, 0x31, 0x0c, 0xbe, 0x9e, 0xbd, 0x2d, 0xbe, 0x14, 0xbf, 0x0d,
    0xbd, 0xcc, 0x0b, 0x90, 0xbe, 0x1a, 0x1c, 0x02, 0x3e, 0x2c, 0x32, 0x65, 0x3e, 0x78, 0xa1, 0x00, 0xbd, 0xfb, 0x42,
    0xb3, 0x3c, 0x96, 0x67, 0x59, 0xbe, 0xe6, 0xfe, 0x89, 0xba, 0x7b, 0x75, 0x04, 0x3e, 0x3a, 0x21, 0x7f, 0x3d, 0xc4,
    0x37, 0x93, 0x3e, 0x99, 0xe5, 0xe0, 0x3e, 0x53, 0x45, 0x08, 0x3d, 0x69, 0xb3, 0x51, 0xbd, 0xf5, 0x3d, 0x08, 0x3e,
    0xce, 0x6f, 0x45, 0xbe, 0xb9, 0x79, 0xb2, 0x3e, 0xdf, 0xdb, 0x88, 0x3e, 0x64, 0x48, 0x2d, 0xbe, 0xaa, 0xc8, 0x64,
    0xbe, 0x60, 0x3d, 0x55, 0xbe, 0xdc, 0x25, 0x57, 0x3e, 0x6e, 0x18, 0x86, 0xbe, 0xf3, 0xb2, 0x23, 0x3e, 0xe8, 0xef,
    0x8e, 0xbd, 0xb9, 0xac, 0x46, 0x3d, 0x79, 0x35, 0x05, 0xbe, 0x76, 0x3a, 0x85, 0xbe, 0x2c, 0x4a, 0x2a, 0x3e, 0xac,
    0x14, 0x5a, 0x3e, 0x03, 0x0e, 0x9d, 0x3b, 0x88, 0x34, 0x1d, 0xbe, 0x04, 0xb6, 0x3b, 0xbd, 0x38, 0x44, 0x62, 0x3e,
    0x7b, 0x23, 0xe1, 0x3d, 0xd2, 0x5a, 0x71, 0xbc, 0x84, 0xf6, 0x3d, 0xbe, 0xe0, 0x5b, 0x78, 0xbe, 0xbc, 0xb3, 0x6b,
    0xbe, 0xcc, 0xe8, 0x58, 0x3e, 0x38, 0xec, 0xd8, 0xbd, 0x48, 0x6e, 0xe5, 0xbd, 0x82, 0xd7, 0x07, 0xbe, 0x89, 0x15,
    0x31, 0x3e, 0xc5, 0x23, 0xf0, 0x3e, 0x12, 0x9c, 0xb5, 0xbc, 0xcf, 0xd9, 0xbc, 0x3d, 0xaf, 0x10, 0x28, 0x3e, 0x73,
    0x26, 0xe3, 0x3c, 0x00, 0x19, 0x70, 0xbd, 0xb9, 0xf4, 0x62, 0x3e, 0xe6, 0x3c, 0x7f, 0x3d, 0x04, 0xae, 0xeb, 0x3d,
    0xa9, 0xa1, 0x85, 0xbe, 0xfa, 0xa9, 0x8c, 0xbd, 0x5b, 0x85, 0x73, 0x3e, 0x91, 0xcf, 0xcc, 0xbd, 0x55, 0x2d, 0x81,
    0xbd, 0xc8, 0x38, 0xa0, 0x3e, 0xc9, 0x24, 0xcc, 0x3b, 0x49, 0xa9, 0x1c, 0xbe, 0x4a, 0x5a, 0xc8, 0x3d, 0x31, 0x35,
    0x3f, 0xbe, 0xa9, 0x8f, 0xad, 0x3d, 0xb4, 0x46, 0x6e, 0xbb, 0x11, 0xc7, 0x6b, 0xbc, 0xde, 0x28, 0x0a, 0xbe, 0xde,
    0xb8, 0xa8, 0x3c, 0xff, 0x48, 0x77, 0xbd, 0xc7, 0xba, 0x0b, 0x3e, 0xb9, 0x04, 0xe0, 0x3d, 0xb2, 0x39, 0x10, 0xbc,
    0xa3, 0x58, 0xb4, 0xbd, 0x14, 0x13, 0x3d, 0xbd, 0xd6, 0x83, 0x0e, 0xbe, 0xf8, 0x7a, 0xb7, 0xbd, 0x0a, 0x75, 0xa7,
    0x3d, 0x4b, 0xa8, 0x24, 0x3e, 0x96, 0x15, 0x35, 0x3d, 0x13, 0x4a, 0xa8, 0xbd, 0xfc, 0xff, 0xcf, 0xbd, 0xd1, 0x48,
    0x31, 0xbd, 0x87, 0x8f, 0x2c, 0xbd, 0x61, 0xfe, 0x32, 0xbe, 0xc7, 0xf3, 0x65, 0xbd, 0xb7, 0x7f, 0x5c, 0xbe, 0xbf,
    0x1e, 0x77, 0xbd, 0x66, 0x11, 0xfd, 0x3b, 0xe0, 0x17, 0x9b, 0xbe, 0x77, 0x40, 0xa8, 0x3d, 0xf0, 0xaf, 0x3d, 0xbc,
    0x39, 0xb0, 0xa5, 0x3e, 0x2f, 0x6f, 0x38, 0xbd, 0x39, 0xb1, 0xc5, 0xbe, 0xce, 0xd3, 0xb7, 0x3d, 0x6d, 0x23, 0x6f,
    0x3e, 0x61, 0xe9, 0xeb, 0xbd, 0xe3, 0x7a, 0x2a, 0x3d, 0xc6, 0xc5, 0xa4, 0xbd, 0xc6, 0xb3, 0x12, 0xbd, 0x00, 0x94,
    0xa3, 0x3d, 0xd6, 0xbf, 0x67, 0x3d, 0x11, 0x14, 0x29, 0x3d, 0x5e, 0x0a, 0xd5, 0xbd, 0x3d, 0x48, 0x5e, 0x3e, 0xf6,
    0x1b, 0xfa, 0x3d, 0xf0, 0x3a, 0xbb, 0x39, 0x67, 0xff, 0x09, 0x3e, 0x3e, 0x6b, 0x4f, 0xbe, 0x92, 0xc1, 0x78, 0x3e,
    0x0d, 0x10, 0xfa, 0xbc, 0xcb, 0xbf, 0x96, 0xbd, 0x7c, 0xa1, 0x90, 0xbe, 0x82, 0x3f, 0x53, 0xbd, 0xdd, 0x8f, 0x24,
    0xbe, 0x9b, 0x30, 0xc5, 0x3d, 0x1e, 0xa6, 0x17, 0x3e, 0x1b, 0xe1, 0x73, 0xbe, 0xaf, 0xcb, 0x25, 0x3e, 0x9e, 0xb6,
    0xbd, 0xbe, 0x00, 0x74, 0xd1, 0x3e, 0x0d, 0x6c, 0x57, 0xbd, 0x4a, 0xf4, 0xea, 0xbe, 0xa3, 0x33, 0x97, 0xbe, 0x61,
    0x49, 0xad, 0xbe, 0xb7, 0xab, 0x49, 0xbe, 0x04, 0x6f, 0x30, 0x3c, 0x51, 0x67, 0xe3, 0x3d, 0xc2, 0xef, 0x2e, 0x3e,
    0x2e, 0xb0, 0x94, 0xbc, 0x89, 0x70, 0x8b, 0xbe, 0xbc, 0x63, 0x9d, 0xbe, 0x98, 0xcb, 0x40, 0xbe, 0x77, 0xe0, 0x4c,
    0xbe, 0x91, 0x8b, 0x02, 0x3e, 0x18, 0xd2, 0x10, 0xbe, 0x2b, 0xf8, 0xff, 0xbd, 0x04, 0x76, 0x5b, 0xbd, 0xf3, 0xd6,
    0xd9, 0xbd, 0x4e, 0x42, 0x89, 0x3d, 0x9b, 0x1b, 0xc2, 0xb8, 0xe6, 0xfe, 0xff, 0xff, 0x04, 0x00, 0x00, 0x00, 0x80,
    0x00, 0x00, 0x00, 0x16, 0x14, 0x1f, 0xbb, 0x14, 0x66, 0xb3, 0xbc, 0xc0, 0xc7, 0x07, 0xbc, 0x6f, 0xa9, 0x9d, 0xbb,
    0x30, 0x81, 0x83, 0x3b, 0x99, 0xa7, 0xb1, 0xbd, 0xf5, 0xf1, 0x2a, 0xbc, 0x41, 0x29, 0x9c, 0x3a, 0xfd, 0x4d, 0x38,
    0xbd, 0x6a, 0x56, 0x8a, 0xbb, 0x8f, 0xf2, 0x9f, 0xba, 0x53, 0xc0, 0xdf, 0xb8, 0x2e, 0xa6, 0xcd, 0x3c, 0xe3, 0x30,
    0x87, 0x3a, 0xfe, 0x9e, 0x7a, 0xbd, 0x8a, 0x14, 0x87, 0x39, 0xa9, 0x35, 0x34, 0x3d, 0x38, 0x5f, 0x24, 0xb9, 0x1b,
    0x35, 0x95, 0x3c, 0x61, 0xbc, 0xa7, 0x3d, 0x94, 0xe3, 0xa0, 0xba, 0x2e, 0x04, 0x4f, 0xbb, 0xa6, 0xf8, 0xe0, 0x3b,
    0x27, 0x60, 0x1e, 0xba, 0xc4, 0x33, 0xd3, 0x3a, 0x1f, 0xf2, 0x49, 0x3d, 0xc6, 0x58, 0x28, 0xbc, 0x8d, 0xeb, 0x0c,
    0x3d, 0xea, 0xdd, 0x44, 0x3b, 0x1f, 0x5d, 0xa3, 0x3a, 0xea, 0xb2, 0x7f, 0x3b, 0xbb, 0xe5, 0x4b, 0x3c, 0x72, 0xff,
    0xff, 0xff, 0x04, 0x00, 0x00, 0x00, 0x80, 0x00, 0x00, 0x00, 0x69, 0x17, 0x0a, 0x3d, 0x83, 0xf2, 0xbb, 0xbd, 0xb6,
    0xca, 0xb3, 0xbd, 0xb8, 0xc4, 0xdb, 0x3b, 0x32, 0x93, 0x96, 0xbd, 0xca, 0x25, 0x68, 0xbc, 0x5c, 0x83, 0xdc, 0x3d,
    0xdc, 0x79, 0xd5, 0x3d, 0x3e, 0x70, 0x86, 0xbe, 0x17, 0x3b, 0x04, 0xbf, 0x3b, 0xd6, 0xc9, 0x3c, 0x6a, 0xa6, 0x39,
    0xbd, 0xb2, 0x9e, 0xf9, 0xbd, 0xac, 0xc4, 0x48, 0xbe, 0x68, 0x9c, 0x45, 0xbf, 0x55, 0x3f, 0x19, 0xbe, 0xe4, 0x6c,
    0x6a, 0xbf, 0x36, 0x6e, 0xbe, 0x3d, 0x69, 0xdd, 0xdb, 0xbe, 0xbc, 0xc9, 0xdf, 0x3c, 0x34, 0x71, 0x01, 0x3e, 0x78,
    0xef, 0x2b, 0xbe, 0x9b, 0xe4, 0xa4, 0xbd, 0x6f, 0xfe, 0xa2, 0xbd, 0xe2, 0xf1, 0xb6, 0x3c, 0x20, 0xa9, 0x5e, 0x3e,
    0x56, 0x12, 0xbe, 0xbd, 0x03, 0x54, 0xbf, 0xbe, 0x32, 0x7d, 0x52, 0xbe, 0x6f, 0xfc, 0x9d, 0xbd, 0xde, 0x19, 0x0a,
    0xbd, 0x7c, 0x50, 0xb2, 0x3d, 0x00, 0x00, 0x06, 0x00, 0x08, 0x00, 0x04, 0x00, 0x06, 0x00, 0x00, 0x00, 0x04, 0x00,
    0x00, 0x00, 0x04, 0x00, 0x00, 0x00, 0x87, 0xe0, 0x89, 0xbc, 0x38, 0xfa, 0xff, 0xff, 0x3c, 0xfa, 0xff, 0xff, 0x0f,
    0x00, 0x00, 0x00, 0x4d, 0x4c, 0x49, 0x52, 0x20, 0x43, 0x6f, 0x6e, 0x76, 0x65, 0x72, 0x74, 0x65, 0x64, 0x2e, 0x00,
    0x01, 0x00, 0x00, 0x00, 0x14, 0x00, 0x00, 0x00, 0x00, 0x00, 0x0e, 0x00, 0x18, 0x00, 0x14, 0x00, 0x10, 0x00, 0x0c,
    0x00, 0x08, 0x00, 0x04, 0x00, 0x0e, 0x00, 0x00, 0x00, 0x14, 0x00, 0x00, 0x00, 0x1c, 0x00, 0x00, 0x00, 0x40, 0x01,
    0x00, 0x00, 0x44, 0x01, 0x00, 0x00, 0x48, 0x01, 0x00, 0x00, 0x04, 0x00, 0x00, 0x00, 0x6d, 0x61, 0x69, 0x6e, 0x00,
    0x00, 0x00, 0x00, 0x06, 0x00, 0x00, 0x00, 0xf4, 0x00, 0x00, 0x00, 0xc0, 0x00, 0x00, 0x00, 0x80, 0x00, 0x00, 0x00,
    0x5c, 0x00, 0x00, 0x00, 0x28, 0x00, 0x00, 0x00, 0x04, 0x00, 0x00, 0x00, 0x5e, 0xff, 0xff, 0xff, 0x0c, 0x00, 0x00,
    0x00, 0x10, 0x00, 0x00, 0x00, 0x02, 0x00, 0x00, 0x00, 0x01, 0x00, 0x00, 0x00, 0x0c, 0x00, 0x00, 0x00, 0x01, 0x00,
    0x00, 0x00, 0x0b, 0x00, 0x00, 0x00, 0x52, 0xff, 0xff, 0xff, 0x10, 0x00, 0x00, 0x00, 0x00, 0x00, 0x00, 0x08, 0x0c,
    0x00, 0x00, 0x00, 0x10, 0x00, 0x00, 0x00, 0xe0, 0xfa, 0xff, 0xff, 0x01, 0x00, 0x00, 0x00, 0x0b, 0x00, 0x00, 0x00,
    0x03, 0x00, 0x00, 0x00, 0x0a, 0x00, 0x00, 0x00, 0x03, 0x00, 0x00, 0x00, 0x01, 0x00, 0x00, 0x00, 0xae, 0xff, 0xff,
    0xff, 0x0c, 0x00, 0x00, 0x00, 0x10, 0x00, 0x00, 0x00, 0x01, 0x00, 0x00, 0x00, 0x01, 0x00, 0x00, 0x00, 0x0a, 0x00,
    0x00, 0x00, 0x01, 0x00, 0x00, 0x00, 0x09, 0x00, 0x00, 0x00, 0xa2, 0xff, 0xff, 0xff, 0x10, 0x00, 0x00, 0x00, 0x00,
    0x00, 0x00, 0x08, 0x0c, 0x00, 0x00, 0x00, 0x10, 0x00, 0x00, 0x00, 0x30, 0xfb, 0xff, 0xff, 0x01, 0x00, 0x00, 0x00,
    0x09, 0x00, 0x00, 0x00, 0x03, 0x00, 0x00, 0x00, 0x08, 0x00, 0x00, 0x00, 0x04, 0x00, 0x00, 0x00, 0x02, 0x00, 0x00,
    0x00, 0x00, 0x00, 0x0a, 0x00, 0x10, 0x00, 0x0c, 0x00, 0x08, 0x00, 0x04, 0x00, 0x0a, 0x00, 0x00, 0x00, 0x0c, 0x00,
    0x00, 0x00, 0x10, 0x00, 0x00, 0x00, 0x01, 0x00, 0x00, 0x00, 0x01, 0x00, 0x00, 0x00, 0x08, 0x00, 0x00, 0x00, 0x01,
    0x00, 0x00, 0x00, 0x07, 0x00, 0x00, 0x00, 0x00, 0x00, 0x0e, 0x00, 0x14, 0x00, 0x00, 0x00, 0x10, 0x00, 0x0c, 0x00,
    0x0b, 0x00, 0x04, 0x00, 0x0e, 0x00, 0x00, 0x00, 0x10, 0x00, 0x00, 0x00, 0x00, 0x00, 0x00, 0x08, 0x0c, 0x00, 0x00,
    0x00, 0x10, 0x00, 0x00, 0x00, 0x9c, 0xfb, 0xff, 0xff, 0x01, 0x00, 0x00, 0x00, 0x07, 0x00, 0x00, 0x00, 0x03, 0x00,
    0x00, 0x00, 0x00, 0x00, 0x00, 0x00, 0x05, 0x00, 0x00, 0x00, 0x06, 0x00, 0x00, 0x00, 0x01, 0x00, 0x00, 0x00, 0x0c,
    0x00, 0x00, 0x00, 0x01, 0x00, 0x00, 0x00, 0x00, 0x00, 0x00, 0x00, 0x0d, 0x00, 0x00, 0x00, 0x1c, 0x04, 0x00, 0x00,
    0xb4, 0x03, 0x00, 0x00, 0x64, 0x03, 0x00, 0x00, 0x14, 0x03, 0x00, 0x00, 0xc4, 0x02, 0x00, 0x00, 0x74, 0x02, 0x00,
    0x00, 0x24, 0x02, 0x00, 0x00, 0xb4, 0x01, 0x00, 0x00, 0x70, 0x01, 0x00, 0x00, 0xfc, 0x00, 0x00, 0x00, 0xb4, 0x00,
    0x00, 0x00, 0x40, 0x00, 0x00, 0x00, 0x04, 0x00, 0x00, 0x00, 0x2e, 0xfc, 0xff, 0xff, 0x00, 0x00, 0x00, 0x01, 0x10,
    0x00, 0x00, 0x00, 0x10, 0x00, 0x00, 0x00, 0x0d, 0x00, 0x00, 0x00, 0x18, 0x00, 0x00, 0x00, 0x18, 0xfc, 0xff, 0xff,
    0x08, 0x00, 0x00, 0x00, 0x49, 0x64, 0x65, 0x6e, 0x74, 0x69, 0x74, 0x79, 0x00, 0x00, 0x00, 0x00, 0x02, 0x00, 0x00,
    0x00, 0x01, 0x00, 0x00, 0x00, 0x01, 0x00, 0x00, 0x00, 0x66, 0xfc, 0xff, 0xff, 0x00, 0x00, 0x00, 0x01, 0x10, 0x00,
    0x00, 0x00, 0x10, 0x00, 0x00, 0x00, 0x0c, 0x00, 0x00, 0x00, 0x50, 0x00, 0x00, 0x00, 0x50, 0xfc, 0xff, 0xff, 0x42,
    0x00, 0x00, 0x00, 0x6d, 0x6f, 0x64, 0x65, 0x6c, 0x2f, 0x74, 0x66, 0x2e, 0x6c, 0x69, 0x6e, 0x61, 0x6c, 0x67, 0x2e,
    0x6d, 0x61, 0x74, 0x6d, 0x75, 0x6c, 0x5f, 0x32, 0x2f, 0x4d, 0x61, 0x74, 0x4d, 0x75, 0x6c, 0x3b, 0x6d, 0x6f, 0x64,
    0x65, 0x6c, 0x2f, 0x74, 0x66, 0x2e, 0x5f, 0x5f, 0x6f, 0x70, 0x65, 0x72, 0x61, 0x74, 0x6f, 0x72, 0x73, 0x5f, 0x5f,
    0x2e, 0x61, 0x64, 0x64, 0x5f, 0x32, 0x2f, 0x41, 0x64, 0x64, 0x56, 0x32, 0x00, 0x00, 0x02, 0x00, 0x00, 0x00, 0x01,
    0x00, 0x00, 0x00, 0x01, 0x00, 0x00, 0x00, 0xd6, 0xfc, 0xff, 0xff, 0x00, 0x00, 0x00, 0x01, 0x10, 0x00, 0x00, 0x00,
    0x10, 0x00, 0x00, 0x00, 0x0b, 0x00, 0x00, 0x00, 0x24, 0x00, 0x00, 0x00, 0xc0, 0xfc, 0xff, 0xff, 0x15, 0x00, 0x00,
    0x00, 0x6d, 0x6f, 0x64, 0x65, 0x6c, 0x2f, 0x74, 0x66, 0x2e, 0x6e, 0x6e, 0x2e, 0x65, 0x6c, 0x75, 0x5f, 0x31, 0x2f,
    0x45, 0x6c, 0x75, 0x00, 0x00, 0x00, 0x02, 0x00, 0x00, 0x00, 0x01, 0x00, 0x00, 0x00, 0x20, 0x00, 0x00, 0x00, 0x1a,
    0xfd, 0xff, 0xff, 0x00, 0x00, 0x00, 0x01, 0x10, 0x00, 0x00, 0x00, 0x10, 0x00, 0x00, 0x00, 0x0a, 0x00, 0x00, 0x00,
    0x50, 0x00, 0x00, 0x00, 0x04, 0xfd, 0xff, 0xff, 0x42, 0x00, 0x00, 0x00, 0x6d, 0x6f, 0x64, 0x65, 0x6c, 0x2f, 0x74,
    0x66, 0x2e, 0x6c, 0x69, 0x6e, 0x61, 0x6c, 0x67, 0x2e, 0x6d, 0x61, 0x74, 0x6d, 0x75, 0x6c, 0x5f, 0x31, 0x2f, 0x4d,
    0x61, 0x74, 0x4d, 0x75, 0x6c, 0x3b, 0x6d, 0x6f, 0x64, 0x65, 0x6c, 0x2f, 0x74, 0x66, 0x2e, 0x5f, 0x5f, 0x6f, 0x70,
    0x65, 0x72, 0x61, 0x74, 0x6f, 0x72, 0x73, 0x5f, 0x5f, 0x2e, 0x61, 0x64, 0x64, 0x5f, 0x31, 0x2f, 0x41, 0x64, 0x64,
    0x56, 0x32, 0x00, 0x00, 0x02, 0x00, 0x00, 0x00, 0x01, 0x00, 0x00, 0x00, 0x20, 0x00, 0x00, 0x00, 0x8a, 0xfd, 0xff,
    0xff, 0x00, 0x00, 0x00, 0x01, 0x10, 0x00, 0x00, 0x00, 0x10, 0x00, 0x00, 0x00, 0x09, 0x00, 0x00, 0x00, 0x20, 0x00,
    0x00, 0x00, 0x74, 0xfd, 0xff, 0xff, 0x13, 0x00, 0x00, 0x00, 0x6d, 0x6f, 0x64, 0x65, 0x6c, 0x2f, 0x74, 0x66, 0x2e,
    0x6e, 0x6e, 0x2e, 0x65, 0x6c, 0x75, 0x2f, 0x45, 0x6c, 0x75, 0x00, 0x02, 0x00, 0x00, 0x00, 0x01, 0x00, 0x00, 0x00,
    0x20, 0x00, 0x00, 0x00, 0xca, 0xfd, 0xff, 0xff, 0x00, 0x00, 0x00, 0x01, 0x10, 0x00, 0x00, 0x00, 0x10, 0x00, 0x00,
    0x00, 0x08, 0x00, 0x00, 0x00, 0x4c, 0x00, 0x00, 0x00, 0xb4, 0xfd, 0xff, 0xff, 0x3e, 0x00, 0x00, 0x00, 0x6d, 0x6f,
    0x64, 0x65, 0x6c, 0x2f, 0x74, 0x66, 0x2e, 0x6c, 0x69, 0x6e, 0x61, 0x6c, 0x67, 0x2e, 0x6d, 0x61, 0x74, 0x6d, 0x75,
    0x6c, 0x2f, 0x4d, 0x61, 0x74, 0x4d, 0x75, 0x6c, 0x3b, 0x6d, 0x6f, 0x64, 0x65, 0x6c, 0x2f, 0x74, 0x66, 0x2e, 0x5f,
    0x5f, 0x6f, 0x70, 0x65, 0x72, 0x61, 0x74, 0x6f, 0x72, 0x73, 0x5f, 0x5f, 0x2e, 0x61, 0x64, 0x64, 0x2f, 0x41, 0x64,
    0x64, 0x56, 0x32, 0x00, 0x00, 0x02, 0x00, 0x00, 0x00, 0x01, 0x00, 0x00, 0x00, 0x20, 0x00, 0x00, 0x00, 0x36, 0xfe,
    0xff, 0xff, 0x00, 0x00, 0x00, 0x01, 0x10, 0x00, 0x00, 0x00, 0x10, 0x00, 0x00, 0x00, 0x07, 0x00, 0x00, 0x00, 0x30,
    0x00, 0x00, 0x00, 0x20, 0xfe, 0xff, 0xff, 0x20, 0x00, 0x00, 0x00, 0x6d, 0x6f, 0x64, 0x65, 0x6c, 0x2f, 0x74, 0x66,
    0x2e, 0x5f, 0x5f, 0x6f, 0x70, 0x65, 0x72, 0x61, 0x74, 0x6f, 0x72, 0x73, 0x5f, 0x5f, 0x2e, 0x61, 0x64, 0x64, 0x2f,
    0x41, 0x64, 0x64, 0x56, 0x32, 0x00, 0x00, 0x00, 0x00, 0x01, 0x00, 0x00, 0x00, 0x20, 0x00, 0x00, 0x00, 0x82, 0xfe,
    0xff, 0xff, 0x00, 0x00, 0x00, 0x01, 0x10, 0x00, 0x00, 0x00, 0x10, 0x00, 0x00, 0x00, 0x06, 0x00, 0x00, 0x00, 0x2c,
    0x00, 0x00, 0x00, 0x6c, 0xfe, 0xff, 0xff, 0x1d, 0x00, 0x00, 0x00, 0x6d, 0x6f, 0x64, 0x65, 0x6c, 0x2f, 0x74, 0x66,
    0x2e, 0x6c, 0x69, 0x6e, 0x61, 0x6c, 0x67, 0x2e, 0x6d, 0x61, 0x74, 0x6d, 0x75, 0x6c, 0x2f, 0x4d, 0x61, 0x74, 0x4d,
    0x75, 0x6c, 0x00, 0x00, 0x00, 0x02, 0x00, 0x00, 0x00, 0x20, 0x00, 0x00, 0x00, 0x05, 0x00, 0x00, 0x00, 0xce, 0xfe,
    0xff, 0xff, 0x00, 0x00, 0x00, 0x01, 0x10, 0x00, 0x00, 0x00, 0x10, 0x00, 0x00, 0x00, 0x05, 0x00, 0x00, 0x00, 0x2c,
    0x00, 0x00, 0x00, 0xb8, 0xfe, 0xff, 0xff, 0x1f, 0x00, 0x00, 0x00, 0x6d, 0x6f, 0x64, 0x65, 0x6c, 0x2f, 0x74, 0x66,
    0x2e, 0x6c, 0x69, 0x6e, 0x61, 0x6c, 0x67, 0x2e, 0x6d, 0x61, 0x74, 0x6d, 0x75, 0x6c, 0x5f, 0x31, 0x2f, 0x4d, 0x61,
    0x74, 0x4d, 0x75, 0x6c, 0x00, 0x02, 0x00, 0x00, 0x00, 0x20, 0x00, 0x00, 0x00, 0x20, 0x00, 0x00, 0x00, 0x1a, 0xff,
    0xff, 0xff, 0x00, 0x00, 0x00, 0x01, 0x10, 0x00, 0x00, 0x00, 0x10, 0x00, 0x00, 0x00, 0x04, 0x00, 0x00, 0x00, 0x2c,
    0x00, 0x00, 0x00, 0x04, 0xff, 0xff, 0xff, 0x1f, 0x00, 0x00, 0x00, 0x6d, 0x6f, 0x64, 0x65, 0x6c, 0x2f, 0x74, 0x66,
    0x2e, 0x6c, 0x69, 0x6e, 0x61, 0x6c, 0x67, 0x2e, 0x6d, 0x61, 0x74, 0x6d, 0x75, 0x6c, 0x5f, 0x32, 0x2f, 0x4d, 0x61,
    0x74, 0x4d, 0x75, 0x6c, 0x00, 0x02, 0x00, 0x00, 0x00, 0x01, 0x00, 0x00, 0x00, 0x20, 0x00, 0x00, 0x00, 0x66, 0xff,
    0xff, 0xff, 0x00, 0x00, 0x00, 0x01, 0x10, 0x00, 0x00, 0x00, 0x10, 0x00, 0x00, 0x00, 0x03, 0x00, 0x00, 0x00, 0x30,
    0x00, 0x00, 0x00, 0x50, 0xff, 0xff, 0xff, 0x22, 0x00, 0x00, 0x00, 0x6d, 0x6f, 0x64, 0x65, 0x6c, 0x2f, 0x74, 0x66,
    0x2e, 0x5f, 0x5f, 0x6f, 0x70, 0x65, 0x72, 0x61, 0x74, 0x6f, 0x72, 0x73, 0x5f, 0x5f, 0x2e, 0x61, 0x64, 0x64, 0x5f,
    0x31, 0x2f, 0x41, 0x64, 0x64, 0x56, 0x32, 0x00, 0x00, 0x01, 0x00, 0x00, 0x00, 0x20, 0x00, 0x00, 0x00, 0xb2, 0xff,
    0xff, 0xff, 0x00, 0x00, 0x00, 0x01, 0x10, 0x00, 0x00, 0x00, 0x10, 0x00, 0x00, 0x00, 0x02, 0x00, 0x00, 0x00, 0x30,
    0x00, 0x00, 0x00, 0x9c, 0xff, 0xff, 0xff, 0x22, 0x00, 0x00, 0x00, 0x6d, 0x6f, 0x64, 0x65, 0x6c, 0x2f, 0x74, 0x66,
    0x2e, 0x5f, 0x5f, 0x6f, 0x70, 0x65, 0x72, 0x61, 0x74, 0x6f, 0x72, 0x73, 0x5f, 0x5f, 0x2e, 0x61, 0x64, 0x64, 0x5f,
    0x32, 0x2f, 0x41, 0x64, 0x64, 0x56, 0x32, 0x00, 0x00, 0x01, 0x00, 0x00, 0x00, 0x01, 0x00, 0x00, 0x00, 0x00, 0x00,
    0x16, 0x00, 0x18, 0x00, 0x14, 0x00, 0x00, 0x00, 0x10, 0x00, 0x0c, 0x00, 0x08, 0x00, 0x00, 0x00, 0x00, 0x00, 0x00,
    0x00, 0x07, 0x00, 0x16, 0x00, 0x00, 0x00, 0x00, 0x00, 0x00, 0x01, 0x14, 0x00, 0x00, 0x00, 0x14, 0x00, 0x00, 0x00,
    0x01, 0x00, 0x00, 0x00, 0x14, 0x00, 0x00, 0x00, 0x04, 0x00, 0x04, 0x00, 0x04, 0x00, 0x00, 0x00, 0x03, 0x00, 0x00,
    0x00, 0x6f, 0x62, 0x73, 0x00, 0x02, 0x00, 0x00, 0x00, 0x01, 0x00, 0x00, 0x00, 0x05, 0x00, 0x00, 0x00, 0x03, 0x00,
    0x00, 0x00, 0x30, 0x00, 0x00, 0x00, 0x14, 0x00, 0x00, 0x00, 0x04, 0x00, 0x00, 0x00, 0xe8, 0xff, 0xff, 0xff, 0x1c,
    0x00, 0x00, 0x00, 0x00, 0x00, 0x00, 0x1c, 0xf4, 0xff, 0xff, 0xff, 0x6f, 0x00, 0x00, 0x00, 0x00, 0x00, 0x00, 0x6f,
    0x0c, 0x00, 0x0c, 0x00, 0x0b, 0x00, 0x00, 0x00, 0x00, 0x00, 0x04, 0x00, 0x0c, 0x00, 0x00, 0x00, 0x09, 0x00, 0x00,
    0x00, 0x00, 0x00, 0x00, 0x09};
inline constexpr unsigned int policy_model_len = 7168;
