#ifndef POLICY_MODEL_H
#define POLICY_MODEL_H

// Input normalisation (running mean / variance from SKRL preprocessor)
// float input_mean[] = {-0.01725780f, -0.04914295f, 0.00291757f, 0.96513933f, 0.34387192f};
// float input_var[] = {0.00675912f, 0.48869988f, 0.02474036f, 0.04376392f, 11.36249256f};
// const int input_size = 5;

unsigned char policy_model[] = {
    0x1c, 0x00, 0x00, 0x00, 0x54, 0x46, 0x4c, 0x33, 0x14, 0x00, 0x20, 0x00, 0x1c, 0x00, 0x18, 0x00, 0x14, 0x00, 0x10,
    0x00, 0x0c, 0x00, 0x00, 0x00, 0x08, 0x00, 0x04, 0x00, 0x14, 0x00, 0x00, 0x00, 0x1c, 0x00, 0x00, 0x00, 0x1c, 0x00,
    0x00, 0x00, 0x74, 0x00, 0x00, 0x00, 0xb8, 0x15, 0x00, 0x00, 0xc8, 0x15, 0x00, 0x00, 0x8c, 0x1b, 0x00, 0x00, 0x03,
    0x00, 0x00, 0x00, 0x00, 0x00, 0x00, 0x00, 0x02, 0x00, 0x00, 0x00, 0x34, 0x00, 0x00, 0x00, 0x04, 0x00, 0x00, 0x00,
    0xdc, 0xff, 0xff, 0xff, 0x0f, 0x00, 0x00, 0x00, 0x04, 0x00, 0x00, 0x00, 0x13, 0x00, 0x00, 0x00, 0x43, 0x4f, 0x4e,
    0x56, 0x45, 0x52, 0x53, 0x49, 0x4f, 0x4e, 0x5f, 0x4d, 0x45, 0x54, 0x41, 0x44, 0x41, 0x54, 0x41, 0x00, 0x08, 0x00,
    0x0c, 0x00, 0x08, 0x00, 0x04, 0x00, 0x08, 0x00, 0x00, 0x00, 0x0e, 0x00, 0x00, 0x00, 0x04, 0x00, 0x00, 0x00, 0x13,
    0x00, 0x00, 0x00, 0x6d, 0x69, 0x6e, 0x5f, 0x72, 0x75, 0x6e, 0x74, 0x69, 0x6d, 0x65, 0x5f, 0x76, 0x65, 0x72, 0x73,
    0x69, 0x6f, 0x6e, 0x00, 0x10, 0x00, 0x00, 0x00, 0x40, 0x15, 0x00, 0x00, 0x38, 0x15, 0x00, 0x00, 0x24, 0x15, 0x00,
    0x00, 0x8c, 0x14, 0x00, 0x00, 0xfc, 0x13, 0x00, 0x00, 0xec, 0x03, 0x00, 0x00, 0x5c, 0x01, 0x00, 0x00, 0xcc, 0x00,
    0x00, 0x00, 0xc4, 0x00, 0x00, 0x00, 0xbc, 0x00, 0x00, 0x00, 0xb4, 0x00, 0x00, 0x00, 0xac, 0x00, 0x00, 0x00, 0xa4,
    0x00, 0x00, 0x00, 0x9c, 0x00, 0x00, 0x00, 0x7c, 0x00, 0x00, 0x00, 0x04, 0x00, 0x00, 0x00, 0x1a, 0xeb, 0xff, 0xff,
    0x04, 0x00, 0x00, 0x00, 0x68, 0x00, 0x00, 0x00, 0x10, 0x00, 0x00, 0x00, 0x00, 0x00, 0x00, 0x00, 0x08, 0x00, 0x0e,
    0x00, 0x08, 0x00, 0x04, 0x00, 0x08, 0x00, 0x00, 0x00, 0x14, 0x00, 0x00, 0x00, 0x2c, 0x00, 0x00, 0x00, 0x00, 0x00,
    0x0a, 0x00, 0x0c, 0x00, 0x08, 0x00, 0x00, 0x00, 0x07, 0x00, 0x0a, 0x00, 0x00, 0x00, 0x00, 0x00, 0x00, 0x01, 0x04,
    0x00, 0x00, 0x00, 0x00, 0x00, 0x00, 0x00, 0x0c, 0x00, 0x18, 0x00, 0x14, 0x00, 0x10, 0x00, 0x0c, 0x00, 0x04, 0x00,
    0x0c, 0x00, 0x00, 0x00, 0xf9, 0x6e, 0xbe, 0x08, 0xe0, 0x73, 0xb6, 0x92, 0x03, 0x00, 0x00, 0x00, 0x02, 0x00, 0x00,
    0x00, 0x04, 0x00, 0x00, 0x00, 0x06, 0x00, 0x00, 0x00, 0x32, 0x2e, 0x32, 0x31, 0x2e, 0x30, 0x00, 0x00, 0x8e, 0xeb,
    0xff, 0xff, 0x04, 0x00, 0x00, 0x00, 0x10, 0x00, 0x00, 0x00, 0x31, 0x2e, 0x31, 0x34, 0x2e, 0x30, 0x00, 0x00, 0x00,
    0x00, 0x00, 0x00, 0x00, 0x00, 0x00, 0x00, 0xcc, 0xe5, 0xff, 0xff, 0xd0, 0xe5, 0xff, 0xff, 0xd4, 0xe5, 0xff, 0xff,
    0xd8, 0xe5, 0xff, 0xff, 0xdc, 0xe5, 0xff, 0xff, 0xe0, 0xe5, 0xff, 0xff, 0xc2, 0xeb, 0xff, 0xff, 0x04, 0x00, 0x00,
    0x00, 0x80, 0x00, 0x00, 0x00, 0x43, 0xc8, 0xda, 0x3e, 0xbb, 0xbe, 0x69, 0xbf, 0x18, 0x71, 0x03, 0xbd, 0x06, 0x0c,
    0xbc, 0xbe, 0x13, 0xfd, 0x84, 0xbc, 0x77, 0xe7, 0x71, 0x3f, 0x0c, 0xef, 0xf0, 0x3e, 0xd4, 0x6d, 0x66, 0xbd, 0xdf,
    0x67, 0xcb, 0xbb, 0x99, 0x4e, 0x17, 0x3f, 0x78, 0x84, 0x0c, 0xbe, 0xb8, 0x18, 0xab, 0xbf, 0x57, 0x77, 0x42, 0x3e,
    0x82, 0xb8, 0x27, 0xbd, 0xc0, 0x1b, 0x6f, 0xbd, 0x10, 0xde, 0x42, 0x3f, 0xf2, 0xce, 0x31, 0xbe, 0xc7, 0x62, 0x90,
    0xbf, 0x67, 0xf3, 0xe7, 0x3d, 0xa9, 0x16, 0x94, 0x3e, 0x64, 0xb1, 0x07, 0x3f, 0xea, 0xbb, 0x40, 0xbc, 0x19, 0x31,
    0x86, 0xbe, 0xa8, 0xe2, 0x22, 0xbf, 0xd5, 0xcc, 0x73, 0xbd, 0x44, 0xd6, 0x17, 0xbc, 0x0c, 0x73, 0x7b, 0xbd, 0x37,
    0x2b, 0x39, 0xbf, 0xde, 0x2e, 0xe8, 0xbe, 0x40, 0xeb, 0x93, 0xbf, 0xe7, 0xc1, 0xff, 0xbe, 0x1a, 0xa8, 0x03, 0x3f,
    0x4e, 0xec, 0xff, 0xff, 0x04, 0x00, 0x00, 0x00, 0x80, 0x02, 0x00, 0x00, 0xc5, 0x9d, 0xcd, 0xbb, 0x19, 0x12, 0x05,
    0xbf, 0xbe, 0x68, 0xf1, 0xbd, 0xc4, 0xd4, 0x46, 0xbf, 0x65, 0x50, 0x0b, 0xbf, 0x57, 0xfc, 0xff, 0x3e, 0x93, 0x5f,
    0x47, 0x3c, 0x58, 0x07, 0xf2, 0xbd, 0x1c, 0x50, 0x0a, 0x3f, 0x8a, 0xc5, 0x9d, 0x3e, 0x1d, 0x73, 0x2a, 0x3e, 0x0b,
    0x81, 0xb5, 0x3e, 0x14, 0xa9, 0xe7, 0x3e, 0x09, 0xce, 0x07, 0xbf, 0xe1, 0x3f, 0x0e, 0x3e, 0x8f, 0xa8, 0xa8, 0xbe,
    0x45, 0x0f, 0xb8, 0xbd, 0x53, 0x74, 0xf9, 0xbe, 0x19, 0x19, 0xae, 0xbe, 0x3a, 0x50, 0xf7, 0xbe, 0xa9, 0xcb, 0x46,
    0x3d, 0x86, 0x64, 0x34, 0x3f, 0x06, 0x0b, 0xad, 0x3e, 0x44, 0x3f, 0xa1, 0xbe, 0xbc, 0xe7, 0x74, 0xbe, 0xe8, 0xa4,
    0xb7, 0xbe, 0xbc, 0x95, 0x0e, 0xbf, 0xae, 0xe9, 0x19, 0xbf, 0x92, 0xef, 0x01, 0x40, 0x01, 0x26, 0x41, 0xbf, 0xbf,
    0x56, 0xcb, 0xbd, 0x18, 0x52, 0x47, 0x3e, 0x41, 0x5e, 0x20, 0xbe, 0x3d, 0x56, 0x25, 0xbe, 0xfe, 0xa6, 0xa6, 0xbf,
    0xba, 0x34, 0x0d, 0x3f, 0x12, 0x17, 0x47, 0xbe, 0x26, 0x56, 0x11, 0x3e, 0xf5, 0x3c, 0xb1, 0xbe, 0x70, 0x58, 0x93,
    0x3e, 0x75, 0x8d, 0x01, 0x3d, 0x6f, 0xc3, 0x92, 0x3d, 0x49, 0x70, 0x95, 0x3e, 0x83, 0x5b, 0x26, 0x3e, 0x4f, 0xda,
    0x55, 0x3e, 0xeb, 0x9d, 0x41, 0xbe, 0xd2, 0x95, 0x2c, 0xbe, 0x5a, 0xb8, 0xb3, 0x3e, 0x6a, 0x43, 0x35, 0xbe, 0x97,
    0x6a, 0x50, 0x3c, 0xc3, 0xe7, 0x94, 0xbe, 0x95, 0x36, 0x90, 0x3d, 0x3f, 0xe7, 0x03, 0x3f, 0x07, 0x9b, 0x89, 0x3e,
    0x58, 0xcb, 0x12, 0xbd, 0xc8, 0xae, 0x1a, 0xbf, 0x56, 0x0d, 0x05, 0xbe, 0x3f, 0xd4, 0xab, 0xbe, 0xc7, 0x6f, 0x10,
    0xbf, 0x7a, 0x32, 0x46, 0xbe, 0x60, 0x7b, 0xa6, 0xbe, 0x6d, 0x44, 0x99, 0xbf, 0xe3, 0x1e, 0x6b, 0xbf, 0x75, 0x28,
    0x4d, 0xbe, 0xb5, 0xfd, 0x23, 0xbf, 0x22, 0xac, 0x11, 0xbd, 0x99, 0xde, 0xfa, 0xbe, 0xb6, 0xa1, 0x8e, 0xbe, 0x75,
    0xb3, 0x48, 0x3f, 0xa4, 0x45, 0xb6, 0xbf, 0x9a, 0x75, 0x1f, 0x3f, 0x1c, 0xf1, 0x42, 0x3f, 0x06, 0xbf, 0x3d, 0x3f,
    0xff, 0x1e, 0x38, 0xbf, 0xec, 0x1d, 0x0c, 0x3f, 0xd0, 0x21, 0xb5, 0xbe, 0xfd, 0xa2, 0xeb, 0xbe, 0xf8, 0x11, 0x53,
    0xbe, 0x1f, 0x93, 0x07, 0x40, 0x88, 0xc2, 0x69, 0xbf, 0xf6, 0xa1, 0xc4, 0xbc, 0xd2, 0x47, 0xcb, 0x3e, 0xe7, 0xf6,
    0x46, 0xbd, 0x3e, 0x5f, 0xc5, 0x3e, 0x99, 0x9a, 0xce, 0x3e, 0xd1, 0x9f, 0xd5, 0xbe, 0x14, 0xbb, 0x51, 0xbe, 0xf8,
    0x4a, 0x70, 0xbe, 0x19, 0xcd, 0xad, 0x3d, 0x1c, 0x85, 0xa1, 0xbe, 0x16, 0x1b, 0x74, 0x3d, 0x2c, 0x39, 0x8e, 0xbd,
    0x58, 0xb8, 0x9f, 0xbd, 0x5d, 0xe1, 0xd6, 0xbd, 0x9a, 0x4b, 0x7f, 0xbe, 0x95, 0x34, 0x8e, 0x3c, 0x3e, 0x85, 0x51,
    0xbd, 0xaf, 0xb8, 0x7b, 0x3e, 0xed, 0x9e, 0x5a, 0x3e, 0x2e, 0x11, 0x13, 0xbd, 0x64, 0x0e, 0x98, 0xbf, 0xfa, 0xf5,
    0xc1, 0xbe, 0x90, 0xe5, 0x4d, 0xbf, 0xb9, 0x71, 0xb4, 0xbd, 0x2a, 0x7c, 0x51, 0xbf, 0x4e, 0xfe, 0xd9, 0xbc, 0xab,
    0x35, 0xc5, 0x3d, 0x95, 0xe3, 0xa7, 0x3e, 0xf5, 0x36, 0x0e, 0x3e, 0x32, 0x36, 0xa8, 0x3f, 0xae, 0x35, 0xc8, 0x3d,
    0x54, 0xc9, 0x28, 0x3d, 0x81, 0xca, 0x32, 0x3d, 0x7f, 0x73, 0x09, 0x3f, 0x5d, 0x9d, 0x91, 0x3f, 0xf6, 0x7c, 0x31,
    0x3e, 0x94, 0x34, 0x1c, 0x3c, 0x70, 0x66, 0x12, 0x3d, 0x95, 0x31, 0xb7, 0x3d, 0x0e, 0x47, 0x22, 0x3e, 0x53, 0x1e,
    0x26, 0xbd, 0xa6, 0xb1, 0x8e, 0x3d, 0x2d, 0x23, 0x38, 0x3d, 0xc9, 0x01, 0xc8, 0x3e, 0xcb, 0x24, 0xac, 0x3d, 0x3b,
    0x58, 0xa8, 0xbd, 0x5f, 0xf0, 0x81, 0x3d, 0x0c, 0xc2, 0x30, 0xbd, 0xfd, 0x62, 0x19, 0x3e, 0x4c, 0x70, 0x70, 0x3d,
    0x78, 0x85, 0xe2, 0x3d, 0xf0, 0xfd, 0xa4, 0xbe, 0xc2, 0xa8, 0x00, 0x3e, 0xfa, 0xfe, 0x46, 0xbd, 0x51, 0xae, 0x8b,
    0xbf, 0x15, 0xca, 0xb5, 0xbe, 0x53, 0xa6, 0x62, 0x3e, 0x7a, 0x22, 0x8c, 0x3e, 0x13, 0xfe, 0x55, 0x3e, 0xb4, 0x5e,
    0x85, 0x3e, 0xbd, 0xab, 0x07, 0x3f, 0x86, 0x51, 0xdb, 0x3d, 0x04, 0x40, 0xbd, 0x3d, 0x49, 0x6c, 0xe1, 0xbe, 0x9b,
    0xef, 0xa8, 0xbd, 0xee, 0x85, 0xa6, 0x3d, 0x3a, 0x4f, 0x5e, 0xbf, 0xe0, 0x80, 0x7d, 0x3f, 0xc9, 0x7b, 0x9c, 0x3e,
    0x22, 0x88, 0xd1, 0xbe, 0xd2, 0xe4, 0x09, 0x3f, 0x62, 0x39, 0x84, 0xbd, 0x00, 0x08, 0x8b, 0x3f, 0xf5, 0x02, 0xe3,
    0xbe, 0xa5, 0xa1, 0x94, 0x3e, 0x44, 0x6c, 0x04, 0xbd, 0xb3, 0x66, 0x2a, 0xbe, 0x07, 0x58, 0x8b, 0xbe, 0x66, 0x6d,
    0x78, 0x3f, 0xc1, 0x21, 0xdb, 0xbe, 0xda, 0xee, 0xff, 0xff, 0x04, 0x00, 0x00, 0x00, 0x00, 0x10, 0x00, 0x00, 0x9b,
    0xf7, 0x11, 0x3c, 0x0e, 0xaa, 0x4a, 0xbd, 0x81, 0xf4, 0xd1, 0x3c, 0x94, 0x27, 0x05, 0x3e, 0x2d, 0x94, 0x26, 0xbd,
    0xe2, 0x98, 0x23, 0xbe, 0x36, 0x0f, 0x90, 0xbc, 0x46, 0xcb, 0x2d, 0xbe, 0x2d, 0xcc, 0x12, 0xbe, 0xbd, 0x14, 0x04,
    0x3e, 0x6b, 0x77, 0xaf, 0xbd, 0x13, 0x10, 0xc3, 0xbd, 0x66, 0x33, 0xbd, 0x3c, 0x17, 0xd4, 0xdd, 0x3d, 0xe3, 0x04,
    0x8f, 0x3d, 0x12, 0xad, 0xc6, 0x3c, 0x29, 0x43, 0x7c, 0xbd, 0xb7, 0x73, 0x53, 0x3d, 0x8b, 0xb4, 0x1e, 0x3e, 0xd0,
    0xe4, 0x96, 0xbc, 0xce, 0x82, 0x80, 0xbd, 0x61, 0x0a, 0xf1, 0x3d, 0x62, 0x18, 0xbe, 0x3d, 0xb2, 0xdf, 0xe5, 0xbd,
    0xe4, 0xec, 0x84, 0xbd, 0x7e, 0xda, 0xc8, 0xbc, 0x5e, 0x25, 0xa9, 0x3c, 0x3c, 0xec, 0x89, 0x3e, 0x18, 0x56, 0x49,
    0x3e, 0x0b, 0x68, 0x49, 0xbe, 0xa8, 0x5f, 0x1f, 0x3d, 0x89, 0xd4, 0xe4, 0x3d, 0xbf, 0x9d, 0x80, 0xbe, 0x06, 0xe3,
    0xbb, 0x3d, 0x33, 0x28, 0x05, 0xbf, 0x73, 0x20, 0x32, 0xbd, 0x6a, 0x0b, 0x75, 0x3d, 0x49, 0x3d, 0xc0, 0x3e, 0xb4,
    0xc2, 0x28, 0x3e, 0x0f, 0x61, 0xff, 0x3d, 0xb4, 0x4a, 0x7b, 0xbe, 0x02, 0x83, 0x8d, 0xbd, 0xdd, 0x41, 0x92, 0x3e,
    0x50, 0x25, 0x14, 0xbf, 0x37, 0xd5, 0xa0, 0xbe, 0xb3, 0x64, 0x5b, 0xbe, 0x10, 0x35, 0x8c, 0xbf, 0x75, 0x23, 0x72,
    0x3d, 0x9a, 0x1d, 0x14, 0xbe, 0x3c, 0x50, 0x44, 0x3c, 0x85, 0xc5, 0x24, 0x3d, 0x7b, 0xff, 0x80, 0x3c, 0x9c, 0x7b,
    0x97, 0xbe, 0x8d, 0xe1, 0xaf, 0xbd, 0xaf, 0x9f, 0x0f, 0x3e, 0x7b, 0x60, 0x44, 0x3e, 0xd2, 0x67, 0x32, 0xbe, 0x85,
    0x81, 0x83, 0xbd, 0x6b, 0x49, 0x6a, 0xbe, 0x50, 0x83, 0xc7, 0x3d, 0xbf, 0x9d, 0xc2, 0x3d, 0x2f, 0x20, 0x3d, 0x3d,
    0x6f, 0x84, 0xcb, 0xbe, 0x77, 0xe0, 0x83, 0xbc, 0xf2, 0x4f, 0xf0, 0xbe, 0xdc, 0x1e, 0x1e, 0x3f, 0xa1, 0x2e, 0x7a,
    0xbf, 0x45, 0x88, 0x11, 0x3e, 0xf3, 0x7c, 0x2d, 0xbf, 0xe8, 0xd1, 0x87, 0xbe, 0x0f, 0xa9, 0x23, 0x3e, 0x9e, 0x8f,
    0x55, 0xbe, 0xf0, 0x91, 0xf9, 0xbd, 0xde, 0x53, 0xa8, 0xbe, 0xed, 0x41, 0xb2, 0x3e, 0x9c, 0x8d, 0x89, 0x3f, 0xbb,
    0xa8, 0x82, 0x3f, 0xe8, 0x8c, 0x53, 0x3f, 0x69, 0x34, 0x09, 0x3e, 0x0a, 0x9e, 0xbe, 0xbd, 0xc6, 0x3c, 0x0e, 0xbf,
    0x5f, 0x7e, 0xb3, 0x3f, 0x25, 0x98, 0x8a, 0xbe, 0xd5, 0x49, 0x1f, 0xbe, 0x11, 0x68, 0xba, 0x3d, 0xc2, 0x6d, 0xa7,
    0xbe, 0xfa, 0xf2, 0xde, 0xbd, 0x0e, 0xba, 0xf7, 0x3e, 0xb5, 0x81, 0x65, 0x3d, 0x4f, 0xab, 0x05, 0x3f, 0x99, 0x94,
    0x68, 0x3f, 0x98, 0xf9, 0xbb, 0x3f, 0x6b, 0xc3, 0xef, 0x3e, 0x8d, 0xb0, 0x96, 0x3f, 0x4b, 0x50, 0x9d, 0xbe, 0x31,
    0xb9, 0x09, 0xbf, 0xfa, 0x1d, 0x7b, 0x3e, 0x4b, 0x68, 0x95, 0x3e, 0xbe, 0x80, 0x9a, 0x3e, 0xa1, 0x1c, 0x8a, 0x3e,
    0x4f, 0x71, 0xd3, 0x3e, 0xe3, 0x18, 0x21, 0xbf, 0x77, 0x53, 0x4c, 0xbe, 0xaf, 0xf4, 0xd2, 0xbd, 0xef, 0x61, 0x1c,
    0x3e, 0x48, 0x49, 0x18, 0xbe, 0x2c, 0xea, 0x18, 0xbd, 0xfd, 0x39, 0x2b, 0x3e, 0x63, 0x02, 0x2e, 0xbe, 0xa5, 0x47,
    0xc3, 0x3e, 0x9b, 0x4e, 0x2a, 0xbf, 0xd7, 0xa7, 0x78, 0xbf, 0x68, 0x51, 0x7d, 0x3c, 0xe1, 0x40, 0x4b, 0x3f, 0x5f,
    0x25, 0x77, 0xbd, 0x33, 0xb8, 0xee, 0xbd, 0x2b, 0x1f, 0x24, 0xbf, 0x2d, 0x7c, 0xa3, 0xbd, 0xf2, 0xa6, 0xad, 0xbd,
    0x59, 0xa3, 0x43, 0x3f, 0x70, 0x93, 0x67, 0xbe, 0x19, 0x10, 0x3f, 0x3e, 0xe8, 0x87, 0xe3, 0x3d, 0xfe, 0xcf, 0xd4,
    0x3e, 0x87, 0xcb, 0xe4, 0x3d, 0x44, 0x81, 0x40, 0x3f, 0x6c, 0x6b, 0xc0, 0x3c, 0x71, 0x18, 0xdb, 0xbd, 0xa5, 0xd6,
    0x8e, 0xbe, 0x14, 0xfb, 0x0c, 0x3e, 0x72, 0x44, 0x98, 0xbe, 0x19, 0xa6, 0x15, 0xbf, 0xe2, 0x48, 0x2b, 0xbe, 0x41,
    0x79, 0xf3, 0xbc, 0xbd, 0xd5, 0x41, 0xbb, 0x2c, 0xb7, 0xc7, 0xbe, 0x98, 0x12, 0x4b, 0x3d, 0x9a, 0xaa, 0x8a, 0xbe,
    0xb2, 0x78, 0xad, 0x3d, 0xf9, 0xc0, 0x69, 0x3e, 0xef, 0x3d, 0x35, 0xbf, 0x91, 0x0d, 0x00, 0x3d, 0x0b, 0x32, 0xd8,
    0xbd, 0xa6, 0x3d, 0x0e, 0x3e, 0x77, 0xed, 0xde, 0x3d, 0x5e, 0x64, 0xaa, 0xb8, 0x70, 0xe7, 0xfc, 0x3c, 0xdb, 0x8a,
    0xbb, 0xbd, 0x97, 0xb2, 0x4e, 0xbf, 0x4f, 0xa6, 0xe5, 0xbe, 0xb2, 0x0c, 0x83, 0x3c, 0x67, 0xfb, 0x1c, 0xbe, 0x62,
    0xc9, 0x81, 0xbe, 0x3c, 0xd7, 0x93, 0xbd, 0x45, 0xdb, 0xb4, 0xbe, 0xdb, 0x31, 0x3d, 0x3e, 0xeb, 0xfb, 0x20, 0xbe,
    0x70, 0x80, 0xdc, 0xbe, 0x08, 0x3a, 0x28, 0xbc, 0xb8, 0x46, 0x25, 0xbe, 0x29, 0x67, 0x00, 0xbd, 0x4d, 0xe8, 0x99,
    0xbe, 0xce, 0x33, 0xae, 0xbe, 0xf0, 0xcb, 0x5e, 0xbe, 0xc7, 0xcc, 0x8e, 0x3e, 0xe4, 0x63, 0x29, 0x3e, 0x86, 0x35,
    0x72, 0xbe, 0x90, 0xd4, 0x03, 0xbe, 0xc8, 0xe6, 0x32, 0x3d, 0x8b, 0x23, 0x49, 0x3c, 0x65, 0xea, 0xa9, 0xbd, 0x74,
    0xe5, 0x71, 0x3e, 0xb7, 0xbc, 0xa7, 0x3d, 0x23, 0xf7, 0x6e, 0xbe, 0xc6, 0x50, 0x08, 0xbf, 0x61, 0x9f, 0x06, 0xbd,
    0xf8, 0xd9, 0xcb, 0xbe, 0x55, 0x8d, 0x6e, 0x3e, 0xa8, 0xa7, 0x8f, 0x3c, 0xf0, 0xf5, 0x59, 0xbe, 0x36, 0xcb, 0xb5,
    0xbe, 0x53, 0xfb, 0x64, 0xbe, 0x01, 0xd6, 0xa9, 0xbe, 0x31, 0x76, 0xfd, 0xbd, 0xc9, 0x2c, 0xaa, 0xbe, 0x83, 0xde,
    0x53, 0x3e, 0x8d, 0xf6, 0x00, 0x3e, 0x79, 0x8f, 0x06, 0x3e, 0x3a, 0xda, 0xef, 0xbe, 0xe0, 0xd1, 0x57, 0xbe, 0x82,
    0x1c, 0xb4, 0x3e, 0xf2, 0x1c, 0x35, 0x3e, 0x19, 0xa2, 0xe7, 0xbe, 0xb0, 0xff, 0x64, 0x3e, 0xde, 0x6b, 0xf2, 0x3d,
    0xa1, 0x27, 0x1c, 0x3e, 0x05, 0x4f, 0xec, 0x3d, 0x23, 0xf3, 0x49, 0xbf, 0x1d, 0x58, 0xae, 0x3e, 0x1a, 0xb8, 0x87,
    0xbf, 0xdc, 0x50, 0x2a, 0xbf, 0xcf, 0x24, 0x5d, 0xbe, 0x02, 0xf8, 0x94, 0xbe, 0xc3, 0xaf, 0x99, 0xbc, 0xf5, 0xff,
    0xee, 0xbe, 0xe1, 0x39, 0x6b, 0xbe, 0x70, 0xe3, 0xaa, 0xbe, 0x8c, 0xe6, 0x3f, 0xbf, 0x04, 0xe4, 0x94, 0xbe, 0x47,
    0x18, 0x53, 0xbe, 0x58, 0x46, 0x92, 0x3e, 0xa3, 0xa8, 0x07, 0xbf, 0xd7, 0x74, 0xfd, 0xbd, 0x9a, 0x4f, 0xd9, 0xbc,
    0xb4, 0x83, 0x94, 0xbd, 0x34, 0xcb, 0x9d, 0xbe, 0x74, 0x36, 0xab, 0xbd, 0x5e, 0x17, 0x6a, 0x3e, 0x44, 0x74, 0xbf,
    0xbd, 0xac, 0x5e, 0x15, 0xbe, 0x7a, 0x39, 0xf2, 0x3d, 0x75, 0xb9, 0x2c, 0x3f, 0x1a, 0x3e, 0xbe, 0xbe, 0xd5, 0xb1,
    0x9b, 0xbd, 0x49, 0x81, 0x2e, 0x3e, 0x20, 0x63, 0xb7, 0xbe, 0x8c, 0x71, 0xea, 0x3d, 0xba, 0xb1, 0xb1, 0xbd, 0xb5,
    0x47, 0x25, 0xbe, 0x5e, 0x38, 0x24, 0x3d, 0x85, 0xca, 0x86, 0xbd, 0xb4, 0xcf, 0xb2, 0x3e, 0x7a, 0x04, 0xa4, 0x3d,
    0x9d, 0xd5, 0x19, 0xbd, 0x1c, 0x3b, 0x85, 0xbe, 0x3d, 0xde, 0x16, 0xbe, 0x2b, 0x29, 0xc1, 0x3e, 0x28, 0xfc, 0x35,
    0xbd, 0xa1, 0x25, 0x6c, 0x3d, 0xef, 0x4d, 0x99, 0x3d, 0x3a, 0xce, 0xaf, 0xbe, 0xd2, 0x37, 0x9e, 0x3e, 0x89, 0xcf,
    0x0e, 0x3e, 0xf3, 0x64, 0x0b, 0x3d, 0xe1, 0xcf, 0x01, 0xbf, 0x4b, 0xb1, 0xa1, 0xbc, 0x95, 0xfb, 0x95, 0xbe, 0x99,
    0x25, 0xa1, 0x3d, 0xa0, 0x00, 0xa2, 0x3e, 0xae, 0xa7, 0xcd, 0xba, 0xe8, 0x6a, 0x8d, 0xbe, 0x5d, 0x52, 0xdf, 0xbd,
    0x21, 0x19, 0x21, 0x3f, 0x57, 0x71, 0x1b, 0xbf, 0x0a, 0x0e, 0x2f, 0x3e, 0x5d, 0x72, 0x34, 0xbe, 0x27, 0xcf, 0xde,
    0xbc, 0xc3, 0x7d, 0xa0, 0xbd, 0x44, 0x63, 0x77, 0xbd, 0xff, 0x57, 0x99, 0x3e, 0xc4, 0xec, 0xc2, 0x3d, 0xba, 0xbf,
    0x95, 0x3e, 0xfc, 0xb9, 0x40, 0xbe, 0x6f, 0x16, 0x0c, 0x3d, 0x70, 0x6e, 0x53, 0xbd, 0xe5, 0x6c, 0xdf, 0xbd, 0x43,
    0xcc, 0x5e, 0x3e, 0xa0, 0x78, 0x7b, 0x3e, 0xcd, 0x82, 0x47, 0xbe, 0x4e, 0x3f, 0x40, 0x3e, 0x90, 0x26, 0xdf, 0x39,
    0x31, 0xd2, 0xa0, 0x3d, 0xc3, 0x67, 0x94, 0xbe, 0x7e, 0xd6, 0x0a, 0xbc, 0xe9, 0x7b, 0x5a, 0xbd, 0xc4, 0xc9, 0xe8,
    0xbc, 0x72, 0x62, 0xc1, 0xbd, 0xfc, 0x92, 0x56, 0x3c, 0xa3, 0xb4, 0x1d, 0x3e, 0xbb, 0x75, 0x08, 0x3e, 0x94, 0x4a,
    0x2f, 0xbd, 0x81, 0x26, 0x28, 0xbb, 0x5f, 0x4d, 0x01, 0xbe, 0x66, 0xc8, 0xfd, 0xbd, 0x19, 0xe7, 0xf9, 0x3d, 0xca,
    0x57, 0x45, 0xbe, 0x26, 0x2d, 0x4e, 0x3e, 0x7e, 0x2f, 0x94, 0xbd, 0x2e, 0x12, 0x61, 0xbe, 0xd8, 0x6a, 0x2d, 0x3e,
    0x90, 0xa1, 0x7e, 0xbe, 0xa6, 0xc3, 0x87, 0x3d, 0x59, 0x5a, 0xc8, 0xbe, 0x1f, 0xd1, 0x46, 0x3e, 0xaf, 0x68, 0x18,
    0x3d, 0xf9, 0x94, 0xbf, 0x3d, 0x94, 0x4c, 0x21, 0xbe, 0x4b, 0xff, 0x6e, 0xbe, 0xf0, 0x8b, 0x5f, 0xbd, 0xc5, 0xe0,
    0xc5, 0xbc, 0x7a, 0xef, 0xcf, 0xbd, 0x41, 0x7b, 0x79, 0xbd, 0xd9, 0xbf, 0xe9, 0x3d, 0x50, 0xe9, 0x85, 0xbd, 0xd0,
    0xd4, 0x59, 0x3e, 0xcf, 0xc5, 0xf0, 0xbb, 0x82, 0x96, 0xdc, 0x3c, 0x8b, 0x45, 0x35, 0x3d, 0x7b, 0xd6, 0x4d, 0x3e,
    0xe9, 0xeb, 0xb8, 0xbd, 0xe3, 0x69, 0x25, 0x3d, 0x36, 0xe8, 0x1d, 0x3d, 0xcd, 0x8e, 0x7c, 0x3c, 0x1f, 0x65, 0x4c,
    0x3d, 0xe9, 0x56, 0xda, 0x3d, 0xe2, 0x36, 0x69, 0xbe, 0x15, 0x84, 0xc8, 0x3d, 0x92, 0x24, 0x4d, 0x3d, 0x8e, 0xe2,
    0xa6, 0x3e, 0xe6, 0x88, 0x8a, 0x3d, 0x03, 0x22, 0x22, 0xbd, 0xe6, 0xe3, 0xeb, 0xbd, 0xd0, 0x4e, 0x20, 0xbe, 0x8b,
    0x77, 0x30, 0xbd, 0x38, 0x3c, 0x08, 0x3e, 0xbf, 0x50, 0x55, 0xbe, 0x77, 0x1b, 0x3a, 0xbe, 0x12, 0x1e, 0xc1, 0xbd,
    0x43, 0xde, 0x14, 0xbe, 0x79, 0xa1, 0x91, 0x3d, 0xce, 0x3a, 0x98, 0x3d, 0x93, 0xeb, 0x95, 0xbe, 0x39, 0x6f, 0xfe,
    0x3d, 0x8a, 0x10, 0xb1, 0x3d, 0xeb, 0x8c, 0x27, 0x3b, 0xbe, 0x85, 0x27, 0x3e, 0x1d, 0xc5, 0xba, 0x3c, 0x91, 0x32,
    0x53, 0x3e, 0xaf, 0x2d, 0x1c, 0x3c, 0x52, 0x25, 0xa0, 0x3d, 0x55, 0x02, 0x56, 0x3c, 0xe2, 0xc4, 0x26, 0xbe, 0x1b,
    0x0d, 0xe1, 0x3d, 0xca, 0x6c, 0xf7, 0x3d, 0x91, 0x39, 0xd4, 0x3b, 0x00, 0x8e, 0x6b, 0xbd, 0x67, 0x7b, 0x0d, 0xbd,
    0x18, 0x72, 0xc9, 0xbc, 0x72, 0x19, 0xfd, 0x3d, 0x1f, 0x47, 0xb4, 0xbd, 0x1c, 0xd4, 0x94, 0x3c, 0x72, 0xf6, 0x11,
    0xbe, 0xe2, 0x45, 0x85, 0xbe, 0x81, 0x54, 0xc2, 0xbd, 0x8a, 0xe3, 0xb5, 0xbe, 0x88, 0xb2, 0xf9, 0xbd, 0xaa, 0xd7,
    0x3b, 0xbd, 0x47, 0x6b, 0x1c, 0x3e, 0x28, 0x68, 0xdc, 0x3d, 0x3b, 0xfe, 0x5a, 0xbf, 0x36, 0x6d, 0x93, 0xbe, 0x85,
    0x9e, 0x1e, 0xbe, 0x48, 0x72, 0x0f, 0x3e, 0x6c, 0x33, 0xb7, 0xbe, 0x06, 0x27, 0x16, 0xbf, 0xc8, 0xc2, 0xd3, 0xbd,
    0x17, 0x0f, 0x6b, 0xbf, 0x9c, 0x79, 0xd6, 0xbd, 0x63, 0x57, 0xc1, 0xbd, 0x64, 0x9f, 0x4f, 0xbd, 0x21, 0x44, 0x3b,
    0xbd, 0xce, 0x35, 0xcb, 0xbd, 0xcc, 0x83, 0x06, 0xbe, 0xba, 0x71, 0x66, 0x3e, 0x7b, 0xae, 0x01, 0x3e, 0xf0, 0xad,
    0xc0, 0x3c, 0x97, 0x26, 0x12, 0xbd, 0x70, 0x4c, 0xc7, 0xbd, 0x0e, 0x72, 0xc8, 0x3c, 0x8e, 0x5a, 0x32, 0x3e, 0xa0,
    0xa3, 0xbf, 0xbe, 0xbf, 0xc0, 0xf7, 0x3e, 0x6a, 0x66, 0x66, 0xbe, 0x7c, 0x19, 0xea, 0x3d, 0x8e, 0x1e, 0x3c, 0xbe,
    0xff, 0xd4, 0xd8, 0x3e, 0xbf, 0x67, 0x8e, 0x3d, 0x9e, 0x36, 0xef, 0x3e, 0xc2, 0x63, 0xa9, 0xbd, 0x2d, 0xc6, 0x36,
    0xbf, 0x1a, 0xc1, 0x9d, 0xbd, 0x49, 0xdf, 0x83, 0x3e, 0x05, 0x1d, 0x77, 0xbe, 0x89, 0xbf, 0x63, 0xbe, 0xd5, 0x3e,
    0x49, 0xbe, 0x60, 0x08, 0x63, 0x3f, 0x67, 0xa8, 0x96, 0x3e, 0x8b, 0x0c, 0x1a, 0x3d, 0xc0, 0xac, 0x8b, 0x3e, 0xfb,
    0x6b, 0x3a, 0xbe, 0x66, 0xd6, 0x44, 0xbe, 0x8a, 0xa9, 0x06, 0x3f, 0x15, 0x83, 0xa4, 0xbd, 0x78, 0x68, 0x84, 0xbe,
    0x97, 0xa0, 0x51, 0x3e, 0x3d, 0x28, 0xcb, 0xbe, 0xbe, 0xd9, 0x42, 0xbe, 0xa1, 0xaa, 0x7e, 0x3e, 0x6f, 0xbf, 0xd0,
    0xbd, 0x9f, 0xd9, 0x7d, 0xbd, 0xe9, 0xe9, 0x90, 0x3e, 0x37, 0xe0, 0x55, 0x3e, 0xc1, 0x2f, 0x92, 0x3e, 0x05, 0x97,
    0x0f, 0x3f, 0x38, 0xe5, 0x90, 0x3e, 0xd8, 0x17, 0x0c, 0xbf, 0x74, 0xd9, 0x01, 0xbf, 0xfa, 0x39, 0xc7, 0x3e, 0xb4,
    0x5c, 0xf7, 0xbe, 0x8d, 0x29, 0x0e, 0x3f, 0xe2, 0x52, 0x27, 0xbf, 0xfe, 0xec, 0xd0, 0xbe, 0x2c, 0x35, 0x96, 0xbe,
    0xcb, 0x1b, 0xf5, 0xbd, 0x67, 0x2e, 0xe6, 0xbe, 0x23, 0x13, 0x64, 0xbf, 0xed, 0xba, 0x28, 0xbf, 0x73, 0x71, 0x99,
    0x3e, 0x1c, 0x52, 0x28, 0x3e, 0x5b, 0x66, 0xa2, 0x3e, 0x79, 0x02, 0x09, 0xbf, 0x67, 0x12, 0x98, 0xbe, 0x5d, 0x48,
    0x5f, 0x3e, 0xa8, 0xf0, 0x20, 0x3f, 0xc8, 0x95, 0x08, 0xbe, 0xed, 0x3d, 0x16, 0xbf, 0x18, 0x69, 0xc6, 0x3d, 0xaf,
    0xbc, 0x09, 0xbf, 0x03, 0x3f, 0xfb, 0xbd, 0x12, 0x95, 0xae, 0x3e, 0x72, 0xbb, 0x3f, 0xbe, 0x4f, 0xe7, 0xc5, 0x3d,
    0x04, 0xaa, 0x89, 0xbe, 0x93, 0xba, 0x9e, 0xbd, 0xf9, 0x0a, 0x17, 0xbb, 0x2d, 0x47, 0x8a, 0xbc, 0x13, 0x37, 0x09,
    0x3e, 0x79, 0x62, 0x7b, 0xbe, 0x08, 0x86, 0xa9, 0xbf, 0x64, 0x98, 0x23, 0x3f, 0xdf, 0x17, 0x02, 0xbf, 0x41, 0xfc,
    0x40, 0xbf, 0xc9, 0xf4, 0x9a, 0x3e, 0xd4, 0x38, 0xae, 0xbf, 0x3b, 0x7f, 0xf8, 0xbe, 0xa0, 0x78, 0x0b, 0xbf, 0xcd,
    0x3c, 0x36, 0xbe, 0x54, 0x88, 0x86, 0xbd, 0x44, 0xa8, 0x08, 0x3d, 0x47, 0xf5, 0x82, 0xbe, 0xe3, 0x84, 0xba, 0xbf,
    0x8b, 0x5a, 0xc0, 0xbf, 0xc0, 0xb2, 0xd0, 0xbd, 0xd7, 0xfe, 0x78, 0xbf, 0x8d, 0xad, 0xe3, 0x3e, 0x1c, 0x92, 0xb8,
    0xbe, 0x2b, 0x2e, 0xa0, 0x3e, 0x6d, 0xdd, 0xa9, 0x3e, 0x7e, 0x37, 0x8d, 0x3e, 0x34, 0xf2, 0x1f, 0xbf, 0x7b, 0x8e,
    0x29, 0xbf, 0xb3, 0x7e, 0x13, 0xbf, 0x4e, 0x1c, 0x1c, 0x3e, 0xaa, 0xc9, 0xfb, 0xbd, 0x2a, 0x24, 0xfa, 0xbe, 0xdf,
    0x10, 0x02, 0x3d, 0xea, 0xa3, 0xf4, 0x3c, 0x0d, 0x06, 0xc4, 0x3e, 0x92, 0xa3, 0xab, 0xbe, 0x1b, 0x15, 0x51, 0x3e,
    0x39, 0xc8, 0x1b, 0x3c, 0x0b, 0xef, 0x03, 0xbd, 0x79, 0xf7, 0xb2, 0xbd, 0x13, 0x31, 0xbb, 0xbe, 0xb3, 0xb9, 0x6e,
    0x3e, 0x29, 0xed, 0x10, 0x3d, 0x4f, 0x01, 0xab, 0x3b, 0xe5, 0xfd, 0x8f, 0x3c, 0x36, 0xa8, 0x10, 0xbd, 0xbf, 0x10,
    0x45, 0xbe, 0x2a, 0x1f, 0x73, 0x3d, 0x4d, 0x8a, 0x57, 0x3c, 0x0b, 0x1f, 0x75, 0x3d, 0x52, 0x66, 0x1f, 0xbd, 0x5d,
    0x29, 0x4e, 0xbd, 0x7e, 0x31, 0x09, 0x3e, 0xca, 0x19, 0x46, 0xbd, 0x5a, 0x23, 0x34, 0x3e, 0xd4, 0x58, 0x15, 0xbe,
    0xfa, 0x96, 0x0e, 0xbe, 0xf9, 0x06, 0x96, 0xbd, 0x1d, 0xd8, 0xa9, 0x3d, 0xa0, 0x7d, 0x91, 0xbd, 0x52, 0x03, 0x07,
    0x3d, 0x69, 0xa2, 0xab, 0xbe, 0xb9, 0x62, 0x83, 0x3d, 0x3a, 0x7e, 0x37, 0xbe, 0x2d, 0xbc, 0xeb, 0x3d, 0x0c, 0x3b,
    0x65, 0xbd, 0x8a, 0x14, 0xa1, 0x3d, 0x4a, 0x5e, 0x6f, 0x3d, 0x8a, 0xfc, 0x1b, 0x3e, 0xd8, 0x98, 0xe5, 0xbe, 0x4a,
    0xd8, 0x84, 0xbd, 0xe5, 0x72, 0x8c, 0xbc, 0x59, 0xba, 0x91, 0x3d, 0xc3, 0xe8, 0x70, 0x3e, 0xf2, 0x95, 0x4f, 0x3e,
    0xa3, 0x25, 0x24, 0xbc, 0x9f, 0x5f, 0x06, 0xbf, 0xa1, 0x53, 0x3d, 0x3e, 0xe7, 0xbf, 0x7c, 0xbe, 0xbd, 0xcc, 0xad,
    0x3e, 0x49, 0x48, 0x0f, 0xbe, 0xc8, 0x65, 0x9d, 0xbe, 0xbb, 0xcc, 0x90, 0xbd, 0xb4, 0x55, 0xae, 0xbe, 0x88, 0x0e,
    0x92, 0x3c, 0x2f, 0x75, 0xd5, 0xbe, 0x0c, 0x5e, 0xb1, 0x3d, 0x3e, 0xfd, 0x6b, 0xbe, 0xed, 0x62, 0xa6, 0xbb, 0x4b,
    0xe8, 0x84, 0xbe, 0x57, 0x17, 0xe8, 0xbe, 0xf2, 0x9d, 0x03, 0xbf, 0x53, 0xa2, 0x34, 0xbd, 0x05, 0x62, 0x95, 0x3c,
    0xce, 0xfb, 0x91, 0xbb, 0x3e, 0xb9, 0xdd, 0xbe, 0x1d, 0x85, 0x83, 0x3e, 0x86, 0xf1, 0x9c, 0xbe, 0xa3, 0x1b, 0x20,
    0xbe, 0x38, 0x0b, 0x47, 0x3e, 0xea, 0xb8, 0x18, 0x3d, 0x95, 0xd6, 0x6a, 0x3d, 0x2e, 0x15, 0x3f, 0x3e, 0x04, 0xfc,
    0x26, 0xbe, 0xec, 0xcf, 0x4f, 0x3e, 0xa5, 0xb0, 0x54, 0xbc, 0x2b, 0x5b, 0x16, 0xbe, 0xd2, 0x1f, 0xe1, 0xbd, 0x6f,
    0xac, 0xb1, 0xbe, 0xb9, 0x69, 0x9f, 0x3d, 0xff, 0xc2, 0x95, 0x3c, 0x18, 0xdd, 0xf0, 0x3d, 0x99, 0x80, 0x10, 0xbe,
    0x70, 0xc2, 0xf5, 0x3d, 0x45, 0x94, 0x87, 0xbd, 0xd2, 0xda, 0x0a, 0x3d, 0x57, 0xbf, 0x93, 0x3d, 0xfb, 0x8c, 0x0e,
    0xbd, 0x5d, 0x6e, 0x53, 0x3b, 0xaf, 0xcf, 0xb4, 0xbd, 0x65, 0xaa, 0x0f, 0x3c, 0xb9, 0xc7, 0xeb, 0xbd, 0xe4, 0xa0,
    0x05, 0xbe, 0x04, 0x5d, 0xc6, 0x3d, 0xea, 0x01, 0x3d, 0xbe, 0x1f, 0x03, 0x07, 0x3d, 0xe3, 0x36, 0x9d, 0xbe, 0xa7,
    0xfb, 0x73, 0x3e, 0xb1, 0xc3, 0x20, 0x3c, 0x05, 0xa8, 0x00, 0xbe, 0xba, 0xc2, 0xe4, 0xbd, 0xff, 0x7f, 0xad, 0x3c,
    0xb5, 0x17, 0x9a, 0xbd, 0xd2, 0xf0, 0x78, 0x3e, 0x9e, 0x7a, 0xb6, 0x3e, 0x73, 0x30, 0x63, 0xbd, 0x31, 0xa5, 0x87,
    0x3d, 0x41, 0x29, 0x19, 0x3e, 0x74, 0x06, 0xc9, 0x3d, 0xd7, 0x37, 0x4f, 0x3d, 0xa3, 0x13, 0x8a, 0xbe, 0xd8, 0x41,
    0x49, 0xbd, 0x6b, 0x41, 0xa5, 0xbd, 0x82, 0x91, 0x3a, 0xbd, 0x14, 0xf7, 0x0b, 0x3e, 0xe6, 0xae, 0xc3, 0xbd, 0x60,
    0xd5, 0x9f, 0xbe, 0xda, 0x7e, 0xbb, 0xbd, 0x2b, 0x13, 0x64, 0x3e, 0xba, 0xfc, 0xea, 0xbd, 0x51, 0x3b, 0x14, 0xbe,
    0xee, 0xe8, 0xfe, 0x3d, 0xac, 0x90, 0xb2, 0xbd, 0x26, 0x90, 0x45, 0xbd, 0x3e, 0x89, 0x42, 0xbd, 0x64, 0x9c, 0x35,
    0x3e, 0xc3, 0x04, 0x90, 0x3d, 0xf3, 0xf8, 0x29, 0x3a, 0xe9, 0x33, 0x2e, 0x3e, 0x37, 0x0a, 0x90, 0xbd, 0x18, 0x48,
    0x05, 0xbc, 0x46, 0x95, 0x14, 0xbd, 0x31, 0xda, 0x79, 0xbd, 0x72, 0xba, 0x9c, 0x3e, 0xf6, 0xfa, 0x0e, 0x3d, 0x38,
    0x8c, 0xfd, 0xbe, 0xfc, 0xdb, 0x8c, 0x3e, 0x54, 0x7f, 0x6c, 0xbe, 0x9d, 0xde, 0x0e, 0xbf, 0xd3, 0xcf, 0x74, 0xbe,
    0x82, 0xa5, 0x84, 0xbe, 0x5a, 0x3b, 0x3b, 0xbf, 0x14, 0x5a, 0xa4, 0x3d, 0x5f, 0xa6, 0x84, 0xbd, 0xee, 0xfb, 0x0e,
    0xbf, 0xa1, 0x0f, 0xe5, 0xbd, 0xef, 0x29, 0xef, 0xbe, 0x7d, 0xd7, 0x5a, 0xbf, 0xba, 0x45, 0xce, 0xbe, 0xed, 0x01,
    0xfc, 0xbd, 0x62, 0xb3, 0x8b, 0xbe, 0xe2, 0x39, 0x1c, 0x3e, 0x08, 0x92, 0xa2, 0x3c, 0x12, 0x4a, 0x63, 0xbe, 0xfd,
    0x2d, 0x8b, 0xbe, 0x1c, 0x57, 0xbd, 0xbf, 0x2a, 0xb6, 0x20, 0x3b, 0x90, 0x2a, 0x80, 0x3d, 0x56, 0xd1, 0xa2, 0x3e,
    0x69, 0x99, 0x8c, 0x3d, 0x94, 0x0d, 0x0c, 0x3e, 0xa9, 0x08, 0x0d, 0xbe, 0xb6, 0xa6, 0xe6, 0x3d, 0x66, 0x26, 0x1a,
    0xbd, 0x45, 0x2a, 0x5e, 0x3e, 0x0e, 0xef, 0x53, 0xbe, 0x26, 0x31, 0x86, 0xbe, 0x0a, 0xe6, 0xd1, 0xbe, 0xb1, 0x1e,
    0xc0, 0x3b, 0x81, 0xaa, 0x97, 0xbe, 0xe9, 0x82, 0xfa, 0xbd, 0x9a, 0x5e, 0x2b, 0xbe, 0x70, 0xc4, 0xf9, 0x3d, 0x93,
    0x2a, 0x11, 0x3e, 0xfc, 0xf6, 0x81, 0xbe, 0x3f, 0x60, 0x9f, 0xbe, 0xfc, 0xb4, 0x66, 0xbd, 0x47, 0xe7, 0x6b, 0xbe,
    0x28, 0x52, 0x5d, 0xbe, 0x23, 0x92, 0x49, 0x3d, 0x76, 0xc6, 0xd0, 0xbd, 0x86, 0xdb, 0x3e, 0xbf, 0xb1, 0xff, 0xf5,
    0x3d, 0xe4, 0x69, 0x95, 0x3b, 0x6b, 0xf8, 0x80, 0xbc, 0xb5, 0x4f, 0x67, 0xbe, 0x90, 0x29, 0xd5, 0x3d, 0xeb, 0x1c,
    0x43, 0xbc, 0xb4, 0xb5, 0x09, 0xbf, 0x2f, 0x00, 0x24, 0xbe, 0xab, 0xac, 0x8f, 0x3d, 0xc0, 0x6c, 0x06, 0xbe, 0xee,
    0x29, 0x23, 0xbe, 0x5e, 0x6f, 0xc0, 0xbb, 0x94, 0x61, 0x17, 0x3e, 0xe2, 0x0f, 0xb4, 0xbd, 0x4a, 0xc0, 0x1c, 0xbf,
    0x97, 0x2e, 0x5b, 0xbf, 0x6d, 0x03, 0xe8, 0xbd, 0xd8, 0xa3, 0x18, 0xbe, 0xba, 0x67, 0xe9, 0x3d, 0x0b, 0x05, 0x91,
    0x3e, 0xc5, 0xf0, 0xf1, 0xbd, 0x23, 0x99, 0x10, 0x3c, 0xef, 0x6e, 0x1e, 0x3d, 0x67, 0x8e, 0xd5, 0xbd, 0x48, 0x97,
    0x50, 0x3c, 0x3f, 0x76, 0xb2, 0x3d, 0x8f, 0x82, 0x48, 0x3d, 0x13, 0x09, 0xc0, 0xbc, 0x82, 0x55, 0x83, 0xbd, 0xa4,
    0x42, 0x0c, 0x3e, 0x5a, 0xa4, 0x6a, 0x3e, 0xf6, 0x2b, 0x86, 0xbd, 0x29, 0xa5, 0xd6, 0xbd, 0x6b, 0xba, 0x23, 0x3e,
    0x65, 0x13, 0x9a, 0xbc, 0xff, 0x3c, 0xbd, 0xbc, 0x4e, 0xb3, 0x98, 0x3d, 0x93, 0xc2, 0x3d, 0x3c, 0xc2, 0x43, 0x90,
    0x3d, 0x4d, 0x03, 0xbf, 0xbd, 0x38, 0x36, 0x3c, 0xbd, 0xe0, 0xe5, 0x44, 0xbe, 0xd4, 0x43, 0xc7, 0x3d, 0xf1, 0x09,
    0x41, 0x3c, 0xeb, 0x52, 0x51, 0x3e, 0x4b, 0xf2, 0xb9, 0x3c, 0x28, 0x6a, 0x55, 0xbe, 0xa0, 0x52, 0x1b, 0x3d, 0x2a,
    0x4b, 0x00, 0x3e, 0x0a, 0x4b, 0xb8, 0x3c, 0x22, 0x5c, 0x72, 0xbe, 0x12, 0xb6, 0x3c, 0xbd, 0x55, 0xc8, 0x61, 0xbc,
    0xa5, 0xc3, 0x60, 0x3e, 0x3c, 0x8a, 0x4f, 0x3e, 0x69, 0xbf, 0xe2, 0xbd, 0xea, 0xee, 0x48, 0x3e, 0x8e, 0xd1, 0x48,
    0xbe, 0xe5, 0x36, 0x36, 0xbe, 0xbc, 0x47, 0x4b, 0x3e, 0x20, 0xe7, 0x27, 0xbd, 0xd3, 0x60, 0x2b, 0xbd, 0x4a, 0xa2,
    0x98, 0xbc, 0xf6, 0xf7, 0x5c, 0x3d, 0x01, 0x6c, 0x63, 0x3e, 0x12, 0xbf, 0x56, 0xbe, 0xd8, 0xf4, 0x59, 0x3d, 0xf3,
    0x7b, 0x0d, 0x3c, 0x00, 0xc6, 0x9c, 0xbe, 0xb2, 0x94, 0xf6, 0xbd, 0x6e, 0x10, 0xb5, 0x3d, 0x92, 0xba, 0x38, 0xbd,
    0x01, 0x5d, 0xab, 0x3d, 0x5d, 0x9c, 0x7c, 0xbe, 0x39, 0x97, 0x28, 0x3f, 0xf0, 0xbe, 0x81, 0xbe, 0x6a, 0xcc, 0x23,
    0x3e, 0x0c, 0xfa, 0x40, 0x3e, 0x76, 0x1d, 0x62, 0x3d, 0x7b, 0x9f, 0x55, 0x3b, 0xff, 0xa5, 0xe0, 0xbd, 0xda, 0x46,
    0x45, 0xbd, 0xad, 0x0c, 0x87, 0x3d, 0x9c, 0x04, 0x12, 0x3e, 0xa3, 0xa3, 0xc9, 0x3e, 0x66, 0xe3, 0x47, 0xbe, 0x57,
    0xcb, 0x8e, 0x3e, 0x98, 0x61, 0xa6, 0xbe, 0xe2, 0xb0, 0x0d, 0xbe, 0x85, 0x9b, 0x4a, 0xbe, 0x9c, 0xb7, 0x62, 0xbe,
    0x94, 0x34, 0x40, 0x3e, 0x30, 0xa4, 0x33, 0x3e, 0x11, 0x32, 0xb9, 0xbd, 0xad, 0xce, 0xea, 0x3d, 0xd8, 0xbe, 0xe0,
    0x3e, 0xd5, 0x43, 0x13, 0x3f, 0x5f, 0x43, 0x34, 0x3e, 0x82, 0x9e, 0xaf, 0x3d, 0x0a, 0x28, 0x9a, 0xbd, 0xde, 0x86,
    0x58, 0xbe, 0x0a, 0x62, 0x35, 0xbe, 0xa8, 0x7b, 0x83, 0x3d, 0x9d, 0xd5, 0x19, 0xbe, 0x56, 0x1c, 0x3f, 0x3e, 0x3f,
    0x6b, 0xda, 0x3c, 0x3a, 0x76, 0x06, 0xbe, 0xc2, 0x37, 0x00, 0x3e, 0x9b, 0xef, 0x8d, 0x3e, 0x18, 0x1f, 0x48, 0x3e,
    0x01, 0x9b, 0x40, 0xbe, 0x45, 0x77, 0x6c, 0x3e, 0xf8, 0xc0, 0x59, 0xbc, 0x69, 0xc5, 0x88, 0x3e, 0xc4, 0x81, 0x9d,
    0x3c, 0x96, 0x5b, 0x0a, 0xbe, 0x65, 0xa6, 0x22, 0x3e, 0x50, 0x2d, 0xbd, 0x3c, 0xb0, 0xeb, 0x5d, 0x3d, 0xbb, 0xa0,
    0xad, 0xbd, 0x93, 0xb9, 0xd1, 0x3c, 0xac, 0x53, 0x95, 0xbc, 0xa1, 0x2b, 0x8e, 0xbe, 0x40, 0x6f, 0x51, 0x3e, 0x25,
    0x08, 0x9f, 0xbe, 0x1c, 0x9a, 0x09, 0x3f, 0x6d, 0x8d, 0x95, 0x3e, 0x47, 0xe2, 0x47, 0x3d, 0x0d, 0xe0, 0x50, 0xbe,
    0x9a, 0x5c, 0xc0, 0xbe, 0xb3, 0x7b, 0x80, 0x3d, 0xed, 0x33, 0x96, 0x3e, 0xfe, 0x05, 0x33, 0xbe, 0xe6, 0xc1, 0x57,
    0x3e, 0x48, 0x73, 0xa4, 0xbf, 0xc9, 0x1d, 0x89, 0xbf, 0x15, 0x46, 0x66, 0xbe, 0x53, 0x34, 0x03, 0x3e, 0xe4, 0x9b,
    0x60, 0x3d, 0xb1, 0x35, 0x78, 0x3e, 0x0c, 0x79, 0x12, 0xbe, 0x17, 0x7a, 0xcf, 0x3e, 0x58, 0xdb, 0xb1, 0x3d, 0x2e,
    0x8b, 0xb7, 0x3e, 0x31, 0x9f, 0x1a, 0x3e, 0xca, 0x61, 0x08, 0xbf, 0x94, 0xe8, 0x5f, 0x3f, 0x10, 0x47, 0xf9, 0xbd,
    0x9d, 0x56, 0x06, 0xbe, 0x0b, 0x68, 0x2a, 0xbe, 0x0a, 0x5e, 0xc5, 0xbf, 0x44, 0xa8, 0x9a, 0xbf, 0xa8, 0x44, 0x1a,
    0x3e, 0xef, 0xdc, 0xe6, 0xbd, 0xca, 0x6d, 0xe6, 0xbe, 0x3b, 0x48, 0x5a, 0x3d, 0x5d, 0xf9, 0xd9, 0x3e, 0xf7, 0xff,
    0x57, 0xbe, 0x79, 0xd0, 0x65, 0xbf, 0x2d, 0x32, 0x39, 0x3f, 0x0b, 0x8a, 0xa3, 0xbf, 0x60, 0xa0, 0xc1, 0x3e, 0x83,
    0xda, 0x5e, 0x3e, 0xaf, 0xd8, 0xcb, 0xbd, 0xf0, 0xb6, 0x04, 0xbe, 0x29, 0x41, 0x4d, 0xbe, 0x17, 0x62, 0xa1, 0xbe,
    0x06, 0x65, 0xd5, 0xbb, 0xc8, 0x99, 0x9b, 0x3e, 0xf3, 0xbc, 0x14, 0x3e, 0x22, 0x5c, 0x3b, 0xbc, 0x42, 0x1c, 0x64,
    0xbe, 0x8a, 0x2d, 0x58, 0x3e, 0x0a, 0x8a, 0x99, 0x3e, 0x3e, 0x3e, 0xf3, 0x3e, 0xe6, 0xa2, 0x87, 0x3f, 0xcb, 0x8d,
    0xc7, 0xbe, 0x3d, 0xd3, 0xd4, 0xbd, 0x22, 0xbe, 0x63, 0x3e, 0xfd, 0x3e, 0x79, 0xbf, 0x13, 0x7b, 0x52, 0xbe, 0xd8,
    0x5b, 0x8e, 0xbe, 0x36, 0x60, 0x90, 0x3e, 0xca, 0x71, 0x20, 0xbb, 0x82, 0xfe, 0x4f, 0x3d, 0x5a, 0x00, 0x9a, 0xbe,
    0x2e, 0x09, 0x30, 0xbe, 0x78, 0x8e, 0x68, 0x3e, 0x0a, 0x7b, 0x19, 0xbe, 0x9e, 0x05, 0x57, 0xbe, 0x1d, 0xf5, 0x43,
    0xbf, 0x32, 0x47, 0xe7, 0xbe, 0xcf, 0xb0, 0x7e, 0x3d, 0xe8, 0x2e, 0xb7, 0xbe, 0xf5, 0xcd, 0x05, 0x3e, 0x66, 0x09,
    0x83, 0xbc, 0x6c, 0x89, 0x0a, 0xbe, 0x22, 0x16, 0xa3, 0xbe, 0x62, 0x4e, 0x20, 0xbe, 0x24, 0x72, 0x28, 0xbd, 0x2e,
    0x75, 0x4c, 0x3c, 0x04, 0x9c, 0x6f, 0x3c, 0xc5, 0xf6, 0xa2, 0x3d, 0xc8, 0xa9, 0x61, 0xbe, 0x8e, 0x82, 0x58, 0x3e,
    0x8a, 0x1f, 0xf8, 0x3d, 0x6f, 0x65, 0x86, 0xbe, 0x63, 0xb0, 0xae, 0xbc, 0xfc, 0x55, 0x59, 0x3d, 0x8f, 0xaa, 0xf7,
    0x3d, 0xf8, 0x97, 0x73, 0x3d, 0xab, 0x2e, 0xad, 0x3b, 0xa3, 0x9a, 0x9f, 0xbe, 0xce, 0xc9, 0x93, 0xbd, 0xc5, 0x0d,
    0x5e, 0x3e, 0xda, 0x74, 0xb3, 0xbc, 0x08, 0x9d, 0x88, 0xbe, 0x5d, 0x13, 0x49, 0xbe, 0x2b, 0x35, 0x5b, 0xbe, 0x3a,
    0x2f, 0xfd, 0x3d, 0x08, 0x7a, 0x08, 0xbe, 0xf0, 0x38, 0x2e, 0xbf, 0x1b, 0xec, 0x6c, 0x3d, 0xf2, 0x77, 0x28, 0xbf,
    0x32, 0x58, 0xa5, 0x3d, 0x7c, 0xdb, 0x29, 0xbd, 0x52, 0x02, 0xc0, 0x3c, 0x7e, 0x70, 0xd9, 0x3d, 0xc6, 0x84, 0x84,
    0xbe, 0xa8, 0xe9, 0x98, 0xbe, 0xd9, 0x2d, 0x24, 0x3e, 0x92, 0x9c, 0x02, 0x3e, 0x63, 0xb2, 0x57, 0xbe, 0x71, 0xbe,
    0x44, 0xbe, 0x38, 0x1e, 0xc2, 0x3d, 0x24, 0xe6, 0x87, 0xbd, 0xfd, 0x45, 0x4c, 0x3e, 0xf8, 0x95, 0xa9, 0xbd, 0xb0,
    0x93, 0x37, 0x3e, 0x1e, 0xcc, 0xfd, 0x3c, 0x4a, 0x6e, 0xa8, 0x3c, 0x6f, 0xf6, 0x06, 0x3e, 0x29, 0xbb, 0x2a, 0x39,
    0xb4, 0xb1, 0xf0, 0xbd, 0xf0, 0xc5, 0x97, 0xbd, 0xbd, 0x5a, 0x20, 0x3d, 0x8b, 0xba, 0xc7, 0xbd, 0x02, 0x9e, 0xc9,
    0x3d, 0x65, 0x4e, 0x39, 0xbc, 0x96, 0xc3, 0xa6, 0x3d, 0xbe, 0xf8, 0x25, 0xbc, 0xa5, 0xcf, 0x0e, 0x3d, 0xcb, 0xbf,
    0x07, 0x3d, 0x1e, 0xe2, 0x8d, 0xbc, 0x95, 0x61, 0x74, 0xbd, 0x54, 0xf0, 0xd1, 0xbb, 0xbb, 0xf8, 0x72, 0x3c, 0xec,
    0xee, 0xbf, 0x3d, 0xf2, 0xb0, 0x1d, 0x3e, 0xa2, 0xb1, 0x88, 0xbc, 0xb6, 0xc9, 0xb8, 0xbd, 0x3d, 0x89, 0xc4, 0xbc,
    0x62, 0x7b, 0x3c, 0x3e, 0x84, 0x51, 0x81, 0xbd, 0xae, 0xec, 0xbe, 0xbd, 0x54, 0x07, 0x1f, 0xbe, 0x7d, 0x94, 0xc8,
    0xbd, 0xf5, 0x1a, 0xf9, 0x3d, 0xfc, 0x75, 0x63, 0x3d, 0x2d, 0xda, 0x4e, 0xbd, 0xae, 0x43, 0x0a, 0xbe, 0x29, 0xe4,
    0x55, 0x3d, 0x00, 0x61, 0xe5, 0x3d, 0x87, 0x7d, 0x64, 0x3e, 0xe6, 0xa2, 0x96, 0x3e, 0xbb, 0x87, 0xff, 0xba, 0x73,
    0x79, 0x8c, 0xbe, 0x4f, 0xa5, 0x74, 0x3e, 0x72, 0x5e, 0xf1, 0x3d, 0xe1, 0xf5, 0xc7, 0x3c, 0x57, 0x70, 0x00, 0x3e,
    0xad, 0x39, 0xd7, 0xbd, 0xca, 0x38, 0x85, 0x3d, 0x19, 0x72, 0xa1, 0x3e, 0x49, 0x88, 0x37, 0xbe, 0xee, 0xfd, 0xd1,
    0x3c, 0x6c, 0x24, 0x44, 0xbe, 0xc2, 0xbc, 0x0d, 0xbf, 0x35, 0xb7, 0x45, 0xbe, 0xa2, 0xd9, 0xfa, 0xbd, 0x87, 0xb6,
    0x45, 0xbc, 0x07, 0x87, 0xbf, 0x3c, 0xa0, 0x76, 0xbd, 0x3d, 0xce, 0x26, 0x84, 0xbd, 0x61, 0xdb, 0xc3, 0xbd, 0xc7,
    0xb0, 0xd7, 0x3d, 0x6b, 0x08, 0x4f, 0xbc, 0x75, 0x16, 0xd3, 0xbb, 0x8c, 0x6b, 0x68, 0x3e, 0x5b, 0xca, 0x13, 0x3e,
    0x8b, 0x6d, 0x18, 0x3e, 0xc2, 0x8e, 0x5b, 0xbc, 0x4d, 0xc6, 0x1f, 0xbe, 0x5d, 0x7f, 0x9b, 0xbd, 0x26, 0xf6, 0x96,
    0x3d, 0x58, 0x27, 0x9a, 0xbe, 0x9f, 0x0f, 0xd6, 0xbd, 0x79, 0xfd, 0xa6, 0xbe, 0x91, 0x3b, 0xec, 0xbd, 0xb9, 0x64,
    0x17, 0x3c, 0x72, 0x7a, 0xc6, 0x3d, 0x87, 0x4b, 0x10, 0xbe, 0x86, 0x45, 0xef, 0xbd, 0x2b, 0xe5, 0x1f, 0x3d, 0x9d,
    0x32, 0x57, 0xbe, 0xa4, 0x82, 0x63, 0x3e, 0xa6, 0x9f, 0x6b, 0xbe, 0x86, 0xdc, 0x20, 0xbe, 0x52, 0xa0, 0xb8, 0x3e,
    0x36, 0x38, 0x20, 0xbe, 0x29, 0xc8, 0xa5, 0x3e, 0xc6, 0xb3, 0xa8, 0xbe, 0x2c, 0xd0, 0x9d, 0x3e, 0x8c, 0x91, 0x8b,
    0x3e, 0x46, 0x97, 0xa0, 0xbd, 0x1b, 0x41, 0xab, 0xbe, 0x95, 0xff, 0x05, 0xbf, 0x84, 0x03, 0x0c, 0xbf, 0x6b, 0xc3,
    0x69, 0x3e, 0x5e, 0x05, 0x9c, 0x3e, 0xd0, 0x61, 0xfa, 0xbc, 0xf2, 0xea, 0x8f, 0x3e, 0x67, 0x9e, 0x45, 0x3e, 0x0f,
    0xb9, 0x78, 0x3e, 0x4f, 0xb6, 0x7b, 0x3d, 0x56, 0x19, 0x7a, 0x3e, 0x79, 0x6f, 0xf3, 0x3d, 0x4e, 0x64, 0xb7, 0xbd,
    0x7b, 0xb9, 0x7f, 0x3d, 0x7f, 0xea, 0x24, 0x3f, 0x79, 0xf8, 0x35, 0xbe, 0x14, 0x79, 0x59, 0x3e, 0x50, 0xc4, 0x21,
    0xbe, 0x5e, 0xd8, 0xc0, 0xbe, 0x97, 0x40, 0x53, 0xbe, 0xf1, 0x0f, 0xd0, 0x3e, 0x1f, 0xe1, 0x72, 0xbd, 0xc1, 0xb4,
    0xc2, 0x3e, 0x4d, 0x04, 0x8e, 0x3e, 0x0e, 0x25, 0x21, 0xbf, 0xa5, 0x68, 0xee, 0xbe, 0xcb, 0x7b, 0x8e, 0x3d, 0x87,
    0xae, 0xf5, 0x3d, 0x64, 0x2e, 0x88, 0xbe, 0x7c, 0x6e, 0xb4, 0x3e, 0x8c, 0x96, 0x1a, 0xbe, 0x94, 0xd4, 0xe7, 0x3d,
    0x33, 0x79, 0x03, 0xbd, 0xab, 0xe7, 0x3f, 0x3d, 0x04, 0x1a, 0x2b, 0xbe, 0xa4, 0xee, 0x80, 0xbd, 0xdf, 0xe6, 0x32,
    0x3e, 0xb4, 0x94, 0x08, 0xbe, 0x7d, 0xc6, 0x8b, 0x3d, 0xa5, 0x99, 0x7a, 0x3e, 0x87, 0x75, 0x31, 0x3e, 0xad, 0x0f,
    0xd3, 0x3e, 0x64, 0xa2, 0x09, 0x3f, 0xca, 0x0c, 0x9e, 0xbe, 0xe6, 0xfe, 0xff, 0xff, 0x04, 0x00, 0x00, 0x00, 0x80,
    0x00, 0x00, 0x00, 0x9e, 0x85, 0xfb, 0xbb, 0xb7, 0x96, 0xbe, 0x3b, 0x2e, 0xc3, 0xad, 0x3c, 0x67, 0xae, 0x9f, 0xbd,
    0x14, 0xfd, 0x30, 0xbc, 0x5f, 0x13, 0x8c, 0xbb, 0x92, 0x7e, 0xc0, 0xba, 0x4d, 0x82, 0xbf, 0xbc, 0x09, 0x4a, 0xd7,
    0xbb, 0xd5, 0xb9, 0xef, 0xbb, 0xa8, 0xba, 0xb2, 0x3a, 0x9d, 0xcd, 0xbc, 0x3c, 0x6d, 0x36, 0x17, 0x3e, 0x14, 0x53,
    0x18, 0xbe, 0xd7, 0x70, 0xcb, 0x3d, 0x02, 0x6c, 0x4b, 0x3b, 0x5c, 0xb4, 0x79, 0x3c, 0x52, 0x68, 0x94, 0xbb, 0xc8,
    0x04, 0x51, 0xbb, 0x6f, 0x21, 0x4d, 0x3e, 0x8a, 0x45, 0xed, 0xbc, 0x74, 0xdc, 0x46, 0x3b, 0xfc, 0xbe, 0x69, 0x3b,
    0x0a, 0x5f, 0x2a, 0x3a, 0x7f, 0xeb, 0x36, 0xbd, 0xdc, 0x03, 0x41, 0xbe, 0xd0, 0x64, 0xd6, 0xbb, 0xd8, 0xa0, 0x35,
    0xbc, 0x21, 0x56, 0xbe, 0xba, 0x5a, 0x99, 0x99, 0x3b, 0xaf, 0xe1, 0x86, 0xbb, 0xb0, 0xed, 0x6d, 0x3d, 0x72, 0xff,
    0xff, 0xff, 0x04, 0x00, 0x00, 0x00, 0x80, 0x00, 0x00, 0x00, 0x7c, 0xde, 0x49, 0xbd, 0x76, 0xae, 0x16, 0xbd, 0x92,
    0xa3, 0x89, 0xbf, 0x4b, 0xc6, 0x61, 0xbf, 0x09, 0xab, 0x93, 0xbe, 0x7f, 0xd3, 0xb9, 0xbd, 0x6a, 0xa5, 0xf3, 0xbd,
    0x76, 0x37, 0x74, 0xbe, 0x6d, 0x20, 0xdc, 0x3c, 0xbf, 0x50, 0xc0, 0xbd, 0x9a, 0xa5, 0xa3, 0x3d, 0xf6, 0xc7, 0x0a,
    0xbe, 0x18, 0x15, 0x68, 0xbf, 0x6d, 0xd1, 0x07, 0xbf, 0x0c, 0x5a, 0xb7, 0xbd, 0x00, 0x12, 0xec, 0xbc, 0x60, 0xed,
    0xa5, 0xbe, 0xdf, 0x63, 0x02, 0x3e, 0xc1, 0x60, 0x71, 0xbd, 0x44, 0xb6, 0x2d, 0xbe, 0x3c, 0x7f, 0x22, 0x3c, 0x4c,
    0xc1, 0x9a, 0xbd, 0x15, 0x01, 0x5b, 0xbd, 0x29, 0xf5, 0x17, 0xbe, 0x29, 0x14, 0xd0, 0xbd, 0xac, 0x40, 0x26, 0xbf,
    0x48, 0xaf, 0x82, 0xbd, 0x71, 0x28, 0x4e, 0xbe, 0xb3, 0x9c, 0xab, 0xbd, 0xf8, 0x66, 0x33, 0xbe, 0x67, 0x67, 0x0c,
    0xbf, 0x7c, 0xa6, 0xa8, 0xbe, 0x00, 0x00, 0x06, 0x00, 0x08, 0x00, 0x04, 0x00, 0x06, 0x00, 0x00, 0x00, 0x04, 0x00,
    0x00, 0x00, 0x04, 0x00, 0x00, 0x00, 0xec, 0xe8, 0xba, 0x3d, 0x38, 0xfa, 0xff, 0xff, 0x3c, 0xfa, 0xff, 0xff, 0x0f,
    0x00, 0x00, 0x00, 0x4d, 0x4c, 0x49, 0x52, 0x20, 0x43, 0x6f, 0x6e, 0x76, 0x65, 0x72, 0x74, 0x65, 0x64, 0x2e, 0x00,
    0x01, 0x00, 0x00, 0x00, 0x14, 0x00, 0x00, 0x00, 0x00, 0x00, 0x0e, 0x00, 0x18, 0x00, 0x14, 0x00, 0x10, 0x00, 0x0c,
    0x00, 0x08, 0x00, 0x04, 0x00, 0x0e, 0x00, 0x00, 0x00, 0x14, 0x00, 0x00, 0x00, 0x1c, 0x00, 0x00, 0x00, 0x40, 0x01,
    0x00, 0x00, 0x44, 0x01, 0x00, 0x00, 0x48, 0x01, 0x00, 0x00, 0x04, 0x00, 0x00, 0x00, 0x6d, 0x61, 0x69, 0x6e, 0x00,
    0x00, 0x00, 0x00, 0x06, 0x00, 0x00, 0x00, 0xf4, 0x00, 0x00, 0x00, 0xc0, 0x00, 0x00, 0x00, 0x80, 0x00, 0x00, 0x00,
    0x5c, 0x00, 0x00, 0x00, 0x28, 0x00, 0x00, 0x00, 0x04, 0x00, 0x00, 0x00, 0x5e, 0xff, 0xff, 0xff, 0x0c, 0x00, 0x00,
    0x00, 0x10, 0x00, 0x00, 0x00, 0x02, 0x00, 0x00, 0x00, 0x01, 0x00, 0x00, 0x00, 0x0c, 0x00, 0x00, 0x00, 0x01, 0x00,
    0x00, 0x00, 0x0b, 0x00, 0x00, 0x00, 0x52, 0xff, 0xff, 0xff, 0x10, 0x00, 0x00, 0x00, 0x00, 0x00, 0x00, 0x08, 0x0c,
    0x00, 0x00, 0x00, 0x10, 0x00, 0x00, 0x00, 0xe0, 0xfa, 0xff, 0xff, 0x01, 0x00, 0x00, 0x00, 0x0b, 0x00, 0x00, 0x00,
    0x03, 0x00, 0x00, 0x00, 0x0a, 0x00, 0x00, 0x00, 0x03, 0x00, 0x00, 0x00, 0x01, 0x00, 0x00, 0x00, 0xae, 0xff, 0xff,
    0xff, 0x0c, 0x00, 0x00, 0x00, 0x10, 0x00, 0x00, 0x00, 0x01, 0x00, 0x00, 0x00, 0x01, 0x00, 0x00, 0x00, 0x0a, 0x00,
    0x00, 0x00, 0x01, 0x00, 0x00, 0x00, 0x09, 0x00, 0x00, 0x00, 0xa2, 0xff, 0xff, 0xff, 0x10, 0x00, 0x00, 0x00, 0x00,
    0x00, 0x00, 0x08, 0x0c, 0x00, 0x00, 0x00, 0x10, 0x00, 0x00, 0x00, 0x30, 0xfb, 0xff, 0xff, 0x01, 0x00, 0x00, 0x00,
    0x09, 0x00, 0x00, 0x00, 0x03, 0x00, 0x00, 0x00, 0x08, 0x00, 0x00, 0x00, 0x04, 0x00, 0x00, 0x00, 0x02, 0x00, 0x00,
    0x00, 0x00, 0x00, 0x0a, 0x00, 0x10, 0x00, 0x0c, 0x00, 0x08, 0x00, 0x04, 0x00, 0x0a, 0x00, 0x00, 0x00, 0x0c, 0x00,
    0x00, 0x00, 0x10, 0x00, 0x00, 0x00, 0x01, 0x00, 0x00, 0x00, 0x01, 0x00, 0x00, 0x00, 0x08, 0x00, 0x00, 0x00, 0x01,
    0x00, 0x00, 0x00, 0x07, 0x00, 0x00, 0x00, 0x00, 0x00, 0x0e, 0x00, 0x14, 0x00, 0x00, 0x00, 0x10, 0x00, 0x0c, 0x00,
    0x0b, 0x00, 0x04, 0x00, 0x0e, 0x00, 0x00, 0x00, 0x10, 0x00, 0x00, 0x00, 0x00, 0x00, 0x00, 0x08, 0x0c, 0x00, 0x00,
    0x00, 0x10, 0x00, 0x00, 0x00, 0x9c, 0xfb, 0xff, 0xff, 0x01, 0x00, 0x00, 0x00, 0x07, 0x00, 0x00, 0x00, 0x03, 0x00,
    0x00, 0x00, 0x00, 0x00, 0x00, 0x00, 0x05, 0x00, 0x00, 0x00, 0x06, 0x00, 0x00, 0x00, 0x01, 0x00, 0x00, 0x00, 0x0c,
    0x00, 0x00, 0x00, 0x01, 0x00, 0x00, 0x00, 0x00, 0x00, 0x00, 0x00, 0x0d, 0x00, 0x00, 0x00, 0x1c, 0x04, 0x00, 0x00,
    0xb4, 0x03, 0x00, 0x00, 0x64, 0x03, 0x00, 0x00, 0x14, 0x03, 0x00, 0x00, 0xc4, 0x02, 0x00, 0x00, 0x74, 0x02, 0x00,
    0x00, 0x24, 0x02, 0x00, 0x00, 0xb4, 0x01, 0x00, 0x00, 0x70, 0x01, 0x00, 0x00, 0xfc, 0x00, 0x00, 0x00, 0xb4, 0x00,
    0x00, 0x00, 0x40, 0x00, 0x00, 0x00, 0x04, 0x00, 0x00, 0x00, 0x2e, 0xfc, 0xff, 0xff, 0x00, 0x00, 0x00, 0x01, 0x10,
    0x00, 0x00, 0x00, 0x10, 0x00, 0x00, 0x00, 0x0d, 0x00, 0x00, 0x00, 0x18, 0x00, 0x00, 0x00, 0x18, 0xfc, 0xff, 0xff,
    0x08, 0x00, 0x00, 0x00, 0x49, 0x64, 0x65, 0x6e, 0x74, 0x69, 0x74, 0x79, 0x00, 0x00, 0x00, 0x00, 0x02, 0x00, 0x00,
    0x00, 0x01, 0x00, 0x00, 0x00, 0x01, 0x00, 0x00, 0x00, 0x66, 0xfc, 0xff, 0xff, 0x00, 0x00, 0x00, 0x01, 0x10, 0x00,
    0x00, 0x00, 0x10, 0x00, 0x00, 0x00, 0x0c, 0x00, 0x00, 0x00, 0x50, 0x00, 0x00, 0x00, 0x50, 0xfc, 0xff, 0xff, 0x42,
    0x00, 0x00, 0x00, 0x6d, 0x6f, 0x64, 0x65, 0x6c, 0x2f, 0x74, 0x66, 0x2e, 0x6c, 0x69, 0x6e, 0x61, 0x6c, 0x67, 0x2e,
    0x6d, 0x61, 0x74, 0x6d, 0x75, 0x6c, 0x5f, 0x32, 0x2f, 0x4d, 0x61, 0x74, 0x4d, 0x75, 0x6c, 0x3b, 0x6d, 0x6f, 0x64,
    0x65, 0x6c, 0x2f, 0x74, 0x66, 0x2e, 0x5f, 0x5f, 0x6f, 0x70, 0x65, 0x72, 0x61, 0x74, 0x6f, 0x72, 0x73, 0x5f, 0x5f,
    0x2e, 0x61, 0x64, 0x64, 0x5f, 0x32, 0x2f, 0x41, 0x64, 0x64, 0x56, 0x32, 0x00, 0x00, 0x02, 0x00, 0x00, 0x00, 0x01,
    0x00, 0x00, 0x00, 0x01, 0x00, 0x00, 0x00, 0xd6, 0xfc, 0xff, 0xff, 0x00, 0x00, 0x00, 0x01, 0x10, 0x00, 0x00, 0x00,
    0x10, 0x00, 0x00, 0x00, 0x0b, 0x00, 0x00, 0x00, 0x24, 0x00, 0x00, 0x00, 0xc0, 0xfc, 0xff, 0xff, 0x15, 0x00, 0x00,
    0x00, 0x6d, 0x6f, 0x64, 0x65, 0x6c, 0x2f, 0x74, 0x66, 0x2e, 0x6e, 0x6e, 0x2e, 0x65, 0x6c, 0x75, 0x5f, 0x31, 0x2f,
    0x45, 0x6c, 0x75, 0x00, 0x00, 0x00, 0x02, 0x00, 0x00, 0x00, 0x01, 0x00, 0x00, 0x00, 0x20, 0x00, 0x00, 0x00, 0x1a,
    0xfd, 0xff, 0xff, 0x00, 0x00, 0x00, 0x01, 0x10, 0x00, 0x00, 0x00, 0x10, 0x00, 0x00, 0x00, 0x0a, 0x00, 0x00, 0x00,
    0x50, 0x00, 0x00, 0x00, 0x04, 0xfd, 0xff, 0xff, 0x42, 0x00, 0x00, 0x00, 0x6d, 0x6f, 0x64, 0x65, 0x6c, 0x2f, 0x74,
    0x66, 0x2e, 0x6c, 0x69, 0x6e, 0x61, 0x6c, 0x67, 0x2e, 0x6d, 0x61, 0x74, 0x6d, 0x75, 0x6c, 0x5f, 0x31, 0x2f, 0x4d,
    0x61, 0x74, 0x4d, 0x75, 0x6c, 0x3b, 0x6d, 0x6f, 0x64, 0x65, 0x6c, 0x2f, 0x74, 0x66, 0x2e, 0x5f, 0x5f, 0x6f, 0x70,
    0x65, 0x72, 0x61, 0x74, 0x6f, 0x72, 0x73, 0x5f, 0x5f, 0x2e, 0x61, 0x64, 0x64, 0x5f, 0x31, 0x2f, 0x41, 0x64, 0x64,
    0x56, 0x32, 0x00, 0x00, 0x02, 0x00, 0x00, 0x00, 0x01, 0x00, 0x00, 0x00, 0x20, 0x00, 0x00, 0x00, 0x8a, 0xfd, 0xff,
    0xff, 0x00, 0x00, 0x00, 0x01, 0x10, 0x00, 0x00, 0x00, 0x10, 0x00, 0x00, 0x00, 0x09, 0x00, 0x00, 0x00, 0x20, 0x00,
    0x00, 0x00, 0x74, 0xfd, 0xff, 0xff, 0x13, 0x00, 0x00, 0x00, 0x6d, 0x6f, 0x64, 0x65, 0x6c, 0x2f, 0x74, 0x66, 0x2e,
    0x6e, 0x6e, 0x2e, 0x65, 0x6c, 0x75, 0x2f, 0x45, 0x6c, 0x75, 0x00, 0x02, 0x00, 0x00, 0x00, 0x01, 0x00, 0x00, 0x00,
    0x20, 0x00, 0x00, 0x00, 0xca, 0xfd, 0xff, 0xff, 0x00, 0x00, 0x00, 0x01, 0x10, 0x00, 0x00, 0x00, 0x10, 0x00, 0x00,
    0x00, 0x08, 0x00, 0x00, 0x00, 0x4c, 0x00, 0x00, 0x00, 0xb4, 0xfd, 0xff, 0xff, 0x3e, 0x00, 0x00, 0x00, 0x6d, 0x6f,
    0x64, 0x65, 0x6c, 0x2f, 0x74, 0x66, 0x2e, 0x6c, 0x69, 0x6e, 0x61, 0x6c, 0x67, 0x2e, 0x6d, 0x61, 0x74, 0x6d, 0x75,
    0x6c, 0x2f, 0x4d, 0x61, 0x74, 0x4d, 0x75, 0x6c, 0x3b, 0x6d, 0x6f, 0x64, 0x65, 0x6c, 0x2f, 0x74, 0x66, 0x2e, 0x5f,
    0x5f, 0x6f, 0x70, 0x65, 0x72, 0x61, 0x74, 0x6f, 0x72, 0x73, 0x5f, 0x5f, 0x2e, 0x61, 0x64, 0x64, 0x2f, 0x41, 0x64,
    0x64, 0x56, 0x32, 0x00, 0x00, 0x02, 0x00, 0x00, 0x00, 0x01, 0x00, 0x00, 0x00, 0x20, 0x00, 0x00, 0x00, 0x36, 0xfe,
    0xff, 0xff, 0x00, 0x00, 0x00, 0x01, 0x10, 0x00, 0x00, 0x00, 0x10, 0x00, 0x00, 0x00, 0x07, 0x00, 0x00, 0x00, 0x30,
    0x00, 0x00, 0x00, 0x20, 0xfe, 0xff, 0xff, 0x20, 0x00, 0x00, 0x00, 0x6d, 0x6f, 0x64, 0x65, 0x6c, 0x2f, 0x74, 0x66,
    0x2e, 0x5f, 0x5f, 0x6f, 0x70, 0x65, 0x72, 0x61, 0x74, 0x6f, 0x72, 0x73, 0x5f, 0x5f, 0x2e, 0x61, 0x64, 0x64, 0x2f,
    0x41, 0x64, 0x64, 0x56, 0x32, 0x00, 0x00, 0x00, 0x00, 0x01, 0x00, 0x00, 0x00, 0x20, 0x00, 0x00, 0x00, 0x82, 0xfe,
    0xff, 0xff, 0x00, 0x00, 0x00, 0x01, 0x10, 0x00, 0x00, 0x00, 0x10, 0x00, 0x00, 0x00, 0x06, 0x00, 0x00, 0x00, 0x2c,
    0x00, 0x00, 0x00, 0x6c, 0xfe, 0xff, 0xff, 0x1d, 0x00, 0x00, 0x00, 0x6d, 0x6f, 0x64, 0x65, 0x6c, 0x2f, 0x74, 0x66,
    0x2e, 0x6c, 0x69, 0x6e, 0x61, 0x6c, 0x67, 0x2e, 0x6d, 0x61, 0x74, 0x6d, 0x75, 0x6c, 0x2f, 0x4d, 0x61, 0x74, 0x4d,
    0x75, 0x6c, 0x00, 0x00, 0x00, 0x02, 0x00, 0x00, 0x00, 0x20, 0x00, 0x00, 0x00, 0x05, 0x00, 0x00, 0x00, 0xce, 0xfe,
    0xff, 0xff, 0x00, 0x00, 0x00, 0x01, 0x10, 0x00, 0x00, 0x00, 0x10, 0x00, 0x00, 0x00, 0x05, 0x00, 0x00, 0x00, 0x2c,
    0x00, 0x00, 0x00, 0xb8, 0xfe, 0xff, 0xff, 0x1f, 0x00, 0x00, 0x00, 0x6d, 0x6f, 0x64, 0x65, 0x6c, 0x2f, 0x74, 0x66,
    0x2e, 0x6c, 0x69, 0x6e, 0x61, 0x6c, 0x67, 0x2e, 0x6d, 0x61, 0x74, 0x6d, 0x75, 0x6c, 0x5f, 0x31, 0x2f, 0x4d, 0x61,
    0x74, 0x4d, 0x75, 0x6c, 0x00, 0x02, 0x00, 0x00, 0x00, 0x20, 0x00, 0x00, 0x00, 0x20, 0x00, 0x00, 0x00, 0x1a, 0xff,
    0xff, 0xff, 0x00, 0x00, 0x00, 0x01, 0x10, 0x00, 0x00, 0x00, 0x10, 0x00, 0x00, 0x00, 0x04, 0x00, 0x00, 0x00, 0x2c,
    0x00, 0x00, 0x00, 0x04, 0xff, 0xff, 0xff, 0x1f, 0x00, 0x00, 0x00, 0x6d, 0x6f, 0x64, 0x65, 0x6c, 0x2f, 0x74, 0x66,
    0x2e, 0x6c, 0x69, 0x6e, 0x61, 0x6c, 0x67, 0x2e, 0x6d, 0x61, 0x74, 0x6d, 0x75, 0x6c, 0x5f, 0x32, 0x2f, 0x4d, 0x61,
    0x74, 0x4d, 0x75, 0x6c, 0x00, 0x02, 0x00, 0x00, 0x00, 0x01, 0x00, 0x00, 0x00, 0x20, 0x00, 0x00, 0x00, 0x66, 0xff,
    0xff, 0xff, 0x00, 0x00, 0x00, 0x01, 0x10, 0x00, 0x00, 0x00, 0x10, 0x00, 0x00, 0x00, 0x03, 0x00, 0x00, 0x00, 0x30,
    0x00, 0x00, 0x00, 0x50, 0xff, 0xff, 0xff, 0x22, 0x00, 0x00, 0x00, 0x6d, 0x6f, 0x64, 0x65, 0x6c, 0x2f, 0x74, 0x66,
    0x2e, 0x5f, 0x5f, 0x6f, 0x70, 0x65, 0x72, 0x61, 0x74, 0x6f, 0x72, 0x73, 0x5f, 0x5f, 0x2e, 0x61, 0x64, 0x64, 0x5f,
    0x31, 0x2f, 0x41, 0x64, 0x64, 0x56, 0x32, 0x00, 0x00, 0x01, 0x00, 0x00, 0x00, 0x20, 0x00, 0x00, 0x00, 0xb2, 0xff,
    0xff, 0xff, 0x00, 0x00, 0x00, 0x01, 0x10, 0x00, 0x00, 0x00, 0x10, 0x00, 0x00, 0x00, 0x02, 0x00, 0x00, 0x00, 0x30,
    0x00, 0x00, 0x00, 0x9c, 0xff, 0xff, 0xff, 0x22, 0x00, 0x00, 0x00, 0x6d, 0x6f, 0x64, 0x65, 0x6c, 0x2f, 0x74, 0x66,
    0x2e, 0x5f, 0x5f, 0x6f, 0x70, 0x65, 0x72, 0x61, 0x74, 0x6f, 0x72, 0x73, 0x5f, 0x5f, 0x2e, 0x61, 0x64, 0x64, 0x5f,
    0x32, 0x2f, 0x41, 0x64, 0x64, 0x56, 0x32, 0x00, 0x00, 0x01, 0x00, 0x00, 0x00, 0x01, 0x00, 0x00, 0x00, 0x00, 0x00,
    0x16, 0x00, 0x18, 0x00, 0x14, 0x00, 0x00, 0x00, 0x10, 0x00, 0x0c, 0x00, 0x08, 0x00, 0x00, 0x00, 0x00, 0x00, 0x00,
    0x00, 0x07, 0x00, 0x16, 0x00, 0x00, 0x00, 0x00, 0x00, 0x00, 0x01, 0x14, 0x00, 0x00, 0x00, 0x14, 0x00, 0x00, 0x00,
    0x01, 0x00, 0x00, 0x00, 0x14, 0x00, 0x00, 0x00, 0x04, 0x00, 0x04, 0x00, 0x04, 0x00, 0x00, 0x00, 0x03, 0x00, 0x00,
    0x00, 0x6f, 0x62, 0x73, 0x00, 0x02, 0x00, 0x00, 0x00, 0x01, 0x00, 0x00, 0x00, 0x05, 0x00, 0x00, 0x00, 0x03, 0x00,
    0x00, 0x00, 0x30, 0x00, 0x00, 0x00, 0x14, 0x00, 0x00, 0x00, 0x04, 0x00, 0x00, 0x00, 0xe8, 0xff, 0xff, 0xff, 0x1c,
    0x00, 0x00, 0x00, 0x00, 0x00, 0x00, 0x1c, 0xf4, 0xff, 0xff, 0xff, 0x6f, 0x00, 0x00, 0x00, 0x00, 0x00, 0x00, 0x6f,
    0x0c, 0x00, 0x0c, 0x00, 0x0b, 0x00, 0x00, 0x00, 0x00, 0x00, 0x04, 0x00, 0x0c, 0x00, 0x00, 0x00, 0x09, 0x00, 0x00,
    0x00, 0x00, 0x00, 0x00, 0x09};
unsigned int policy_model_len = 7168;

#endif // POLICY_MODEL_H
