#pragma once
// Input normalisation (running mean / variance from SKRL preprocessor)
constexpr float MODEL_INPUT_MEAN[] = {0.01846926f, -0.06080328f, 0.00027460f, 0.96774530f, 0.17321481f};
constexpr float MODEL_INPUT_VAR[] = {0.00832928f, 0.45160741f, 0.02552494f, 0.03794934f, 7.85753012f};
constexpr int MODEL_INPUT_SIZE = 5;

inline constexpr unsigned char policy_model[] = {
    0x1c, 0x00, 0x00, 0x00, 0x54, 0x46, 0x4c, 0x33, 0x14, 0x00, 0x20, 0x00, 0x1c, 0x00, 0x18, 0x00, 0x14, 0x00, 0x10,
    0x00, 0x0c, 0x00, 0x00, 0x00, 0x08, 0x00, 0x04, 0x00, 0x14, 0x00, 0x00, 0x00, 0x1c, 0x00, 0x00, 0x00, 0x1c, 0x00,
    0x00, 0x00, 0x74, 0x00, 0x00, 0x00, 0xb8, 0x15, 0x00, 0x00, 0xc8, 0x15, 0x00, 0x00, 0x8c, 0x1b, 0x00, 0x00, 0x03,
    0x00, 0x00, 0x00, 0x00, 0x00, 0x00, 0x00, 0x02, 0x00, 0x00, 0x00, 0x34, 0x00, 0x00, 0x00, 0x04, 0x00, 0x00, 0x00,
    0xdc, 0xff, 0xff, 0xff, 0x0f, 0x00, 0x00, 0x00, 0x04, 0x00, 0x00, 0x00, 0x13, 0x00, 0x00, 0x00, 0x43, 0x4f, 0x4e,
    0x56, 0x45, 0x52, 0x53, 0x49, 0x4f, 0x4e, 0x5f, 0x4d, 0x45, 0x54, 0x41, 0x44, 0x41, 0x54, 0x41, 0x00, 0x08, 0x00,
    0x0c, 0x00, 0x08, 0x00, 0x04, 0x00, 0x08, 0x00, 0x00, 0x00, 0x0e, 0x00, 0x00, 0x00, 0x04, 0x00, 0x00, 0x00, 0x13,
    0x00, 0x00, 0x00, 0x6d, 0x69, 0x6e, 0x5f, 0x72, 0x75, 0x6e, 0x74, 0x69, 0x6d, 0x65, 0x5f, 0x76, 0x65, 0x72, 0x73,
    0x69, 0x6f, 0x6e, 0x00, 0x10, 0x00, 0x00, 0x00, 0x40, 0x15, 0x00, 0x00, 0x38, 0x15, 0x00, 0x00, 0x24, 0x15, 0x00,
    0x00, 0x8c, 0x14, 0x00, 0x00, 0xfc, 0x13, 0x00, 0x00, 0xec, 0x03, 0x00, 0x00, 0x5c, 0x01, 0x00, 0x00, 0xcc, 0x00,
    0x00, 0x00, 0xc4, 0x00, 0x00, 0x00, 0xbc, 0x00, 0x00, 0x00, 0xb4, 0x00, 0x00, 0x00, 0xac, 0x00, 0x00, 0x00, 0xa4,
    0x00, 0x00, 0x00, 0x9c, 0x00, 0x00, 0x00, 0x7c, 0x00, 0x00, 0x00, 0x04, 0x00, 0x00, 0x00, 0x1a, 0xeb, 0xff, 0xff,
    0x04, 0x00, 0x00, 0x00, 0x68, 0x00, 0x00, 0x00, 0x10, 0x00, 0x00, 0x00, 0x00, 0x00, 0x00, 0x00, 0x08, 0x00, 0x0e,
    0x00, 0x08, 0x00, 0x04, 0x00, 0x08, 0x00, 0x00, 0x00, 0x14, 0x00, 0x00, 0x00, 0x2c, 0x00, 0x00, 0x00, 0x00, 0x00,
    0x0a, 0x00, 0x0c, 0x00, 0x08, 0x00, 0x00, 0x00, 0x07, 0x00, 0x0a, 0x00, 0x00, 0x00, 0x00, 0x00, 0x00, 0x01, 0x04,
    0x00, 0x00, 0x00, 0x00, 0x00, 0x00, 0x00, 0x0c, 0x00, 0x18, 0x00, 0x14, 0x00, 0x10, 0x00, 0x0c, 0x00, 0x04, 0x00,
    0x0c, 0x00, 0x00, 0x00, 0xf9, 0x6e, 0xbe, 0x08, 0xe0, 0x73, 0xb6, 0x92, 0x03, 0x00, 0x00, 0x00, 0x02, 0x00, 0x00,
    0x00, 0x04, 0x00, 0x00, 0x00, 0x06, 0x00, 0x00, 0x00, 0x32, 0x2e, 0x32, 0x31, 0x2e, 0x30, 0x00, 0x00, 0x8e, 0xeb,
    0xff, 0xff, 0x04, 0x00, 0x00, 0x00, 0x10, 0x00, 0x00, 0x00, 0x31, 0x2e, 0x31, 0x34, 0x2e, 0x30, 0x00, 0x00, 0x00,
    0x00, 0x00, 0x00, 0x00, 0x00, 0x00, 0x00, 0xcc, 0xe5, 0xff, 0xff, 0xd0, 0xe5, 0xff, 0xff, 0xd4, 0xe5, 0xff, 0xff,
    0xd8, 0xe5, 0xff, 0xff, 0xdc, 0xe5, 0xff, 0xff, 0xe0, 0xe5, 0xff, 0xff, 0xc2, 0xeb, 0xff, 0xff, 0x04, 0x00, 0x00,
    0x00, 0x80, 0x00, 0x00, 0x00, 0x51, 0x21, 0x03, 0x3f, 0x37, 0xed, 0x02, 0xbf, 0x29, 0xef, 0x10, 0xbc, 0xde, 0x1b,
    0x8c, 0xbd, 0x90, 0x3a, 0xf7, 0xbd, 0x87, 0x83, 0xf6, 0x3d, 0x25, 0xce, 0x16, 0x3f, 0xc1, 0x8e, 0x6c, 0xbd, 0x40,
    0x9d, 0x3c, 0x3e, 0xbf, 0x23, 0xb4, 0x3e, 0x90, 0x0a, 0xd1, 0xbb, 0x2b, 0x17, 0xc4, 0xbe, 0x77, 0x03, 0x32, 0x3e,
    0x1c, 0xb9, 0xae, 0xbe, 0xaf, 0x3a, 0x31, 0xbe, 0xee, 0x94, 0x0c, 0x3b, 0x53, 0x51, 0x1f, 0xbe, 0x08, 0xb2, 0x4f,
    0xbe, 0x5d, 0x30, 0xd4, 0x3e, 0xce, 0x31, 0xa9, 0x3e, 0x36, 0xd7, 0xc7, 0x3e, 0x25, 0x22, 0xb0, 0x3e, 0x53, 0xb5,
    0xb8, 0xbe, 0x0f, 0xbe, 0xa9, 0xbd, 0xe6, 0xeb, 0xe6, 0x3c, 0xf7, 0x9b, 0xb3, 0x3c, 0xc5, 0xb7, 0x89, 0x3d, 0x1d,
    0x5e, 0x5e, 0xbf, 0x2e, 0x02, 0x33, 0xbf, 0x8f, 0x75, 0xe8, 0xbe, 0x98, 0x4f, 0xb3, 0xbe, 0xbb, 0x3b, 0x2a, 0xbc,
    0x4e, 0xec, 0xff, 0xff, 0x04, 0x00, 0x00, 0x00, 0x80, 0x02, 0x00, 0x00, 0xe4, 0x8f, 0x53, 0xbd, 0xd4, 0x6c, 0x2b,
    0xbf, 0x8b, 0xfa, 0x5f, 0xbe, 0x54, 0xd0, 0x10, 0xbf, 0xe4, 0x11, 0x06, 0xbf, 0xdd, 0xe3, 0xb2, 0x3d, 0x4e, 0xe9,
    0xb0, 0x3e, 0x9c, 0x41, 0xd0, 0xbe, 0x41, 0x8c, 0x06, 0xbe, 0x59, 0xff, 0xa4, 0x3c, 0x0b, 0x2c, 0x9a, 0x3c, 0xe2,
    0x4b, 0x6b, 0xbd, 0xf0, 0xa9, 0x1e, 0x3d, 0x66, 0x8b, 0x9a, 0xbe, 0x69, 0xe5, 0x8e, 0xbd, 0x6b, 0x3d, 0x29, 0xbf,
    0x8b, 0x28, 0xf0, 0xbd, 0xbf, 0x30, 0x2c, 0xbf, 0xad, 0x86, 0x21, 0xbe, 0xa0, 0x4c, 0x11, 0xbf, 0xf5, 0xb2, 0x8e,
    0x3c, 0xa9, 0xb1, 0xa0, 0x3e, 0x25, 0x94, 0x49, 0x3f, 0x2a, 0x2f, 0xc7, 0xbd, 0x80, 0x08, 0x5b, 0x3e, 0x1c, 0x14,
    0x5b, 0xbe, 0x7f, 0x5e, 0x21, 0xbf, 0x3d, 0x5c, 0x20, 0xbf, 0x94, 0x9c, 0xcb, 0x3e, 0x2f, 0x2f, 0xef, 0xbe, 0xd3,
    0xbe, 0xd6, 0xbd, 0x63, 0xca, 0x1c, 0xbf, 0xdb, 0x97, 0x7c, 0xbe, 0xf3, 0xdf, 0x10, 0xbe, 0x21, 0x3e, 0xc5, 0xbf,
    0x36, 0x94, 0xae, 0xbc, 0x94, 0xd1, 0x26, 0x3d, 0x48, 0x1e, 0xb8, 0x3c, 0x6c, 0xe8, 0xac, 0xbe, 0xfe, 0x58, 0x67,
    0x3d, 0x18, 0x29, 0x1d, 0x3e, 0xdb, 0xaa, 0x24, 0x3e, 0xea, 0x28, 0x89, 0x3e, 0x2a, 0x02, 0x93, 0x3e, 0xff, 0x00,
    0x10, 0x3f, 0xb6, 0x62, 0xf1, 0x3d, 0xed, 0x32, 0x5c, 0xbf, 0x03, 0x9c, 0xea, 0x3e, 0xfa, 0xb7, 0x76, 0xbe, 0x80,
    0x86, 0xbd, 0xbc, 0x89, 0x2f, 0x1c, 0xbe, 0xe9, 0x3e, 0x80, 0x3d, 0xe2, 0x1e, 0x09, 0x3f, 0x0e, 0x85, 0x74, 0x3e,
    0x2c, 0x38, 0x4a, 0xbd, 0x74, 0x6a, 0xac, 0xbe, 0xa8, 0x64, 0xe8, 0x3e, 0x22, 0x3a, 0xce, 0xbe, 0x34, 0xb4, 0x56,
    0xbe, 0x45, 0x03, 0x06, 0x3f, 0xb6, 0xa1, 0xcb, 0xbd, 0x56, 0xcb, 0x09, 0xbf, 0xa0, 0x5b, 0xaf, 0xbe, 0x21, 0x02,
    0x57, 0xbe, 0x9f, 0x6a, 0xd2, 0xbe, 0x6a, 0x49, 0x8d, 0xbd, 0x35, 0x33, 0x72, 0xbd, 0xe1, 0x04, 0xf9, 0xbe, 0x4f,
    0x45, 0x9d, 0x3d, 0x9f, 0x07, 0xf2, 0xbe, 0x7d, 0xee, 0xcb, 0x3e, 0x42, 0x8c, 0x15, 0x3f, 0xcc, 0x68, 0xaf, 0x3e,
    0x3f, 0xc8, 0x26, 0xbf, 0x99, 0x90, 0x03, 0x3f, 0x02, 0x7a, 0x9a, 0x3b, 0xa1, 0x62, 0x2f, 0xbe, 0x43, 0xec, 0x97,
    0x3c, 0x95, 0xe8, 0xd9, 0x3e, 0x53, 0x37, 0x80, 0xbe, 0x36, 0xb6, 0x62, 0xbd, 0x11, 0xdc, 0x3b, 0x3e, 0xd3, 0x2f,
    0x0c, 0xbd, 0x2e, 0x4c, 0x8d, 0x3e, 0x7d, 0x72, 0xbf, 0x3e, 0x53, 0xb8, 0xd1, 0xbd, 0x83, 0x70, 0xe6, 0xbe, 0x08,
    0x56, 0x27, 0xbd, 0xbd, 0x09, 0x9a, 0x3e, 0xd6, 0xb5, 0xf0, 0xbd, 0x5f, 0x1a, 0x50, 0xbd, 0xdd, 0xd1, 0xb2, 0x3c,
    0x9b, 0x83, 0x45, 0xbe, 0xd9, 0xe2, 0xec, 0x3b, 0x5d, 0xf8, 0x80, 0xbc, 0xd5, 0x0e, 0x9d, 0xbe, 0xb8, 0xdd, 0x98,
    0xbe, 0x1a, 0x32, 0xad, 0xbd, 0x2e, 0x47, 0x90, 0xbe, 0x5a, 0xed, 0xa0, 0xbd, 0xa5, 0x33, 0x65, 0xbf, 0xcf, 0x97,
    0x39, 0xbe, 0x0d, 0xfe, 0x3d, 0xbf, 0x65, 0x9d, 0xeb, 0x3d, 0x34, 0xac, 0x95, 0xbe, 0x5e, 0x94, 0xfa, 0xbd, 0xfe,
    0x81, 0x08, 0x3e, 0xa3, 0x1d, 0x9b, 0x3e, 0xb6, 0x82, 0x0e, 0x3f, 0x16, 0xc5, 0xae, 0x3e, 0x01, 0xbd, 0x24, 0xbc,
    0x75, 0x21, 0x42, 0xbe, 0x20, 0x66, 0xb9, 0xbd, 0xf2, 0x6e, 0x13, 0x3f, 0x4b, 0xe1, 0x0d, 0x3f, 0xc6, 0x3c, 0x35,
    0xbd, 0xb6, 0xad, 0xce, 0x3d, 0x5f, 0xbb, 0xd8, 0xb9, 0xb9, 0xf1, 0x82, 0xbe, 0xc4, 0x3c, 0xfa, 0x3d, 0x46, 0x90,
    0x05, 0xbe, 0xea, 0xe3, 0xe2, 0xbd, 0xa6, 0x7e, 0x07, 0x3f, 0xaf, 0x94, 0x85, 0x3e, 0x7e, 0x0f, 0x62, 0xbe, 0x07,
    0x0a, 0x96, 0xbe, 0xcd, 0xac, 0x88, 0x3e, 0xac, 0x87, 0x2b, 0xbf, 0x08, 0xc4, 0x8b, 0x3e, 0xcd, 0xa1, 0x8b, 0x3d,
    0xc8, 0x56, 0xcc, 0x3c, 0xb6, 0xab, 0xfb, 0xbe, 0x4f, 0x71, 0x99, 0xbd, 0x02, 0xd1, 0xdf, 0x3c, 0x28, 0x4d, 0x7b,
    0xbf, 0x49, 0x16, 0xfd, 0xbe, 0x6b, 0x39, 0x18, 0xbf, 0x77, 0x53, 0x95, 0x3e, 0xde, 0xc8, 0xab, 0x3e, 0x98, 0xda,
    0xa4, 0x3e, 0x57, 0x80, 0x03, 0x3f, 0xc8, 0x86, 0x53, 0x3e, 0xfa, 0x56, 0xb1, 0x3e, 0x4d, 0xe1, 0x38, 0xbf, 0x84,
    0xdc, 0x16, 0x3e, 0x2d, 0x3f, 0xaf, 0xbe, 0xea, 0x11, 0xb0, 0xbd, 0x92, 0xe6, 0x50, 0x3f, 0x3c, 0x10, 0x8e, 0x3e,
    0x1b, 0x67, 0xdc, 0xbe, 0x36, 0xab, 0xb9, 0x3e, 0x8e, 0x44, 0x02, 0x3e, 0x86, 0x43, 0x4b, 0x3f, 0x34, 0x18, 0xee,
    0xbe, 0x6c, 0x06, 0x3b, 0x3e, 0xd1, 0x30, 0x24, 0xbc, 0xe6, 0x2b, 0xbc, 0x3d, 0xd5, 0x73, 0x60, 0xbe, 0xfd, 0xe1,
    0xb8, 0x3e, 0x8c, 0x94, 0xb5, 0xbd, 0xda, 0xee, 0xff, 0xff, 0x04, 0x00, 0x00, 0x00, 0x00, 0x10, 0x00, 0x00, 0x98,
    0x0b, 0x5e, 0xbd, 0x91, 0xf8, 0x16, 0xbe, 0x96, 0x69, 0xb0, 0xbd, 0x2a, 0xb3, 0xde, 0x3d, 0x98, 0x04, 0xb9, 0x3d,
    0xfe, 0x79, 0x84, 0xbd, 0x4a, 0x63, 0xe7, 0xba, 0xac, 0xae, 0x4d, 0xbe, 0xef, 0x0c, 0x8b, 0xbd, 0x2d, 0x27, 0xb2,
    0xbc, 0xf4, 0xb1, 0x35, 0x3c, 0x06, 0xd4, 0xb0, 0xbd, 0x94, 0xf4, 0x1f, 0x3e, 0x1f, 0xea, 0xdd, 0x3b, 0xf8, 0x03,
    0x9e, 0x3c, 0x61, 0x68, 0xdc, 0xbc, 0x91, 0xd5, 0x08, 0xbe, 0x5c, 0x6b, 0x8a, 0xbd, 0x75, 0xd8, 0x53, 0x3c, 0x2a,
    0x11, 0x64, 0x3d, 0x15, 0x5e, 0x00, 0xbe, 0x8b, 0x0c, 0x2b, 0xbb, 0xa1, 0x2e, 0x31, 0xbd, 0x84, 0x83, 0x8c, 0xbd,
    0x89, 0xbe, 0xef, 0xbd, 0x5c, 0x81, 0xe8, 0x3d, 0x3a, 0x15, 0xcd, 0xbd, 0x11, 0xf3, 0xf8, 0x3d, 0x7c, 0x55, 0x8f,
    0x3c, 0xb7, 0x3e, 0x10, 0xbd, 0x8d, 0x81, 0x35, 0x3b, 0xee, 0x4d, 0x22, 0x3c, 0x31, 0x99, 0x79, 0xbe, 0xf0, 0xea,
    0xc5, 0xbd, 0x08, 0x4b, 0xac, 0xbe, 0xbf, 0x83, 0x4b, 0x3b, 0x2d, 0xdb, 0xb0, 0xbc, 0x87, 0xc0, 0x90, 0x3e, 0x84,
    0x73, 0xa7, 0x3d, 0x6d, 0x86, 0x69, 0xbd, 0x62, 0x31, 0xf1, 0x3d, 0x40, 0xae, 0x87, 0xbd, 0x3a, 0xfb, 0x34, 0x3e,
    0x69, 0x71, 0xa4, 0xbe, 0x8b, 0xcf, 0x53, 0xbd, 0x37, 0x7a, 0x81, 0x3e, 0xd8, 0xc0, 0xc0, 0xbe, 0x83, 0x4a, 0x8d,
    0x3d, 0xd6, 0x7e, 0x83, 0x3e, 0xe3, 0x02, 0x38, 0x3d, 0x91, 0x2f, 0xc1, 0x3d, 0xbc, 0x53, 0x8b, 0xbd, 0xe4, 0xb3,
    0x62, 0xbe, 0xd9, 0x55, 0xd6, 0xbd, 0xdd, 0xb7, 0xf0, 0x3d, 0xd7, 0x43, 0x27, 0x3e, 0x09, 0x89, 0xfe, 0x3d, 0x1f,
    0x91, 0x81, 0x3c, 0x0f, 0x1e, 0xcc, 0x3d, 0xb0, 0x45, 0xa0, 0x3d, 0xc6, 0x8c, 0x7f, 0xbc, 0xb8, 0x1c, 0x09, 0x3e,
    0x8d, 0xca, 0xbe, 0xbc, 0x41, 0x30, 0x02, 0x3e, 0x6c, 0x42, 0x87, 0xbd, 0x7e, 0x2d, 0xa6, 0x3c, 0x50, 0x5c, 0xb7,
    0x3d, 0x52, 0x0d, 0x7a, 0xbd, 0x6c, 0xc6, 0x1f, 0xbd, 0xfa, 0x6a, 0x58, 0x3d, 0xd8, 0x17, 0xa4, 0x3d, 0x6e, 0xe4,
    0xe5, 0x3d, 0xa3, 0xd7, 0x42, 0x3e, 0x7d, 0x73, 0x36, 0x3d, 0x31, 0x47, 0x0d, 0xbe, 0xfb, 0x36, 0x99, 0x3d, 0xde,
    0x11, 0x8f, 0x3c, 0xf0, 0x99, 0x82, 0x3d, 0xf6, 0x61, 0x10, 0x3e, 0x57, 0x5b, 0x3d, 0x3d, 0x2f, 0x4c, 0xfb, 0x3d,
    0x2e, 0xe8, 0x0a, 0x3e, 0x35, 0xed, 0x74, 0x3c, 0x6b, 0xba, 0x1e, 0x3e, 0xb8, 0x92, 0x33, 0xbd, 0xf0, 0x8b, 0xc1,
    0x3d, 0x13, 0x57, 0xfb, 0xbd, 0x9e, 0x06, 0x69, 0xbc, 0x19, 0xe7, 0x05, 0x3e, 0xb0, 0xb2, 0x4c, 0x3d, 0x7c, 0xe7,
    0x6e, 0xbc, 0x17, 0x42, 0x09, 0xbe, 0x58, 0xab, 0x19, 0xbb, 0x26, 0x09, 0xed, 0x3d, 0x93, 0x44, 0x44, 0xbe, 0x57,
    0x24, 0xab, 0xbd, 0x3d, 0x6b, 0xab, 0xbe, 0x62, 0x5a, 0x11, 0x3f, 0xd9, 0x7f, 0x01, 0x3e, 0x8b, 0xb7, 0x13, 0x3d,
    0x77, 0x53, 0xe4, 0xbe, 0x1c, 0x0a, 0x2f, 0x3c, 0xa3, 0x9d, 0x4c, 0x3d, 0x9f, 0xa0, 0xb9, 0xbd, 0x5b, 0x04, 0x9e,
    0xbf, 0xad, 0x89, 0x84, 0xbc, 0x9a, 0x9d, 0x91, 0xbe, 0x1d, 0x26, 0x04, 0x3e, 0xe3, 0xbb, 0xd9, 0x3e, 0xef, 0x93,
    0x89, 0x3f, 0x4e, 0x84, 0xf0, 0x3e, 0x03, 0xef, 0x47, 0xbe, 0x26, 0xd1, 0x92, 0x3d, 0x51, 0x6d, 0x5a, 0x3f, 0xef,
    0x32, 0x3b, 0xbf, 0x50, 0xe8, 0x42, 0x3e, 0x27, 0x91, 0xd6, 0x3e, 0xa3, 0xbc, 0x01, 0xbf, 0x94, 0x0f, 0xc4, 0x3e,
    0x37, 0x31, 0xf9, 0x3d, 0x1f, 0x4d, 0xa8, 0xbe, 0x08, 0x24, 0xba, 0xbd, 0x26, 0x6a, 0x15, 0x3f, 0xf3, 0x72, 0x88,
    0x3f, 0x43, 0x84, 0x9b, 0x3f, 0x02, 0x9e, 0x75, 0x3f, 0x54, 0x14, 0xee, 0x3d, 0x70, 0x3e, 0x86, 0xbe, 0x1a, 0x59,
    0xcc, 0x3d, 0x0a, 0xce, 0x08, 0xbd, 0xac, 0xd6, 0x75, 0xbe, 0x45, 0x98, 0xa7, 0xbd, 0xa8, 0x6d, 0x90, 0x3d, 0x5c,
    0xcf, 0x27, 0xbc, 0xc6, 0xa1, 0xea, 0x3d, 0xb5, 0x06, 0xf9, 0xba, 0x04, 0x81, 0x35, 0x3e, 0x28, 0x79, 0xd6, 0xbd,
    0x41, 0xfe, 0x4d, 0x3e, 0x4c, 0xa2, 0xbd, 0x3d, 0x12, 0x25, 0xe7, 0xbc, 0xe0, 0x53, 0xdf, 0xbc, 0x25, 0x70, 0x40,
    0xbd, 0x35, 0xa5, 0x7e, 0x3e, 0x05, 0x99, 0xbe, 0xbb, 0xb6, 0x50, 0x2d, 0xbe, 0x23, 0xa5, 0x31, 0x3e, 0x35, 0x1b,
    0x02, 0x3e, 0x4d, 0xae, 0x8a, 0xbd, 0x23, 0x08, 0xc8, 0xbd, 0x41, 0x91, 0x68, 0x3d, 0xc0, 0x62, 0x1a, 0xbe, 0xed,
    0xd7, 0xd3, 0xbd, 0x6f, 0x74, 0x06, 0x3e, 0xa8, 0x2e, 0x8d, 0xbd, 0xe3, 0xbc, 0xbd, 0x3d, 0x66, 0xdf, 0x25, 0x3d,
    0x4f, 0x15, 0x34, 0xbd, 0x3f, 0x2a, 0xa8, 0xbc, 0xbd, 0xf9, 0x3e, 0xbe, 0xc8, 0x6a, 0xfb, 0xbd, 0x9b, 0xf6, 0x85,
    0x3e, 0x58, 0x52, 0x8b, 0x3c, 0x65, 0x6f, 0x94, 0x3d, 0xa6, 0xfc, 0x82, 0xbc, 0x0b, 0x6f, 0x86, 0x3c, 0x7a, 0x5a,
    0x82, 0xbe, 0x49, 0xdb, 0x39, 0x3c, 0xbb, 0x9e, 0x06, 0xbe, 0x09, 0xa8, 0x91, 0xbd, 0x01, 0x94, 0x92, 0x3d, 0xfc,
    0x5e, 0x00, 0x3f, 0xf1, 0xa1, 0x6e, 0xbd, 0x34, 0xaf, 0x3c, 0x3e, 0x34, 0x10, 0x9c, 0xbd, 0xcc, 0x02, 0x1f, 0x3d,
    0xdb, 0x26, 0x97, 0xbd, 0x62, 0x69, 0xc6, 0x3b, 0x63, 0x10, 0xa3, 0x3c, 0x03, 0x00, 0xa7, 0xbe, 0xde, 0xb3, 0x0e,
    0xbe, 0x46, 0x50, 0x79, 0xbe, 0xd9, 0x0b, 0xe2, 0x3b, 0x85, 0x0e, 0x05, 0x3b, 0x87, 0xa5, 0x05, 0xbe, 0x56, 0x0c,
    0x86, 0x3e, 0xf8, 0x38, 0xe7, 0xbd, 0xa4, 0x39, 0xa1, 0x3d, 0xbe, 0x5c, 0xa5, 0xbe, 0x84, 0xcc, 0x50, 0x3e, 0x38,
    0x0b, 0x8c, 0xbe, 0x97, 0x72, 0x9e, 0x3d, 0xd0, 0xf1, 0xb0, 0xbd, 0xab, 0xb3, 0xc6, 0x3d, 0x7f, 0xa3, 0x85, 0xbe,
    0x88, 0x73, 0x93, 0xbe, 0xf2, 0x02, 0x04, 0xbf, 0xd9, 0x61, 0xbc, 0x3c, 0x2a, 0x46, 0xa3, 0xbd, 0x6a, 0xea, 0x3f,
    0xbe, 0x01, 0xe3, 0xb3, 0xbe, 0x6c, 0xa9, 0xaa, 0x3e, 0xb6, 0x19, 0xa8, 0xbc, 0x30, 0x7c, 0xeb, 0xbd, 0xd5, 0xfe,
    0x66, 0x3e, 0x2a, 0x67, 0x16, 0x3e, 0x40, 0x38, 0x28, 0x3e, 0xb3, 0xd0, 0x42, 0x3d, 0xb8, 0x2a, 0xe3, 0xbe, 0x5d,
    0x3c, 0xc4, 0x3d, 0x2f, 0xaa, 0xc0, 0xbd, 0x95, 0x79, 0x8c, 0x3d, 0x2f, 0x43, 0x10, 0xbd, 0x99, 0x51, 0x4f, 0x3c,
    0xd0, 0x46, 0x3f, 0x3e, 0xd5, 0x8c, 0x92, 0xbd, 0xff, 0x5f, 0x24, 0x3c, 0x3c, 0xa2, 0xd6, 0xbd, 0x32, 0x76, 0x8e,
    0xbd, 0x25, 0xb8, 0xd7, 0x3e, 0x3f, 0xbf, 0xf1, 0x3e, 0x22, 0x2a, 0x20, 0x3f, 0x3a, 0xa6, 0xc7, 0xbd, 0x34, 0xa2,
    0xd4, 0xbd, 0x98, 0xd2, 0x07, 0xbe, 0xa7, 0x44, 0x02, 0x3e, 0x47, 0xe5, 0x26, 0x3d, 0x8d, 0xc3, 0x15, 0x3e, 0x02,
    0x73, 0x26, 0xbd, 0x13, 0xcb, 0x96, 0xbd, 0x92, 0xc4, 0x5e, 0x3d, 0x8b, 0x69, 0x88, 0x3d, 0x8a, 0xb3, 0xc7, 0xbd,
    0x0c, 0x31, 0xc1, 0xbc, 0xba, 0xbf, 0x13, 0xbe, 0xbd, 0xe8, 0xd6, 0xbd, 0xe4, 0x87, 0x09, 0x3e, 0x87, 0x3b, 0x41,
    0xbd, 0xe2, 0x18, 0x32, 0xbd, 0x6b, 0x9f, 0x0d, 0xbc, 0xd8, 0x7c, 0x29, 0xbe, 0xd7, 0x61, 0x39, 0x3d, 0x69, 0xa7,
    0xc7, 0x3c, 0x8e, 0x81, 0xe9, 0x3d, 0x5a, 0x81, 0xd6, 0xbd, 0xc9, 0x01, 0xf1, 0x3d, 0x12, 0x08, 0x33, 0x3e, 0xc3,
    0x2e, 0x1d, 0x3d, 0x05, 0x9e, 0x79, 0x3d, 0x09, 0x6a, 0x2d, 0xbd, 0xfc, 0xa1, 0x19, 0xbe, 0x71, 0x60, 0xa6, 0xbd,
    0xac, 0xee, 0x18, 0x3d, 0xfe, 0x24, 0x1e, 0x3d, 0xa2, 0x2f, 0x2d, 0x3d, 0x17, 0xe8, 0x38, 0xbd, 0x48, 0xa0, 0x2e,
    0xbe, 0x22, 0x29, 0x8e, 0xbe, 0x96, 0x09, 0x0a, 0xbe, 0xbe, 0x7d, 0x1c, 0xbd, 0xe8, 0x74, 0x71, 0x3d, 0x3b, 0x38,
    0x24, 0x3d, 0x0b, 0x6b, 0xbf, 0x3d, 0x1a, 0x98, 0xb8, 0x3d, 0x5d, 0xde, 0xd3, 0xbb, 0xfd, 0xac, 0x7e, 0xbc, 0x28,
    0x00, 0x9a, 0x3c, 0x40, 0x56, 0x21, 0x3e, 0x64, 0x72, 0x1a, 0xbe, 0x47, 0x60, 0x41, 0x3e, 0xfe, 0x3a, 0xd1, 0xbc,
    0xee, 0x96, 0x2d, 0xbd, 0xaf, 0xfd, 0x3c, 0xbe, 0x6f, 0x71, 0xd0, 0x3b, 0xa9, 0xfc, 0x3d, 0xbd, 0x46, 0x98, 0xf0,
    0x3c, 0xd0, 0xbc, 0x59, 0x3c, 0xf3, 0x2e, 0x0a, 0xbe, 0xac, 0xaa, 0x32, 0xbb, 0x69, 0xcb, 0x65, 0x3d, 0xc5, 0xb3,
    0x0b, 0xbd, 0x92, 0x35, 0x87, 0xbd, 0xdb, 0xf7, 0x8d, 0x3c, 0x79, 0x73, 0x1e, 0x3e, 0x3d, 0xe8, 0x9e, 0xbd, 0xb7,
    0x22, 0x53, 0xbe, 0x26, 0x35, 0xc2, 0x3d, 0x13, 0x31, 0xa9, 0xbd, 0x3f, 0x3f, 0xf4, 0x3c, 0xf8, 0xa1, 0x8b, 0xbd,
    0xa2, 0x77, 0xb9, 0xbc, 0x7e, 0xc9, 0x39, 0xbd, 0x97, 0x7b, 0x27, 0xbe, 0xbe, 0xc5, 0xdc, 0x3d, 0x65, 0x2c, 0xe6,
    0x3d, 0x00, 0x53, 0x71, 0x3d, 0xf2, 0xd5, 0xc7, 0x3d, 0x46, 0x75, 0x64, 0x3c, 0x6f, 0x67, 0x00, 0x3e, 0x7b, 0x24,
    0x82, 0x3d, 0xe7, 0xec, 0x01, 0xbe, 0xe4, 0x6d, 0x45, 0xbd, 0x35, 0x4e, 0x9a, 0x3d, 0xfa, 0xd2, 0x4a, 0xbe, 0x24,
    0x63, 0xe8, 0x3d, 0x47, 0xba, 0x2d, 0x3e, 0x1e, 0x74, 0x4a, 0xbd, 0xca, 0x1a, 0x3a, 0x3e, 0x37, 0x4c, 0xce, 0xbd,
    0xdd, 0x33, 0xaa, 0x3c, 0xe2, 0x39, 0xeb, 0xbd, 0x28, 0xe7, 0xf9, 0x3c, 0x9e, 0x43, 0xe6, 0x3d, 0xb0, 0x01, 0xd9,
    0x3d, 0x1e, 0x02, 0x93, 0xbd, 0x00, 0x37, 0xa8, 0xbd, 0x82, 0xd3, 0x1a, 0x3d, 0xb0, 0xbc, 0xca, 0x3c, 0x2b, 0x84,
    0x5e, 0xbd, 0x91, 0xee, 0x38, 0x3e, 0xf4, 0x6e, 0x01, 0xbd, 0x46, 0xa9, 0xcf, 0xbd, 0x81, 0x4d, 0xfc, 0xbd, 0x8b,
    0xa6, 0x6a, 0xbd, 0xb4, 0xcd, 0x09, 0x3c, 0x9d, 0xf9, 0x41, 0xbe, 0x59, 0x0a, 0xdf, 0xbc, 0xa6, 0x05, 0x0a, 0xbd,
    0x97, 0xa4, 0x0d, 0xbe, 0x53, 0xe7, 0x9d, 0x3d, 0xd3, 0x46, 0xcc, 0xbd, 0xa5, 0xa3, 0xd5, 0xbd, 0x9f, 0x10, 0xa3,
    0xbd, 0x05, 0xe7, 0x12, 0x3e, 0xa6, 0xff, 0xa9, 0x3c, 0xb9, 0xa0, 0xaa, 0x3d, 0x85, 0x86, 0x97, 0xbc, 0x44, 0x97,
    0x67, 0x3e, 0x25, 0xe6, 0xc3, 0x3d, 0x73, 0xad, 0x94, 0x3d, 0x67, 0x08, 0x2a, 0x3d, 0xfa, 0xfb, 0xea, 0xbd, 0x20,
    0xeb, 0xfd, 0x3d, 0x2f, 0x6f, 0xcd, 0x3d, 0x2a, 0x38, 0x86, 0x3d, 0x37, 0xff, 0x40, 0x3e, 0x5b, 0xa7, 0xc2, 0xbc,
    0xb3, 0xb5, 0x17, 0xbe, 0x86, 0xf4, 0xf1, 0x3d, 0x1f, 0xee, 0x9d, 0x3d, 0xb5, 0xb4, 0x74, 0xbd, 0xd6, 0xd8, 0x32,
    0xbe, 0x4b, 0x1f, 0xe3, 0x3d, 0x78, 0xd9, 0xd7, 0x3c, 0x23, 0xc1, 0xea, 0x3d, 0x5a, 0x5d, 0x15, 0xbe, 0x70, 0xdc,
    0x66, 0x3e, 0x0b, 0x23, 0x93, 0x3e, 0xa2, 0x08, 0xa6, 0x3c, 0x5b, 0xf3, 0x19, 0xbe, 0x1f, 0x8f, 0x0b, 0xbe, 0xc2,
    0xbb, 0x81, 0xbd, 0xd5, 0x43, 0xd4, 0xbd, 0x21, 0xfc, 0x7d, 0xbd, 0x2e, 0x2d, 0xf4, 0x3c, 0x26, 0x30, 0x45, 0xbd,
    0x76, 0xcb, 0x0e, 0xbe, 0xf8, 0x97, 0x46, 0xbe, 0x31, 0x3d, 0x97, 0x3d, 0x8e, 0xfc, 0x5b, 0xbd, 0x1f, 0x29, 0x53,
    0x3a, 0xc6, 0xf0, 0xcc, 0x3d, 0x83, 0xc0, 0x8d, 0xbe, 0x2f, 0x59, 0x84, 0xbc, 0xe6, 0x7e, 0xa4, 0x3d, 0x37, 0x0f,
    0x2c, 0x3e, 0x38, 0xc8, 0xd6, 0xbc, 0xac, 0x37, 0xd8, 0x3d, 0x92, 0xce, 0x1a, 0x3e, 0x3f, 0xac, 0x0e, 0x3e, 0x99,
    0x93, 0x58, 0xbe, 0x1e, 0x90, 0x01, 0x3e, 0x0c, 0x2a, 0x2b, 0x3d, 0xfa, 0xa0, 0x5a, 0x3e, 0x9e, 0x06, 0x0b, 0xbe,
    0xa7, 0x0f, 0x28, 0x3e, 0xb7, 0xa4, 0x5a, 0x3e, 0x9b, 0x3d, 0x1d, 0x3e, 0xcc, 0x08, 0x4a, 0x3e, 0xf6, 0x19, 0x9b,
    0xbe, 0xfc, 0x8d, 0x89, 0x3c, 0x17, 0x59, 0x2b, 0x3d, 0x10, 0x7b, 0x4e, 0xbe, 0xa4, 0x24, 0xb1, 0xbd, 0xe0, 0xf0,
    0x46, 0x3d, 0x17, 0xe1, 0x93, 0x3d, 0x03, 0xcc, 0x0d, 0x3e, 0x0a, 0x25, 0x86, 0xbe, 0x5e, 0xb5, 0xa8, 0x3d, 0x93,
    0xdd, 0xbc, 0x3c, 0x62, 0x86, 0xff, 0x3c, 0x33, 0x8c, 0x88, 0x3e, 0x87, 0xdb, 0xf1, 0xbd, 0x47, 0xa8, 0x0c, 0xbd,
    0x0c, 0xa5, 0x0a, 0x3e, 0xb5, 0x72, 0x3d, 0xbe, 0x46, 0x15, 0xbc, 0xbc, 0x4a, 0x03, 0xd1, 0xbb, 0xf7, 0x23, 0x6c,
    0x3e, 0x83, 0x52, 0xf5, 0xbe, 0x07, 0x62, 0xee, 0x3d, 0x28, 0x0c, 0xce, 0x3e, 0x76, 0x35, 0x59, 0x3e, 0xa0, 0x32,
    0xcb, 0x3e, 0x95, 0x56, 0xc3, 0x3e, 0xff, 0x73, 0x3c, 0xbe, 0xe7, 0x6a, 0x87, 0xbe, 0x80, 0x47, 0xd0, 0x3d, 0x15,
    0xc4, 0x07, 0xbe, 0x94, 0x0a, 0x54, 0x3e, 0x3c, 0x45, 0xc1, 0x3d, 0x51, 0x26, 0x14, 0xbe, 0x61, 0xeb, 0x9f, 0xbe,
    0x34, 0x57, 0xda, 0x3d, 0xcf, 0x7c, 0x3d, 0xbe, 0x7b, 0x8c, 0xa3, 0xbe, 0x37, 0xad, 0x8e, 0x3d, 0x04, 0x0a, 0xca,
    0xbd, 0x98, 0xec, 0x6d, 0xbe, 0x4c, 0xc3, 0xdb, 0x3e, 0x97, 0x0d, 0xe7, 0xbe, 0x8d, 0xb0, 0x64, 0x3e, 0x82, 0x2d,
    0x91, 0x3d, 0x0a, 0xcd, 0x2a, 0x3e, 0x7e, 0xf8, 0x88, 0x3c, 0x7e, 0x41, 0x00, 0xbf, 0x8e, 0xfb, 0x6c, 0xbe, 0x55,
    0x71, 0x67, 0xbe, 0x8c, 0x7e, 0x56, 0xbc, 0x7c, 0xd7, 0xe6, 0x3d, 0x3b, 0xca, 0xd5, 0x3e, 0x87, 0x3e, 0x5f, 0xbc,
    0x28, 0x69, 0x46, 0x3e, 0x71, 0xe2, 0x23, 0x3e, 0x9a, 0x95, 0x50, 0xbe, 0x03, 0x63, 0xac, 0x3e, 0xa9, 0x1a, 0x44,
    0xbe, 0x63, 0xea, 0xc2, 0xbd, 0xff, 0xd4, 0x63, 0xbf, 0x24, 0x7e, 0x3d, 0x3f, 0x9f, 0x71, 0xa0, 0xbd, 0xb6, 0xd9,
    0x00, 0xbe, 0x43, 0xfe, 0x67, 0xbc, 0xf0, 0xac, 0x4f, 0xbf, 0x5a, 0x6a, 0xa4, 0xbf, 0x2e, 0x12, 0x8e, 0x3a, 0xdb,
    0x81, 0x8f, 0x3c, 0xeb, 0xa0, 0x7f, 0xbe, 0xf5, 0x02, 0x32, 0xbf, 0x8e, 0x7f, 0xd2, 0x3e, 0x38, 0x3e, 0x15, 0xbf,
    0x96, 0xb7, 0x87, 0xbe, 0x13, 0xda, 0x0e, 0x3f, 0x95, 0x09, 0x84, 0xbd, 0x5c, 0x58, 0x11, 0x3e, 0xbb, 0xec, 0xca,
    0xbc, 0x34, 0xdc, 0x71, 0xbe, 0x2d, 0x69, 0xa6, 0xbd, 0x16, 0x9f, 0x98, 0x3e, 0xbb, 0xb8, 0x2c, 0xbf, 0x78, 0x81,
    0x9f, 0x3d, 0x02, 0xe0, 0x95, 0x3c, 0xba, 0x7f, 0xe9, 0xbe, 0xdf, 0x05, 0x33, 0xbe, 0x6f, 0x38, 0xd8, 0xbe, 0xbd,
    0x35, 0x02, 0x3f, 0xee, 0x3a, 0xad, 0x3f, 0xd8, 0xeb, 0xad, 0xbc, 0xb3, 0x49, 0x57, 0x3f, 0x91, 0x15, 0x89, 0xbd,
    0xf9, 0x7e, 0x9e, 0xbd, 0x12, 0x5d, 0xda, 0xbc, 0xfc, 0x55, 0x90, 0x3c, 0xcb, 0xa3, 0xa6, 0xbe, 0x47, 0x73, 0x0b,
    0x3d, 0x60, 0x19, 0xc1, 0xbd, 0x9d, 0xc5, 0x25, 0x3e, 0x20, 0xec, 0xd4, 0x3d, 0x14, 0x5e, 0x0f, 0xbe, 0xbd, 0xb8,
    0x88, 0xbd, 0x5e, 0xef, 0xae, 0xbd, 0xd6, 0x60, 0x4f, 0x3e, 0xca, 0xe6, 0xca, 0x3d, 0x1a, 0x28, 0xbc, 0x3d, 0x74,
    0x41, 0x4a, 0xbb, 0x27, 0xfc, 0x58, 0x3d, 0x8a, 0x11, 0x36, 0x3e, 0xe6, 0x6c, 0x1f, 0x3e, 0x0e, 0x45, 0x88, 0xbd,
    0xeb, 0x1c, 0x93, 0x3d, 0xcf, 0x8a, 0x5b, 0x3e, 0xbf, 0x6a, 0x2d, 0x3e, 0x71, 0x20, 0x35, 0x3e, 0x60, 0x14, 0xf2,
    0x3d, 0xf3, 0x1c, 0x13, 0xbe, 0x42, 0xb2, 0x6f, 0xbe, 0x11, 0xb5, 0xc5, 0xbd, 0xbc, 0xdb, 0x0b, 0xbe, 0x65, 0x73,
    0x27, 0x3d, 0x06, 0xf3, 0xb5, 0x3d, 0x36, 0x73, 0x50, 0xbd, 0x1a, 0xcc, 0x00, 0x3e, 0x54, 0x04, 0xab, 0x3c, 0x61,
    0x17, 0x33, 0x3e, 0x3f, 0xdf, 0x56, 0x3d, 0x37, 0x96, 0x82, 0x3e, 0x46, 0x4d, 0xcc, 0x3e, 0xaa, 0xb2, 0x19, 0x3e,
    0x13, 0x6c, 0x29, 0xbe, 0x7b, 0xee, 0xa7, 0x3e, 0xa7, 0xd9, 0xdd, 0x3d, 0x7f, 0xdd, 0xab, 0xbe, 0xae, 0x71, 0xea,
    0x3b, 0x4f, 0xa9, 0x4b, 0x3e, 0x66, 0x7f, 0x27, 0x3e, 0x5c, 0xf6, 0xac, 0x3d, 0x4b, 0x2e, 0x15, 0x3d, 0x5d, 0x3c,
    0x55, 0x3d, 0x4e, 0xad, 0x33, 0xbe, 0x77, 0xfc, 0xaa, 0xbd, 0x55, 0x91, 0xb2, 0xbe, 0x87, 0x9c, 0x9f, 0x3d, 0xcf,
    0x0a, 0x1b, 0xbe, 0xc2, 0x9c, 0x5f, 0xbe, 0x70, 0x27, 0x6d, 0xbe, 0x6e, 0xe2, 0x5e, 0x3e, 0xb4, 0xc6, 0x65, 0xbd,
    0x15, 0xb6, 0x68, 0x3d, 0x3c, 0xf2, 0x90, 0xbe, 0x5d, 0xa1, 0xb2, 0x3e, 0x17, 0xbc, 0x5c, 0x3d, 0x96, 0xb4, 0xec,
    0xbe, 0x4e, 0xc4, 0x2a, 0x3e, 0x13, 0xcc, 0x6c, 0xbe, 0xb2, 0xbf, 0x12, 0xbd, 0x9c, 0x81, 0x13, 0x3e, 0x19, 0xa4,
    0x96, 0xbd, 0xfe, 0x17, 0x9a, 0x3d, 0xa0, 0x00, 0xf0, 0xbc, 0x06, 0x0f, 0xef, 0xbd, 0xc0, 0x66, 0x9d, 0x3c, 0xac,
    0x8f, 0x75, 0xbd, 0x2a, 0x3e, 0xe8, 0x3d, 0x4a, 0x1a, 0xa6, 0xbb, 0xd7, 0x69, 0x1b, 0x3d, 0xe3, 0x33, 0x34, 0xbd,
    0xd8, 0xcb, 0xe4, 0x3d, 0x3c, 0xc6, 0x54, 0xbe, 0xea, 0xc9, 0xb1, 0xbc, 0x07, 0x7d, 0x14, 0xbd, 0xd3, 0x2f, 0x15,
    0xbe, 0x0f, 0x0a, 0x76, 0x3c, 0x2a, 0xd8, 0xdd, 0xbd, 0xa4, 0x29, 0x9a, 0x3c, 0x4c, 0x0b, 0xa2, 0xbc, 0x75, 0x3d,
    0x0c, 0xbe, 0x79, 0xd7, 0x1c, 0x3d, 0x4e, 0xb4, 0xbd, 0xbd, 0x30, 0xaf, 0x4b, 0xbc, 0x37, 0x21, 0xba, 0x3d, 0xbb,
    0x7b, 0x07, 0x3d, 0x08, 0xb7, 0x9d, 0x3c, 0xa5, 0x93, 0x38, 0xbc, 0xc5, 0x43, 0xc8, 0xbc, 0x72, 0x1c, 0x8b, 0x3d,
    0x58, 0x24, 0xce, 0xbc, 0x46, 0xe6, 0x4d, 0x3e, 0xe7, 0xf1, 0xd2, 0x3d, 0xde, 0xc1, 0x08, 0xbe, 0xcb, 0xd9, 0x57,
    0x3b, 0x03, 0x32, 0x8c, 0xbb, 0x3f, 0x43, 0x54, 0xbc, 0xa5, 0xd8, 0xde, 0xbc, 0xff, 0xa3, 0xa5, 0xbd, 0xe7, 0xb9,
    0xa7, 0x3d, 0x13, 0x8d, 0x96, 0xbc, 0xb4, 0x29, 0x34, 0xbd, 0x5f, 0x78, 0xfb, 0xbc, 0x8a, 0xee, 0xb6, 0xbd, 0x26,
    0x23, 0x26, 0xbe, 0xd2, 0x67, 0x76, 0xbc, 0xe4, 0xff, 0x7b, 0x3e, 0x93, 0x34, 0x53, 0x3d, 0xaf, 0x98, 0x06, 0xbe,
    0x66, 0xda, 0xae, 0x3d, 0x2c, 0x20, 0xbe, 0xbc, 0x45, 0x21, 0xfa, 0xbc, 0xb4, 0xa5, 0xb9, 0xbd, 0x0d, 0x28, 0x5f,
    0x3d, 0xc4, 0xbb, 0x10, 0x3d, 0x6e, 0x7d, 0x4e, 0x3e, 0xdf, 0xb7, 0x1a, 0x3e, 0x55, 0x2c, 0xab, 0xbc, 0x58, 0x85,
    0xfe, 0x3c, 0xc7, 0x36, 0xcc, 0xbc, 0x94, 0xad, 0xab, 0x3a, 0xd4, 0x5d, 0xe5, 0x3d, 0xf3, 0x07, 0x41, 0x3e, 0x9b,
    0xc1, 0xc9, 0xbe, 0x12, 0xca, 0xf5, 0x3d, 0x52, 0x9c, 0x21, 0xbd, 0x3b, 0xc2, 0x26, 0xbf, 0x96, 0xac, 0xfd, 0x3d,
    0x26, 0xc9, 0x51, 0xbd, 0x52, 0xdb, 0x0d, 0xbf, 0xb3, 0x13, 0x9e, 0x3d, 0x19, 0x4a, 0x22, 0x3e, 0x6d, 0x13, 0x01,
    0xbf, 0xc9, 0x2d, 0x5e, 0x3d, 0x7d, 0x3e, 0x4c, 0x3c, 0x86, 0xd1, 0x82, 0xbe, 0xaf, 0x50, 0x89, 0xbe, 0xe5, 0xce,
    0x21, 0x3e, 0xa2, 0x03, 0x06, 0xbe, 0xf5, 0x85, 0x11, 0x3d, 0x66, 0xb0, 0x21, 0xbe, 0x53, 0x1e, 0x26, 0xbd, 0x33,
    0xae, 0x41, 0xbe, 0x73, 0x9f, 0xd4, 0xbe, 0xd7, 0x14, 0xd4, 0x3d, 0x7e, 0xa7, 0xf7, 0xbc, 0xbd, 0xd4, 0xfa, 0x3d,
    0x50, 0xeb, 0x3c, 0x3d, 0x52, 0xd2, 0xa5, 0xbc, 0x1d, 0x2b, 0xb6, 0xbe, 0x96, 0x12, 0x66, 0xbd, 0xcb, 0x5d, 0x57,
    0xbe, 0xa1, 0xf5, 0x2c, 0x3e, 0xa4, 0x91, 0x84, 0x3e, 0x8f, 0x9a, 0x11, 0x3d, 0xca, 0x9b, 0xa5, 0xbd, 0x93, 0xeb,
    0xac, 0xbc, 0x89, 0xbd, 0x3b, 0xbd, 0x37, 0xc9, 0x3e, 0x3b, 0x55, 0xb3, 0x79, 0x3e, 0x68, 0x82, 0xf9, 0x3d, 0x49,
    0xac, 0x1c, 0x3d, 0x65, 0x44, 0x23, 0xbe, 0x99, 0x3d, 0x4f, 0xbc, 0x68, 0x8f, 0x9e, 0x39, 0x2e, 0x7a, 0xdc, 0xbc,
    0x32, 0x81, 0x9d, 0xbd, 0x17, 0xec, 0x1c, 0xbe, 0x73, 0x82, 0xa5, 0x3d, 0xeb, 0xa3, 0x6b, 0xbe, 0x1f, 0xdf, 0xf6,
    0xbc, 0x09, 0x63, 0xaf, 0xbb, 0x04, 0xc5, 0xf0, 0xbd, 0x7d, 0x0a, 0xe5, 0xbd, 0x2e, 0xa9, 0x2d, 0x3d, 0xb1, 0x05,
    0xb8, 0x3d, 0xe0, 0x75, 0x5e, 0xbe, 0x93, 0x2a, 0xcf, 0xbd, 0x7a, 0xb6, 0xd7, 0xbd, 0x30, 0x31, 0x5e, 0xbe, 0xd9,
    0x97, 0x35, 0xbe, 0x45, 0x7c, 0x52, 0xbe, 0xc1, 0x3a, 0xe4, 0x3d, 0xf6, 0x28, 0x6d, 0x3d, 0xa2, 0xbf, 0x8b, 0xbd,
    0x23, 0x77, 0x4f, 0x3c, 0xda, 0x5b, 0x2a, 0x3c, 0x0d, 0xa4, 0x3a, 0x3e, 0x92, 0x00, 0x50, 0x3d, 0x0e, 0x35, 0xb1,
    0x3d, 0x76, 0x56, 0xf1, 0x3d, 0x0e, 0x7b, 0x20, 0x3e, 0xd7, 0xce, 0x5e, 0x3d, 0xbe, 0x06, 0x96, 0x3e, 0xf8, 0xda,
    0xc5, 0x3c, 0x7c, 0x65, 0xad, 0xbe, 0xad, 0x5f, 0xab, 0x3d, 0xeb, 0x93, 0x35, 0xbd, 0x09, 0x21, 0x06, 0xbe, 0xfe,
    0x79, 0x92, 0x3e, 0xdb, 0x2c, 0xb4, 0x3e, 0xce, 0x1a, 0x8a, 0xbd, 0x87, 0x8b, 0x64, 0xbd, 0x1c, 0x6f, 0xdc, 0xbd,
    0x36, 0x1f, 0x15, 0xbd, 0x1e, 0x37, 0x60, 0x3d, 0x8c, 0x87, 0x5a, 0x3e, 0x80, 0xff, 0x2d, 0x3d, 0xc6, 0xcb, 0x59,
    0xbe, 0x50, 0x70, 0x14, 0xbf, 0xa4, 0xd2, 0xc1, 0x3d, 0x06, 0xa7, 0x8f, 0x3c, 0x4a, 0xcc, 0x42, 0x3e, 0x2c, 0xbc,
    0x33, 0x3e, 0x0b, 0xbf, 0x44, 0xbe, 0x9a, 0x3b, 0x63, 0xbc, 0x26, 0x98, 0x06, 0xbe, 0xb7, 0x89, 0x15, 0xbe, 0x05,
    0x39, 0x0c, 0x3e, 0x1a, 0x27, 0x21, 0x3e, 0xf3, 0xe9, 0x30, 0xbb, 0xe0, 0xbd, 0x3a, 0xbd, 0xd7, 0x9f, 0x9b, 0x3d,
    0xa2, 0xd0, 0x4b, 0xbd, 0xcc, 0x77, 0x9e, 0xbc, 0xb6, 0xa8, 0x29, 0x3d, 0x96, 0xa9, 0x07, 0x3e, 0x2c, 0x65, 0x27,
    0xbd, 0x5e, 0x78, 0x01, 0xbe, 0x1a, 0xaf, 0x5f, 0xbd, 0x57, 0x54, 0xd5, 0x3d, 0x53, 0x95, 0x86, 0xbd, 0x2f, 0x70,
    0x03, 0xbe, 0xd7, 0xd4, 0xe6, 0xbc, 0x39, 0x5d, 0xf7, 0x3c, 0x11, 0x2e, 0xcd, 0xbd, 0xcf, 0x11, 0x09, 0x3e, 0xf0,
    0x3e, 0xe3, 0x3d, 0x4a, 0x9b, 0x0e, 0xbe, 0x2c, 0x90, 0xed, 0xbd, 0x58, 0xf1, 0x31, 0x3e, 0x3a, 0x2b, 0x00, 0x3e,
    0xea, 0x79, 0x26, 0xbd, 0xdd, 0xbd, 0xce, 0x3c, 0x19, 0x7b, 0x23, 0x3d, 0xd4, 0x3b, 0x1e, 0xbc, 0xd5, 0x86, 0x10,
    0x3d, 0x3b, 0x65, 0x80, 0x3d, 0x16, 0x2f, 0x1f, 0x3d, 0x17, 0xf7, 0x03, 0x3d, 0xc1, 0x2e, 0x57, 0xbd, 0xd6, 0x8c,
    0x43, 0x3e, 0x0e, 0x23, 0x20, 0xbe, 0x54, 0xd0, 0xb0, 0xbd, 0x32, 0xff, 0x60, 0x3e, 0x43, 0xa0, 0x00, 0x3e, 0x0a,
    0x46, 0x8b, 0x3d, 0xa2, 0x01, 0xa4, 0xbd, 0x27, 0x68, 0x36, 0xbe, 0x14, 0x60, 0x75, 0xbd, 0xc6, 0xf4, 0x1a, 0xbe,
    0xda, 0x58, 0x82, 0x3c, 0x0d, 0xb2, 0x7a, 0x3d, 0x7a, 0x16, 0xd7, 0xbb, 0xb2, 0x10, 0x91, 0xbd, 0x43, 0x25, 0xfe,
    0x3d, 0x7d, 0x92, 0x71, 0x3e, 0x4b, 0xa4, 0xb6, 0x3b, 0x04, 0x26, 0x19, 0xbe, 0x12, 0x88, 0x59, 0x3d, 0x11, 0xb7,
    0x0c, 0xbe, 0x50, 0x0a, 0x01, 0xbe, 0x97, 0x8b, 0x1f, 0x3e, 0x06, 0xf3, 0x70, 0xbd, 0x74, 0x46, 0x11, 0xbd, 0x5e,
    0xc2, 0x05, 0xbd, 0x68, 0xec, 0x14, 0xbe, 0x56, 0x47, 0xaf, 0x3d, 0x9a, 0x1f, 0x57, 0x3e, 0xbf, 0x37, 0x6a, 0x3c,
    0x0c, 0x57, 0x46, 0xbe, 0x6d, 0xde, 0x8c, 0x3d, 0x0c, 0xf8, 0x31, 0x3d, 0xd1, 0x72, 0xda, 0x3d, 0x71, 0xf2, 0x8d,
    0x3c, 0x1a, 0xf1, 0xd0, 0xbd, 0x70, 0xe9, 0x57, 0xbc, 0xef, 0x40, 0x14, 0xbe, 0x8b, 0x51, 0xa0, 0xbd, 0x26, 0x0b,
    0x7d, 0x3d, 0x7b, 0x79, 0x5f, 0xbd, 0x15, 0xee, 0xd8, 0xbd, 0x36, 0x03, 0xad, 0xbc, 0x71, 0xf2, 0x92, 0x3d, 0x34,
    0x58, 0x0c, 0x3e, 0x9c, 0xb7, 0x13, 0xbe, 0x79, 0x75, 0xbf, 0x3c, 0xe6, 0xba, 0x7f, 0xbd, 0xb0, 0x23, 0x5f, 0xbe,
    0xe6, 0xc4, 0x30, 0xbe, 0x97, 0x42, 0x20, 0x3e, 0xa1, 0xbf, 0x5f, 0x3e, 0x40, 0x67, 0x62, 0xbd, 0x57, 0x02, 0xc1,
    0x3c, 0xaa, 0x7e, 0xe0, 0x3d, 0xa4, 0xa8, 0x1c, 0x3e, 0xed, 0x84, 0xae, 0xbd, 0xc4, 0x1b, 0xb5, 0xbc, 0x15, 0x64,
    0xf8, 0xbd, 0x84, 0xfa, 0xde, 0xbc, 0x07, 0x1f, 0xba, 0xbd, 0x3e, 0x82, 0x0e, 0x3e, 0x12, 0xa6, 0xa8, 0x3c, 0xfc,
    0x8e, 0x64, 0x3d, 0xf6, 0x5d, 0xfc, 0xbd, 0x47, 0xab, 0x33, 0xbf, 0x27, 0x15, 0xed, 0x3d, 0x45, 0x03, 0x4b, 0xbe,
    0xa7, 0xdc, 0x03, 0xbe, 0xff, 0xb1, 0x99, 0xbe, 0x87, 0xb8, 0xd9, 0xbe, 0x4c, 0x43, 0x2b, 0xbf, 0xdc, 0x59, 0x8f,
    0x3d, 0xe0, 0x39, 0x16, 0xbe, 0x95, 0xf2, 0x24, 0xbf, 0x24, 0xf1, 0xcd, 0x3d, 0x14, 0xc2, 0x82, 0x3e, 0x75, 0xb9,
    0x11, 0xbf, 0xb4, 0x6c, 0x06, 0xbf, 0x77, 0xa9, 0xbe, 0x3d, 0xc1, 0xcc, 0x0a, 0x3e, 0xf7, 0xa6, 0x27, 0x3e, 0xf9,
    0xaf, 0x3a, 0xbe, 0xda, 0xe5, 0x07, 0xbe, 0x74, 0xb1, 0x28, 0xbd, 0x67, 0x43, 0x04, 0xbd, 0x7c, 0x06, 0x06, 0xbe,
    0xb6, 0x31, 0xb4, 0xbd, 0x0a, 0xba, 0x9f, 0x3d, 0x17, 0x44, 0xe6, 0x3d, 0xd8, 0xe9, 0xe3, 0xbb, 0xfd, 0xbe, 0xd5,
    0xbd, 0x70, 0x9d, 0x0f, 0xbd, 0x8e, 0xe4, 0xfc, 0x3e, 0x57, 0x92, 0xb6, 0x3e, 0xb0, 0x50, 0x84, 0x3e, 0xcd, 0x69,
    0xea, 0xbd, 0x9a, 0xe7, 0x95, 0x3c, 0xc9, 0x55, 0x45, 0xbc, 0xf5, 0xb7, 0x79, 0xbd, 0x60, 0xfa, 0xb1, 0xba, 0x61,
    0x38, 0xdb, 0xbd, 0xc4, 0x4b, 0xc0, 0x3d, 0xd8, 0x80, 0x8a, 0x3d, 0x8a, 0x75, 0x2a, 0x3e, 0x35, 0x37, 0x30, 0x3a,
    0x8c, 0x3a, 0x7c, 0x3d, 0x5b, 0x49, 0xce, 0x3d, 0x6c, 0x11, 0xa1, 0xbc, 0x8f, 0xa6, 0x0c, 0xbe, 0x73, 0xa1, 0x6c,
    0xbd, 0x8f, 0xc9, 0xf3, 0x3c, 0x95, 0x78, 0x3b, 0xbe, 0xfb, 0x0a, 0xf3, 0xbb, 0x19, 0x10, 0x17, 0x3c, 0xd6, 0x4c,
    0x65, 0xbd, 0x03, 0x0c, 0x6f, 0x3d, 0xb1, 0xc5, 0x55, 0xbd, 0x90, 0x6a, 0x69, 0xbd, 0x2e, 0x62, 0xda, 0xbc, 0x9d,
    0xeb, 0xe5, 0xbc, 0xb9, 0x0d, 0xd3, 0x3d, 0xcc, 0xae, 0xe8, 0x3d, 0x71, 0x8c, 0xc0, 0xbd, 0x02, 0x5b, 0x50, 0xbd,
    0x42, 0x4c, 0x54, 0x3c, 0x6e, 0x71, 0x96, 0x3b, 0xd7, 0xa4, 0x98, 0xbd, 0xaf, 0x08, 0x94, 0xbb, 0x87, 0x19, 0x63,
    0x3e, 0x7a, 0x90, 0x86, 0xbd, 0xa3, 0xd2, 0xad, 0x3d, 0x01, 0xfb, 0x3b, 0xbe, 0x6c, 0x85, 0x9f, 0xbd, 0x85, 0xeb,
    0xd8, 0x3d, 0xfd, 0xcf, 0x0d, 0xbd, 0x50, 0x9b, 0xdd, 0xbc, 0x50, 0x3b, 0x0f, 0x3e, 0x40, 0x1d, 0x4e, 0xbe, 0xd9,
    0x9b, 0xe7, 0x3c, 0x82, 0x57, 0xb2, 0xbc, 0xb8, 0xa6, 0x9c, 0x3d, 0x97, 0x60, 0x00, 0x3e, 0x19, 0xcb, 0x20, 0xbe,
    0x9b, 0x71, 0x0f, 0xbe, 0x1e, 0xee, 0x07, 0xbe, 0x42, 0x54, 0x08, 0x3d, 0x9b, 0x30, 0x8c, 0x3d, 0xf4, 0x04, 0x57,
    0xbe, 0x53, 0xa4, 0x87, 0xbe, 0xbe, 0xd7, 0x4d, 0xbb, 0x57, 0x58, 0xb6, 0x3e, 0xd7, 0x14, 0x16, 0xbe, 0x20, 0xa6,
    0xcd, 0xbd, 0x8a, 0xd4, 0xf1, 0x3d, 0x40, 0x44, 0xa4, 0x3e, 0x38, 0x17, 0x11, 0x3e, 0x90, 0x1a, 0x12, 0xbe, 0x94,
    0x9c, 0xc7, 0x3e, 0xcd, 0xb8, 0xe8, 0xbd, 0xce, 0xee, 0xf9, 0xbd, 0xd1, 0x2a, 0x3b, 0x3e, 0x51, 0x65, 0x1b, 0x3e,
    0x1e, 0x19, 0x41, 0xbd, 0x58, 0x96, 0x06, 0x3d, 0x8f, 0x7e, 0xa7, 0xbb, 0x2c, 0x61, 0x0f, 0xbe, 0x87, 0x95, 0x79,
    0xbd, 0x69, 0x80, 0x42, 0xbd, 0x08, 0x32, 0xe2, 0xbc, 0x26, 0xc7, 0x1a, 0x3c, 0x5c, 0x25, 0x3b, 0x3d, 0x77, 0xf3,
    0xcf, 0x3c, 0x4a, 0xe7, 0x92, 0xbd, 0xac, 0x84, 0xf1, 0xbd, 0x2b, 0xec, 0x4a, 0x3d, 0xcb, 0x04, 0x04, 0xbd, 0x97,
    0xca, 0x32, 0x3d, 0xde, 0x4d, 0xf8, 0x3d, 0x33, 0xad, 0x49, 0xbc, 0x17, 0x77, 0xeb, 0xbd, 0x1f, 0xda, 0x0f, 0x3e,
    0x79, 0x0d, 0xb5, 0x3d, 0xb1, 0xaf, 0xf4, 0x3c, 0xf4, 0x39, 0xc7, 0xbd, 0x4d, 0x42, 0x41, 0xbe, 0xad, 0x84, 0x25,
    0xbe, 0x7a, 0x25, 0x51, 0x3e, 0x88, 0x51, 0x9b, 0xbd, 0x99, 0x2a, 0x59, 0xbd, 0xbe, 0x75, 0xb9, 0xbb, 0x13, 0x3d,
    0x11, 0x3d, 0x96, 0xa3, 0x5e, 0x3d, 0xca, 0x48, 0x44, 0x3d, 0xa5, 0xba, 0xd4, 0x3d, 0x98, 0x63, 0x27, 0x3e, 0xdc,
    0xbd, 0x63, 0x3d, 0xf9, 0xc6, 0x73, 0x3d, 0x92, 0x62, 0x04, 0x3e, 0x5a, 0x92, 0x83, 0xbd, 0x67, 0x1c, 0x98, 0x3d,
    0xfd, 0x6c, 0x0b, 0x3d, 0x47, 0x64, 0x6b, 0x3d, 0xaf, 0xcf, 0x22, 0x3e, 0xaf, 0xb3, 0x4a, 0xbd, 0xe7, 0xf8, 0x5e,
    0xbd, 0x4c, 0x8d, 0xad, 0xbd, 0x50, 0x1d, 0x99, 0xbd, 0x1f, 0xda, 0x24, 0xbe, 0x97, 0xfc, 0x50, 0x3e, 0x85, 0x7f,
    0x86, 0xbe, 0x9e, 0x51, 0x1b, 0x3d, 0x53, 0x16, 0x9a, 0xbd, 0xfb, 0xbe, 0x6f, 0xbd, 0x60, 0x62, 0x2a, 0xbd, 0xd0,
    0xe8, 0x48, 0x3d, 0xd2, 0x4b, 0x24, 0xbe, 0xc9, 0xbb, 0x3f, 0x3e, 0x4f, 0xa8, 0x25, 0x3d, 0xec, 0xf7, 0x0e, 0x3e,
    0x96, 0xc7, 0x88, 0x3c, 0xea, 0x19, 0x4e, 0x3c, 0x9e, 0x7a, 0xc8, 0xbd, 0x7b, 0x99, 0xc7, 0xbd, 0xa1, 0x4f, 0x99,
    0x3d, 0xf5, 0xc0, 0x1c, 0x3e, 0x05, 0xb4, 0x05, 0x3e, 0x45, 0xfe, 0xa5, 0xbd, 0xc6, 0xa4, 0x02, 0x3e, 0x06, 0x6e,
    0x79, 0x3d, 0x40, 0x53, 0x8f, 0xbc, 0xc4, 0x7a, 0x05, 0xbe, 0xb1, 0x0c, 0x44, 0xbe, 0x3f, 0xa3, 0xe7, 0x3d, 0x6e,
    0xb8, 0x86, 0xbd, 0x57, 0x06, 0x2a, 0x3e, 0xf6, 0x13, 0xa6, 0xbc, 0x22, 0x96, 0x4e, 0x3e, 0x6c, 0x96, 0xa8, 0xbd,
    0x07, 0xb0, 0x4b, 0x3d, 0x10, 0xba, 0x1f, 0x3e, 0xf2, 0x70, 0x3e, 0xbe, 0xc9, 0xb1, 0x14, 0xbe, 0x4a, 0x11, 0x35,
    0x3e, 0xc3, 0xe9, 0xdb, 0xbd, 0x54, 0x4d, 0x24, 0xbe, 0x1c, 0xf1, 0xc3, 0x3d, 0xf2, 0xf6, 0xa4, 0x3c, 0x2d, 0xbb,
    0x9a, 0x3d, 0xf6, 0x94, 0xf3, 0xbc, 0x19, 0x0d, 0x96, 0x3d, 0x85, 0x83, 0xf7, 0x3d, 0x31, 0x0a, 0x99, 0x3d, 0x63,
    0x36, 0x83, 0x3c, 0x99, 0xc9, 0x84, 0xbb, 0x00, 0xf2, 0x76, 0xbd, 0x9e, 0x39, 0xa5, 0xbd, 0x34, 0xfb, 0xba, 0x3c,
    0xc3, 0xdc, 0x0c, 0x3e, 0x4d, 0xb9, 0x4d, 0xbd, 0x2b, 0xd4, 0x00, 0xbe, 0x96, 0xdd, 0xa0, 0x3d, 0xab, 0x74, 0x79,
    0x3c, 0xa4, 0x4c, 0x48, 0x3d, 0x6e, 0xad, 0x44, 0xbe, 0x48, 0xf7, 0xcf, 0x3d, 0x18, 0x5a, 0xbe, 0xbb, 0xac, 0x66,
    0xe3, 0xbd, 0xf7, 0xd6, 0xfb, 0x3d, 0x86, 0x58, 0xb1, 0xbd, 0x70, 0xdc, 0x21, 0xbe, 0xb7, 0x90, 0x61, 0xbe, 0xcd,
    0x07, 0x60, 0x3d, 0xc0, 0x86, 0x1d, 0xbc, 0x7c, 0x7c, 0xef, 0xbc, 0xea, 0x57, 0xbd, 0x3c, 0x60, 0x57, 0x2a, 0x3e,
    0xd7, 0x21, 0x07, 0xbc, 0x8c, 0x56, 0x9e, 0xbd, 0x24, 0x35, 0x95, 0xbd, 0xd9, 0x6a, 0x82, 0xbe, 0x22, 0x3b, 0xf5,
    0xbd, 0x44, 0x7b, 0xa0, 0x3d, 0x9c, 0xae, 0x1f, 0xbd, 0xf0, 0xbd, 0x01, 0x3d, 0x95, 0x6d, 0xc1, 0x3d, 0x1f, 0x2d,
    0xda, 0x3d, 0x59, 0x1d, 0x0f, 0x3e, 0x33, 0xc9, 0x0e, 0x3e, 0xe6, 0xfe, 0xff, 0xff, 0x04, 0x00, 0x00, 0x00, 0x80,
    0x00, 0x00, 0x00, 0x0b, 0x6d, 0x5d, 0xb9, 0x5c, 0x40, 0x35, 0x3b, 0x99, 0xbe, 0xb9, 0xbb, 0x81, 0xb9, 0x9b, 0xba,
    0x87, 0xeb, 0x03, 0xbc, 0xef, 0x2a, 0xf3, 0xbc, 0x65, 0x56, 0xb0, 0x3c, 0x13, 0x3d, 0x8d, 0x3a, 0xc3, 0x82, 0xeb,
    0xba, 0x2d, 0x4b, 0x36, 0xbc, 0x9d, 0xc2, 0x06, 0x3c, 0xd5, 0xe9, 0xae, 0x3b, 0x79, 0xe6, 0x8b, 0x3d, 0xf1, 0x7d,
    0x31, 0xba, 0x61, 0x25, 0x5a, 0xbd, 0xe9, 0x8f, 0x2c, 0xbc, 0xe6, 0x4c, 0x34, 0xbc, 0x4e, 0x98, 0xee, 0x3b, 0x2a,
    0x50, 0xc3, 0x38, 0x87, 0xc5, 0xb1, 0x3d, 0x68, 0xd6, 0x22, 0x3b, 0x76, 0x53, 0x5d, 0xbd, 0xfc, 0x07, 0xfc, 0xbb,
    0x4d, 0xb7, 0x1c, 0x3b, 0x24, 0x67, 0x26, 0x3b, 0xaa, 0x35, 0xf3, 0x3c, 0xad, 0x1a, 0xb2, 0xbb, 0x09, 0x99, 0xa0,
    0x3b, 0x17, 0x2b, 0xe4, 0x3b, 0x27, 0xed, 0x66, 0xbb, 0x46, 0x18, 0x6b, 0x3b, 0xfc, 0x59, 0x94, 0x3b, 0x72, 0xff,
    0xff, 0xff, 0x04, 0x00, 0x00, 0x00, 0x80, 0x00, 0x00, 0x00, 0x1a, 0x08, 0x4d, 0xbb, 0x27, 0x17, 0x1a, 0xbe, 0x05,
    0xaf, 0x2e, 0xbe, 0xa8, 0x7c, 0x81, 0xbf, 0x60, 0x0f, 0x21, 0xbe, 0xc9, 0x42, 0xce, 0xbd, 0xef, 0x75, 0x2e, 0xbe,
    0x20, 0xc6, 0x6f, 0x3d, 0xda, 0x1d, 0xc6, 0x3d, 0x9c, 0xec, 0x1d, 0xbe, 0xbf, 0xb1, 0xa7, 0x3d, 0x5e, 0xf6, 0x38,
    0xbd, 0x64, 0xf7, 0x60, 0xbe, 0xfb, 0xec, 0x11, 0xbe, 0x72, 0xea, 0x27, 0xbf, 0xa0, 0xcd, 0x91, 0x3c, 0xe2, 0xcd,
    0xab, 0xbe, 0xb3, 0x4d, 0x5f, 0x3d, 0x35, 0xe6, 0xc4, 0xbd, 0x64, 0x52, 0xa1, 0x3d, 0x3a, 0x24, 0xfa, 0x3d, 0x50,
    0x7b, 0x18, 0xbe, 0x81, 0x85, 0xb9, 0x3c, 0x32, 0xc9, 0x9c, 0xbd, 0x74, 0x06, 0x65, 0xbc, 0x6c, 0x36, 0x89, 0xbe,
    0x1c, 0x70, 0x9f, 0xbd, 0x14, 0xeb, 0x18, 0xbe, 0x0b, 0x86, 0x3e, 0xbd, 0x1d, 0x14, 0x88, 0xbd, 0x7e, 0x51, 0x91,
    0xbd, 0x75, 0x10, 0x2e, 0x3c, 0x00, 0x00, 0x06, 0x00, 0x08, 0x00, 0x04, 0x00, 0x06, 0x00, 0x00, 0x00, 0x04, 0x00,
    0x00, 0x00, 0x04, 0x00, 0x00, 0x00, 0x63, 0xb3, 0x7a, 0x3c, 0x38, 0xfa, 0xff, 0xff, 0x3c, 0xfa, 0xff, 0xff, 0x0f,
    0x00, 0x00, 0x00, 0x4d, 0x4c, 0x49, 0x52, 0x20, 0x43, 0x6f, 0x6e, 0x76, 0x65, 0x72, 0x74, 0x65, 0x64, 0x2e, 0x00,
    0x01, 0x00, 0x00, 0x00, 0x14, 0x00, 0x00, 0x00, 0x00, 0x00, 0x0e, 0x00, 0x18, 0x00, 0x14, 0x00, 0x10, 0x00, 0x0c,
    0x00, 0x08, 0x00, 0x04, 0x00, 0x0e, 0x00, 0x00, 0x00, 0x14, 0x00, 0x00, 0x00, 0x1c, 0x00, 0x00, 0x00, 0x40, 0x01,
    0x00, 0x00, 0x44, 0x01, 0x00, 0x00, 0x48, 0x01, 0x00, 0x00, 0x04, 0x00, 0x00, 0x00, 0x6d, 0x61, 0x69, 0x6e, 0x00,
    0x00, 0x00, 0x00, 0x06, 0x00, 0x00, 0x00, 0xf4, 0x00, 0x00, 0x00, 0xc0, 0x00, 0x00, 0x00, 0x80, 0x00, 0x00, 0x00,
    0x5c, 0x00, 0x00, 0x00, 0x28, 0x00, 0x00, 0x00, 0x04, 0x00, 0x00, 0x00, 0x5e, 0xff, 0xff, 0xff, 0x0c, 0x00, 0x00,
    0x00, 0x10, 0x00, 0x00, 0x00, 0x02, 0x00, 0x00, 0x00, 0x01, 0x00, 0x00, 0x00, 0x0c, 0x00, 0x00, 0x00, 0x01, 0x00,
    0x00, 0x00, 0x0b, 0x00, 0x00, 0x00, 0x52, 0xff, 0xff, 0xff, 0x10, 0x00, 0x00, 0x00, 0x00, 0x00, 0x00, 0x08, 0x0c,
    0x00, 0x00, 0x00, 0x10, 0x00, 0x00, 0x00, 0xe0, 0xfa, 0xff, 0xff, 0x01, 0x00, 0x00, 0x00, 0x0b, 0x00, 0x00, 0x00,
    0x03, 0x00, 0x00, 0x00, 0x0a, 0x00, 0x00, 0x00, 0x03, 0x00, 0x00, 0x00, 0x01, 0x00, 0x00, 0x00, 0xae, 0xff, 0xff,
    0xff, 0x0c, 0x00, 0x00, 0x00, 0x10, 0x00, 0x00, 0x00, 0x01, 0x00, 0x00, 0x00, 0x01, 0x00, 0x00, 0x00, 0x0a, 0x00,
    0x00, 0x00, 0x01, 0x00, 0x00, 0x00, 0x09, 0x00, 0x00, 0x00, 0xa2, 0xff, 0xff, 0xff, 0x10, 0x00, 0x00, 0x00, 0x00,
    0x00, 0x00, 0x08, 0x0c, 0x00, 0x00, 0x00, 0x10, 0x00, 0x00, 0x00, 0x30, 0xfb, 0xff, 0xff, 0x01, 0x00, 0x00, 0x00,
    0x09, 0x00, 0x00, 0x00, 0x03, 0x00, 0x00, 0x00, 0x08, 0x00, 0x00, 0x00, 0x04, 0x00, 0x00, 0x00, 0x02, 0x00, 0x00,
    0x00, 0x00, 0x00, 0x0a, 0x00, 0x10, 0x00, 0x0c, 0x00, 0x08, 0x00, 0x04, 0x00, 0x0a, 0x00, 0x00, 0x00, 0x0c, 0x00,
    0x00, 0x00, 0x10, 0x00, 0x00, 0x00, 0x01, 0x00, 0x00, 0x00, 0x01, 0x00, 0x00, 0x00, 0x08, 0x00, 0x00, 0x00, 0x01,
    0x00, 0x00, 0x00, 0x07, 0x00, 0x00, 0x00, 0x00, 0x00, 0x0e, 0x00, 0x14, 0x00, 0x00, 0x00, 0x10, 0x00, 0x0c, 0x00,
    0x0b, 0x00, 0x04, 0x00, 0x0e, 0x00, 0x00, 0x00, 0x10, 0x00, 0x00, 0x00, 0x00, 0x00, 0x00, 0x08, 0x0c, 0x00, 0x00,
    0x00, 0x10, 0x00, 0x00, 0x00, 0x9c, 0xfb, 0xff, 0xff, 0x01, 0x00, 0x00, 0x00, 0x07, 0x00, 0x00, 0x00, 0x03, 0x00,
    0x00, 0x00, 0x00, 0x00, 0x00, 0x00, 0x05, 0x00, 0x00, 0x00, 0x06, 0x00, 0x00, 0x00, 0x01, 0x00, 0x00, 0x00, 0x0c,
    0x00, 0x00, 0x00, 0x01, 0x00, 0x00, 0x00, 0x00, 0x00, 0x00, 0x00, 0x0d, 0x00, 0x00, 0x00, 0x1c, 0x04, 0x00, 0x00,
    0xb4, 0x03, 0x00, 0x00, 0x64, 0x03, 0x00, 0x00, 0x14, 0x03, 0x00, 0x00, 0xc4, 0x02, 0x00, 0x00, 0x74, 0x02, 0x00,
    0x00, 0x24, 0x02, 0x00, 0x00, 0xb4, 0x01, 0x00, 0x00, 0x70, 0x01, 0x00, 0x00, 0xfc, 0x00, 0x00, 0x00, 0xb4, 0x00,
    0x00, 0x00, 0x40, 0x00, 0x00, 0x00, 0x04, 0x00, 0x00, 0x00, 0x2e, 0xfc, 0xff, 0xff, 0x00, 0x00, 0x00, 0x01, 0x10,
    0x00, 0x00, 0x00, 0x10, 0x00, 0x00, 0x00, 0x0d, 0x00, 0x00, 0x00, 0x18, 0x00, 0x00, 0x00, 0x18, 0xfc, 0xff, 0xff,
    0x08, 0x00, 0x00, 0x00, 0x49, 0x64, 0x65, 0x6e, 0x74, 0x69, 0x74, 0x79, 0x00, 0x00, 0x00, 0x00, 0x02, 0x00, 0x00,
    0x00, 0x01, 0x00, 0x00, 0x00, 0x01, 0x00, 0x00, 0x00, 0x66, 0xfc, 0xff, 0xff, 0x00, 0x00, 0x00, 0x01, 0x10, 0x00,
    0x00, 0x00, 0x10, 0x00, 0x00, 0x00, 0x0c, 0x00, 0x00, 0x00, 0x50, 0x00, 0x00, 0x00, 0x50, 0xfc, 0xff, 0xff, 0x42,
    0x00, 0x00, 0x00, 0x6d, 0x6f, 0x64, 0x65, 0x6c, 0x2f, 0x74, 0x66, 0x2e, 0x6c, 0x69, 0x6e, 0x61, 0x6c, 0x67, 0x2e,
    0x6d, 0x61, 0x74, 0x6d, 0x75, 0x6c, 0x5f, 0x32, 0x2f, 0x4d, 0x61, 0x74, 0x4d, 0x75, 0x6c, 0x3b, 0x6d, 0x6f, 0x64,
    0x65, 0x6c, 0x2f, 0x74, 0x66, 0x2e, 0x5f, 0x5f, 0x6f, 0x70, 0x65, 0x72, 0x61, 0x74, 0x6f, 0x72, 0x73, 0x5f, 0x5f,
    0x2e, 0x61, 0x64, 0x64, 0x5f, 0x32, 0x2f, 0x41, 0x64, 0x64, 0x56, 0x32, 0x00, 0x00, 0x02, 0x00, 0x00, 0x00, 0x01,
    0x00, 0x00, 0x00, 0x01, 0x00, 0x00, 0x00, 0xd6, 0xfc, 0xff, 0xff, 0x00, 0x00, 0x00, 0x01, 0x10, 0x00, 0x00, 0x00,
    0x10, 0x00, 0x00, 0x00, 0x0b, 0x00, 0x00, 0x00, 0x24, 0x00, 0x00, 0x00, 0xc0, 0xfc, 0xff, 0xff, 0x15, 0x00, 0x00,
    0x00, 0x6d, 0x6f, 0x64, 0x65, 0x6c, 0x2f, 0x74, 0x66, 0x2e, 0x6e, 0x6e, 0x2e, 0x65, 0x6c, 0x75, 0x5f, 0x31, 0x2f,
    0x45, 0x6c, 0x75, 0x00, 0x00, 0x00, 0x02, 0x00, 0x00, 0x00, 0x01, 0x00, 0x00, 0x00, 0x20, 0x00, 0x00, 0x00, 0x1a,
    0xfd, 0xff, 0xff, 0x00, 0x00, 0x00, 0x01, 0x10, 0x00, 0x00, 0x00, 0x10, 0x00, 0x00, 0x00, 0x0a, 0x00, 0x00, 0x00,
    0x50, 0x00, 0x00, 0x00, 0x04, 0xfd, 0xff, 0xff, 0x42, 0x00, 0x00, 0x00, 0x6d, 0x6f, 0x64, 0x65, 0x6c, 0x2f, 0x74,
    0x66, 0x2e, 0x6c, 0x69, 0x6e, 0x61, 0x6c, 0x67, 0x2e, 0x6d, 0x61, 0x74, 0x6d, 0x75, 0x6c, 0x5f, 0x31, 0x2f, 0x4d,
    0x61, 0x74, 0x4d, 0x75, 0x6c, 0x3b, 0x6d, 0x6f, 0x64, 0x65, 0x6c, 0x2f, 0x74, 0x66, 0x2e, 0x5f, 0x5f, 0x6f, 0x70,
    0x65, 0x72, 0x61, 0x74, 0x6f, 0x72, 0x73, 0x5f, 0x5f, 0x2e, 0x61, 0x64, 0x64, 0x5f, 0x31, 0x2f, 0x41, 0x64, 0x64,
    0x56, 0x32, 0x00, 0x00, 0x02, 0x00, 0x00, 0x00, 0x01, 0x00, 0x00, 0x00, 0x20, 0x00, 0x00, 0x00, 0x8a, 0xfd, 0xff,
    0xff, 0x00, 0x00, 0x00, 0x01, 0x10, 0x00, 0x00, 0x00, 0x10, 0x00, 0x00, 0x00, 0x09, 0x00, 0x00, 0x00, 0x20, 0x00,
    0x00, 0x00, 0x74, 0xfd, 0xff, 0xff, 0x13, 0x00, 0x00, 0x00, 0x6d, 0x6f, 0x64, 0x65, 0x6c, 0x2f, 0x74, 0x66, 0x2e,
    0x6e, 0x6e, 0x2e, 0x65, 0x6c, 0x75, 0x2f, 0x45, 0x6c, 0x75, 0x00, 0x02, 0x00, 0x00, 0x00, 0x01, 0x00, 0x00, 0x00,
    0x20, 0x00, 0x00, 0x00, 0xca, 0xfd, 0xff, 0xff, 0x00, 0x00, 0x00, 0x01, 0x10, 0x00, 0x00, 0x00, 0x10, 0x00, 0x00,
    0x00, 0x08, 0x00, 0x00, 0x00, 0x4c, 0x00, 0x00, 0x00, 0xb4, 0xfd, 0xff, 0xff, 0x3e, 0x00, 0x00, 0x00, 0x6d, 0x6f,
    0x64, 0x65, 0x6c, 0x2f, 0x74, 0x66, 0x2e, 0x6c, 0x69, 0x6e, 0x61, 0x6c, 0x67, 0x2e, 0x6d, 0x61, 0x74, 0x6d, 0x75,
    0x6c, 0x2f, 0x4d, 0x61, 0x74, 0x4d, 0x75, 0x6c, 0x3b, 0x6d, 0x6f, 0x64, 0x65, 0x6c, 0x2f, 0x74, 0x66, 0x2e, 0x5f,
    0x5f, 0x6f, 0x70, 0x65, 0x72, 0x61, 0x74, 0x6f, 0x72, 0x73, 0x5f, 0x5f, 0x2e, 0x61, 0x64, 0x64, 0x2f, 0x41, 0x64,
    0x64, 0x56, 0x32, 0x00, 0x00, 0x02, 0x00, 0x00, 0x00, 0x01, 0x00, 0x00, 0x00, 0x20, 0x00, 0x00, 0x00, 0x36, 0xfe,
    0xff, 0xff, 0x00, 0x00, 0x00, 0x01, 0x10, 0x00, 0x00, 0x00, 0x10, 0x00, 0x00, 0x00, 0x07, 0x00, 0x00, 0x00, 0x30,
    0x00, 0x00, 0x00, 0x20, 0xfe, 0xff, 0xff, 0x20, 0x00, 0x00, 0x00, 0x6d, 0x6f, 0x64, 0x65, 0x6c, 0x2f, 0x74, 0x66,
    0x2e, 0x5f, 0x5f, 0x6f, 0x70, 0x65, 0x72, 0x61, 0x74, 0x6f, 0x72, 0x73, 0x5f, 0x5f, 0x2e, 0x61, 0x64, 0x64, 0x2f,
    0x41, 0x64, 0x64, 0x56, 0x32, 0x00, 0x00, 0x00, 0x00, 0x01, 0x00, 0x00, 0x00, 0x20, 0x00, 0x00, 0x00, 0x82, 0xfe,
    0xff, 0xff, 0x00, 0x00, 0x00, 0x01, 0x10, 0x00, 0x00, 0x00, 0x10, 0x00, 0x00, 0x00, 0x06, 0x00, 0x00, 0x00, 0x2c,
    0x00, 0x00, 0x00, 0x6c, 0xfe, 0xff, 0xff, 0x1d, 0x00, 0x00, 0x00, 0x6d, 0x6f, 0x64, 0x65, 0x6c, 0x2f, 0x74, 0x66,
    0x2e, 0x6c, 0x69, 0x6e, 0x61, 0x6c, 0x67, 0x2e, 0x6d, 0x61, 0x74, 0x6d, 0x75, 0x6c, 0x2f, 0x4d, 0x61, 0x74, 0x4d,
    0x75, 0x6c, 0x00, 0x00, 0x00, 0x02, 0x00, 0x00, 0x00, 0x20, 0x00, 0x00, 0x00, 0x05, 0x00, 0x00, 0x00, 0xce, 0xfe,
    0xff, 0xff, 0x00, 0x00, 0x00, 0x01, 0x10, 0x00, 0x00, 0x00, 0x10, 0x00, 0x00, 0x00, 0x05, 0x00, 0x00, 0x00, 0x2c,
    0x00, 0x00, 0x00, 0xb8, 0xfe, 0xff, 0xff, 0x1f, 0x00, 0x00, 0x00, 0x6d, 0x6f, 0x64, 0x65, 0x6c, 0x2f, 0x74, 0x66,
    0x2e, 0x6c, 0x69, 0x6e, 0x61, 0x6c, 0x67, 0x2e, 0x6d, 0x61, 0x74, 0x6d, 0x75, 0x6c, 0x5f, 0x31, 0x2f, 0x4d, 0x61,
    0x74, 0x4d, 0x75, 0x6c, 0x00, 0x02, 0x00, 0x00, 0x00, 0x20, 0x00, 0x00, 0x00, 0x20, 0x00, 0x00, 0x00, 0x1a, 0xff,
    0xff, 0xff, 0x00, 0x00, 0x00, 0x01, 0x10, 0x00, 0x00, 0x00, 0x10, 0x00, 0x00, 0x00, 0x04, 0x00, 0x00, 0x00, 0x2c,
    0x00, 0x00, 0x00, 0x04, 0xff, 0xff, 0xff, 0x1f, 0x00, 0x00, 0x00, 0x6d, 0x6f, 0x64, 0x65, 0x6c, 0x2f, 0x74, 0x66,
    0x2e, 0x6c, 0x69, 0x6e, 0x61, 0x6c, 0x67, 0x2e, 0x6d, 0x61, 0x74, 0x6d, 0x75, 0x6c, 0x5f, 0x32, 0x2f, 0x4d, 0x61,
    0x74, 0x4d, 0x75, 0x6c, 0x00, 0x02, 0x00, 0x00, 0x00, 0x01, 0x00, 0x00, 0x00, 0x20, 0x00, 0x00, 0x00, 0x66, 0xff,
    0xff, 0xff, 0x00, 0x00, 0x00, 0x01, 0x10, 0x00, 0x00, 0x00, 0x10, 0x00, 0x00, 0x00, 0x03, 0x00, 0x00, 0x00, 0x30,
    0x00, 0x00, 0x00, 0x50, 0xff, 0xff, 0xff, 0x22, 0x00, 0x00, 0x00, 0x6d, 0x6f, 0x64, 0x65, 0x6c, 0x2f, 0x74, 0x66,
    0x2e, 0x5f, 0x5f, 0x6f, 0x70, 0x65, 0x72, 0x61, 0x74, 0x6f, 0x72, 0x73, 0x5f, 0x5f, 0x2e, 0x61, 0x64, 0x64, 0x5f,
    0x31, 0x2f, 0x41, 0x64, 0x64, 0x56, 0x32, 0x00, 0x00, 0x01, 0x00, 0x00, 0x00, 0x20, 0x00, 0x00, 0x00, 0xb2, 0xff,
    0xff, 0xff, 0x00, 0x00, 0x00, 0x01, 0x10, 0x00, 0x00, 0x00, 0x10, 0x00, 0x00, 0x00, 0x02, 0x00, 0x00, 0x00, 0x30,
    0x00, 0x00, 0x00, 0x9c, 0xff, 0xff, 0xff, 0x22, 0x00, 0x00, 0x00, 0x6d, 0x6f, 0x64, 0x65, 0x6c, 0x2f, 0x74, 0x66,
    0x2e, 0x5f, 0x5f, 0x6f, 0x70, 0x65, 0x72, 0x61, 0x74, 0x6f, 0x72, 0x73, 0x5f, 0x5f, 0x2e, 0x61, 0x64, 0x64, 0x5f,
    0x32, 0x2f, 0x41, 0x64, 0x64, 0x56, 0x32, 0x00, 0x00, 0x01, 0x00, 0x00, 0x00, 0x01, 0x00, 0x00, 0x00, 0x00, 0x00,
    0x16, 0x00, 0x18, 0x00, 0x14, 0x00, 0x00, 0x00, 0x10, 0x00, 0x0c, 0x00, 0x08, 0x00, 0x00, 0x00, 0x00, 0x00, 0x00,
    0x00, 0x07, 0x00, 0x16, 0x00, 0x00, 0x00, 0x00, 0x00, 0x00, 0x01, 0x14, 0x00, 0x00, 0x00, 0x14, 0x00, 0x00, 0x00,
    0x01, 0x00, 0x00, 0x00, 0x14, 0x00, 0x00, 0x00, 0x04, 0x00, 0x04, 0x00, 0x04, 0x00, 0x00, 0x00, 0x03, 0x00, 0x00,
    0x00, 0x6f, 0x62, 0x73, 0x00, 0x02, 0x00, 0x00, 0x00, 0x01, 0x00, 0x00, 0x00, 0x05, 0x00, 0x00, 0x00, 0x03, 0x00,
    0x00, 0x00, 0x30, 0x00, 0x00, 0x00, 0x14, 0x00, 0x00, 0x00, 0x04, 0x00, 0x00, 0x00, 0xe8, 0xff, 0xff, 0xff, 0x1c,
    0x00, 0x00, 0x00, 0x00, 0x00, 0x00, 0x1c, 0xf4, 0xff, 0xff, 0xff, 0x6f, 0x00, 0x00, 0x00, 0x00, 0x00, 0x00, 0x6f,
    0x0c, 0x00, 0x0c, 0x00, 0x0b, 0x00, 0x00, 0x00, 0x00, 0x00, 0x04, 0x00, 0x0c, 0x00, 0x00, 0x00, 0x09, 0x00, 0x00,
    0x00, 0x00, 0x00, 0x00, 0x09};
inline constexpr unsigned int policy_model_len = 7168;
