unsigned char policy_model[] = {
    0x1c, 0x00, 0x00, 0x00, 0x54, 0x46, 0x4c, 0x33, 0x14, 0x00, 0x20, 0x00, 0x1c, 0x00, 0x18, 0x00, 0x14, 0x00, 0x10,
    0x00, 0x0c, 0x00, 0x00, 0x00, 0x08, 0x00, 0x04, 0x00, 0x14, 0x00, 0x00, 0x00, 0x1c, 0x00, 0x00, 0x00, 0x1c, 0x00,
    0x00, 0x00, 0x74, 0x00, 0x00, 0x00, 0xb0, 0x15, 0x00, 0x00, 0xc0, 0x15, 0x00, 0x00, 0xdc, 0x1a, 0x00, 0x00, 0x03,
    0x00, 0x00, 0x00, 0x00, 0x00, 0x00, 0x00, 0x02, 0x00, 0x00, 0x00, 0x34, 0x00, 0x00, 0x00, 0x04, 0x00, 0x00, 0x00,
    0xdc, 0xff, 0xff, 0xff, 0x0e, 0x00, 0x00, 0x00, 0x04, 0x00, 0x00, 0x00, 0x13, 0x00, 0x00, 0x00, 0x43, 0x4f, 0x4e,
    0x56, 0x45, 0x52, 0x53, 0x49, 0x4f, 0x4e, 0x5f, 0x4d, 0x45, 0x54, 0x41, 0x44, 0x41, 0x54, 0x41, 0x00, 0x08, 0x00,
    0x0c, 0x00, 0x08, 0x00, 0x04, 0x00, 0x08, 0x00, 0x00, 0x00, 0x0d, 0x00, 0x00, 0x00, 0x04, 0x00, 0x00, 0x00, 0x13,
    0x00, 0x00, 0x00, 0x6d, 0x69, 0x6e, 0x5f, 0x72, 0x75, 0x6e, 0x74, 0x69, 0x6d, 0x65, 0x5f, 0x76, 0x65, 0x72, 0x73,
    0x69, 0x6f, 0x6e, 0x00, 0x0f, 0x00, 0x00, 0x00, 0x38, 0x15, 0x00, 0x00, 0x30, 0x15, 0x00, 0x00, 0x1c, 0x15, 0x00,
    0x00, 0x84, 0x14, 0x00, 0x00, 0xf4, 0x13, 0x00, 0x00, 0xe4, 0x03, 0x00, 0x00, 0x54, 0x01, 0x00, 0x00, 0xc4, 0x00,
    0x00, 0x00, 0xbc, 0x00, 0x00, 0x00, 0xb4, 0x00, 0x00, 0x00, 0xac, 0x00, 0x00, 0x00, 0xa4, 0x00, 0x00, 0x00, 0x9c,
    0x00, 0x00, 0x00, 0x7c, 0x00, 0x00, 0x00, 0x04, 0x00, 0x00, 0x00, 0x1e, 0xeb, 0xff, 0xff, 0x04, 0x00, 0x00, 0x00,
    0x68, 0x00, 0x00, 0x00, 0x10, 0x00, 0x00, 0x00, 0x00, 0x00, 0x00, 0x00, 0x08, 0x00, 0x0e, 0x00, 0x08, 0x00, 0x04,
    0x00, 0x08, 0x00, 0x00, 0x00, 0x14, 0x00, 0x00, 0x00, 0x2c, 0x00, 0x00, 0x00, 0x00, 0x00, 0x0a, 0x00, 0x0c, 0x00,
    0x08, 0x00, 0x00, 0x00, 0x07, 0x00, 0x0a, 0x00, 0x00, 0x00, 0x00, 0x00, 0x00, 0x01, 0x04, 0x00, 0x00, 0x00, 0x00,
    0x00, 0x00, 0x00, 0x0c, 0x00, 0x18, 0x00, 0x14, 0x00, 0x10, 0x00, 0x0c, 0x00, 0x04, 0x00, 0x0c, 0x00, 0x00, 0x00,
    0x03, 0xa1, 0x42, 0x95, 0xc5, 0x87, 0x89, 0x84, 0x03, 0x00, 0x00, 0x00, 0x02, 0x00, 0x00, 0x00, 0x04, 0x00, 0x00,
    0x00, 0x06, 0x00, 0x00, 0x00, 0x32, 0x2e, 0x32, 0x31, 0x2e, 0x30, 0x00, 0x00, 0x92, 0xeb, 0xff, 0xff, 0x04, 0x00,
    0x00, 0x00, 0x10, 0x00, 0x00, 0x00, 0x31, 0x2e, 0x31, 0x34, 0x2e, 0x30, 0x00, 0x00, 0x00, 0x00, 0x00, 0x00, 0x00,
    0x00, 0x00, 0x00, 0x78, 0xe6, 0xff, 0xff, 0x7c, 0xe6, 0xff, 0xff, 0x80, 0xe6, 0xff, 0xff, 0x84, 0xe6, 0xff, 0xff,
    0x88, 0xe6, 0xff, 0xff, 0xc2, 0xeb, 0xff, 0xff, 0x04, 0x00, 0x00, 0x00, 0x80, 0x00, 0x00, 0x00, 0x18, 0x1c, 0xa0,
    0xbd, 0x2a, 0xcb, 0xbe, 0xbc, 0xac, 0xdf, 0x5a, 0x3d, 0xfc, 0x99, 0xa0, 0x3c, 0x0a, 0x3d, 0x28, 0x3d, 0x20, 0xa7,
    0x37, 0xbd, 0x2d, 0xbd, 0xde, 0xbd, 0x80, 0x5b, 0x87, 0xbc, 0x36, 0x8c, 0x45, 0x3e, 0x27, 0x9c, 0x11, 0x3e, 0x22,
    0xb6, 0x5f, 0xbd, 0x97, 0x91, 0x06, 0xbe, 0xca, 0xdf, 0x97, 0x3c, 0x68, 0x77, 0x0e, 0x3e, 0x26, 0x55, 0x46, 0xbe,
    0xb9, 0xa6, 0x26, 0x3e, 0xea, 0xab, 0xa1, 0x3d, 0x44, 0x6f, 0x18, 0x3d, 0x26, 0xb6, 0xa2, 0x3d, 0x58, 0x1f, 0x86,
    0xbe, 0x35, 0xc6, 0xc4, 0xbd, 0x94, 0xf3, 0x4e, 0xbc, 0x57, 0x25, 0x29, 0xbc, 0x75, 0xd0, 0x79, 0xbe, 0x10, 0x04,
    0x59, 0x3c, 0x07, 0x7d, 0xc5, 0x3d, 0x01, 0x3f, 0x44, 0xbd, 0x81, 0x0a, 0xf1, 0xbe, 0xc9, 0xb8, 0x99, 0xbd, 0xc6,
    0x6c, 0x40, 0xbc, 0xf5, 0x54, 0x04, 0xbd, 0x7e, 0x62, 0x05, 0x3e, 0x4e, 0xec, 0xff, 0xff, 0x04, 0x00, 0x00, 0x00,
    0x80, 0x02, 0x00, 0x00, 0x29, 0xd2, 0x22, 0xbe, 0xf9, 0xd5, 0x04, 0xbe, 0x92, 0xbe, 0x81, 0xbf, 0x1b, 0xc1, 0xdf,
    0xbd, 0xea, 0x71, 0x55, 0xbf, 0x9a, 0x5a, 0x9e, 0xbc, 0xb1, 0xa8, 0x3c, 0xbd, 0xc4, 0x41, 0x9b, 0xbd, 0x09, 0x87,
    0xfe, 0x3d, 0xf0, 0xdf, 0x21, 0xbe, 0xe1, 0xce, 0xd9, 0xba, 0xe1, 0x0b, 0x83, 0xbc, 0x91, 0xd8, 0x8f, 0x3c, 0x3c,
    0xf2, 0xa9, 0xbe, 0x6a, 0xf0, 0x8f, 0x3d, 0x97, 0x52, 0xdb, 0xbe, 0x7c, 0xce, 0x88, 0xbe, 0xba, 0xc1, 0x93, 0xbe,
    0x76, 0xf7, 0x65, 0xbe, 0x67, 0x0f, 0x32, 0xbe, 0x32, 0xa4, 0x33, 0xbe, 0x98, 0x62, 0x98, 0xbe, 0xd8, 0xdc, 0x03,
    0xbe, 0x8a, 0x33, 0xc6, 0x3d, 0x92, 0x74, 0x8f, 0xbe, 0x37, 0x63, 0x76, 0x3c, 0x18, 0xa7, 0x82, 0x3e, 0x68, 0xf7,
    0x45, 0xbd, 0x4a, 0x95, 0x56, 0x3d, 0xf3, 0xc2, 0x0e, 0x3f, 0xaf, 0x91, 0x6c, 0x3d, 0xe1, 0xc5, 0xc4, 0x3d, 0x45,
    0x63, 0x9e, 0x3e, 0xd5, 0xd9, 0x1c, 0x3f, 0xe5, 0x10, 0x8b, 0x3e, 0x7d, 0x01, 0x1e, 0x3d, 0x48, 0x86, 0x16, 0x3f,
    0x3a, 0x68, 0xd7, 0x3e, 0x43, 0xab, 0x85, 0x3e, 0xc8, 0x59, 0x84, 0x3f, 0xc6, 0x87, 0x45, 0xbf, 0x16, 0xa0, 0x73,
    0xbf, 0x03, 0x45, 0xad, 0xbe, 0x01, 0xb5, 0x49, 0x3b, 0xc6, 0xdb, 0x9b, 0xbf, 0xe6, 0xd7, 0xb8, 0xbe, 0xaa, 0x96,
    0x27, 0xbf, 0xf5, 0x7c, 0xef, 0xbe, 0xcc, 0xa6, 0x0a, 0xbf, 0x9b, 0x19, 0x7b, 0xbf, 0x04, 0x22, 0x29, 0x3a, 0xbc,
    0x4b, 0x8c, 0xbb, 0xf8, 0x90, 0x64, 0x3c, 0x76, 0x53, 0x94, 0x3e, 0xb1, 0x7f, 0x9d, 0x3d, 0xfd, 0xf5, 0x30, 0xbd,
    0x9e, 0x76, 0xfc, 0xbd, 0x71, 0x17, 0x81, 0xbe, 0x70, 0xc4, 0x35, 0x3f, 0x59, 0x30, 0x98, 0xbe, 0xfe, 0xe0, 0x7c,
    0xbf, 0xd7, 0x0b, 0x27, 0xbf, 0xd4, 0x7f, 0x97, 0xbf, 0xf8, 0x90, 0xdd, 0xbc, 0x34, 0x98, 0xb3, 0xbf, 0xc8, 0xa7,
    0xac, 0xbe, 0x57, 0x26, 0xa6, 0x3e, 0x2d, 0x9c, 0x5c, 0x3f, 0xa6, 0xb6, 0x6b, 0xbd, 0xe4, 0xa5, 0x6a, 0x3f, 0x9f,
    0xba, 0x96, 0x3e, 0xcf, 0x6d, 0xcc, 0xbc, 0x4d, 0xed, 0x6f, 0xbd, 0xd1, 0x46, 0xae, 0xbd, 0x56, 0x0b, 0x6e, 0xbe,
    0x25, 0x7d, 0x8b, 0xbf, 0xbd, 0x48, 0x76, 0xbf, 0xaf, 0xd3, 0xab, 0xbf, 0x99, 0xf7, 0xe8, 0x3d, 0x6b, 0x14, 0xd8,
    0xbf, 0x4c, 0xad, 0xb7, 0xbc, 0xea, 0x66, 0x18, 0x3f, 0x3d, 0xcb, 0x6a, 0x3e, 0x2b, 0x23, 0xee, 0xbd, 0x86, 0x93,
    0x8b, 0x3f, 0x0a, 0x1b, 0x8d, 0x3a, 0x87, 0x81, 0xfa, 0x3b, 0xf9, 0x26, 0xbe, 0x3c, 0xf3, 0x2d, 0x6c, 0xbe, 0x53,
    0xb5, 0x43, 0x3d, 0xa0, 0x47, 0x81, 0xbd, 0x62, 0x90, 0x0a, 0xbe, 0x6c, 0x8c, 0x94, 0xbe, 0xe8, 0xd7, 0x24, 0xbf,
    0xa5, 0xf4, 0xf1, 0xbe, 0x01, 0xaa, 0xb2, 0x3d, 0xf4, 0x21, 0xca, 0x3e, 0x9c, 0xc0, 0x49, 0x3f, 0x92, 0x5d, 0x85,
    0x3f, 0xfd, 0x12, 0x52, 0x3f, 0x53, 0x94, 0x2d, 0x3c, 0xb1, 0x3f, 0xf7, 0x3b, 0x1f, 0x0c, 0x5c, 0x3d, 0x20, 0xa5,
    0x0e, 0x3f, 0x0c, 0x7f, 0x81, 0x3d, 0x93, 0x24, 0xa7, 0x3d, 0xe2, 0x51, 0xcc, 0x3e, 0x17, 0x69, 0xf7, 0x3e, 0x94,
    0xab, 0xd6, 0x3e, 0x51, 0x8e, 0x45, 0x3f, 0x9f, 0x3f, 0xc4, 0xba, 0xa3, 0xf5, 0x1a, 0x3c, 0x53, 0x3c, 0xc2, 0xbc,
    0x31, 0x8f, 0xac, 0x3d, 0xb7, 0x1a, 0x80, 0xbc, 0x8b, 0xef, 0x3f, 0xbe, 0x82, 0x58, 0xda, 0x3e, 0x38, 0x60, 0x82,
    0x3f, 0x5f, 0xf0, 0x3d, 0x3f, 0xed, 0x28, 0x9e, 0x3f, 0x94, 0x3e, 0x82, 0x3b, 0x75, 0x49, 0xdc, 0x3c, 0xb9, 0x5b,
    0x92, 0x3c, 0x13, 0xc8, 0x8a, 0xbd, 0x80, 0x6c, 0x01, 0x3e, 0x83, 0x61, 0x1a, 0xbc, 0xda, 0x86, 0x53, 0x3c, 0xec,
    0x90, 0xef, 0xbc, 0xb0, 0xc2, 0x0b, 0xbf, 0xe9, 0x3c, 0xf8, 0xbc, 0x2b, 0xbd, 0xef, 0x3c, 0xaa, 0xcd, 0x7c, 0x3e,
    0xcf, 0x5f, 0xa4, 0x3c, 0x09, 0x48, 0x75, 0x3e, 0x3d, 0x97, 0x0f, 0x3f, 0x00, 0x11, 0x88, 0x3e, 0x3e, 0xbc, 0xb9,
    0xbd, 0x06, 0xfa, 0xbd, 0xbf, 0xfe, 0x46, 0xfa, 0x3d, 0x18, 0xea, 0xb8, 0xbf, 0xb1, 0xe6, 0xc5, 0xbb, 0x4b, 0xf4,
    0x74, 0xbc, 0xeb, 0xfb, 0x5f, 0xbd, 0x0b, 0x3f, 0xf8, 0x3e, 0x0c, 0xaf, 0xde, 0xbd, 0x7d, 0x6e, 0x30, 0x3b, 0x8e,
    0x9b, 0x90, 0x3c, 0x2e, 0x3a, 0x49, 0xbb, 0x99, 0xd7, 0xb9, 0x3d, 0xac, 0x18, 0xde, 0xbc, 0x9b, 0x67, 0xb0, 0xba,
    0xd8, 0x69, 0x09, 0xbc, 0xea, 0xbc, 0x33, 0x3a, 0xbe, 0x91, 0x38, 0x3e, 0xca, 0x10, 0x85, 0x3d, 0xea, 0x1f, 0x12,
    0x3b, 0xbb, 0xf9, 0xee, 0xbb, 0x17, 0xf9, 0x0a, 0x3d, 0xf2, 0x69, 0x49, 0xbf, 0xad, 0x05, 0x75, 0x3c, 0xda, 0xee,
    0xff, 0xff, 0x04, 0x00, 0x00, 0x00, 0x00, 0x10, 0x00, 0x00, 0x47, 0x09, 0x8b, 0x3e, 0x79, 0x9b, 0xc5, 0xbe, 0x07,
    0x79, 0xb9, 0xbe, 0x47, 0xc9, 0x97, 0xbd, 0x85, 0x8a, 0x13, 0x3e, 0xcb, 0xbc, 0xcc, 0xbe, 0xb7, 0xb6, 0x70, 0xbe,
    0x1d, 0x00, 0xaa, 0x3e, 0x55, 0x49, 0xcb, 0x3b, 0x33, 0xd2, 0xfe, 0x3c, 0xa0, 0x39, 0x4b, 0xbd, 0x08, 0xfe, 0x87,
    0x3e, 0x79, 0xc2, 0x6b, 0xbe, 0x69, 0x66, 0x5e, 0xbd, 0xe4, 0xf7, 0xa0, 0xbe, 0x1f, 0xc1, 0x34, 0xbe, 0x84, 0x46,
    0xca, 0x3d, 0x24, 0x35, 0xb5, 0xbd, 0xfc, 0x02, 0x98, 0xbe, 0xba, 0x4d, 0x15, 0xbe, 0xea, 0x8a, 0x42, 0xbe, 0x46,
    0xb8, 0xac, 0xbc, 0x64, 0xb9, 0x2a, 0xbd, 0x4d, 0x08, 0xbb, 0xbd, 0xff, 0x74, 0xfb, 0xbd, 0x21, 0x13, 0x84, 0xbe,
    0x0d, 0xdc, 0x36, 0x3e, 0x02, 0x2f, 0xdc, 0xbe, 0x46, 0xb3, 0x4d, 0x3f, 0x31, 0x7a, 0xb9, 0x3d, 0x76, 0x2a, 0x89,
    0xbe, 0x9d, 0xe4, 0x92, 0xbd, 0x34, 0x0d, 0xfb, 0x3e, 0x98, 0x88, 0x2c, 0xb9, 0xc1, 0xf7, 0x29, 0x3a, 0x7c, 0x12,
    0x78, 0xbe, 0x73, 0xfa, 0x6e, 0xbe, 0x5c, 0x81, 0x00, 0x3e, 0x01, 0xcb, 0x09, 0xbe, 0x5e, 0xa3, 0xaa, 0xbe, 0x42,
    0xe4, 0x1d, 0xbf, 0x25, 0x27, 0x22, 0xbe, 0xdc, 0x06, 0xee, 0xbb, 0x49, 0x38, 0xce, 0x3d, 0xc6, 0xd5, 0x54, 0xbf,
    0x2b, 0xcb, 0xb7, 0xbe, 0x35, 0x3f, 0x1b, 0x3e, 0x4f, 0x26, 0x30, 0xbf, 0x53, 0x6d, 0x85, 0xbe, 0x55, 0xb0, 0x75,
    0xbb, 0x81, 0x33, 0x53, 0x3e, 0x30, 0x1c, 0xfa, 0xbc, 0x33, 0x0f, 0x75, 0xbd, 0x8d, 0xf1, 0xb4, 0xbe, 0x99, 0x34,
    0x07, 0x3c, 0x3a, 0x4d, 0x04, 0x3f, 0xf7, 0xe5, 0xda, 0x3b, 0x2f, 0x44, 0xb7, 0x3c, 0x41, 0x02, 0xef, 0x3c, 0x67,
    0xe6, 0x96, 0xbd, 0xbf, 0x3f, 0xc0, 0x3c, 0x39, 0xbb, 0x8a, 0x3a, 0x80, 0x4e, 0xc0, 0x3b, 0x1b, 0x44, 0xaf, 0x3a,
    0x50, 0xf3, 0x83, 0xbb, 0x06, 0x54, 0xcc, 0x3d, 0xa6, 0xe3, 0x0d, 0xbe, 0x81, 0x8b, 0xa1, 0xbd, 0xb3, 0x8a, 0x04,
    0x3e, 0xae, 0x3e, 0xfd, 0xbd, 0x07, 0xde, 0x43, 0x3e, 0xc7, 0x9a, 0x6a, 0xbd, 0x89, 0x79, 0xcd, 0x3d, 0x1c, 0xc7,
    0x72, 0x3d, 0x5d, 0xe0, 0x94, 0xbd, 0x47, 0xa3, 0x04, 0xbe, 0x2c, 0x24, 0x0e, 0xbe, 0x09, 0xbc, 0x8b, 0x3e, 0x96,
    0xc8, 0x1d, 0x3d, 0xc4, 0x0f, 0x7d, 0x3d, 0xac, 0x99, 0x5f, 0x3e, 0x4b, 0x73, 0xb3, 0x3b, 0x92, 0x9f, 0xc0, 0x3d,
    0xf4, 0xb4, 0xa7, 0xba, 0xd6, 0x10, 0xb2, 0xbd, 0x8a, 0xa9, 0x61, 0x3e, 0x55, 0xe0, 0x1e, 0x3e, 0xbe, 0x03, 0xda,
    0xbe, 0x9a, 0xa2, 0xb9, 0x3e, 0xea, 0xdc, 0xf1, 0x3e, 0x96, 0xce, 0x86, 0x3b, 0xaf, 0x30, 0x41, 0x3d, 0x1d, 0x73,
    0xa5, 0x3e, 0x08, 0x4f, 0xfc, 0x3c, 0x7e, 0xee, 0xe7, 0x3d, 0x9b, 0xba, 0x53, 0xbe, 0x3e, 0x6d, 0x8d, 0x3d, 0x73,
    0x9b, 0x9a, 0xbc, 0xa9, 0x36, 0x3a, 0x3d, 0x86, 0x25, 0x26, 0xbe, 0x76, 0x4a, 0x9f, 0x3c, 0x4e, 0xea, 0x51, 0x3c,
    0x64, 0x9b, 0x98, 0xbd, 0xf9, 0x61, 0x94, 0xbd, 0xf6, 0x1f, 0x18, 0x3e, 0x9f, 0xb4, 0xef, 0xbd, 0x56, 0x91, 0xdd,
    0xbb, 0x77, 0x05, 0x14, 0xbd, 0x2a, 0xd0, 0x4a, 0xbc, 0x8d, 0x55, 0x2a, 0x3d, 0x0c, 0x10, 0x3c, 0xbd, 0x9b, 0xe8,
    0x50, 0xba, 0x26, 0x8c, 0x89, 0x3d, 0x2f, 0x95, 0xa8, 0xbb, 0xf9, 0x92, 0x44, 0xbb, 0x3f, 0x66, 0xd5, 0x3d, 0xa8,
    0xb5, 0xf8, 0x3c, 0xbe, 0xd6, 0x1f, 0xbd, 0x76, 0x70, 0x22, 0xbb, 0x6c, 0xed, 0x9f, 0xbd, 0x1a, 0xf7, 0xc7, 0xbc,
    0xce, 0x34, 0x94, 0xbc, 0xdb, 0x38, 0xa7, 0x3d, 0xdc, 0x46, 0x78, 0x3c, 0x08, 0x18, 0x58, 0x3d, 0x29, 0x83, 0x54,
    0xbc, 0xd8, 0xf9, 0x85, 0xbc, 0x3f, 0xd1, 0x90, 0x3c, 0x06, 0x82, 0x8e, 0x3e, 0x6d, 0xa8, 0xab, 0x3c, 0xb4, 0xf6,
    0x30, 0xbe, 0x87, 0xb0, 0x10, 0xbd, 0x33, 0x83, 0xed, 0x3d, 0x3a, 0x25, 0x0b, 0xbe, 0xb6, 0x3f, 0x28, 0xbf, 0x8b,
    0x2c, 0x43, 0xbe, 0x38, 0xd3, 0x3d, 0xbd, 0xf7, 0xfb, 0x08, 0x3d, 0x12, 0x39, 0x03, 0xbf, 0xca, 0x4c, 0x81, 0x3e,
    0xec, 0xd8, 0x96, 0xbe, 0xdd, 0x77, 0x14, 0x3f, 0xc9, 0xd4, 0x41, 0x3e, 0x4e, 0x91, 0x5b, 0xbd, 0xeb, 0xf4, 0xf8,
    0xbb, 0x9f, 0x1a, 0xbb, 0xbe, 0x09, 0xde, 0x49, 0x3e, 0x89, 0xaf, 0x58, 0xbe, 0xe2, 0x53, 0x8c, 0xbe, 0x14, 0x72,
    0x15, 0x3e, 0xc8, 0x7c, 0xaa, 0x3e, 0x8a, 0x39, 0x61, 0x3d, 0x33, 0x5e, 0x68, 0x3e, 0xf4, 0x73, 0xaa, 0x3e, 0x7c,
    0x15, 0x03, 0x3d, 0xe2, 0x2c, 0x8a, 0xbd, 0x63, 0x78, 0x80, 0x3d, 0xd6, 0x4e, 0xa4, 0x3e, 0xf0, 0x5e, 0x88, 0xbb,
    0xb5, 0x14, 0xb0, 0xbe, 0x00, 0x42, 0x99, 0x3c, 0x48, 0xdd, 0xea, 0xbc, 0x39, 0xe6, 0x0c, 0xbd, 0x80, 0x1d, 0xa5,
    0xbb, 0xfe, 0x0e, 0xc3, 0xbd, 0x52, 0x4d, 0xad, 0x3c, 0x34, 0xf0, 0x91, 0x3c, 0xda, 0xac, 0xc1, 0xbd, 0xb0, 0xd3,
    0xab, 0x3d, 0x63, 0xd1, 0xc9, 0xba, 0x6d, 0x7e, 0xa6, 0xbc, 0xa5, 0xcb, 0x95, 0x3d, 0x37, 0xfd, 0x34, 0xbd, 0x2a,
    0x23, 0x34, 0x3b, 0x51, 0xdb, 0x1d, 0xbd, 0x3b, 0xb0, 0xad, 0x3b, 0x12, 0x58, 0x16, 0x3e, 0xb4, 0x52, 0xc6, 0xbd,
    0x14, 0xa2, 0xae, 0xbd, 0xc9, 0xcc, 0x02, 0x3e, 0x9e, 0x46, 0x0b, 0xbd, 0x17, 0xe3, 0x1f, 0xbd, 0xbe, 0x45, 0xe5,
    0x3c, 0x57, 0x8e, 0xb3, 0xbd, 0x5f, 0x4f, 0x43, 0xba, 0x03, 0x5c, 0x39, 0x3d, 0xa7, 0x76, 0xa8, 0xbd, 0x02, 0x53,
    0x8f, 0x3c, 0x86, 0xbd, 0x7c, 0xbd, 0x20, 0xf9, 0x66, 0xbc, 0xc1, 0xec, 0x19, 0xbd, 0xec, 0xca, 0x0f, 0xbd, 0x7d,
    0xfb, 0x38, 0x3d, 0x2b, 0x70, 0x6e, 0xbc, 0x94, 0xe8, 0xd1, 0xbb, 0xd9, 0x15, 0x34, 0xbc, 0xe0, 0x1b, 0xc4, 0xbd,
    0xdc, 0x9f, 0xe2, 0x3c, 0x8f, 0x9a, 0x72, 0x3d, 0xb4, 0x1c, 0xbe, 0xbd, 0x43, 0xd1, 0x7d, 0xbc, 0xb9, 0xd6, 0x9e,
    0x3d, 0x6c, 0xe6, 0x3d, 0xbd, 0xa4, 0x08, 0xcd, 0x3b, 0xc9, 0xd5, 0xf3, 0xbb, 0xa2, 0xb8, 0xd3, 0x3d, 0x40, 0x95,
    0x01, 0x3c, 0xbf, 0xf1, 0x30, 0xbc, 0xa5, 0xa9, 0x2c, 0xbd, 0xbf, 0xf6, 0x90, 0x3c, 0xfe, 0x78, 0x88, 0xbd, 0x34,
    0xc8, 0xd8, 0x3c, 0xd2, 0x80, 0xdb, 0xbc, 0xad, 0xea, 0x27, 0x3c, 0xf8, 0x9b, 0x81, 0xbc, 0xad, 0xe3, 0x9e, 0xbd,
    0xcc, 0x40, 0xb8, 0x3c, 0x17, 0xc0, 0xae, 0x3c, 0xa2, 0x15, 0x06, 0x3e, 0xf2, 0x04, 0xb0, 0xbc, 0x40, 0x16, 0x83,
    0x3b, 0x7c, 0x80, 0xe8, 0x3b, 0xe4, 0x91, 0x37, 0x3d, 0x77, 0x28, 0xba, 0x3c, 0xf5, 0x81, 0x20, 0x3c, 0x3b, 0x3f,
    0xe8, 0xbc, 0x82, 0x73, 0x06, 0xbd, 0xbf, 0xa4, 0xf5, 0x3d, 0xbb, 0x45, 0x1e, 0x3d, 0x67, 0xaf, 0x0e, 0xbc, 0x36,
    0x4c, 0xed, 0x3d, 0xa3, 0x10, 0xcb, 0x3a, 0x9f, 0x56, 0x67, 0xbd, 0x62, 0x12, 0x49, 0xbd, 0x66, 0xf4, 0xb1, 0x3b,
    0x43, 0x9f, 0x2e, 0x3c, 0x9a, 0x3c, 0xa9, 0xbd, 0x5d, 0x67, 0xe0, 0x3d, 0x33, 0x3a, 0xab, 0xbc, 0xe0, 0xf1, 0x98,
    0x3d, 0xec, 0x1f, 0x44, 0xbd, 0x2c, 0xdf, 0x4e, 0xbd, 0x26, 0xa9, 0xc8, 0xbc, 0xe5, 0x9f, 0x4a, 0x3d, 0x4a, 0xf6,
    0xb2, 0xbd, 0x4c, 0x68, 0xfe, 0xbb, 0xe3, 0x21, 0xd3, 0x3a, 0xf7, 0xde, 0x0e, 0xbe, 0x94, 0xa3, 0xa3, 0xbc, 0xba,
    0x95, 0x4d, 0x3a, 0x67, 0x83, 0x84, 0x3c, 0x65, 0x60, 0x8c, 0x3c, 0xf6, 0x0f, 0xbb, 0x3c, 0xc2, 0x78, 0x7d, 0x3d,
    0xd0, 0xa9, 0x3e, 0x3d, 0xeb, 0xec, 0x81, 0xbd, 0xac, 0xee, 0x90, 0x3d, 0xb3, 0x28, 0xdc, 0xbc, 0x98, 0x61, 0xac,
    0x3d, 0x8d, 0xdc, 0x51, 0xbd, 0xe8, 0x84, 0xa2, 0xbd, 0xb5, 0x38, 0x05, 0x3d, 0x32, 0x20, 0xf0, 0x3d, 0x40, 0xb1,
    0xa3, 0x3d, 0xc5, 0xc0, 0xa5, 0x3c, 0x09, 0x2c, 0x12, 0x3e, 0xa7, 0x8d, 0x13, 0x3d, 0xb8, 0x0e, 0x0a, 0xbd, 0xc6,
    0x3a, 0x2c, 0xbd, 0xce, 0xfa, 0x37, 0x3e, 0xef, 0x3e, 0xad, 0x3d, 0xf2, 0xda, 0x32, 0xb9, 0x8f, 0x81, 0x58, 0x3c,
    0x00, 0xb5, 0x79, 0x3d, 0xe0, 0xd4, 0x4a, 0x3c, 0x2d, 0x4a, 0xa2, 0xbd, 0xfe, 0x37, 0xb2, 0xbb, 0x06, 0x8c, 0x5c,
    0x3d, 0xd2, 0x82, 0x3e, 0x39, 0xd6, 0xef, 0x1a, 0xbe, 0x15, 0x51, 0x0f, 0x3b, 0x58, 0x66, 0x0a, 0x3d, 0x99, 0x74,
    0x88, 0x3d, 0x14, 0xd0, 0x3f, 0xbc, 0xe4, 0x30, 0x29, 0xbc, 0x70, 0x60, 0xd7, 0xbc, 0xff, 0xf5, 0x08, 0xbc, 0x87,
    0x93, 0x77, 0x3d, 0xbb, 0x02, 0xd7, 0x3d, 0x29, 0x43, 0x1d, 0xbd, 0xd1, 0x39, 0xc6, 0x3c, 0x81, 0x28, 0x31, 0x3e,
    0x30, 0x60, 0x02, 0xbd, 0xca, 0x30, 0x43, 0xbc, 0xc5, 0xc1, 0xb2, 0x3d, 0x68, 0x76, 0x89, 0xb9, 0x60, 0x3d, 0xb6,
    0x3d, 0xd8, 0x62, 0xf6, 0xbd, 0xff, 0xf7, 0xdc, 0xbc, 0x37, 0xa5, 0x06, 0xbd, 0x58, 0x1f, 0xaf, 0xbd, 0x5d, 0x53,
    0xd1, 0x3d, 0x6d, 0x73, 0x15, 0x3d, 0x51, 0x2e, 0x9c, 0xbb, 0x83, 0x1f, 0x3b, 0xbc, 0x1f, 0x2a, 0xb1, 0x3b, 0x55,
    0x9d, 0x36, 0x3d, 0x7b, 0x06, 0xcf, 0xbb, 0xb4, 0x55, 0x4e, 0x3d, 0x5a, 0x36, 0xad, 0x3d, 0x9d, 0x2c, 0x04, 0xbd,
    0xed, 0x56, 0x24, 0xbe, 0x38, 0xd1, 0x59, 0x3c, 0x04, 0xe3, 0x5f, 0x3c, 0xe5, 0xc8, 0xd8, 0x3c, 0xd8, 0x37, 0xe4,
    0xba, 0xa6, 0x26, 0x6d, 0xbd, 0x7c, 0x91, 0x88, 0x3d, 0xa9, 0x0d, 0x33, 0x3d, 0x27, 0x13, 0xe6, 0x3d, 0xa0, 0xe4,
    0x30, 0x3d, 0xe4, 0xf9, 0x65, 0x3d, 0xf8, 0xb6, 0xe5, 0x3b, 0x55, 0x26, 0x13, 0x3d, 0x74, 0x8b, 0xd2, 0x3d, 0x79,
    0xca, 0x1a, 0xbd, 0x81, 0xe1, 0x08, 0xbd, 0xaf, 0xea, 0x13, 0x3e, 0xaf, 0x3f, 0xce, 0x3d, 0x13, 0xa3, 0x5f, 0x3b,
    0xce, 0x90, 0x70, 0x3d, 0x75, 0x5b, 0x9a, 0xbd, 0xd6, 0xfb, 0x1c, 0xbd, 0x67, 0xbf, 0xba, 0xbd, 0xd1, 0xe8, 0x7d,
    0x3d, 0xb1, 0x5a, 0x6b, 0xbd, 0x63, 0x17, 0xdf, 0x3d, 0xb1, 0x3a, 0x64, 0x3b, 0x87, 0x6d, 0x7d, 0x3d, 0x6c, 0x2f,
    0x67, 0x3d, 0x5e, 0x93, 0xb1, 0x3d, 0xc4, 0x15, 0x5a, 0xbd, 0x3a, 0x01, 0xef, 0xbb, 0x64, 0x21, 0xcb, 0x3b, 0x9c,
    0x13, 0xb2, 0xbb, 0x01, 0x5d, 0x86, 0xbc, 0xaa, 0x37, 0x1c, 0xbd, 0x11, 0x4e, 0x47, 0xbc, 0xa7, 0xe4, 0x77, 0xbd,
    0x0d, 0xf7, 0xf5, 0x3c, 0x69, 0x73, 0x47, 0xbd, 0x74, 0xb4, 0x66, 0x3d, 0xab, 0xe7, 0x01, 0x3e, 0xda, 0xd5, 0xc3,
    0x3d, 0x56, 0x09, 0x9e, 0x3c, 0xf5, 0x84, 0x8c, 0x3e, 0x6e, 0x09, 0x57, 0x3e, 0x95, 0x8d, 0x3a, 0xbe, 0x7d, 0xea,
    0xed, 0x3c, 0xd3, 0xc6, 0xe1, 0x3d, 0xa1, 0xbf, 0xf2, 0xbc, 0x20, 0xb4, 0x3a, 0x3e, 0x5d, 0xe8, 0x55, 0xbc, 0xb0,
    0x0a, 0xf3, 0x3d, 0xcc, 0x0c, 0xb8, 0x3d, 0xf9, 0xd9, 0xc1, 0xbd, 0xde, 0xc3, 0x99, 0x3d, 0xd8, 0xf9, 0x97, 0xbe,
    0xeb, 0x80, 0xc0, 0xbd, 0x49, 0xb6, 0x7d, 0xbd, 0x87, 0x35, 0x50, 0xbe, 0xd4, 0x2b, 0x30, 0x3e, 0xb0, 0x26, 0x5b,
    0x3d, 0xf7, 0xdd, 0xe8, 0x3c, 0xfc, 0x8c, 0x25, 0xbe, 0x32, 0x3f, 0x0d, 0x3e, 0x0c, 0x4f, 0x0a, 0xbd, 0xe2, 0x97,
    0x31, 0x3e, 0x77, 0x53, 0xa3, 0x3e, 0xb0, 0xa2, 0x30, 0x3c, 0x67, 0x47, 0x9d, 0x3e, 0x5f, 0x63, 0x93, 0xbd, 0xce,
    0x1d, 0x0a, 0x3e, 0xf0, 0x10, 0x9a, 0x3d, 0xff, 0x28, 0x3c, 0x3c, 0x89, 0x6e, 0x96, 0x3d, 0x4a, 0x6e, 0x0f, 0xbd,
    0x75, 0xcc, 0x64, 0xbc, 0x38, 0xf0, 0x00, 0x3d, 0x6a, 0x2c, 0xa9, 0x3d, 0xaf, 0x23, 0x25, 0x3e, 0xb5, 0xcd, 0xf1,
    0x3a, 0xea, 0x0f, 0x8a, 0x3d, 0x4c, 0x29, 0x1c, 0xbd, 0x50, 0xa0, 0xd1, 0xbc, 0x6f, 0x8d, 0x13, 0x3d, 0x70, 0x77,
    0xaa, 0xbd, 0x51, 0xc5, 0x1d, 0x3d, 0x9c, 0x17, 0x7b, 0x3b, 0x1e, 0x40, 0x07, 0x3d, 0xa4, 0x33, 0x23, 0x3e, 0x7b,
    0xa6, 0xf7, 0x3c, 0x64, 0x25, 0xac, 0x3d, 0x94, 0x3b, 0xa8, 0xbd, 0xd6, 0x28, 0xdc, 0x3c, 0xbc, 0x63, 0xdc, 0x3c,
    0x0e, 0x8a, 0x20, 0x3d, 0x21, 0x14, 0x76, 0xbd, 0xdc, 0x18, 0x28, 0xbe, 0x2f, 0xb7, 0x90, 0xbe, 0xc7, 0x13, 0x15,
    0xbe, 0xc1, 0xad, 0x6f, 0x3c, 0x00, 0x14, 0xaa, 0xbd, 0xf1, 0x38, 0xc4, 0xbb, 0xae, 0x5f, 0x61, 0xbd, 0xc3, 0x04,
    0x94, 0xbc, 0x1b, 0x31, 0x9b, 0xbd, 0x9f, 0x17, 0x4d, 0xbd, 0x6d, 0xfa, 0x9d, 0xbd, 0x1d, 0x24, 0xcb, 0xbc, 0x36,
    0xd6, 0xac, 0xbd, 0x27, 0x6b, 0xcc, 0x3d, 0xa7, 0xd7, 0x0f, 0xbd, 0xc3, 0xc1, 0x34, 0xbe, 0x77, 0x02, 0x08, 0xbe,
    0xd9, 0xfa, 0x0e, 0x3d, 0x72, 0x12, 0xab, 0xbc, 0x4f, 0x1a, 0x24, 0xbd, 0xb2, 0xd0, 0x91, 0x3c, 0xd0, 0x7d, 0xe7,
    0x3d, 0x8e, 0xb6, 0xa1, 0xbd, 0xa8, 0x03, 0x8e, 0x3d, 0x06, 0x37, 0xcd, 0xbd, 0x90, 0x8f, 0x8b, 0x3c, 0xc2, 0x27,
    0xd5, 0xbc, 0x01, 0x3c, 0x24, 0xbb, 0xfe, 0xac, 0xa5, 0x3b, 0x1e, 0xdd, 0x9d, 0x3c, 0xab, 0x52, 0x20, 0x3c, 0x9e,
    0xb1, 0xe9, 0xbc, 0x62, 0xf6, 0x00, 0xbd, 0x68, 0x4f, 0x24, 0x3d, 0xf5, 0x10, 0x31, 0x3c, 0x91, 0x4c, 0xc7, 0x3c,
    0x24, 0xeb, 0x61, 0x3d, 0xd2, 0x83, 0xc2, 0xbc, 0x2a, 0x89, 0x21, 0x3d, 0xd5, 0xfd, 0x08, 0xbe, 0xf2, 0xc9, 0x71,
    0x3d, 0x8b, 0x67, 0x84, 0x3c, 0xaa, 0x13, 0x82, 0x3d, 0x93, 0xcf, 0x0e, 0x3e, 0x3f, 0x13, 0xa6, 0xbd, 0xe3, 0x0b,
    0x6b, 0xbd, 0x7b, 0xf2, 0xf6, 0xbb, 0x0c, 0x1d, 0xca, 0x3d, 0xbb, 0x4f, 0xc6, 0x3d, 0x0f, 0x54, 0x27, 0xbd, 0x89,
    0xda, 0xd5, 0xbc, 0x44, 0x4c, 0x9c, 0xbd, 0xcd, 0xec, 0x3d, 0xbc, 0xe6, 0x81, 0x3c, 0xbd, 0x5e, 0xee, 0xc3, 0xbc,
    0xec, 0xb9, 0x99, 0xbd, 0x9b, 0x6b, 0xc2, 0x3a, 0x15, 0xa9, 0x22, 0xbd, 0xb5, 0xa4, 0xf6, 0xbd, 0xd4, 0xbe, 0x92,
    0x3c, 0x8d, 0x19, 0xe3, 0x3d, 0xae, 0xbc, 0x66, 0xbd, 0x56, 0x3a, 0xf2, 0x3a, 0x6b, 0x07, 0x39, 0xbd, 0x1d, 0xc5,
    0xb3, 0x3c, 0x43, 0x03, 0x45, 0xbd, 0x29, 0x80, 0xe5, 0xbc, 0xd5, 0xcb, 0xe3, 0x3b, 0xf6, 0xf9, 0xcf, 0xbd, 0x58,
    0x58, 0xca, 0xbc, 0x6c, 0x4b, 0xfa, 0x3c, 0x9c, 0x8b, 0x5d, 0x3c, 0x13, 0x2c, 0x84, 0x3e, 0x73, 0x38, 0x96, 0x39,
    0x7f, 0x50, 0x90, 0x3b, 0x50, 0x66, 0x4d, 0xbd, 0x72, 0x0f, 0xb8, 0xbd, 0x65, 0x50, 0xb8, 0x3d, 0xe1, 0x9e, 0x90,
    0xbd, 0xba, 0x67, 0x50, 0xbe, 0x01, 0xc4, 0x91, 0xbd, 0x96, 0x0f, 0xfd, 0x3b, 0x5e, 0xd3, 0x91, 0x3a, 0x11, 0x3f,
    0x88, 0x3d, 0x55, 0xd1, 0x2b, 0x3f, 0x29, 0x71, 0x96, 0xbe, 0x75, 0x4e, 0x3f, 0x3e, 0xb7, 0x65, 0x08, 0x3f, 0x1b,
    0x7d, 0xa0, 0xbe, 0x51, 0x42, 0x93, 0xba, 0xd2, 0x0a, 0xe7, 0x3d, 0x29, 0xc9, 0xc0, 0xbd, 0x55, 0xe8, 0xed, 0xbc,
    0xab, 0xcc, 0x6a, 0xbe, 0x9a, 0xbf, 0x8f, 0x3b, 0x70, 0x2e, 0x3f, 0xbf, 0x4c, 0xb5, 0xd3, 0x3b, 0xc2, 0xa7, 0xa4,
    0x3b, 0x25, 0x81, 0xde, 0x3c, 0x06, 0xd1, 0x8c, 0x3f, 0x00, 0xcb, 0xd5, 0xba, 0x8e, 0x02, 0xcf, 0xb9, 0xd0, 0xb4,
    0xf6, 0x3b, 0x6e, 0xce, 0xd1, 0xb9, 0xc6, 0xf2, 0x5b, 0xbd, 0x48, 0xb5, 0x47, 0x3d, 0x06, 0x2c, 0x6c, 0xbd, 0x24,
    0xf0, 0xb0, 0x3d, 0x39, 0x3b, 0xbd, 0x3d, 0xea, 0x3d, 0xfa, 0xbc, 0x29, 0x68, 0x33, 0x3d, 0x7d, 0x66, 0x2a, 0x3d,
    0xa7, 0xae, 0x57, 0xba, 0x69, 0xfb, 0x3f, 0xbc, 0xa4, 0xc4, 0x4d, 0xbd, 0xf2, 0x1e, 0xb0, 0xbc, 0xd8, 0xf0, 0x33,
    0x3d, 0xe5, 0x87, 0x1d, 0xbe, 0x29, 0x4f, 0x97, 0xbd, 0x48, 0x9e, 0x6a, 0xbd, 0x12, 0xff, 0xd7, 0x39, 0x40, 0x0d,
    0x28, 0x3d, 0x55, 0x52, 0x77, 0xbd, 0xd5, 0x42, 0xb4, 0x3d, 0xd8, 0x73, 0x64, 0x3b, 0x93, 0x16, 0x4c, 0xbd, 0xd8,
    0xca, 0xb7, 0xbc, 0x4f, 0xe7, 0x4a, 0x3d, 0x5d, 0xad, 0x1c, 0xbe, 0x3b, 0x76, 0x91, 0x3d, 0x66, 0x8c, 0x4e, 0xbd,
    0x29, 0x5d, 0xdd, 0x3c, 0x80, 0xa3, 0x25, 0xbd, 0xed, 0x26, 0xf8, 0x3a, 0x71, 0x74, 0xa7, 0x3c, 0x0b, 0xd8, 0x68,
    0xbd, 0x70, 0x50, 0xe9, 0xbd, 0x58, 0xad, 0x17, 0xbd, 0xb1, 0xc2, 0x29, 0x3d, 0xcd, 0xd3, 0xdf, 0x3d, 0xdb, 0x03,
    0xfb, 0xbd, 0x5a, 0x67, 0xc2, 0x3c, 0xcc, 0x99, 0x42, 0xbd, 0x3e, 0xd6, 0x8f, 0xbe, 0xd0, 0xe8, 0x04, 0xbd, 0xd8,
    0xe9, 0x0d, 0xbe, 0xec, 0xb9, 0x12, 0x3e, 0xce, 0x3f, 0x81, 0xbd, 0x04, 0x48, 0xd1, 0xbc, 0x68, 0x35, 0x7e, 0x3e,
    0x1f, 0x0a, 0x84, 0xbe, 0x18, 0xa3, 0x9a, 0xbc, 0xa6, 0x8e, 0xf7, 0x3c, 0xe4, 0x5b, 0xa8, 0x3c, 0xa0, 0xf5, 0xd8,
    0xbd, 0x09, 0x26, 0x32, 0xbd, 0xe5, 0x9a, 0x14, 0x3c, 0xc7, 0x0a, 0x2a, 0x3d, 0x4b, 0x9c, 0x7a, 0x3c, 0x59, 0xc3,
    0x64, 0xbe, 0xb4, 0xe5, 0xe0, 0xbc, 0x21, 0x2e, 0xc6, 0xbd, 0x97, 0x89, 0x13, 0xbe, 0xc4, 0x29, 0xe9, 0x3d, 0x5f,
    0x15, 0xae, 0x3c, 0x44, 0xd1, 0x95, 0xbc, 0xb3, 0x7b, 0x32, 0xbc, 0x27, 0xc1, 0x5c, 0x3c, 0x53, 0xf0, 0x9f, 0xbc,
    0x5d, 0xc4, 0x2e, 0x3d, 0xdc, 0x43, 0x5a, 0xbd, 0x5e, 0x18, 0x06, 0xbd, 0x80, 0xa3, 0x7e, 0xbc, 0x04, 0x0a, 0x8e,
    0xbd, 0x06, 0xcd, 0x10, 0xbd, 0x30, 0xf6, 0x87, 0xbd, 0x5e, 0x5e, 0x72, 0xbc, 0x16, 0x94, 0xe5, 0xbd, 0xea, 0xeb,
    0x7b, 0xbd, 0x35, 0x24, 0x41, 0x3b, 0x52, 0xd5, 0x32, 0xbd, 0x49, 0x53, 0xe8, 0x3d, 0x14, 0x6f, 0x12, 0x3c, 0x6f,
    0x7a, 0x72, 0x3d, 0x32, 0x85, 0xb7, 0x3c, 0x8e, 0x16, 0xc1, 0xbc, 0xfc, 0x10, 0x61, 0xba, 0x87, 0xc6, 0x8e, 0xbd,
    0xcc, 0x89, 0x9a, 0xbc, 0xf4, 0x85, 0x28, 0xbe, 0xb2, 0x7d, 0x4b, 0x3d, 0x84, 0x96, 0x17, 0xbd, 0x92, 0x80, 0xb3,
    0xbd, 0x1d, 0x5e, 0x3c, 0xbd, 0x40, 0x5b, 0x57, 0x3d, 0xe9, 0x3c, 0xb9, 0xbc, 0x74, 0xf3, 0x44, 0x3d, 0x1f, 0x94,
    0x20, 0xbc, 0xd0, 0x56, 0x6c, 0x3c, 0xf9, 0xb5, 0x3b, 0xbd, 0x28, 0xd8, 0xdd, 0xbc, 0x48, 0xe8, 0x23, 0xbd, 0x52,
    0x84, 0xac, 0xbc, 0xba, 0x6a, 0xf2, 0xbc, 0xf1, 0xdb, 0x0b, 0x3e, 0x42, 0xcd, 0xea, 0xbb, 0x54, 0x55, 0xb8, 0x3c,
    0x4b, 0xf1, 0x08, 0xbd, 0x56, 0x23, 0xbd, 0xbd, 0x9c, 0xc1, 0xa3, 0xbc, 0xb9, 0x1d, 0x88, 0x3d, 0x4e, 0xc9, 0xe3,
    0xbc, 0x00, 0x3f, 0xdb, 0x3d, 0x65, 0x9e, 0x38, 0xbd, 0x55, 0xc7, 0x62, 0xbc, 0xdf, 0x1c, 0x3e, 0xbd, 0xfb, 0x20,
    0x2e, 0xbd, 0xed, 0x5b, 0x62, 0x3c, 0x06, 0xa9, 0x6e, 0xbc, 0xf6, 0x4c, 0x2d, 0x3c, 0x94, 0x0c, 0x47, 0x3d, 0x3d,
    0xb9, 0xcd, 0xbd, 0xd7, 0xa8, 0x62, 0x3d, 0x63, 0x36, 0xbc, 0x3d, 0x80, 0xea, 0xa8, 0x3d, 0xfa, 0x2b, 0xad, 0xbd,
    0x73, 0xe0, 0xa9, 0xbc, 0x81, 0x01, 0x4a, 0xbc, 0x2e, 0xed, 0x89, 0x3c, 0x39, 0xdd, 0x68, 0x3d, 0xb8, 0xbb, 0xfd,
    0x3c, 0x6e, 0x24, 0xa0, 0xbd, 0xab, 0xbf, 0x25, 0x3d, 0xfd, 0x25, 0x91, 0xbd, 0xa8, 0xbc, 0xe2, 0x3c, 0xd1, 0x0f,
    0x96, 0x3d, 0xe7, 0x3b, 0x29, 0x3e, 0x23, 0xc4, 0x9b, 0xbd, 0x7e, 0xcc, 0x03, 0xbd, 0x20, 0xa5, 0xce, 0xbb, 0x3e,
    0xc8, 0x81, 0x3b, 0xbc, 0xba, 0x8b, 0xbd, 0x6f, 0x16, 0x7e, 0xbd, 0x9c, 0x78, 0xb1, 0xbc, 0xf2, 0x25, 0x0f, 0x3e,
    0x43, 0xa7, 0x2e, 0xbe, 0x72, 0x0c, 0x87, 0x3d, 0x9b, 0xff, 0x18, 0xbe, 0x1a, 0xcc, 0x28, 0xbd, 0xea, 0xe7, 0xc3,
    0xbd, 0xb7, 0xb3, 0x81, 0xbb, 0x96, 0xb4, 0x9f, 0xbc, 0x6a, 0x09, 0x4e, 0xbd, 0x4f, 0x9f, 0x82, 0x3c, 0x10, 0xa5,
    0x1e, 0x3e, 0x53, 0xae, 0x2f, 0x3e, 0x83, 0x24, 0x31, 0x3d, 0x0e, 0x05, 0x3a, 0xbd, 0xa3, 0xc0, 0x11, 0x3d, 0xed,
    0x58, 0x57, 0xbd, 0x50, 0xbc, 0xc6, 0xbd, 0xf4, 0xb7, 0x1b, 0x3d, 0xa2, 0x3b, 0xa4, 0xbc, 0xb9, 0x2a, 0xa8, 0x3c,
    0xaa, 0x70, 0xb7, 0x3d, 0x17, 0x24, 0x1f, 0xbd, 0x32, 0x94, 0xee, 0xbc, 0xa4, 0xd0, 0xbe, 0x3e, 0x51, 0x40, 0x19,
    0x3e, 0x50, 0x3b, 0x07, 0x3e, 0xdd, 0x1f, 0x87, 0xbd, 0x4d, 0xee, 0xd7, 0x3e, 0x8d, 0x0b, 0x14, 0xbe, 0x53, 0x6d,
    0xe2, 0x3d, 0xf4, 0xb4, 0x98, 0x3c, 0x97, 0xb2, 0x04, 0x3e, 0x7e, 0x06, 0x50, 0x3e, 0x04, 0x33, 0x99, 0x3e, 0xe2,
    0xba, 0x41, 0x3e, 0xa8, 0x36, 0x4b, 0xbe, 0x72, 0xdf, 0x41, 0x3e, 0xa5, 0xca, 0xbb, 0xbb, 0x85, 0xd1, 0x90, 0x3c,
    0x43, 0xa7, 0xf9, 0x3d, 0xba, 0x35, 0x06, 0xbd, 0x22, 0x1b, 0xae, 0x3c, 0xac, 0xf2, 0xce, 0x3b, 0xfa, 0x87, 0xc8,
    0x3e, 0x81, 0xe7, 0x10, 0x3c, 0x37, 0x97, 0x2a, 0xbd, 0x22, 0xee, 0x0b, 0x3e, 0x01, 0xc9, 0x11, 0xbf, 0xf8, 0xf1,
    0x2d, 0x3d, 0x2e, 0xda, 0xa0, 0x3b, 0x49, 0xe9, 0x9f, 0xbb, 0x4a, 0xbf, 0x11, 0xbd, 0x52, 0x55, 0xd0, 0x3d, 0x57,
    0x9f, 0x50, 0xbd, 0x4d, 0x18, 0x0e, 0xbd, 0xde, 0x22, 0xbf, 0xbd, 0x79, 0xde, 0x62, 0xbd, 0x74, 0xcc, 0x04, 0xbd,
    0x10, 0x8c, 0x3c, 0x3d, 0x0e, 0xf6, 0xf2, 0xbd, 0x32, 0x50, 0xdd, 0x3d, 0x14, 0xa0, 0x92, 0xbd, 0xec, 0x1a, 0x0b,
    0x3d, 0x86, 0x0d, 0xf1, 0xbc, 0x29, 0x5c, 0xa4, 0x3d, 0x82, 0x64, 0xe8, 0x3d, 0x90, 0x7d, 0xb5, 0x3d, 0x2f, 0x5b,
    0xf1, 0xbd, 0x51, 0x20, 0xf1, 0x3d, 0x5e, 0x1d, 0xfa, 0xbc, 0x35, 0x4e, 0x95, 0xbc, 0xca, 0x71, 0xea, 0xbd, 0xf4,
    0xc2, 0x8b, 0x3d, 0x93, 0xc1, 0xec, 0xbd, 0x76, 0x5e, 0x38, 0x3d, 0x98, 0x1a, 0x5a, 0xbd, 0x25, 0x08, 0xd3, 0x3d,
    0x0e, 0xce, 0x5f, 0x3d, 0xe4, 0x26, 0x02, 0xbd, 0x1c, 0x95, 0x85, 0xbd, 0x15, 0xc8, 0x6d, 0xbd, 0xca, 0xd1, 0x18,
    0x3d, 0xe0, 0x46, 0x51, 0x3d, 0x4b, 0xae, 0x82, 0xbd, 0x5f, 0x69, 0x9a, 0x3b, 0xfd, 0xd2, 0x4c, 0xbe, 0xdb, 0x4e,
    0x3a, 0x3d, 0x9e, 0xdd, 0x51, 0xbd, 0xed, 0x0c, 0xf2, 0x3d, 0x6b, 0x8a, 0x4f, 0xbd, 0xb1, 0x36, 0x92, 0x3d, 0x32,
    0xf2, 0x2d, 0xbd, 0x83, 0xfd, 0x12, 0xbd, 0x49, 0xbf, 0x6f, 0xbd, 0x2e, 0xb5, 0x3e, 0x3c, 0xf4, 0x8f, 0xa7, 0xbb,
    0xae, 0xae, 0x07, 0x3e, 0xf8, 0x6c, 0xe1, 0xbc, 0x3b, 0xbf, 0x5c, 0xbd, 0xab, 0xed, 0xa9, 0xbd, 0x47, 0x01, 0xbb,
    0xbd, 0x09, 0x43, 0x80, 0x3c, 0x74, 0xd5, 0x68, 0x3b, 0xce, 0xb2, 0x83, 0xbd, 0x2b, 0x70, 0x87, 0x3d, 0xd7, 0xa3,
    0xa9, 0x3c, 0x27, 0x0d, 0xeb, 0x3b, 0x46, 0x03, 0x8d, 0x3d, 0x9b, 0xc6, 0xf5, 0x3c, 0xba, 0xbd, 0x9a, 0x3b, 0x64,
    0x6e, 0x04, 0x3e, 0xa9, 0xcb, 0x20, 0x39, 0x26, 0x71, 0x33, 0xbd, 0x78, 0xd3, 0x9a, 0xbc, 0xcc, 0x2b, 0x8a, 0x3c,
    0x4e, 0x34, 0x5f, 0x3d, 0xa5, 0xe0, 0xe9, 0x3b, 0x61, 0xa4, 0x5d, 0x3d, 0x42, 0xb5, 0x82, 0xbc, 0x24, 0x76, 0x04,
    0x3c, 0x27, 0x97, 0x0c, 0x3c, 0x20, 0xd2, 0x35, 0xbe, 0x44, 0x44, 0xce, 0xbc, 0x40, 0x82, 0xd5, 0xbd, 0x82, 0x3e,
    0x8a, 0x3d, 0xe2, 0x5d, 0x5f, 0xbe, 0xb6, 0x2c, 0x65, 0xbd, 0xcb, 0x28, 0x64, 0x3e, 0x3d, 0x9e, 0x2a, 0xba, 0xbc,
    0x11, 0x64, 0xbd, 0xb7, 0x9f, 0x6c, 0x3c, 0xac, 0x39, 0x04, 0x3d, 0xb7, 0x25, 0xbf, 0x3d, 0x55, 0x0a, 0x89, 0xbc,
    0xf5, 0x49, 0x84, 0x3b, 0xc7, 0x6b, 0xc5, 0xbd, 0x5c, 0x6c, 0xe8, 0x3d, 0xfa, 0xbf, 0xab, 0x3b, 0xea, 0xcc, 0x27,
    0xbc, 0xfd, 0x9f, 0x33, 0x3d, 0x45, 0x1e, 0xc5, 0x3d, 0xa2, 0x5a, 0x7d, 0xbd, 0x77, 0x4a, 0x0d, 0xbe, 0xaa, 0xf4,
    0xe1, 0xbc, 0x66, 0xee, 0xfd, 0x3c, 0x0e, 0xa0, 0xaa, 0x3c, 0x30, 0x70, 0xb5, 0xbd, 0x1b, 0x97, 0x58, 0x3d, 0x82,
    0x43, 0x75, 0xbc, 0x12, 0xff, 0x3b, 0xbd, 0x53, 0x6e, 0x05, 0x3d, 0x85, 0x6e, 0xad, 0x3d, 0xea, 0x91, 0x04, 0xbe,
    0xd6, 0x52, 0x3c, 0x3d, 0x67, 0x68, 0xf6, 0x3c, 0xde, 0x16, 0x07, 0x3e, 0x26, 0x69, 0xb8, 0xbb, 0x4d, 0x0f, 0x4b,
    0x3d, 0x9e, 0xd6, 0x4e, 0xba, 0xa2, 0x7f, 0x3c, 0xbc, 0x5d, 0xf1, 0xc9, 0xbd, 0x55, 0xfc, 0x21, 0xbd, 0x77, 0x5d,
    0xb4, 0xbd, 0x4d, 0xc1, 0x9b, 0x3d, 0x7e, 0xa0, 0xca, 0xbd, 0xef, 0xf3, 0x05, 0x3d, 0xca, 0xc8, 0x91, 0x3c, 0x7a,
    0x97, 0x08, 0x3d, 0x37, 0xfc, 0x68, 0x3d, 0xea, 0x29, 0xae, 0x3d, 0x9e, 0xb7, 0x4d, 0xbc, 0xf4, 0xef, 0x47, 0xbb,
    0x2a, 0xf8, 0x21, 0x3d, 0x5a, 0xf6, 0x63, 0xbd, 0x8f, 0xc4, 0x07, 0x3d, 0x10, 0xf3, 0x36, 0x3d, 0x94, 0xcd, 0xcc,
    0xbc, 0x26, 0xeb, 0x5c, 0xbd, 0x45, 0x70, 0x88, 0xbc, 0x8c, 0x94, 0xe8, 0x3c, 0x9a, 0x74, 0x31, 0x3e, 0xa2, 0x54,
    0xaf, 0x3c, 0x1f, 0x3a, 0x47, 0x3d, 0x8c, 0xe2, 0xbc, 0x3c, 0x11, 0xd4, 0x8c, 0xbd, 0xd9, 0xaa, 0xf8, 0xbd, 0xdc,
    0x30, 0xa3, 0xbd, 0x72, 0xce, 0x06, 0x3e, 0x56, 0xd6, 0x22, 0x3e, 0x05, 0x6d, 0xa4, 0xbd, 0x19, 0x34, 0x18, 0xbb,
    0xf6, 0x59, 0x17, 0x3d, 0x5a, 0xb7, 0x96, 0xbd, 0x22, 0xb5, 0xf4, 0xbd, 0xca, 0x80, 0xe2, 0x3d, 0xa2, 0xa1, 0x6b,
    0xbb, 0x21, 0xbd, 0x55, 0xbc, 0x22, 0x30, 0x04, 0x3d, 0x10, 0x75, 0xc1, 0x3d, 0x9c, 0x1c, 0x0e, 0x3c, 0x03, 0x58,
    0x9f, 0xbc, 0x8a, 0x03, 0x01, 0x3e, 0x20, 0xa4, 0x39, 0xbd, 0x13, 0xdf, 0xc5, 0x3d, 0x02, 0x6e, 0xdc, 0xba, 0xac,
    0xdb, 0xcb, 0xbc, 0x3b, 0x3b, 0xde, 0x3d, 0x33, 0xba, 0x82, 0xbd, 0x42, 0x70, 0x03, 0xbd, 0x12, 0x74, 0xe7, 0xbc,
    0x15, 0x0b, 0x93, 0x3d, 0xa9, 0x97, 0x9b, 0x3b, 0xd2, 0xc1, 0x80, 0xbd, 0xfc, 0x3b, 0x20, 0xbd, 0xd9, 0x92, 0x92,
    0xbd, 0xdb, 0x94, 0x69, 0x3d, 0xf0, 0x13, 0x10, 0xbe, 0x0e, 0xca, 0x0e, 0xbd, 0x12, 0xcf, 0x9a, 0x3d, 0x28, 0x5d,
    0x56, 0xbd, 0x9e, 0x43, 0x41, 0xbd, 0xe5, 0x3f, 0xaa, 0x3d, 0x20, 0x7c, 0xda, 0x3b, 0x12, 0x9e, 0x19, 0xbd, 0x6a,
    0xa3, 0x16, 0xbd, 0xe3, 0x8b, 0x1a, 0x3e, 0x1b, 0xcc, 0x95, 0xbd, 0xf4, 0x50, 0xa0, 0x3c, 0x4d, 0x47, 0x35, 0xbc,
    0x05, 0xf3, 0xd8, 0x3c, 0x18, 0x8e, 0x26, 0x3c, 0x9b, 0x16, 0x5d, 0xbd, 0x71, 0x84, 0x69, 0x3c, 0x79, 0x4e, 0x1f,
    0x3d, 0x86, 0xcd, 0xec, 0xbc, 0x69, 0x26, 0x12, 0xbe, 0xc1, 0x6a, 0x40, 0x3d, 0x5e, 0x9a, 0x17, 0xbd, 0xee, 0x78,
    0x04, 0x3d, 0x31, 0x20, 0x39, 0x3d, 0xb4, 0x90, 0x3d, 0x3d, 0x9f, 0xdd, 0x3e, 0xbc, 0x6c, 0xfb, 0x21, 0x3d, 0x1c,
    0xe4, 0xa1, 0xbd, 0x4d, 0xea, 0x39, 0x3a, 0xd0, 0x13, 0xac, 0x3c, 0x52, 0xa8, 0xba, 0xbd, 0x87, 0x15, 0xc2, 0x3d,
    0xce, 0x34, 0x01, 0xbd, 0x83, 0xe1, 0xa9, 0x3d, 0x68, 0xee, 0x2d, 0x3e, 0xad, 0xaf, 0xc4, 0xbc, 0x92, 0x10, 0xff,
    0xbd, 0x18, 0x2a, 0xa1, 0x3d, 0x2b, 0x66, 0xd9, 0x3c, 0x41, 0x11, 0xf6, 0xbd, 0xf1, 0x45, 0x43, 0x3d, 0x43, 0x5b,
    0xd7, 0x3d, 0x93, 0xcb, 0xec, 0xbd, 0xf4, 0x07, 0x24, 0xbd, 0x99, 0x7a, 0x50, 0xbe, 0x09, 0x39, 0xf7, 0x3c, 0xf8,
    0x66, 0x0e, 0xbe, 0xc8, 0xae, 0x22, 0xbe, 0xc0, 0x8e, 0x8e, 0x3c, 0xf8, 0xab, 0xcf, 0x3d, 0xbe, 0xfc, 0x81, 0xbd,
    0x07, 0x6c, 0x72, 0xbd, 0x77, 0xbd, 0xa5, 0xbd, 0x42, 0x08, 0x41, 0xbe, 0x2a, 0xca, 0xc4, 0xbc, 0x55, 0x79, 0x02,
    0x3d, 0xa1, 0x41, 0xa5, 0xbe, 0xc5, 0x87, 0x2f, 0x3d, 0x34, 0xe6, 0x96, 0xbd, 0xd4, 0xb2, 0xfd, 0x3b, 0x48, 0x55,
    0x1b, 0x3e, 0x35, 0xda, 0xce, 0xbc, 0xcb, 0xe0, 0xb9, 0xb9, 0x3a, 0xf4, 0xca, 0x3d, 0xeb, 0x0f, 0xe0, 0x3c, 0xcf,
    0xc4, 0x2f, 0xbd, 0x70, 0x62, 0x9d, 0x3b, 0x14, 0x75, 0xa6, 0xbd, 0xd8, 0xb5, 0x0f, 0x3e, 0xa2, 0x8a, 0x22, 0xbe,
    0xfd, 0x0d, 0xf4, 0x3c, 0xf9, 0xd2, 0x74, 0xbd, 0x44, 0xf2, 0xb2, 0xbb, 0x6b, 0xbf, 0xc9, 0xbc, 0x6a, 0x94, 0x0b,
    0x3d, 0xb6, 0x85, 0x91, 0xbd, 0xf1, 0xfb, 0xa2, 0x3d, 0x4f, 0xa9, 0xed, 0xbc, 0x90, 0xef, 0x5f, 0xbd, 0x20, 0xa3,
    0x38, 0x3e, 0xe1, 0x63, 0xc9, 0xbb, 0x91, 0xae, 0x38, 0xbd, 0xb9, 0x10, 0xab, 0x3c, 0x9c, 0x25, 0xab, 0xbd, 0xd3,
    0xb9, 0xfc, 0xbc, 0xff, 0x0d, 0x43, 0x3d, 0xaf, 0xa7, 0x33, 0xbc, 0x8a, 0x27, 0xc1, 0xbc, 0x91, 0xf5, 0xec, 0xbc,
    0xcd, 0xae, 0xd1, 0x3c, 0x2e, 0x60, 0x2d, 0xbc, 0x51, 0x4c, 0x89, 0x3c, 0x57, 0xab, 0x1d, 0xbe, 0x89, 0x10, 0x59,
    0xbc, 0xc9, 0xd6, 0x08, 0xbd, 0xad, 0x2f, 0x29, 0xbd, 0xc3, 0x6b, 0xa0, 0x3c, 0x22, 0xe9, 0xc0, 0xbc, 0xff, 0xbe,
    0x38, 0x3d, 0xb7, 0x53, 0x55, 0x3d, 0x3b, 0x6c, 0xca, 0xbd, 0x3d, 0x7a, 0xad, 0x3d, 0xec, 0xb3, 0x5c, 0x3d, 0xa5,
    0x80, 0xb0, 0x3d, 0x49, 0x43, 0x6f, 0x3d, 0x18, 0x21, 0x06, 0xbd, 0xa6, 0x04, 0x46, 0xbd, 0xa1, 0xaa, 0x81, 0x3c,
    0x8c, 0x59, 0xc7, 0x3c, 0x2b, 0x98, 0x31, 0x3d, 0x8e, 0x9d, 0x95, 0x3d, 0x5f, 0xf9, 0xec, 0xbd, 0x41, 0x75, 0x96,
    0xbd, 0xd4, 0xaa, 0xe9, 0x3c, 0xa2, 0x5e, 0x07, 0xbd, 0x76, 0x60, 0x69, 0x3d, 0x4d, 0x3c, 0xc1, 0xbc, 0x19, 0x0c,
    0x8d, 0xbd, 0x02, 0x69, 0x47, 0xbd, 0x67, 0x4a, 0x1b, 0x3d, 0x09, 0xc7, 0xea, 0xbc, 0xac, 0x81, 0x36, 0xbd, 0x1d,
    0x1c, 0x92, 0x3c, 0xa7, 0x72, 0x0b, 0xbd, 0x8e, 0xcb, 0x8a, 0xbd, 0x61, 0x3a, 0xb3, 0x3b, 0xd8, 0x9e, 0xaf, 0x3c,
    0x1e, 0xc7, 0xe6, 0xbc, 0xb5, 0x2d, 0x24, 0x3e, 0xc0, 0xe3, 0x49, 0x3c, 0x56, 0xfc, 0xe0, 0x3c, 0xbd, 0x39, 0x29,
    0xbd, 0xc8, 0x4b, 0xff, 0xbd, 0xf1, 0xde, 0x86, 0xbd, 0xc8, 0x41, 0x21, 0xbd, 0x04, 0x98, 0x7b, 0x3d, 0xaa, 0x2f,
    0x07, 0xb9, 0x5e, 0x6e, 0xd2, 0x3d, 0x7c, 0xdc, 0x38, 0xbd, 0xa6, 0x15, 0xc5, 0x3d, 0x8d, 0x51, 0x2f, 0xbd, 0xd5,
    0xff, 0x27, 0xbd, 0xaa, 0x1e, 0xa0, 0xbd, 0xf6, 0x0b, 0x06, 0x3b, 0x6e, 0x98, 0x52, 0xbd, 0x00, 0x19, 0x45, 0xbc,
    0x9e, 0xbc, 0x15, 0xbd, 0xec, 0xe5, 0xb5, 0xbd, 0xee, 0x6c, 0x78, 0xbc, 0x4c, 0xba, 0x43, 0xbd, 0xc3, 0x81, 0x2f,
    0xbc, 0x18, 0x46, 0xd3, 0x3c, 0xf2, 0xa5, 0x87, 0x3c, 0x95, 0x15, 0x25, 0x3d, 0xa3, 0xfa, 0xd0, 0xbc, 0x6c, 0x85,
    0x49, 0xbc, 0xe6, 0xfe, 0xff, 0xff, 0x04, 0x00, 0x00, 0x00, 0x80, 0x00, 0x00, 0x00, 0x2d, 0xf1, 0x60, 0xbb, 0x4d,
    0x50, 0xe8, 0x3d, 0xf1, 0x52, 0x12, 0x3a, 0xab, 0x83, 0xbf, 0x39, 0x8d, 0xa9, 0x80, 0xba, 0xba, 0x01, 0x24, 0xb9,
    0x4f, 0x43, 0xbd, 0xb8, 0x3d, 0x82, 0x42, 0xb8, 0xaf, 0x08, 0xd0, 0x3a, 0xc3, 0x4d, 0x15, 0x3a, 0xfe, 0x06, 0x21,
    0x3a, 0x18, 0xaa, 0x7c, 0xba, 0x00, 0x1f, 0x1e, 0x3a, 0xfe, 0xaa, 0x73, 0xba, 0x1d, 0x19, 0x14, 0x39, 0xe1, 0x26,
    0x5a, 0xbe, 0x7e, 0x2a, 0x94, 0xba, 0xaf, 0x21, 0x85, 0xba, 0xa6, 0x1c, 0x02, 0xba, 0x3b, 0x33, 0x12, 0xba, 0xb7,
    0xbd, 0x37, 0xba, 0xd4, 0x08, 0x14, 0x3d, 0xc9, 0xe1, 0x16, 0xb9, 0x9d, 0x0e, 0x1a, 0xb9, 0xfc, 0x12, 0xb9, 0xba,
    0x99, 0xed, 0x42, 0x3a, 0x51, 0x32, 0x6e, 0x3a, 0x56, 0x33, 0x99, 0xb9, 0x19, 0xc7, 0x37, 0xba, 0x32, 0xf2, 0x16,
    0xb9, 0x90, 0x63, 0x1c, 0x39, 0x9c, 0xf6, 0x51, 0xb8, 0x72, 0xff, 0xff, 0xff, 0x04, 0x00, 0x00, 0x00, 0x80, 0x00,
    0x00, 0x00, 0x17, 0xbd, 0x25, 0xbe, 0xb9, 0x18, 0xbc, 0x3c, 0x78, 0x8d, 0x00, 0xbe, 0x4e, 0xff, 0xdf, 0xbc, 0x3a,
    0xbf, 0x25, 0xbd, 0x58, 0xa1, 0x67, 0xbc, 0x11, 0x39, 0x1f, 0xbc, 0x25, 0xcc, 0x84, 0xbc, 0xbc, 0x31, 0x13, 0xbd,
    0x7f, 0x43, 0xa3, 0xbc, 0x7b, 0xf8, 0xfb, 0x3b, 0x4c, 0x5d, 0xce, 0x3d, 0x7c, 0xd5, 0xf7, 0xbc, 0xa1, 0x3a, 0x95,
    0xbb, 0x19, 0xba, 0xa3, 0x3b, 0xed, 0x6d, 0x8c, 0xbe, 0xfa, 0x30, 0xd7, 0x3c, 0x22, 0xd2, 0x48, 0xbd, 0x81, 0x34,
    0xcc, 0xbc, 0xf4, 0x6c, 0x00, 0x3d, 0x50, 0x98, 0x53, 0x3d, 0x6c, 0x02, 0x9a, 0xbe, 0x19, 0xbb, 0xb1, 0xbc, 0x63,
    0x33, 0x78, 0x3c, 0xa7, 0xd4, 0xaf, 0xbc, 0x95, 0x05, 0x2e, 0x3b, 0x0e, 0xf9, 0x34, 0x3c, 0x7a, 0x79, 0x01, 0xbd,
    0x0a, 0xdf, 0x90, 0xbb, 0x6a, 0x93, 0x46, 0x3c, 0x81, 0x41, 0x09, 0xbb, 0x8c, 0x33, 0xc4, 0xbc, 0x00, 0x00, 0x06,
    0x00, 0x08, 0x00, 0x04, 0x00, 0x06, 0x00, 0x00, 0x00, 0x04, 0x00, 0x00, 0x00, 0x04, 0x00, 0x00, 0x00, 0xc4, 0xf9,
    0x35, 0xbd, 0xe0, 0xfa, 0xff, 0xff, 0xe4, 0xfa, 0xff, 0xff, 0x0f, 0x00, 0x00, 0x00, 0x4d, 0x4c, 0x49, 0x52, 0x20,
    0x43, 0x6f, 0x6e, 0x76, 0x65, 0x72, 0x74, 0x65, 0x64, 0x2e, 0x00, 0x01, 0x00, 0x00, 0x00, 0x14, 0x00, 0x00, 0x00,
    0x00, 0x00, 0x0e, 0x00, 0x18, 0x00, 0x14, 0x00, 0x10, 0x00, 0x0c, 0x00, 0x08, 0x00, 0x04, 0x00, 0x0e, 0x00, 0x00,
    0x00, 0x14, 0x00, 0x00, 0x00, 0x1c, 0x00, 0x00, 0x00, 0x1c, 0x01, 0x00, 0x00, 0x20, 0x01, 0x00, 0x00, 0x24, 0x01,
    0x00, 0x00, 0x04, 0x00, 0x00, 0x00, 0x6d, 0x61, 0x69, 0x6e, 0x00, 0x00, 0x00, 0x00, 0x05, 0x00, 0x00, 0x00, 0xd0,
    0x00, 0x00, 0x00, 0x9c, 0x00, 0x00, 0x00, 0x5c, 0x00, 0x00, 0x00, 0x38, 0x00, 0x00, 0x00, 0x04, 0x00, 0x00, 0x00,
    0x52, 0xff, 0xff, 0xff, 0x10, 0x00, 0x00, 0x00, 0x00, 0x00, 0x00, 0x08, 0x0c, 0x00, 0x00, 0x00, 0x10, 0x00, 0x00,
    0x00, 0x64, 0xfb, 0xff, 0xff, 0x01, 0x00, 0x00, 0x00, 0x0b, 0x00, 0x00, 0x00, 0x03, 0x00, 0x00, 0x00, 0x0a, 0x00,
    0x00, 0x00, 0x03, 0x00, 0x00, 0x00, 0x01, 0x00, 0x00, 0x00, 0xae, 0xff, 0xff, 0xff, 0x0c, 0x00, 0x00, 0x00, 0x10,
    0x00, 0x00, 0x00, 0x01, 0x00, 0x00, 0x00, 0x01, 0x00, 0x00, 0x00, 0x0a, 0x00, 0x00, 0x00, 0x01, 0x00, 0x00, 0x00,
    0x09, 0x00, 0x00, 0x00, 0xa2, 0xff, 0xff, 0xff, 0x10, 0x00, 0x00, 0x00, 0x00, 0x00, 0x00, 0x08, 0x0c, 0x00, 0x00,
    0x00, 0x10, 0x00, 0x00, 0x00, 0xb4, 0xfb, 0xff, 0xff, 0x01, 0x00, 0x00, 0x00, 0x09, 0x00, 0x00, 0x00, 0x03, 0x00,
    0x00, 0x00, 0x08, 0x00, 0x00, 0x00, 0x04, 0x00, 0x00, 0x00, 0x02, 0x00, 0x00, 0x00, 0x00, 0x00, 0x0a, 0x00, 0x10,
    0x00, 0x0c, 0x00, 0x08, 0x00, 0x04, 0x00, 0x0a, 0x00, 0x00, 0x00, 0x0c, 0x00, 0x00, 0x00, 0x10, 0x00, 0x00, 0x00,
    0x01, 0x00, 0x00, 0x00, 0x01, 0x00, 0x00, 0x00, 0x08, 0x00, 0x00, 0x00, 0x01, 0x00, 0x00, 0x00, 0x07, 0x00, 0x00,
    0x00, 0x00, 0x00, 0x0e, 0x00, 0x14, 0x00, 0x00, 0x00, 0x10, 0x00, 0x0c, 0x00, 0x0b, 0x00, 0x04, 0x00, 0x0e, 0x00,
    0x00, 0x00, 0x10, 0x00, 0x00, 0x00, 0x00, 0x00, 0x00, 0x08, 0x0c, 0x00, 0x00, 0x00, 0x10, 0x00, 0x00, 0x00, 0x20,
    0xfc, 0xff, 0xff, 0x01, 0x00, 0x00, 0x00, 0x07, 0x00, 0x00, 0x00, 0x03, 0x00, 0x00, 0x00, 0x00, 0x00, 0x00, 0x00,
    0x05, 0x00, 0x00, 0x00, 0x06, 0x00, 0x00, 0x00, 0x01, 0x00, 0x00, 0x00, 0x0b, 0x00, 0x00, 0x00, 0x01, 0x00, 0x00,
    0x00, 0x00, 0x00, 0x00, 0x00, 0x0c, 0x00, 0x00, 0x00, 0x98, 0x03, 0x00, 0x00, 0x40, 0x03, 0x00, 0x00, 0xf0, 0x02,
    0x00, 0x00, 0xa0, 0x02, 0x00, 0x00, 0x50, 0x02, 0x00, 0x00, 0x00, 0x02, 0x00, 0x00, 0xb0, 0x01, 0x00, 0x00, 0x40,
    0x01, 0x00, 0x00, 0xfc, 0x00, 0x00, 0x00, 0x88, 0x00, 0x00, 0x00, 0x40, 0x00, 0x00, 0x00, 0x04, 0x00, 0x00, 0x00,
    0xae, 0xfc, 0xff, 0xff, 0x00, 0x00, 0x00, 0x01, 0x10, 0x00, 0x00, 0x00, 0x10, 0x00, 0x00, 0x00, 0x0c, 0x00, 0x00,
    0x00, 0x18, 0x00, 0x00, 0x00, 0x98, 0xfc, 0xff, 0xff, 0x08, 0x00, 0x00, 0x00, 0x49, 0x64, 0x65, 0x6e, 0x74, 0x69,
    0x74, 0x79, 0x00, 0x00, 0x00, 0x00, 0x02, 0x00, 0x00, 0x00, 0x01, 0x00, 0x00, 0x00, 0x01, 0x00, 0x00, 0x00, 0xe6,
    0xfc, 0xff, 0xff, 0x00, 0x00, 0x00, 0x01, 0x10, 0x00, 0x00, 0x00, 0x10, 0x00, 0x00, 0x00, 0x0b, 0x00, 0x00, 0x00,
    0x24, 0x00, 0x00, 0x00, 0xd0, 0xfc, 0xff, 0xff, 0x15, 0x00, 0x00, 0x00, 0x6d, 0x6f, 0x64, 0x65, 0x6c, 0x2f, 0x74,
    0x66, 0x2e, 0x6e, 0x6e, 0x2e, 0x65, 0x6c, 0x75, 0x5f, 0x31, 0x2f, 0x45, 0x6c, 0x75, 0x00, 0x00, 0x00, 0x02, 0x00,
    0x00, 0x00, 0x01, 0x00, 0x00, 0x00, 0x20, 0x00, 0x00, 0x00, 0x2a, 0xfd, 0xff, 0xff, 0x00, 0x00, 0x00, 0x01, 0x10,
    0x00, 0x00, 0x00, 0x10, 0x00, 0x00, 0x00, 0x0a, 0x00, 0x00, 0x00, 0x50, 0x00, 0x00, 0x00, 0x14, 0xfd, 0xff, 0xff,
    0x42, 0x00, 0x00, 0x00, 0x6d, 0x6f, 0x64, 0x65, 0x6c, 0x2f, 0x74, 0x66, 0x2e, 0x6c, 0x69, 0x6e, 0x61, 0x6c, 0x67,
    0x2e, 0x6d, 0x61, 0x74, 0x6d, 0x75, 0x6c, 0x5f, 0x31, 0x2f, 0x4d, 0x61, 0x74, 0x4d, 0x75, 0x6c, 0x3b, 0x6d, 0x6f,
    0x64, 0x65, 0x6c, 0x2f, 0x74, 0x66, 0x2e, 0x5f, 0x5f, 0x6f, 0x70, 0x65, 0x72, 0x61, 0x74, 0x6f, 0x72, 0x73, 0x5f,
    0x5f, 0x2e, 0x61, 0x64, 0x64, 0x5f, 0x31, 0x2f, 0x41, 0x64, 0x64, 0x56, 0x32, 0x00, 0x00, 0x02, 0x00, 0x00, 0x00,
    0x01, 0x00, 0x00, 0x00, 0x20, 0x00, 0x00, 0x00, 0x9a, 0xfd, 0xff, 0xff, 0x00, 0x00, 0x00, 0x01, 0x10, 0x00, 0x00,
    0x00, 0x10, 0x00, 0x00, 0x00, 0x09, 0x00, 0x00, 0x00, 0x20, 0x00, 0x00, 0x00, 0x84, 0xfd, 0xff, 0xff, 0x13, 0x00,
    0x00, 0x00, 0x6d, 0x6f, 0x64, 0x65, 0x6c, 0x2f, 0x74, 0x66, 0x2e, 0x6e, 0x6e, 0x2e, 0x65, 0x6c, 0x75, 0x2f, 0x45,
    0x6c, 0x75, 0x00, 0x02, 0x00, 0x00, 0x00, 0x01, 0x00, 0x00, 0x00, 0x20, 0x00, 0x00, 0x00, 0xda, 0xfd, 0xff, 0xff,
    0x00, 0x00, 0x00, 0x01, 0x10, 0x00, 0x00, 0x00, 0x10, 0x00, 0x00, 0x00, 0x08, 0x00, 0x00, 0x00, 0x4c, 0x00, 0x00,
    0x00, 0xc4, 0xfd, 0xff, 0xff, 0x3e, 0x00, 0x00, 0x00, 0x6d, 0x6f, 0x64, 0x65, 0x6c, 0x2f, 0x74, 0x66, 0x2e, 0x6c,
    0x69, 0x6e, 0x61, 0x6c, 0x67, 0x2e, 0x6d, 0x61, 0x74, 0x6d, 0x75, 0x6c, 0x2f, 0x4d, 0x61, 0x74, 0x4d, 0x75, 0x6c,
    0x3b, 0x6d, 0x6f, 0x64, 0x65, 0x6c, 0x2f, 0x74, 0x66, 0x2e, 0x5f, 0x5f, 0x6f, 0x70, 0x65, 0x72, 0x61, 0x74, 0x6f,
    0x72, 0x73, 0x5f, 0x5f, 0x2e, 0x61, 0x64, 0x64, 0x2f, 0x41, 0x64, 0x64, 0x56, 0x32, 0x00, 0x00, 0x02, 0x00, 0x00,
    0x00, 0x01, 0x00, 0x00, 0x00, 0x20, 0x00, 0x00, 0x00, 0x46, 0xfe, 0xff, 0xff, 0x00, 0x00, 0x00, 0x01, 0x10, 0x00,
    0x00, 0x00, 0x10, 0x00, 0x00, 0x00, 0x07, 0x00, 0x00, 0x00, 0x30, 0x00, 0x00, 0x00, 0x30, 0xfe, 0xff, 0xff, 0x20,
    0x00, 0x00, 0x00, 0x6d, 0x6f, 0x64, 0x65, 0x6c, 0x2f, 0x74, 0x66, 0x2e, 0x5f, 0x5f, 0x6f, 0x70, 0x65, 0x72, 0x61,
    0x74, 0x6f, 0x72, 0x73, 0x5f, 0x5f, 0x2e, 0x61, 0x64, 0x64, 0x2f, 0x41, 0x64, 0x64, 0x56, 0x32, 0x00, 0x00, 0x00,
    0x00, 0x01, 0x00, 0x00, 0x00, 0x20, 0x00, 0x00, 0x00, 0x92, 0xfe, 0xff, 0xff, 0x00, 0x00, 0x00, 0x01, 0x10, 0x00,
    0x00, 0x00, 0x10, 0x00, 0x00, 0x00, 0x06, 0x00, 0x00, 0x00, 0x2c, 0x00, 0x00, 0x00, 0x7c, 0xfe, 0xff, 0xff, 0x1d,
    0x00, 0x00, 0x00, 0x6d, 0x6f, 0x64, 0x65, 0x6c, 0x2f, 0x74, 0x66, 0x2e, 0x6c, 0x69, 0x6e, 0x61, 0x6c, 0x67, 0x2e,
    0x6d, 0x61, 0x74, 0x6d, 0x75, 0x6c, 0x2f, 0x4d, 0x61, 0x74, 0x4d, 0x75, 0x6c, 0x00, 0x00, 0x00, 0x02, 0x00, 0x00,
    0x00, 0x20, 0x00, 0x00, 0x00, 0x05, 0x00, 0x00, 0x00, 0xde, 0xfe, 0xff, 0xff, 0x00, 0x00, 0x00, 0x01, 0x10, 0x00,
    0x00, 0x00, 0x10, 0x00, 0x00, 0x00, 0x05, 0x00, 0x00, 0x00, 0x2c, 0x00, 0x00, 0x00, 0xc8, 0xfe, 0xff, 0xff, 0x1f,
    0x00, 0x00, 0x00, 0x6d, 0x6f, 0x64, 0x65, 0x6c, 0x2f, 0x74, 0x66, 0x2e, 0x6c, 0x69, 0x6e, 0x61, 0x6c, 0x67, 0x2e,
    0x6d, 0x61, 0x74, 0x6d, 0x75, 0x6c, 0x5f, 0x31, 0x2f, 0x4d, 0x61, 0x74, 0x4d, 0x75, 0x6c, 0x00, 0x02, 0x00, 0x00,
    0x00, 0x20, 0x00, 0x00, 0x00, 0x20, 0x00, 0x00, 0x00, 0x2a, 0xff, 0xff, 0xff, 0x00, 0x00, 0x00, 0x01, 0x10, 0x00,
    0x00, 0x00, 0x10, 0x00, 0x00, 0x00, 0x04, 0x00, 0x00, 0x00, 0x2c, 0x00, 0x00, 0x00, 0x14, 0xff, 0xff, 0xff, 0x1f,
    0x00, 0x00, 0x00, 0x6d, 0x6f, 0x64, 0x65, 0x6c, 0x2f, 0x74, 0x66, 0x2e, 0x6c, 0x69, 0x6e, 0x61, 0x6c, 0x67, 0x2e,
    0x6d, 0x61, 0x74, 0x6d, 0x75, 0x6c, 0x5f, 0x32, 0x2f, 0x4d, 0x61, 0x74, 0x4d, 0x75, 0x6c, 0x00, 0x02, 0x00, 0x00,
    0x00, 0x01, 0x00, 0x00, 0x00, 0x20, 0x00, 0x00, 0x00, 0x76, 0xff, 0xff, 0xff, 0x00, 0x00, 0x00, 0x01, 0x10, 0x00,
    0x00, 0x00, 0x10, 0x00, 0x00, 0x00, 0x03, 0x00, 0x00, 0x00, 0x30, 0x00, 0x00, 0x00, 0x60, 0xff, 0xff, 0xff, 0x22,
    0x00, 0x00, 0x00, 0x6d, 0x6f, 0x64, 0x65, 0x6c, 0x2f, 0x74, 0x66, 0x2e, 0x5f, 0x5f, 0x6f, 0x70, 0x65, 0x72, 0x61,
    0x74, 0x6f, 0x72, 0x73, 0x5f, 0x5f, 0x2e, 0x61, 0x64, 0x64, 0x5f, 0x31, 0x2f, 0x41, 0x64, 0x64, 0x56, 0x32, 0x00,
    0x00, 0x01, 0x00, 0x00, 0x00, 0x20, 0x00, 0x00, 0x00, 0xc2, 0xff, 0xff, 0xff, 0x00, 0x00, 0x00, 0x01, 0x10, 0x00,
    0x00, 0x00, 0x10, 0x00, 0x00, 0x00, 0x02, 0x00, 0x00, 0x00, 0x20, 0x00, 0x00, 0x00, 0xac, 0xff, 0xff, 0xff, 0x12,
    0x00, 0x00, 0x00, 0x6d, 0x6f, 0x64, 0x65, 0x6c, 0x2f, 0x61, 0x63, 0x74, 0x69, 0x6f, 0x6e, 0x2f, 0x41, 0x64, 0x64,
    0x56, 0x32, 0x00, 0x00, 0x01, 0x00, 0x00, 0x00, 0x01, 0x00, 0x00, 0x00, 0x00, 0x00, 0x16, 0x00, 0x18, 0x00, 0x14,
    0x00, 0x00, 0x00, 0x10, 0x00, 0x0c, 0x00, 0x08, 0x00, 0x00, 0x00, 0x00, 0x00, 0x00, 0x00, 0x07, 0x00, 0x16, 0x00,
    0x00, 0x00, 0x00, 0x00, 0x00, 0x01, 0x14, 0x00, 0x00, 0x00, 0x14, 0x00, 0x00, 0x00, 0x01, 0x00, 0x00, 0x00, 0x14,
    0x00, 0x00, 0x00, 0x04, 0x00, 0x04, 0x00, 0x04, 0x00, 0x00, 0x00, 0x03, 0x00, 0x00, 0x00, 0x6f, 0x62, 0x73, 0x00,
    0x02, 0x00, 0x00, 0x00, 0x01, 0x00, 0x00, 0x00, 0x05, 0x00, 0x00, 0x00, 0x02, 0x00, 0x00, 0x00, 0x20, 0x00, 0x00,
    0x00, 0x04, 0x00, 0x00, 0x00, 0xf4, 0xff, 0xff, 0xff, 0x6f, 0x00, 0x00, 0x00, 0x00, 0x00, 0x00, 0x6f, 0x0c, 0x00,
    0x0c, 0x00, 0x0b, 0x00, 0x00, 0x00, 0x00, 0x00, 0x04, 0x00, 0x0c, 0x00, 0x00, 0x00, 0x09, 0x00, 0x00, 0x00, 0x00,
    0x00, 0x00, 0x09};
unsigned int policy_model_len = 6976;
