#pragma once
// Input normalisation (running mean / variance from SKRL preprocessor)
constexpr float MODEL_INPUT_MEAN[] = {-0.00349245f, -0.17223865f, 0.00912430f, 0.90239221f, 0.37245834f};
constexpr float MODEL_INPUT_VAR[] = {0.02082150f, 1.24188602f, 0.08729242f, 0.09832964f, 23.21052551f};
constexpr int MODEL_INPUT_SIZE = 5;

inline constexpr unsigned char policy_model[] = {
    0x1c, 0x00, 0x00, 0x00, 0x54, 0x46, 0x4c, 0x33, 0x14, 0x00, 0x20, 0x00, 0x1c, 0x00, 0x18, 0x00, 0x14, 0x00, 0x10,
    0x00, 0x0c, 0x00, 0x00, 0x00, 0x08, 0x00, 0x04, 0x00, 0x14, 0x00, 0x00, 0x00, 0x1c, 0x00, 0x00, 0x00, 0x1c, 0x00,
    0x00, 0x00, 0x74, 0x00, 0x00, 0x00, 0xb8, 0x15, 0x00, 0x00, 0xc8, 0x15, 0x00, 0x00, 0x8c, 0x1b, 0x00, 0x00, 0x03,
    0x00, 0x00, 0x00, 0x00, 0x00, 0x00, 0x00, 0x02, 0x00, 0x00, 0x00, 0x34, 0x00, 0x00, 0x00, 0x04, 0x00, 0x00, 0x00,
    0xdc, 0xff, 0xff, 0xff, 0x0f, 0x00, 0x00, 0x00, 0x04, 0x00, 0x00, 0x00, 0x13, 0x00, 0x00, 0x00, 0x43, 0x4f, 0x4e,
    0x56, 0x45, 0x52, 0x53, 0x49, 0x4f, 0x4e, 0x5f, 0x4d, 0x45, 0x54, 0x41, 0x44, 0x41, 0x54, 0x41, 0x00, 0x08, 0x00,
    0x0c, 0x00, 0x08, 0x00, 0x04, 0x00, 0x08, 0x00, 0x00, 0x00, 0x0e, 0x00, 0x00, 0x00, 0x04, 0x00, 0x00, 0x00, 0x13,
    0x00, 0x00, 0x00, 0x6d, 0x69, 0x6e, 0x5f, 0x72, 0x75, 0x6e, 0x74, 0x69, 0x6d, 0x65, 0x5f, 0x76, 0x65, 0x72, 0x73,
    0x69, 0x6f, 0x6e, 0x00, 0x10, 0x00, 0x00, 0x00, 0x40, 0x15, 0x00, 0x00, 0x38, 0x15, 0x00, 0x00, 0x24, 0x15, 0x00,
    0x00, 0x8c, 0x14, 0x00, 0x00, 0xfc, 0x13, 0x00, 0x00, 0xec, 0x03, 0x00, 0x00, 0x5c, 0x01, 0x00, 0x00, 0xcc, 0x00,
    0x00, 0x00, 0xc4, 0x00, 0x00, 0x00, 0xbc, 0x00, 0x00, 0x00, 0xb4, 0x00, 0x00, 0x00, 0xac, 0x00, 0x00, 0x00, 0xa4,
    0x00, 0x00, 0x00, 0x9c, 0x00, 0x00, 0x00, 0x7c, 0x00, 0x00, 0x00, 0x04, 0x00, 0x00, 0x00, 0x1a, 0xeb, 0xff, 0xff,
    0x04, 0x00, 0x00, 0x00, 0x68, 0x00, 0x00, 0x00, 0x10, 0x00, 0x00, 0x00, 0x00, 0x00, 0x00, 0x00, 0x08, 0x00, 0x0e,
    0x00, 0x08, 0x00, 0x04, 0x00, 0x08, 0x00, 0x00, 0x00, 0x14, 0x00, 0x00, 0x00, 0x2c, 0x00, 0x00, 0x00, 0x00, 0x00,
    0x0a, 0x00, 0x0c, 0x00, 0x08, 0x00, 0x00, 0x00, 0x07, 0x00, 0x0a, 0x00, 0x00, 0x00, 0x00, 0x00, 0x00, 0x01, 0x04,
    0x00, 0x00, 0x00, 0x00, 0x00, 0x00, 0x00, 0x0c, 0x00, 0x18, 0x00, 0x14, 0x00, 0x10, 0x00, 0x0c, 0x00, 0x04, 0x00,
    0x0c, 0x00, 0x00, 0x00, 0xf9, 0x6e, 0xbe, 0x08, 0xe0, 0x73, 0xb6, 0x92, 0x03, 0x00, 0x00, 0x00, 0x02, 0x00, 0x00,
    0x00, 0x04, 0x00, 0x00, 0x00, 0x06, 0x00, 0x00, 0x00, 0x32, 0x2e, 0x32, 0x31, 0x2e, 0x30, 0x00, 0x00, 0x8e, 0xeb,
    0xff, 0xff, 0x04, 0x00, 0x00, 0x00, 0x10, 0x00, 0x00, 0x00, 0x31, 0x2e, 0x31, 0x34, 0x2e, 0x30, 0x00, 0x00, 0x00,
    0x00, 0x00, 0x00, 0x00, 0x00, 0x00, 0x00, 0xcc, 0xe5, 0xff, 0xff, 0xd0, 0xe5, 0xff, 0xff, 0xd4, 0xe5, 0xff, 0xff,
    0xd8, 0xe5, 0xff, 0xff, 0xdc, 0xe5, 0xff, 0xff, 0xe0, 0xe5, 0xff, 0xff, 0xc2, 0xeb, 0xff, 0xff, 0x04, 0x00, 0x00,
    0x00, 0x80, 0x00, 0x00, 0x00, 0x2c, 0x05, 0x5e, 0x3d, 0xf4, 0xcc, 0x00, 0xbf, 0x67, 0x1a, 0x50, 0x3e, 0x78, 0x30,
    0x41, 0x3d, 0xc6, 0x51, 0x25, 0x3e, 0xc5, 0xff, 0xbd, 0x3d, 0x21, 0x1b, 0xcd, 0xbe, 0x32, 0x86, 0x2b, 0xbe, 0x91,
    0x1b, 0x76, 0x3e, 0x52, 0x40, 0x1a, 0x3f, 0xde, 0x5f, 0xb3, 0x3e, 0x32, 0xc6, 0x0b, 0xbe, 0xad, 0xc5, 0x2b, 0x3e,
    0xc8, 0xa0, 0x23, 0xbf, 0xa8, 0x3c, 0xb8, 0xbe, 0x37, 0x32, 0x85, 0xbe, 0x7e, 0x0f, 0x13, 0x3f, 0x26, 0x1f, 0xdd,
    0x3e, 0xb8, 0xbb, 0x95, 0x3e, 0x24, 0xdc, 0xf3, 0xbe, 0xb6, 0x2e, 0x9c, 0x3e, 0xe8, 0x7b, 0xf4, 0xbe, 0xe2, 0x5c,
    0x54, 0xbe, 0x9d, 0x99, 0x16, 0xbd, 0x8b, 0xfb, 0x0d, 0xbf, 0xdf, 0xf2, 0xdc, 0xbe, 0x27, 0x65, 0x7f, 0xbe, 0x68,
    0x9a, 0x14, 0xbf, 0x44, 0x2f, 0x1e, 0xbc, 0x1b, 0x13, 0x19, 0xbf, 0xbc, 0x15, 0x06, 0xbf, 0x69, 0x6a, 0x9f, 0x3e,
    0x4e, 0xec, 0xff, 0xff, 0x04, 0x00, 0x00, 0x00, 0x80, 0x02, 0x00, 0x00, 0x6c, 0xa0, 0xac, 0xbe, 0x70, 0xcb, 0x54,
    0x3e, 0x83, 0x1b, 0x10, 0xbf, 0x0e, 0x7b, 0x58, 0xbd, 0xda, 0xd5, 0x2f, 0xbf, 0x54, 0x86, 0xce, 0x3e, 0xcc, 0x6e,
    0x13, 0x3e, 0xd0, 0x3d, 0xd6, 0x3e, 0xcc, 0xfd, 0x8d, 0xbe, 0xa9, 0x7b, 0x81, 0xbe, 0x14, 0x11, 0xee, 0x3a, 0x7b,
    0x54, 0x12, 0x3f, 0x93, 0xde, 0x49, 0x3f, 0x47, 0xbb, 0x9e, 0xbe, 0xc3, 0x3e, 0xeb, 0x3e, 0xa7, 0x74, 0xc1, 0xbe,
    0xe7, 0x70, 0xb0, 0x3e, 0x1b, 0xf5, 0x82, 0xbe, 0x65, 0x11, 0xb3, 0xbe, 0x53, 0x9f, 0x1c, 0x3c, 0x89, 0xdb, 0xb2,
    0xbe, 0x61, 0xd4, 0x52, 0x3e, 0xf6, 0x31, 0x6c, 0x3d, 0x27, 0x4a, 0x0e, 0xbe, 0x64, 0x01, 0x8e, 0xbc, 0xac, 0xd0,
    0x8e, 0x3e, 0xa2, 0xdf, 0xeb, 0x3e, 0xe1, 0x4f, 0xd5, 0xbd, 0x72, 0xbb, 0x39, 0x3e, 0x49, 0xfd, 0x8d, 0x3e, 0x95,
    0x4f, 0xe2, 0x3d, 0x71, 0x19, 0x0b, 0xbe, 0xa0, 0x39, 0x58, 0x3e, 0x75, 0x91, 0xfd, 0x3d, 0x93, 0xa3, 0x3d, 0xbc,
    0x69, 0x99, 0x24, 0xbe, 0xea, 0x3d, 0x24, 0x3f, 0x01, 0x9e, 0x88, 0xbd, 0x40, 0x4d, 0x4e, 0xbd, 0x71, 0x52, 0xc9,
    0x3e, 0xf5, 0xc7, 0x62, 0xbe, 0x3d, 0xb9, 0xcb, 0xbe, 0x30, 0x3c, 0x07, 0x3e, 0xaa, 0x3b, 0xd2, 0x3d, 0xca, 0xe5,
    0x0c, 0xbf, 0x1a, 0x37, 0x13, 0xbe, 0x8a, 0xfd, 0x8b, 0xbe, 0x29, 0x1a, 0xda, 0x3d, 0x1d, 0x77, 0xc0, 0xbd, 0xb6,
    0xbf, 0xb0, 0xbe, 0x6e, 0xfb, 0xf3, 0x3d, 0x6f, 0x1a, 0x82, 0xbe, 0xd2, 0xcb, 0x6e, 0x3e, 0x2d, 0x20, 0x1f, 0x3f,
    0xe6, 0x5b, 0xba, 0x3e, 0xa1, 0xae, 0xd5, 0x3d, 0x25, 0x08, 0x0b, 0xbf, 0x36, 0xd3, 0xba, 0xbd, 0xa7, 0x15, 0x12,
    0x3f, 0x46, 0x0f, 0x3b, 0x3c, 0xd0, 0x5b, 0x55, 0xbd, 0xb2, 0xa9, 0x1d, 0xbf, 0x48, 0x5c, 0xa0, 0xbe, 0x0f, 0x1e,
    0x71, 0x3e, 0x97, 0x53, 0x60, 0xbf, 0xcc, 0x96, 0x70, 0xbe, 0x49, 0xa6, 0x04, 0x3d, 0xe2, 0x58, 0x86, 0x3e, 0x75,
    0x9a, 0x76, 0xbf, 0x78, 0x77, 0x63, 0x3f, 0xf7, 0xbf, 0x15, 0x3f, 0x64, 0x9e, 0xb6, 0x3d, 0x3b, 0x83, 0xfe, 0x3e,
    0x4c, 0xaf, 0xb8, 0x3d, 0x6d, 0xd9, 0xa6, 0xbe, 0x29, 0xf1, 0xeb, 0xbe, 0xc0, 0xc9, 0x6e, 0xbf, 0x13, 0x14, 0x94,
    0xbe, 0x68, 0x94, 0x32, 0xbe, 0x71, 0x6f, 0x7b, 0x3e, 0x9f, 0x08, 0x4e, 0xbe, 0x67, 0xa9, 0xd9, 0xbd, 0x25, 0x26,
    0x0f, 0xbf, 0xa5, 0xb1, 0xe8, 0x3e, 0x0d, 0x01, 0x96, 0x3e, 0x15, 0x88, 0x1d, 0x3e, 0x81, 0xd5, 0x4f, 0x3d, 0x4c,
    0x34, 0xe6, 0x3e, 0x96, 0xc4, 0x3c, 0x3d, 0x3e, 0x00, 0x8d, 0x3e, 0xec, 0x21, 0x23, 0x3e, 0x04, 0x83, 0x2d, 0xbf,
    0x4e, 0x22, 0xe3, 0xbd, 0xc7, 0x14, 0xf8, 0xbe, 0x5d, 0xb3, 0x8e, 0x3d, 0xdf, 0x9d, 0xe9, 0xbd, 0x78, 0xb8, 0x86,
    0xbe, 0x1e, 0x0a, 0x0f, 0x3f, 0x5a, 0xbc, 0x10, 0x3f, 0x4c, 0xfe, 0xc6, 0x3e, 0xbf, 0xfa, 0x92, 0xbe, 0x29, 0x1a,
    0xf5, 0xbd, 0xb4, 0x8e, 0xcb, 0xbc, 0x43, 0xdd, 0x3b, 0x3f, 0x11, 0x8e, 0x1f, 0xbe, 0xc1, 0xac, 0x93, 0xbe, 0xc2,
    0x5a, 0x95, 0x3c, 0x0e, 0x4e, 0x03, 0xbe, 0xaf, 0x9f, 0x0d, 0xbd, 0x3e, 0x2f, 0x7b, 0x3e, 0xa9, 0x8f, 0xac, 0xbe,
    0xde, 0xce, 0xca, 0xbe, 0xb1, 0x45, 0xc4, 0xbe, 0x65, 0xc7, 0x7d, 0xbd, 0x60, 0x60, 0xa0, 0xbe, 0xc3, 0x21, 0x8e,
    0xbe, 0x2b, 0x98, 0x5e, 0xbe, 0xff, 0xa0, 0x30, 0x3f, 0x05, 0x0a, 0x2d, 0x3f, 0xe0, 0xf8, 0x0c, 0x3f, 0xf8, 0x52,
    0x16, 0x3f, 0x0e, 0x9c, 0xd6, 0x3e, 0x64, 0x2f, 0xde, 0x3e, 0x2e, 0xc5, 0xaf, 0xbe, 0xe3, 0x09, 0x94, 0x3e, 0xfb,
    0x62, 0xa5, 0x3e, 0x5d, 0x1c, 0xea, 0x3d, 0xab, 0xc9, 0x18, 0xbe, 0xb0, 0x91, 0x90, 0xbf, 0x7e, 0xb0, 0x0a, 0xbe,
    0x5e, 0x18, 0xed, 0xbd, 0x47, 0xcc, 0x2b, 0x3f, 0x6c, 0xbd, 0xf9, 0xbe, 0x33, 0xb3, 0x74, 0x3d, 0x8f, 0x8d, 0x94,
    0x3e, 0x78, 0xc0, 0xad, 0x3e, 0xf2, 0xa0, 0x46, 0x3f, 0x80, 0xb3, 0x45, 0xbe, 0xc8, 0x05, 0x98, 0xbe, 0x3a, 0x40,
    0x64, 0xbe, 0xb4, 0xa1, 0x88, 0xbc, 0xd7, 0x54, 0x0b, 0xbe, 0xb0, 0x04, 0xad, 0xbe, 0x88, 0x2a, 0x82, 0x3e, 0xf2,
    0xe9, 0xd0, 0xbe, 0x20, 0xcb, 0x26, 0xbe, 0x0c, 0x6c, 0xa1, 0xbe, 0xd8, 0x97, 0x8b, 0x3e, 0x16, 0xcd, 0x36, 0xbf,
    0xcc, 0x77, 0x64, 0x3e, 0xde, 0x9f, 0x15, 0x3f, 0x44, 0xe3, 0xb7, 0xbd, 0xcb, 0x45, 0x93, 0xbe, 0xcd, 0x46, 0xea,
    0xbd, 0xeb, 0xa9, 0x00, 0x3e, 0x94, 0x8e, 0xe5, 0x3d, 0x04, 0xb3, 0x06, 0xbf, 0xc9, 0x2d, 0x8c, 0x3e, 0x2f, 0x5a,
    0x99, 0xbe, 0xf4, 0x55, 0xb6, 0xbe, 0xda, 0xee, 0xff, 0xff, 0x04, 0x00, 0x00, 0x00, 0x00, 0x10, 0x00, 0x00, 0xd0,
    0x92, 0xaf, 0xbc, 0x73, 0xf2, 0x4c, 0xbe, 0x12, 0xbd, 0xa1, 0xbe, 0x54, 0xdd, 0x12, 0xbe, 0x5a, 0x58, 0xac, 0xbd,
    0xea, 0x89, 0x7a, 0xbe, 0x41, 0x51, 0x68, 0xbb, 0x2c, 0xa3, 0x6f, 0xbd, 0xc2, 0xfc, 0x54, 0x3e, 0x90, 0x76, 0x8d,
    0xbd, 0xeb, 0x6c, 0x45, 0xbd, 0x52, 0x21, 0xbf, 0x3e, 0x34, 0xb5, 0x19, 0x3e, 0x37, 0x3d, 0xcc, 0xbd, 0x6b, 0xd9,
    0x60, 0xbe, 0x1d, 0x13, 0x5d, 0x3e, 0x80, 0x05, 0x36, 0x3d, 0x21, 0xc5, 0xec, 0xbd, 0x40, 0xe2, 0xd4, 0x3c, 0x8b,
    0xd7, 0xde, 0x3d, 0x78, 0x2f, 0x33, 0x3d, 0x71, 0xf3, 0xab, 0x3d, 0xe9, 0xa9, 0xa8, 0x3e, 0xc6, 0xfb, 0xff, 0xbb,
    0x8e, 0xd4, 0x4d, 0x3e, 0xee, 0x40, 0x3b, 0x3d, 0xf9, 0x1d, 0x13, 0xbe, 0xa3, 0xfb, 0x98, 0xbe, 0xd8, 0x0d, 0xa6,
    0x3e, 0x29, 0xe5, 0x06, 0x3e, 0x9c, 0xa5, 0x16, 0xbe, 0x2d, 0x38, 0xa0, 0x3e, 0x17, 0xd9, 0x00, 0x3d, 0x1e, 0x2a,
    0x44, 0x3e, 0xc5, 0xd4, 0x80, 0x3e, 0xf9, 0x09, 0x12, 0xbd, 0xb3, 0x15, 0x3f, 0xbe, 0xf1, 0x91, 0x7c, 0x3e, 0x20,
    0xc9, 0x85, 0x3d, 0x8e, 0x6e, 0x14, 0x3d, 0xf0, 0x64, 0x4c, 0xbe, 0x82, 0x22, 0x73, 0xbd, 0x7d, 0xdf, 0x21, 0x3d,
    0x09, 0xea, 0x9b, 0xbe, 0x05, 0x48, 0xe9, 0xbe, 0xf9, 0x0f, 0xa9, 0xbe, 0xc6, 0x6e, 0x81, 0x3e, 0xce, 0xef, 0xa5,
    0xbe, 0xb4, 0x60, 0xb9, 0xbe, 0x1c, 0x75, 0x0d, 0x3e, 0xf3, 0xb6, 0x42, 0xbe, 0xca, 0x52, 0x79, 0x3e, 0x5f, 0x4f,
    0x04, 0xbe, 0x07, 0xdf, 0x44, 0xbe, 0x18, 0x97, 0x28, 0xbe, 0xf8, 0x56, 0xdc, 0x3e, 0xbb, 0xc9, 0x9f, 0x3e, 0xf8,
    0xa7, 0xfe, 0x3d, 0x02, 0x20, 0x58, 0x3d, 0x2c, 0xd1, 0x95, 0x3c, 0xb0, 0x07, 0x05, 0xbe, 0xe7, 0xb2, 0x59, 0xbe,
    0xfc, 0x41, 0x77, 0x3d, 0x0a, 0x12, 0x87, 0xbe, 0xbd, 0x2d, 0x03, 0xbe, 0xc1, 0x25, 0x82, 0xbb, 0x4d, 0xaf, 0x5f,
    0xbe, 0xff, 0x43, 0x09, 0xbe, 0x64, 0x94, 0x99, 0xbc, 0x48, 0x08, 0x89, 0xbe, 0x6e, 0x83, 0x5a, 0x3e, 0x38, 0xbf,
    0x4b, 0xbd, 0xdc, 0xfa, 0x7e, 0xbd, 0x11, 0xae, 0x89, 0xbd, 0x80, 0xa6, 0x25, 0xbe, 0xf0, 0x49, 0x7d, 0xbe, 0x50,
    0x05, 0x93, 0xbe, 0xbf, 0x0b, 0xa6, 0x3e, 0xe4, 0x03, 0x70, 0xbe, 0xdf, 0xb6, 0xad, 0xbe, 0x22, 0xaa, 0x0f, 0xbd,
    0x56, 0xc2, 0x13, 0xbd, 0xec, 0x6d, 0xb6, 0xbc, 0x32, 0x65, 0xec, 0x3d, 0xb2, 0xb6, 0x86, 0xbd, 0x8f, 0xe9, 0x59,
    0x3e, 0x1d, 0x14, 0xe9, 0x3d, 0x07, 0xa6, 0xc3, 0xbd, 0x83, 0x7f, 0x20, 0xbd, 0x40, 0x66, 0x79, 0x3e, 0xf2, 0x40,
    0x7c, 0xbd, 0xc7, 0x0e, 0xfc, 0xbb, 0x98, 0xf6, 0xaf, 0x3c, 0xfe, 0xc1, 0xd6, 0x3d, 0x7e, 0xc0, 0x3d, 0x3d, 0x1e,
    0x49, 0x4f, 0xbe, 0xc9, 0x19, 0xd2, 0xbc, 0xca, 0xeb, 0xf4, 0x3c, 0x9f, 0x5e, 0x7a, 0x3d, 0xa3, 0xb2, 0x10, 0xbe,
    0x1f, 0xc0, 0xb8, 0x3d, 0x5d, 0xb7, 0x28, 0xbe, 0xa8, 0xbc, 0x05, 0xbe, 0xea, 0x2a, 0x60, 0xbc, 0xa8, 0xa0, 0x1b,
    0x3e, 0x12, 0xb6, 0xe6, 0xbd, 0xff, 0x5e, 0x2b, 0x3e, 0x4a, 0x6b, 0x05, 0x3e, 0xf5, 0xcc, 0x8c, 0x3d, 0xa1, 0x6a,
    0x77, 0x3e, 0x16, 0xcc, 0x91, 0x3d, 0x25, 0xb7, 0xd0, 0xbd, 0xa3, 0x79, 0x5a, 0x3d, 0x03, 0x56, 0xc6, 0x3d, 0xc7,
    0x6f, 0x6c, 0xbc, 0xa2, 0xd1, 0x02, 0x3d, 0xab, 0x25, 0x2f, 0x3d, 0x5d, 0x72, 0xf5, 0x3d, 0x58, 0x5c, 0x81, 0x3b,
    0x38, 0xad, 0x74, 0xbe, 0x07, 0xb6, 0x55, 0x3c, 0xce, 0x92, 0x72, 0xbe, 0xbb, 0xe8, 0x04, 0x3e, 0x2b, 0x36, 0xa0,
    0x3d, 0x6d, 0xfb, 0xf3, 0x3b, 0x27, 0x4d, 0x61, 0xbd, 0xc9, 0x0d, 0xfc, 0xbc, 0x07, 0x33, 0x63, 0x3c, 0x99, 0x5f,
    0x3a, 0x3e, 0x71, 0x95, 0x5f, 0x3e, 0x4f, 0x73, 0x97, 0xbe, 0x24, 0xcd, 0x80, 0x3e, 0x98, 0x76, 0xba, 0x3e, 0x1d,
    0xac, 0x0d, 0x3e, 0x2a, 0xe7, 0x0e, 0xbd, 0xb5, 0xd1, 0x90, 0xbc, 0x80, 0x6f, 0x8a, 0x3e, 0x8a, 0xad, 0x2d, 0x3e,
    0xb7, 0x44, 0xb3, 0xbe, 0x1d, 0xff, 0x3d, 0x3d, 0x83, 0x78, 0x48, 0x3e, 0x95, 0x13, 0xb0, 0x3e, 0x04, 0x11, 0xe6,
    0x3d, 0x50, 0x34, 0x9a, 0x3e, 0xa5, 0x09, 0x02, 0x3e, 0x8d, 0x25, 0xbb, 0xbe, 0x19, 0xb7, 0x1f, 0x3d, 0xe9, 0xec,
    0x7f, 0x3e, 0xab, 0x1b, 0x6d, 0x3d, 0x9e, 0xca, 0x6f, 0x3e, 0xf1, 0x20, 0xd5, 0x3e, 0x3b, 0x36, 0x70, 0x3e, 0x63,
    0x73, 0x88, 0x3e, 0xa1, 0xd7, 0xc8, 0x3e, 0x79, 0xfb, 0x7c, 0xbd, 0x5e, 0x1a, 0xb4, 0x3e, 0x7d, 0xca, 0x8a, 0xbd,
    0x77, 0x2a, 0x94, 0x3e, 0xe6, 0xda, 0x17, 0x3d, 0x3b, 0x6f, 0x98, 0x3d, 0x26, 0x84, 0x5a, 0x3d, 0x70, 0x42, 0xdd,
    0xbd, 0xc0, 0xe9, 0xeb, 0x3d, 0x0b, 0x02, 0x8d, 0x3c, 0x6e, 0x3f, 0x72, 0xbd, 0x56, 0x85, 0x9d, 0x3d, 0x51, 0x57,
    0x10, 0x3e, 0x91, 0xe6, 0x98, 0xbd, 0x4d, 0xff, 0xea, 0x3d, 0x3e, 0x50, 0xdb, 0x3c, 0x78, 0x72, 0x2e, 0x3c, 0x88,
    0x4e, 0xd2, 0x3d, 0xcf, 0x48, 0x13, 0x3d, 0xd1, 0x61, 0xeb, 0x3d, 0x91, 0xd6, 0x85, 0x3d, 0xb9, 0xf1, 0xa9, 0x3d,
    0x75, 0xd2, 0x09, 0x3e, 0x94, 0x59, 0xc7, 0xbd, 0xab, 0x4f, 0x19, 0xbd, 0xf2, 0xfa, 0x60, 0x3d, 0x8b, 0xe0, 0xac,
    0xbd, 0x52, 0xd0, 0x6b, 0xbc, 0xdf, 0x5f, 0x4f, 0xbe, 0xdd, 0xdd, 0x4b, 0xbe, 0x27, 0x98, 0x70, 0xbe, 0x9b, 0x17,
    0x0e, 0x3d, 0xef, 0xbd, 0x19, 0xbe, 0x7f, 0xaa, 0x03, 0x3e, 0x4a, 0xb0, 0x67, 0xbe, 0xc5, 0x33, 0x90, 0x3d, 0x44,
    0xa5, 0x78, 0xbd, 0x97, 0xda, 0x9c, 0xbd, 0x62, 0x93, 0x90, 0x3e, 0x71, 0xc5, 0x86, 0x3e, 0x1a, 0x25, 0x0e, 0xbe,
    0x79, 0xa6, 0xc3, 0x3d, 0x86, 0x42, 0xf8, 0xbd, 0xa5, 0xac, 0xff, 0xbd, 0x0b, 0xf9, 0x5d, 0x3e, 0x98, 0x11, 0x7c,
    0x3d, 0x5b, 0x4a, 0xce, 0x3d, 0x37, 0x7d, 0x70, 0x3d, 0xee, 0x61, 0xc5, 0xbe, 0xa3, 0xb9, 0x9c, 0xbe, 0x28, 0x59,
    0x1c, 0x3e, 0xa0, 0x74, 0xcb, 0x3e, 0x20, 0xc6, 0x1e, 0x3d, 0x52, 0xbb, 0x2b, 0x3e, 0x73, 0x42, 0x57, 0xbe, 0xfb,
    0x90, 0x2f, 0xbe, 0x12, 0x50, 0xf8, 0x3d, 0xf5, 0x97, 0x9b, 0x3d, 0x36, 0xaf, 0xc6, 0xbd, 0xfe, 0xbc, 0x62, 0x3e,
    0x54, 0xb6, 0x2d, 0xbd, 0x16, 0xed, 0x79, 0xbe, 0x78, 0xa9, 0x50, 0xbd, 0x32, 0x83, 0xc1, 0x3e, 0x21, 0xba, 0x1d,
    0x3e, 0x9e, 0x2c, 0x3f, 0x3d, 0x9b, 0x35, 0xe1, 0xbc, 0x77, 0x12, 0x05, 0x3f, 0xc1, 0x09, 0xc4, 0x3c, 0xe1, 0xa9,
    0xa6, 0x3d, 0x30, 0x05, 0x2a, 0xbf, 0x2e, 0x08, 0x77, 0x3c, 0xfc, 0x8d, 0x65, 0x3e, 0x32, 0x87, 0x94, 0x3d, 0x31,
    0x90, 0xff, 0xbd, 0x18, 0xf7, 0x2d, 0x3e, 0x4f, 0x5b, 0x3e, 0x3e, 0x40, 0x8e, 0x97, 0x3e, 0x88, 0x86, 0xbd, 0xbe,
    0x8e, 0x35, 0x97, 0xbe, 0xfe, 0x47, 0xd8, 0xbc, 0x1d, 0xdf, 0x75, 0xbe, 0xe2, 0xb6, 0x43, 0xbf, 0xfa, 0x2d, 0xb4,
    0x3c, 0x34, 0x4a, 0x9c, 0xbe, 0x13, 0xb4, 0xb4, 0xbe, 0x4b, 0x2b, 0x7a, 0xbe, 0xeb, 0x1d, 0x31, 0xbd, 0x36, 0xda,
    0x8d, 0xbe, 0xd9, 0xd1, 0x95, 0x3e, 0xf8, 0x37, 0xce, 0xbe, 0x2d, 0x24, 0xf0, 0xbb, 0x0a, 0x85, 0x84, 0xbe, 0xd8,
    0x45, 0xc0, 0x3d, 0xee, 0x75, 0xee, 0x3e, 0xc3, 0xcd, 0x85, 0xbe, 0x1a, 0x4c, 0x89, 0x3e, 0xd5, 0x9d, 0xc7, 0xbe,
    0x57, 0x93, 0x09, 0xbf, 0xfb, 0xf0, 0x0d, 0xbe, 0xef, 0xba, 0xed, 0x3d, 0x92, 0x55, 0x95, 0xbe, 0x06, 0x37, 0x97,
    0x3e, 0xe6, 0x5d, 0xe4, 0xbb, 0x28, 0x08, 0x8b, 0xbe, 0x71, 0x33, 0xc2, 0x3c, 0xe5, 0x1a, 0xeb, 0xbd, 0x15, 0x1e,
    0x16, 0xbe, 0x03, 0x1c, 0x28, 0x3e, 0xac, 0x9f, 0xda, 0x3a, 0xb7, 0xc9, 0xb7, 0x3d, 0xed, 0xed, 0x60, 0x3e, 0x2a,
    0x33, 0x36, 0xbe, 0x8f, 0xf2, 0x9d, 0xbd, 0x69, 0xef, 0x03, 0x3e, 0x46, 0xfc, 0x0e, 0x3d, 0x99, 0x73, 0x24, 0xbe,
    0x49, 0xd8, 0x59, 0xbe, 0x74, 0x78, 0x13, 0xbd, 0x31, 0xa3, 0x34, 0xbb, 0x2f, 0xfe, 0x7f, 0xbd, 0xa8, 0x54, 0x61,
    0xbe, 0x10, 0xe8, 0x61, 0xbe, 0xae, 0x97, 0x03, 0xbd, 0x12, 0xcd, 0x69, 0x3e, 0xb9, 0xfc, 0xa7, 0xbe, 0x19, 0xe0,
    0x5c, 0xbe, 0xbf, 0x49, 0xc3, 0x3d, 0x00, 0x66, 0x80, 0xbd, 0xce, 0x7d, 0x8c, 0xbe, 0x48, 0xba, 0x1d, 0x3d, 0xca,
    0x56, 0x90, 0xbd, 0x06, 0x22, 0xcb, 0xbd, 0x54, 0xcc, 0xaa, 0x3e, 0x9f, 0x97, 0xd3, 0xbd, 0x26, 0xb6, 0x00, 0xbe,
    0x8a, 0xc7, 0x60, 0xbe, 0x3e, 0xe8, 0x24, 0x3e, 0xc7, 0xe0, 0xbc, 0xbd, 0xc0, 0x2c, 0x59, 0x3b, 0x70, 0x05, 0xba,
    0x3d, 0xbc, 0x2b, 0x49, 0xbe, 0xbe, 0x8e, 0x30, 0x3e, 0x83, 0x45, 0xa8, 0xbd, 0x7f, 0xde, 0x01, 0xbd, 0x9a, 0x89,
    0x50, 0xbc, 0x1a, 0x78, 0x3c, 0xbd, 0x9e, 0xec, 0x8a, 0xbb, 0x05, 0x85, 0x07, 0xbd, 0x2b, 0xf2, 0x23, 0x3d, 0x74,
    0x1a, 0xd6, 0x3c, 0xe9, 0x5e, 0x3f, 0x3c, 0xf1, 0x42, 0x18, 0xbe, 0xe5, 0x6b, 0x8c, 0x3b, 0xee, 0x04, 0x20, 0x3e,
    0xb6, 0xb9, 0x40, 0x3d, 0x16, 0x50, 0xeb, 0x3c, 0x79, 0x64, 0x67, 0xbe, 0x66, 0x49, 0x9e, 0x3d, 0x03, 0x70, 0xc0,
    0x3c, 0x51, 0xa6, 0x11, 0x3e, 0xea, 0xf4, 0x87, 0xbe, 0x50, 0x13, 0x31, 0x3e, 0xdd, 0x7e, 0xe7, 0xbd, 0x64, 0x93,
    0x1f, 0xbe, 0x2d, 0xe9, 0x95, 0x3d, 0xa5, 0x3f, 0x80, 0xbd, 0xfd, 0xde, 0xf1, 0x3d, 0xb9, 0x8b, 0xe5, 0x3c, 0x15,
    0x04, 0x8c, 0x3c, 0x05, 0x3b, 0x14, 0x3e, 0xb1, 0x2c, 0x97, 0xbd, 0xb1, 0x0a, 0xd6, 0xbd, 0xed, 0xf6, 0x0a, 0x3e,
    0xe8, 0x09, 0x06, 0x3e, 0xac, 0xf0, 0xfa, 0x3b, 0x60, 0x8e, 0xc9, 0xbb, 0xf1, 0xd4, 0x16, 0x3c, 0xb6, 0xe1, 0x1c,
    0xbe, 0xa9, 0x07, 0x84, 0xbd, 0x65, 0xac, 0xdf, 0x3d, 0x8e, 0x25, 0x0d, 0xbb, 0x0c, 0x59, 0xf0, 0x3d, 0x5b, 0xc6,
    0x7e, 0xbd, 0x03, 0xaa, 0x18, 0x3e, 0xc1, 0x40, 0xb0, 0xba, 0x34, 0x26, 0x3a, 0x3e, 0x62, 0x92, 0xa7, 0xbd, 0xf2,
    0x88, 0x68, 0xbd, 0x49, 0x6f, 0xdf, 0xbd, 0x0f, 0x2b, 0x12, 0xbd, 0x3a, 0xd4, 0xaf, 0xbc, 0xab, 0x35, 0xf3, 0xbd,
    0x98, 0x43, 0x11, 0x3d, 0x57, 0x3a, 0xb0, 0x3c, 0x6c, 0x63, 0x1b, 0x3e, 0x80, 0xf8, 0xdc, 0x3d, 0x78, 0x4c, 0x7a,
    0xbd, 0xe6, 0x35, 0xa4, 0xbe, 0x4f, 0x5a, 0x6c, 0x3e, 0x12, 0xe2, 0x5b, 0xbd, 0x9e, 0xcf, 0x82, 0x3d, 0x0e, 0x6e,
    0x37, 0xbe, 0xa1, 0xc3, 0x11, 0xbe, 0x8b, 0x45, 0x8b, 0x3d, 0x3c, 0x5e, 0x7c, 0xbc, 0x5f, 0x38, 0x50, 0xbd, 0x37,
    0x6f, 0xa4, 0xbd, 0x2e, 0x33, 0x24, 0x3c, 0x93, 0x93, 0x25, 0x3e, 0x0a, 0x20, 0xab, 0xbc, 0x9d, 0xd5, 0x60, 0xbe,
    0xee, 0x6d, 0x43, 0x3e, 0x23, 0x51, 0x06, 0xbe, 0xaa, 0xb8, 0x35, 0xbe, 0xd1, 0xfe, 0x47, 0x3d, 0xe1, 0xbb, 0x10,
    0x3e, 0x87, 0x10, 0x95, 0x3e, 0x7c, 0xdf, 0xa0, 0x3d, 0xda, 0xb2, 0x9d, 0xbd, 0x46, 0xd5, 0xfb, 0xbd, 0x2c, 0x40,
    0x61, 0x3e, 0xd6, 0x6c, 0x8c, 0x3d, 0xfa, 0xd0, 0x69, 0x3e, 0x33, 0x8c, 0x29, 0x3d, 0xac, 0xcf, 0xc6, 0x3d, 0x26,
    0x5e, 0x05, 0xbe, 0x55, 0xc0, 0x27, 0xbe, 0x32, 0x9f, 0x85, 0x3e, 0xc9, 0x8b, 0xf3, 0x3d, 0x49, 0xc7, 0x16, 0x3e,
    0x2a, 0xcf, 0x7e, 0xbe, 0x62, 0x46, 0x67, 0xbe, 0x85, 0x4c, 0x29, 0xbe, 0xcc, 0x90, 0xc4, 0x3c, 0x32, 0xe2, 0x40,
    0xbd, 0x64, 0x33, 0x82, 0xbc, 0xeb, 0xf7, 0x93, 0xbe, 0x9b, 0x90, 0x3b, 0x3e, 0x5b, 0x16, 0xe5, 0x3d, 0x2d, 0x58,
    0x99, 0x3e, 0xe4, 0x77, 0xd7, 0x3e, 0xc0, 0x41, 0xe2, 0x3d, 0xfa, 0x8b, 0xe9, 0xbd, 0xe2, 0x7a, 0x8e, 0x3c, 0x83,
    0x44, 0x6b, 0x3e, 0xf5, 0x87, 0x8e, 0x3e, 0xbf, 0xd2, 0xc7, 0xbc, 0x5e, 0x13, 0xb6, 0x3e, 0x51, 0x6c, 0xa7, 0xbe,
    0x13, 0xb7, 0x68, 0x3e, 0x4c, 0xb5, 0x54, 0xbd, 0x9a, 0x40, 0x81, 0xbd, 0xa7, 0xd8, 0x8c, 0xbe, 0x09, 0x83, 0x0a,
    0xbf, 0xc5, 0x0a, 0x01, 0xbf, 0x7f, 0xd3, 0xa6, 0xbe, 0x13, 0x21, 0xae, 0xbd, 0xc2, 0x3e, 0x25, 0xbd, 0x67, 0x6f,
    0x47, 0x3d, 0xc8, 0xdb, 0xb8, 0xbd, 0xac, 0x51, 0x4b, 0x3e, 0xd7, 0x1c, 0x03, 0x3e, 0x4e, 0xbf, 0xc5, 0xbe, 0xf2,
    0xee, 0x42, 0xbf, 0xe0, 0xa7, 0x4e, 0xbd, 0x2e, 0xb3, 0x6b, 0xbe, 0x27, 0x2e, 0x6b, 0xbe, 0xfb, 0x9b, 0xc2, 0xbb,
    0x0b, 0x8c, 0x1b, 0xbf, 0xf7, 0xd8, 0x7c, 0x3e, 0xb6, 0x58, 0xa8, 0x3e, 0xcc, 0x29, 0x01, 0xbd, 0x20, 0xa1, 0xd9,
    0x3e, 0x74, 0x0f, 0x29, 0x3f, 0xa0, 0xf5, 0x0e, 0x3c, 0x6a, 0x2f, 0x3f, 0xbe, 0x4a, 0xb0, 0x94, 0x3e, 0x1d, 0xdc,
    0x38, 0x3d, 0xc3, 0x3b, 0xf6, 0xbd, 0xa1, 0x7e, 0x97, 0x3e, 0x67, 0xf1, 0x41, 0xbe, 0xcb, 0x2b, 0xfd, 0x3d, 0xd8,
    0xf4, 0xde, 0x3d, 0x7e, 0x7c, 0x3f, 0x3f, 0x95, 0xac, 0xa1, 0xbd, 0x59, 0xee, 0xbd, 0xbe, 0x5f, 0xc4, 0x7e, 0x3d,
    0x33, 0xee, 0x3c, 0xbf, 0xe2, 0x33, 0xca, 0xbe, 0x8d, 0x78, 0x0c, 0x3e, 0xff, 0x68, 0x7b, 0xbd, 0xb2, 0xa3, 0x55,
    0xbe, 0x97, 0x22, 0xd7, 0x3e, 0xe0, 0x28, 0x06, 0x3e, 0xd3, 0xfc, 0x8e, 0xbd, 0x3f, 0x5f, 0xad, 0xbe, 0x02, 0x69,
    0x0c, 0x3e, 0x09, 0x55, 0x61, 0xbe, 0x7b, 0x67, 0xf4, 0xbd, 0xc6, 0x49, 0xc9, 0xbd, 0x69, 0xa5, 0x1a, 0xbd, 0x41,
    0xa6, 0x40, 0x3e, 0x8c, 0xe5, 0xda, 0xbc, 0xd8, 0x48, 0x8e, 0x3d, 0x63, 0x8d, 0x84, 0xbd, 0xc1, 0x1d, 0xc2, 0x3d,
    0x78, 0xce, 0x23, 0xbe, 0x98, 0x1a, 0x26, 0xbe, 0xfd, 0xc0, 0x82, 0xbd, 0x34, 0x45, 0xf5, 0x3c, 0x62, 0x15, 0xbf,
    0xbd, 0x56, 0x3b, 0x24, 0xbe, 0xb3, 0xfb, 0xc2, 0x3c, 0x3c, 0x99, 0x23, 0x3e, 0x52, 0xbe, 0x21, 0xbe, 0x4e, 0xd5,
    0x7c, 0x3e, 0x28, 0xe4, 0x0d, 0xbe, 0x22, 0x4c, 0x8f, 0x3e, 0xc8, 0x8f, 0x4e, 0x3c, 0x74, 0x75, 0x89, 0xbc, 0x1d,
    0xc3, 0xab, 0xbe, 0x35, 0xfc, 0xa2, 0x3d, 0xe1, 0x5b, 0x8f, 0xbb, 0xde, 0x13, 0x07, 0x3e, 0x35, 0xda, 0xe0, 0xbc,
    0x44, 0xf5, 0xb3, 0xbc, 0x86, 0xbc, 0xb5, 0x3e, 0x50, 0x1b, 0x06, 0x3e, 0x94, 0x83, 0xdb, 0xbd, 0x2a, 0xac, 0xa4,
    0xbd, 0xf0, 0x78, 0xfd, 0xbc, 0xe1, 0xd2, 0xd4, 0x3d, 0xc2, 0xb5, 0x33, 0x3e, 0x0b, 0xed, 0xa1, 0xbe, 0x0a, 0xc1,
    0xcf, 0xbe, 0x68, 0xe8, 0x00, 0x3d, 0x4d, 0x4a, 0x37, 0x3e, 0xf6, 0x1c, 0xe2, 0xbe, 0x5e, 0x5b, 0x66, 0x3e, 0xe9,
    0x08, 0x72, 0x3e, 0x34, 0xc1, 0xd5, 0xbd, 0x3a, 0x04, 0xf4, 0xbe, 0xb5, 0x94, 0x4c, 0xbe, 0x34, 0x21, 0xa6, 0x3c,
    0x3e, 0x05, 0x59, 0xbe, 0x92, 0x4c, 0xde, 0xbe, 0x42, 0x3f, 0x0f, 0xbe, 0x8b, 0x25, 0xb2, 0xbd, 0x52, 0x79, 0x96,
    0xbe, 0x80, 0xb5, 0xbe, 0x3e, 0x98, 0x37, 0x1d, 0xbd, 0x62, 0x31, 0xf1, 0x3d, 0x30, 0xa4, 0x5d, 0x3e, 0x71, 0x55,
    0xc6, 0xbe, 0x49, 0x4f, 0x52, 0x3e, 0xfe, 0xca, 0xb1, 0x3d, 0x53, 0xc8, 0x78, 0xbe, 0xf0, 0x86, 0xea, 0xbd, 0xa7,
    0xb0, 0x90, 0xbd, 0xb7, 0x77, 0x57, 0xbe, 0x86, 0x94, 0xca, 0x3d, 0xd1, 0xb6, 0x99, 0x3d, 0xa2, 0xc3, 0xbc, 0xbd,
    0xf7, 0x9f, 0xc2, 0x3d, 0xc3, 0x17, 0x3b, 0xbe, 0x86, 0xc3, 0x31, 0xbd, 0xfe, 0x18, 0xa6, 0xbb, 0xec, 0x5a, 0x81,
    0xbd, 0xd7, 0x0a, 0xf4, 0x3d, 0x9b, 0x29, 0x4e, 0x3d, 0x2e, 0x68, 0x2d, 0xbe, 0x40, 0x95, 0xfc, 0x3c, 0x8d, 0xa3,
    0x13, 0xbe, 0x0f, 0xda, 0x57, 0x3d, 0x7a, 0xfb, 0xf8, 0x3d, 0xb1, 0xcd, 0xe6, 0xbd, 0xbf, 0xe1, 0xb6, 0x3d, 0x11,
    0x4d, 0x11, 0x3e, 0xf3, 0x8d, 0xa5, 0xbd, 0x29, 0x11, 0x95, 0x3d, 0x3e, 0xe4, 0x72, 0x3c, 0x2d, 0x5e, 0xff, 0xbc,
    0x26, 0x06, 0x22, 0x3e, 0xd4, 0x39, 0x25, 0x3c, 0x79, 0xfc, 0xe2, 0x3c, 0xa7, 0xf2, 0x4b, 0xbe, 0x32, 0x36, 0xa1,
    0xbd, 0x5b, 0x60, 0x4a, 0xbd, 0x40, 0xed, 0x18, 0xbe, 0x09, 0xb2, 0x57, 0x3d, 0x34, 0x3f, 0x6a, 0x3d, 0x8e, 0xee,
    0xf9, 0xbd, 0xe4, 0xbe, 0x04, 0x3e, 0xdd, 0x33, 0xa8, 0xbd, 0xe5, 0x54, 0xa5, 0xbe, 0xc9, 0x94, 0x6d, 0xbd, 0xd4,
    0x40, 0x19, 0xbd, 0xe2, 0x9c, 0x5a, 0xbd, 0x56, 0xce, 0x95, 0xbd, 0xa7, 0x02, 0xd9, 0x3d, 0x74, 0xb6, 0x0a, 0x3e,
    0xf8, 0xed, 0x1b, 0x3e, 0xe3, 0xbc, 0x8f, 0x3d, 0x6a, 0x23, 0x87, 0xbe, 0x7b, 0x46, 0xbc, 0xbd, 0xc1, 0x62, 0x28,
    0xbd, 0x53, 0xd0, 0x2b, 0x3d, 0x45, 0x47, 0x04, 0x3d, 0xa6, 0x45, 0x32, 0xbd, 0x53, 0xbc, 0x46, 0xbe, 0x62, 0x02,
    0x24, 0xbe, 0x55, 0x4b, 0x04, 0xbd, 0xf9, 0x98, 0x10, 0xbe, 0x8f, 0x92, 0x2b, 0xbe, 0x30, 0x40, 0xfb, 0xbd, 0x2f,
    0x7d, 0x39, 0xbe, 0x69, 0x9b, 0x84, 0x3e, 0xcf, 0xe5, 0x0e, 0xbe, 0x5c, 0x6b, 0xbc, 0x3d, 0x1c, 0x57, 0xd8, 0x3d,
    0x79, 0x63, 0xf3, 0x3d, 0xac, 0x88, 0x71, 0x3e, 0xa3, 0xb4, 0x81, 0x3d, 0x38, 0xea, 0x19, 0xbe, 0x27, 0x28, 0xbe,
    0x3c, 0x91, 0xe3, 0xd8, 0xbc, 0xc0, 0xb2, 0x8c, 0xbe, 0xb9, 0x81, 0xb7, 0xbc, 0xfa, 0xfe, 0x36, 0xbe, 0x5b, 0xac,
    0x4f, 0x3d, 0x6c, 0x66, 0xb2, 0xbd, 0xa7, 0x45, 0xda, 0xbd, 0xa9, 0x51, 0x1a, 0x3e, 0x3e, 0x7c, 0x83, 0x3e, 0x72,
    0xd5, 0xd3, 0xbd, 0xe6, 0x4d, 0xba, 0x3d, 0x1d, 0xd9, 0x8a, 0xbc, 0xc9, 0xdc, 0xdc, 0xbd, 0xcd, 0x9a, 0x90, 0xbe,
    0xd7, 0x2f, 0xfc, 0xbc, 0x5f, 0xc4, 0x94, 0xbe, 0x6d, 0x53, 0x09, 0x3d, 0xf7, 0x2a, 0x4b, 0xbe, 0x68, 0x4c, 0x6e,
    0x3e, 0xce, 0xbf, 0xc8, 0xbe, 0x92, 0x2a, 0x9f, 0xbe, 0x1b, 0x5b, 0x35, 0xbe, 0xbd, 0xfe, 0x3f, 0xbe, 0x69, 0x1a,
    0xf1, 0x3c, 0x66, 0x75, 0x7d, 0x3d, 0x2e, 0xbc, 0xab, 0xbd, 0x16, 0x65, 0x32, 0xbc, 0x17, 0x14, 0x14, 0xbd, 0xea,
    0x0e, 0x19, 0x3e, 0xa3, 0x6c, 0xaa, 0x3b, 0x6e, 0xed, 0x20, 0xbe, 0x5c, 0x29, 0xc1, 0xbd, 0x37, 0x20, 0xe7, 0x3c,
    0xa6, 0xf1, 0x16, 0xbd, 0xc1, 0xf7, 0x42, 0xbe, 0xd2, 0xd3, 0xa6, 0xbd, 0x62, 0xc5, 0xbb, 0xbd, 0x9a, 0x00, 0xf2,
    0xbc, 0x1e, 0x2a, 0x00, 0xbb, 0xf9, 0x77, 0x41, 0xbd, 0x99, 0xd1, 0x3f, 0x3e, 0xfb, 0x79, 0x2f, 0xbe, 0x65, 0xf1,
    0xef, 0x3d, 0xab, 0xca, 0x09, 0x3e, 0x2f, 0x67, 0xf3, 0x3d, 0x7f, 0x0c, 0x21, 0xbe, 0xd0, 0xcb, 0xf6, 0x3c, 0xfc,
    0x3f, 0xe6, 0xbc, 0xfb, 0x3e, 0x6c, 0x3e, 0x50, 0xe8, 0xb8, 0xbd, 0xed, 0xb8, 0x48, 0x3e, 0xb6, 0x4e, 0x22, 0x3d,
    0x2e, 0x55, 0x80, 0x3e, 0x52, 0xec, 0x28, 0x3d, 0xa6, 0xf7, 0xbd, 0x3d, 0xce, 0xb3, 0x0d, 0xbe, 0x57, 0x81, 0x5f,
    0xbc, 0x9c, 0x54, 0x46, 0x3d, 0x08, 0x62, 0xb9, 0x3d, 0x03, 0x80, 0x74, 0xbe, 0xc3, 0x82, 0xeb, 0xbd, 0x9b, 0xc1,
    0x17, 0xbe, 0x79, 0x5d, 0x12, 0x3d, 0xa9, 0xfe, 0x48, 0x3c, 0xd0, 0x1a, 0xe6, 0x3d, 0x15, 0xff, 0x26, 0xbb, 0x16,
    0x6b, 0xc2, 0xbc, 0x9b, 0xd7, 0x35, 0xbe, 0x9d, 0x95, 0x05, 0xbc, 0xfe, 0xee, 0x04, 0xbe, 0x2c, 0xb5, 0xbc, 0x3d,
    0x3f, 0x63, 0x6c, 0xbe, 0x1f, 0xe1, 0xb4, 0x3c, 0x62, 0x71, 0xca, 0x3c, 0x07, 0x53, 0x2c, 0x3e, 0x6f, 0x47, 0xcd,
    0xbd, 0x64, 0x46, 0xdd, 0xbc, 0x51, 0x6c, 0x36, 0xbe, 0xc5, 0x0e, 0xc7, 0x3d, 0x32, 0xda, 0x8b, 0xbd, 0xe1, 0xcf,
    0x0d, 0x3c, 0x4d, 0x5f, 0xf2, 0xbc, 0x80, 0xd7, 0x24, 0x3e, 0x76, 0x0c, 0x36, 0x3e, 0x95, 0xde, 0x37, 0x3d, 0x1c,
    0x39, 0x21, 0x3e, 0xc3, 0x0c, 0x48, 0x3e, 0x16, 0x99, 0xec, 0xbc, 0x2f, 0xf0, 0xae, 0x3d, 0xc7, 0x20, 0xc7, 0x3d,
    0xbc, 0xb2, 0xd9, 0xbc, 0xa2, 0x65, 0xb6, 0x3c, 0x5d, 0xd0, 0x42, 0xbe, 0xd6, 0xb3, 0xad, 0xbc, 0xf4, 0xe8, 0xb9,
    0xbd, 0x9c, 0x1e, 0x7e, 0x3d, 0xa8, 0x19, 0x18, 0x3d, 0xe7, 0xb7, 0xa2, 0x3d, 0x16, 0xfa, 0x99, 0x3d, 0xf8, 0x67,
    0x62, 0x3d, 0xf9, 0x92, 0x2c, 0xbd, 0x57, 0xef, 0x3e, 0x3e, 0x3e, 0x5f, 0x98, 0x3e, 0xf4, 0x98, 0xe2, 0x3d, 0xc2,
    0x43, 0x6f, 0x3e, 0x5c, 0x98, 0x88, 0x3d, 0xa2, 0xd1, 0xc3, 0x3b, 0x6d, 0x33, 0x97, 0xbd, 0xd8, 0x63, 0x60, 0x3e,
    0x1f, 0x8f, 0x94, 0xbc, 0x1d, 0x51, 0x02, 0x3e, 0xc5, 0x1f, 0x0b, 0x3d, 0x78, 0x38, 0x41, 0x3e, 0x80, 0xd3, 0xef,
    0xbd, 0xa0, 0xf8, 0x00, 0x3d, 0x96, 0x53, 0x14, 0x3e, 0x2c, 0x1f, 0x91, 0xbe, 0x22, 0x73, 0x65, 0xbe, 0xda, 0x3b,
    0x12, 0xbe, 0x67, 0x72, 0x63, 0xbe, 0x76, 0x7f, 0x7a, 0xbd, 0x47, 0xe5, 0x55, 0xbe, 0x95, 0xc8, 0xb5, 0xbd, 0x73,
    0xf4, 0xd6, 0x3e, 0xf9, 0x0f, 0x6e, 0x3e, 0x43, 0xa7, 0x4b, 0xbd, 0x56, 0xc0, 0x5f, 0xbe, 0x1d, 0xbb, 0x14, 0xbe,
    0xa0, 0x7d, 0x28, 0xbe, 0xcf, 0x3a, 0x44, 0xbe, 0x70, 0x74, 0xf0, 0xbc, 0xff, 0xaa, 0xbd, 0xbd, 0x0e, 0x13, 0x4f,
    0x3e, 0xf0, 0xb6, 0x2f, 0xbd, 0x58, 0x91, 0x70, 0xbe, 0x36, 0xfc, 0xa1, 0x3d, 0xc9, 0x40, 0x7a, 0x3e, 0xe7, 0x5c,
    0x8c, 0x3d, 0x48, 0x7d, 0x82, 0x3c, 0xca, 0xb4, 0x66, 0xbe, 0xf8, 0xc7, 0x5f, 0x3d, 0x0e, 0x6a, 0x93, 0xbd, 0x9a,
    0xf5, 0xa0, 0x3d, 0xf3, 0x69, 0x17, 0xbe, 0x58, 0x0e, 0x74, 0xbd, 0x34, 0xee, 0x2e, 0xbe, 0x02, 0xf1, 0x2f, 0x3e,
    0x6a, 0xa6, 0x12, 0xbc, 0xaa, 0x31, 0x69, 0x3d, 0x61, 0xdc, 0x01, 0x3e, 0xb7, 0x80, 0x83, 0xbd, 0x18, 0xcb, 0xc7,
    0xbd, 0x0d, 0xa6, 0x0b, 0xbd, 0x43, 0xed, 0x16, 0x3e, 0xf2, 0x74, 0x47, 0xbe, 0xa9, 0x96, 0x69, 0xbd, 0xdc, 0x5d,
    0x4b, 0x3e, 0x0f, 0xc8, 0x48, 0xbe, 0x6b, 0x46, 0xbf, 0x3d, 0xde, 0x50, 0xab, 0xbd, 0x63, 0x54, 0x75, 0x3d, 0xd0,
    0x4e, 0x0b, 0xbe, 0x82, 0x40, 0x8d, 0x3d, 0x0c, 0xe8, 0x24, 0xbd, 0x91, 0x56, 0x51, 0xbe, 0x38, 0xd2, 0xcb, 0xbd,
    0xf5, 0x1a, 0x01, 0x3e, 0xab, 0xd5, 0x0f, 0x3e, 0xe8, 0x13, 0xde, 0x3d, 0x16, 0x0c, 0x86, 0xba, 0x0b, 0x9d, 0x64,
    0xbc, 0xf7, 0x83, 0xa5, 0xbe, 0x90, 0x5c, 0x99, 0xbc, 0xfd, 0x05, 0x51, 0xbe, 0x30, 0x96, 0x7a, 0x3d, 0x96, 0xee,
    0xf1, 0x3c, 0xba, 0xfc, 0xb1, 0xbc, 0xcb, 0x8b, 0x37, 0x3d, 0xdb, 0x2f, 0x66, 0x3d, 0xb0, 0x6c, 0xa7, 0x3d, 0x97,
    0x6b, 0xef, 0x3d, 0x57, 0xba, 0x4f, 0x3c, 0x39, 0xea, 0x88, 0x3c, 0x3a, 0x2f, 0x00, 0xbc, 0xcc, 0xa5, 0x61, 0x3d,
    0x45, 0xa5, 0xe9, 0x3c, 0xa1, 0x79, 0x1a, 0xbd, 0x95, 0x85, 0x9f, 0xbd, 0x03, 0xaf, 0x33, 0xbe, 0xe6, 0xa3, 0xa2,
    0x3d, 0x46, 0x84, 0xb0, 0xbd, 0x9f, 0xce, 0x44, 0x3d, 0x9d, 0xb3, 0xd8, 0x3d, 0xa6, 0x01, 0x8e, 0xbd, 0x17, 0x7e,
    0x0c, 0x3e, 0x41, 0x31, 0x0b, 0xbe, 0x7d, 0xdb, 0xc4, 0x3d, 0x38, 0x58, 0xda, 0xbd, 0x2f, 0xba, 0x36, 0x3d, 0xe3,
    0x51, 0x14, 0x3e, 0x13, 0xeb, 0x5d, 0x3e, 0x14, 0x9e, 0x24, 0xb9, 0x74, 0x72, 0x7a, 0x3d, 0x09, 0x89, 0x2b, 0x3e,
    0x64, 0x49, 0x19, 0x3e, 0xee, 0xa7, 0x19, 0xbe, 0x0f, 0x68, 0xa4, 0xbe, 0x91, 0x38, 0xaa, 0xbd, 0x85, 0x85, 0x50,
    0x3e, 0x63, 0x50, 0x1f, 0x3e, 0x2f, 0x70, 0x62, 0x3d, 0x0e, 0x9b, 0x7a, 0xbd, 0xa9, 0x8e, 0x89, 0x3e, 0xba, 0xe8,
    0x3b, 0xbe, 0x0b, 0x7d, 0xd3, 0xbd, 0xf9, 0x61, 0xcb, 0x3c, 0x08, 0x84, 0x9b, 0xbd, 0x9b, 0xc7, 0x46, 0xbe, 0x59,
    0x1e, 0x8a, 0xbd, 0xa7, 0x7c, 0xa1, 0xbe, 0x3d, 0x36, 0xdd, 0x3d, 0x08, 0x8b, 0x3a, 0x3c, 0xe0, 0xca, 0xe3, 0xba,
    0xe9, 0x46, 0xa7, 0x3d, 0x4a, 0x57, 0x56, 0xbe, 0x6f, 0xe1, 0x8c, 0xbc, 0x38, 0x82, 0x2c, 0x3e, 0xe0, 0xa9, 0x8d,
    0x3d, 0x0f, 0xdf, 0x2d, 0xbd, 0xc3, 0x5e, 0xfd, 0x3d, 0xc9, 0xe9, 0x5f, 0x3d, 0x65, 0xe3, 0x01, 0xbd, 0xea, 0x87,
    0x56, 0xbe, 0xbe, 0x51, 0x1e, 0xbd, 0x4e, 0xff, 0xd8, 0xbd, 0xec, 0xcb, 0x90, 0x3d, 0x95, 0x64, 0x9e, 0xbd, 0x94,
    0xad, 0xb0, 0x3d, 0x17, 0xe0, 0x12, 0x3e, 0xa1, 0x9f, 0x85, 0xbc, 0xe9, 0xeb, 0xb5, 0x3d, 0xe6, 0xd8, 0xc2, 0x3d,
    0x87, 0x9f, 0x2b, 0xbd, 0xec, 0xf0, 0xcf, 0xbd, 0xeb, 0x90, 0x06, 0x3d, 0xf1, 0xc7, 0xc5, 0xbd, 0x38, 0xd2, 0xc7,
    0xbc, 0x39, 0x36, 0xfa, 0x3d, 0xb1, 0x80, 0xee, 0x3d, 0x37, 0x2f, 0xca, 0xbd, 0x3f, 0xb1, 0x8d, 0xbd, 0x06, 0x60,
    0xfb, 0x3d, 0x66, 0x60, 0x1e, 0xbe, 0xbf, 0xba, 0x93, 0x3d, 0x97, 0xa9, 0x57, 0x3d, 0x37, 0x0c, 0x03, 0xbd, 0xd9,
    0x3b, 0x17, 0xbd, 0x52, 0x6e, 0x17, 0xbe, 0x18, 0xff, 0xe4, 0xbd, 0xbe, 0xad, 0xe8, 0x3d, 0x36, 0xf4, 0x3c, 0x3e,
    0x46, 0xf9, 0x82, 0xbd, 0xe0, 0x46, 0x0e, 0xbe, 0x47, 0x4e, 0x32, 0x3e, 0xb6, 0x46, 0x0d, 0xbe, 0x28, 0x44, 0x2e,
    0xbe, 0x05, 0xa4, 0xe9, 0x3c, 0x29, 0x8a, 0x1a, 0xbe, 0xe7, 0x94, 0x4b, 0xbe, 0xc9, 0x72, 0x9e, 0xbd, 0xd6, 0xe5,
    0xca, 0xba, 0x2f, 0x11, 0xfc, 0x3d, 0xcd, 0x5c, 0x01, 0x3e, 0x9e, 0xac, 0x42, 0x3e, 0xcf, 0xc4, 0x5d, 0xbc, 0x78,
    0xe2, 0x5c, 0x3d, 0x88, 0x01, 0x15, 0x3e, 0x01, 0xc5, 0x4a, 0xbd, 0xc4, 0xa7, 0xeb, 0x3d, 0x95, 0x0b, 0x28, 0xbe,
    0xe3, 0x03, 0x43, 0x3c, 0x7b, 0x10, 0x81, 0xbe, 0x3d, 0xb9, 0x47, 0x3c, 0x70, 0x8e, 0x6e, 0x3d, 0x5b, 0xfa, 0xe2,
    0x3d, 0x57, 0x99, 0x0b, 0x3e, 0x5d, 0x18, 0x4c, 0x3c, 0xdf, 0x6e, 0x96, 0x3d, 0xc9, 0x1a, 0x3b, 0xbe, 0x68, 0xb8,
    0xf9, 0xbd, 0x2f, 0xf9, 0x31, 0x3e, 0xe5, 0x19, 0xbf, 0x3d, 0x31, 0xc5, 0x18, 0xbb, 0x6f, 0x46, 0x2b, 0x3e, 0x76,
    0xc5, 0xf5, 0xb8, 0xa4, 0x4a, 0x96, 0xbd, 0x52, 0x97, 0x80, 0xbd, 0xb2, 0x5e, 0xd2, 0x3d, 0x1e, 0xea, 0x20, 0xbe,
    0xe5, 0xbc, 0x37, 0x3c, 0x93, 0xdb, 0xa1, 0xbd, 0xbc, 0xcc, 0x81, 0x3e, 0x46, 0x70, 0xe2, 0x3d, 0x2f, 0x77, 0x4c,
    0xbe, 0x40, 0x25, 0xe9, 0xbd, 0x41, 0x87, 0x54, 0xbc, 0xae, 0x7e, 0xcd, 0xbc, 0x03, 0xac, 0xfd, 0xbd, 0x71, 0x57,
    0x2f, 0xbe, 0x6f, 0xf1, 0x68, 0xbe, 0x1f, 0xaa, 0x56, 0xbd, 0x35, 0xa0, 0xa3, 0x3d, 0xdf, 0x7a, 0xd5, 0xbb, 0x9a,
    0x9f, 0x5d, 0x3e, 0x6d, 0xbc, 0x0b, 0x3e, 0xdb, 0x28, 0x7b, 0xbc, 0x70, 0x74, 0x17, 0x3e, 0x25, 0x1e, 0xff, 0x3e,
    0x06, 0x01, 0x98, 0xbe, 0xc7, 0x31, 0xd6, 0x3d, 0x58, 0x96, 0xb5, 0xbe, 0x14, 0x58, 0xb0, 0x3d, 0x91, 0xcb, 0xa1,
    0x3e, 0x48, 0xc2, 0x18, 0x3e, 0x62, 0x0b, 0x9c, 0xbe, 0xdb, 0x9d, 0x58, 0xbf, 0x19, 0x00, 0x91, 0xbf, 0x2f, 0x61,
    0x3f, 0xbe, 0xbf, 0x4d, 0x31, 0xbe, 0x61, 0x7d, 0xc8, 0x3e, 0x38, 0x70, 0x4c, 0x3e, 0x2a, 0x99, 0x47, 0x3e, 0x8c,
    0xb7, 0x49, 0xbf, 0x3b, 0x84, 0xfe, 0xbe, 0x56, 0xdf, 0x40, 0xbe, 0x74, 0xca, 0xc5, 0x3e, 0xd1, 0x02, 0x2e, 0xbf,
    0x45, 0x6f, 0xd0, 0x3e, 0x22, 0x19, 0x0c, 0x3f, 0xf9, 0x7e, 0x43, 0x3d, 0x9b, 0xd2, 0x18, 0x3f, 0x53, 0xdb, 0x81,
    0x3f, 0xb8, 0x15, 0xdf, 0x3e, 0xe9, 0xdb, 0xc3, 0x3e, 0xc0, 0x2f, 0x18, 0xbd, 0x71, 0x5b, 0xbf, 0x3e, 0x22, 0x86,
    0x6f, 0x3f, 0x41, 0x27, 0xb9, 0xbe, 0x48, 0xe6, 0x0a, 0x3d, 0x1b, 0xae, 0xb3, 0x3d, 0x2c, 0x63, 0x2f, 0x3d, 0x27,
    0x2d, 0xc2, 0x3d, 0x8c, 0x82, 0x4a, 0x3d, 0x99, 0x6e, 0x8d, 0x3d, 0x85, 0x33, 0x59, 0xbd, 0x95, 0xc9, 0x69, 0xbd,
    0x81, 0x65, 0x45, 0x3e, 0x3c, 0x75, 0x19, 0xbe, 0xfe, 0xe5, 0x21, 0x3d, 0x92, 0xb8, 0xc2, 0x3c, 0xc0, 0x1c, 0xcc,
    0xbd, 0x6c, 0x29, 0xd1, 0x3d, 0xed, 0x96, 0xa1, 0x3c, 0x81, 0xb6, 0x0f, 0xbd, 0xa0, 0xf1, 0x6e, 0xbc, 0x9d, 0xa2,
    0x45, 0x3d, 0xa8, 0xda, 0x8b, 0x3d, 0x59, 0xff, 0xbd, 0x3d, 0x24, 0xe0, 0x12, 0x3d, 0xba, 0xa8, 0x1a, 0xbd, 0x98,
    0x95, 0x72, 0xbd, 0x5e, 0xc0, 0x40, 0xbe, 0xf4, 0x84, 0xce, 0xbd, 0x94, 0xa2, 0xb8, 0x3c, 0xc3, 0x83, 0x8f, 0x3d,
    0xc1, 0x9d, 0x8a, 0xbd, 0x9b, 0x52, 0x07, 0x3d, 0xb2, 0xf1, 0x37, 0x3e, 0x48, 0x91, 0x5a, 0x3d, 0x42, 0xeb, 0x42,
    0x3d, 0xdc, 0xf4, 0x1a, 0x3e, 0x6b, 0xad, 0x7d, 0xbe, 0x75, 0x1b, 0x47, 0xbe, 0xa5, 0x2e, 0x16, 0xbe, 0x26, 0xc7,
    0xb2, 0xbd, 0x01, 0xd7, 0xc4, 0xbe, 0x4c, 0x24, 0x85, 0x3d, 0xf3, 0xeb, 0xc2, 0xbe, 0xce, 0x3d, 0x50, 0xbd, 0xa6,
    0xef, 0x3d, 0x3e, 0xb9, 0x54, 0x56, 0x3d, 0x73, 0x53, 0xc1, 0x3e, 0x9b, 0xcf, 0x96, 0x3e, 0x49, 0xc9, 0xa0, 0xbd,
    0x8e, 0x64, 0x75, 0xbe, 0x1b, 0x39, 0x09, 0xbe, 0xf0, 0xd2, 0x0c, 0x3e, 0xfb, 0x93, 0x80, 0xbd, 0x9f, 0xcf, 0xae,
    0x3e, 0xc4, 0x03, 0xab, 0xbd, 0x50, 0xf4, 0x5f, 0xbe, 0x0c, 0x4f, 0xb4, 0x3d, 0xf0, 0x58, 0x25, 0x3e, 0xb6, 0x68,
    0x58, 0x3d, 0xe9, 0x39, 0xdc, 0xbe, 0x90, 0xbf, 0x7b, 0x3d, 0x32, 0xdb, 0x07, 0xbf, 0x1f, 0x08, 0x58, 0xbe, 0x37,
    0x83, 0x36, 0x3d, 0x19, 0xe0, 0x87, 0x3e, 0xb3, 0x19, 0xb1, 0xbd, 0x35, 0x23, 0x2f, 0x3e, 0x31, 0x13, 0x53, 0x3e,
    0xb8, 0x62, 0x7f, 0xbd, 0xb1, 0x7a, 0x4c, 0xbe, 0x84, 0xd9, 0x08, 0xbe, 0xfa, 0x84, 0x3e, 0x3d, 0x56, 0x6e, 0x81,
    0xbd, 0xfa, 0x67, 0x83, 0x3d, 0x60, 0x14, 0x29, 0x3d, 0xd4, 0x5c, 0x24, 0xbe, 0xed, 0x15, 0x29, 0xbd, 0x69, 0x24,
    0x6a, 0x3d, 0xed, 0xed, 0x1d, 0xbd, 0x92, 0x91, 0x97, 0x3d, 0x18, 0x47, 0xf2, 0xbd, 0x37, 0x6e, 0x6e, 0xbe, 0xf1,
    0xed, 0x80, 0x3c, 0x5f, 0x7d, 0x5b, 0x3d, 0xa2, 0xe3, 0x97, 0xbc, 0x88, 0xd4, 0x24, 0xbe, 0x9c, 0xcc, 0x29, 0xbd,
    0x14, 0x46, 0x2d, 0xbe, 0x49, 0xbb, 0x91, 0xbc, 0x81, 0x9f, 0x4b, 0x3e, 0x5f, 0xab, 0x64, 0xbd, 0x68, 0xbd, 0x22,
    0x3e, 0xac, 0x03, 0x03, 0x3e, 0xa2, 0x8d, 0xbb, 0xbd, 0xcf, 0xf8, 0x36, 0xbd, 0x24, 0xa1, 0x49, 0xbc, 0xf4, 0xef,
    0xbc, 0xbd, 0x20, 0xd6, 0x42, 0xbd, 0x8c, 0xd9, 0xf0, 0x3d, 0xe6, 0xfe, 0xff, 0xff, 0x04, 0x00, 0x00, 0x00, 0x80,
    0x00, 0x00, 0x00, 0xb2, 0xa9, 0x28, 0x3d, 0x3b, 0x79, 0x92, 0x3e, 0x1e, 0xd0, 0x33, 0xbe, 0xc2, 0xc2, 0xd4, 0xba,
    0xd7, 0xf9, 0xa6, 0x3e, 0x91, 0xa6, 0x29, 0x3b, 0xde, 0x83, 0x49, 0xbe, 0x13, 0x04, 0xb8, 0xbb, 0x91, 0x8f, 0x02,
    0xbe, 0xee, 0x66, 0x9c, 0xba, 0xc6, 0xa4, 0xe5, 0x3a, 0x99, 0xdf, 0xf2, 0x3d, 0x90, 0xcd, 0xf4, 0x3d, 0x3b, 0x63,
    0x74, 0xbc, 0x01, 0x7c, 0x9e, 0xba, 0xbf, 0x49, 0xa7, 0xbe, 0xb7, 0x41, 0x9c, 0xbb, 0x96, 0x0a, 0xe3, 0x3a, 0xf4,
    0xfa, 0x36, 0xbd, 0x2a, 0x4a, 0x2c, 0x3b, 0xc1, 0x6a, 0x79, 0xba, 0x57, 0x6e, 0x1a, 0x3e, 0x9c, 0x11, 0x92, 0x3b,
    0xca, 0x52, 0x80, 0xbc, 0xcf, 0x37, 0xb6, 0x3b, 0x6b, 0x8f, 0xaf, 0x3a, 0xda, 0xf7, 0xe1, 0xbb, 0x1f, 0xf1, 0xb1,
    0xba, 0x78, 0xa8, 0xf4, 0x3e, 0x00, 0x49, 0xaa, 0xbb, 0xd0, 0xe9, 0xdd, 0xbd, 0x7f, 0xc4, 0x3c, 0x3b, 0x72, 0xff,
    0xff, 0xff, 0x04, 0x00, 0x00, 0x00, 0x80, 0x00, 0x00, 0x00, 0x85, 0x7a, 0x8b, 0xbe, 0x02, 0x0b, 0x07, 0xbc, 0xa8,
    0x1c, 0x26, 0xbe, 0x75, 0x84, 0xce, 0xbd, 0xe6, 0x67, 0x94, 0xbe, 0x2e, 0xd9, 0x2c, 0xbc, 0xa5, 0x04, 0x05, 0xbe,
    0x24, 0x1a, 0x13, 0x3c, 0x13, 0x7d, 0x70, 0xbd, 0x89, 0xe6, 0xbf, 0xbd, 0x80, 0x48, 0x87, 0xbd, 0xe3, 0xa5, 0x29,
    0x3e, 0x6b, 0x02, 0xc9, 0x3d, 0xd0, 0xd6, 0x14, 0xbe, 0x6a, 0xd7, 0x10, 0xbe, 0x90, 0xf3, 0x1c, 0x3d, 0x13, 0xc3,
    0x25, 0xbe, 0x9f, 0xa3, 0xf0, 0x3c, 0x23, 0xb5, 0x80, 0xbd, 0x78, 0xc7, 0x58, 0xbd, 0x16, 0x3f, 0x2a, 0x3e, 0xb5,
    0xf3, 0x7f, 0xbd, 0x6d, 0x0d, 0xc8, 0x3d, 0x47, 0xdb, 0x18, 0xbe, 0x7c, 0x75, 0xee, 0xbd, 0xbe, 0x5a, 0xc4, 0xbd,
    0x99, 0xad, 0x65, 0x3c, 0x55, 0xe9, 0x7b, 0x3d, 0xfe, 0xd7, 0x1f, 0xbf, 0x77, 0x5d, 0xfb, 0x3d, 0xdc, 0x5d, 0x62,
    0xbe, 0x10, 0x3a, 0x7f, 0x3d, 0x00, 0x00, 0x06, 0x00, 0x08, 0x00, 0x04, 0x00, 0x06, 0x00, 0x00, 0x00, 0x04, 0x00,
    0x00, 0x00, 0x04, 0x00, 0x00, 0x00, 0x58, 0x57, 0x04, 0xbd, 0x38, 0xfa, 0xff, 0xff, 0x3c, 0xfa, 0xff, 0xff, 0x0f,
    0x00, 0x00, 0x00, 0x4d, 0x4c, 0x49, 0x52, 0x20, 0x43, 0x6f, 0x6e, 0x76, 0x65, 0x72, 0x74, 0x65, 0x64, 0x2e, 0x00,
    0x01, 0x00, 0x00, 0x00, 0x14, 0x00, 0x00, 0x00, 0x00, 0x00, 0x0e, 0x00, 0x18, 0x00, 0x14, 0x00, 0x10, 0x00, 0x0c,
    0x00, 0x08, 0x00, 0x04, 0x00, 0x0e, 0x00, 0x00, 0x00, 0x14, 0x00, 0x00, 0x00, 0x1c, 0x00, 0x00, 0x00, 0x40, 0x01,
    0x00, 0x00, 0x44, 0x01, 0x00, 0x00, 0x48, 0x01, 0x00, 0x00, 0x04, 0x00, 0x00, 0x00, 0x6d, 0x61, 0x69, 0x6e, 0x00,
    0x00, 0x00, 0x00, 0x06, 0x00, 0x00, 0x00, 0xf4, 0x00, 0x00, 0x00, 0xc0, 0x00, 0x00, 0x00, 0x80, 0x00, 0x00, 0x00,
    0x5c, 0x00, 0x00, 0x00, 0x28, 0x00, 0x00, 0x00, 0x04, 0x00, 0x00, 0x00, 0x5e, 0xff, 0xff, 0xff, 0x0c, 0x00, 0x00,
    0x00, 0x10, 0x00, 0x00, 0x00, 0x02, 0x00, 0x00, 0x00, 0x01, 0x00, 0x00, 0x00, 0x0c, 0x00, 0x00, 0x00, 0x01, 0x00,
    0x00, 0x00, 0x0b, 0x00, 0x00, 0x00, 0x52, 0xff, 0xff, 0xff, 0x10, 0x00, 0x00, 0x00, 0x00, 0x00, 0x00, 0x08, 0x0c,
    0x00, 0x00, 0x00, 0x10, 0x00, 0x00, 0x00, 0xe0, 0xfa, 0xff, 0xff, 0x01, 0x00, 0x00, 0x00, 0x0b, 0x00, 0x00, 0x00,
    0x03, 0x00, 0x00, 0x00, 0x0a, 0x00, 0x00, 0x00, 0x03, 0x00, 0x00, 0x00, 0x01, 0x00, 0x00, 0x00, 0xae, 0xff, 0xff,
    0xff, 0x0c, 0x00, 0x00, 0x00, 0x10, 0x00, 0x00, 0x00, 0x01, 0x00, 0x00, 0x00, 0x01, 0x00, 0x00, 0x00, 0x0a, 0x00,
    0x00, 0x00, 0x01, 0x00, 0x00, 0x00, 0x09, 0x00, 0x00, 0x00, 0xa2, 0xff, 0xff, 0xff, 0x10, 0x00, 0x00, 0x00, 0x00,
    0x00, 0x00, 0x08, 0x0c, 0x00, 0x00, 0x00, 0x10, 0x00, 0x00, 0x00, 0x30, 0xfb, 0xff, 0xff, 0x01, 0x00, 0x00, 0x00,
    0x09, 0x00, 0x00, 0x00, 0x03, 0x00, 0x00, 0x00, 0x08, 0x00, 0x00, 0x00, 0x04, 0x00, 0x00, 0x00, 0x02, 0x00, 0x00,
    0x00, 0x00, 0x00, 0x0a, 0x00, 0x10, 0x00, 0x0c, 0x00, 0x08, 0x00, 0x04, 0x00, 0x0a, 0x00, 0x00, 0x00, 0x0c, 0x00,
    0x00, 0x00, 0x10, 0x00, 0x00, 0x00, 0x01, 0x00, 0x00, 0x00, 0x01, 0x00, 0x00, 0x00, 0x08, 0x00, 0x00, 0x00, 0x01,
    0x00, 0x00, 0x00, 0x07, 0x00, 0x00, 0x00, 0x00, 0x00, 0x0e, 0x00, 0x14, 0x00, 0x00, 0x00, 0x10, 0x00, 0x0c, 0x00,
    0x0b, 0x00, 0x04, 0x00, 0x0e, 0x00, 0x00, 0x00, 0x10, 0x00, 0x00, 0x00, 0x00, 0x00, 0x00, 0x08, 0x0c, 0x00, 0x00,
    0x00, 0x10, 0x00, 0x00, 0x00, 0x9c, 0xfb, 0xff, 0xff, 0x01, 0x00, 0x00, 0x00, 0x07, 0x00, 0x00, 0x00, 0x03, 0x00,
    0x00, 0x00, 0x00, 0x00, 0x00, 0x00, 0x05, 0x00, 0x00, 0x00, 0x06, 0x00, 0x00, 0x00, 0x01, 0x00, 0x00, 0x00, 0x0c,
    0x00, 0x00, 0x00, 0x01, 0x00, 0x00, 0x00, 0x00, 0x00, 0x00, 0x00, 0x0d, 0x00, 0x00, 0x00, 0x1c, 0x04, 0x00, 0x00,
    0xb4, 0x03, 0x00, 0x00, 0x64, 0x03, 0x00, 0x00, 0x14, 0x03, 0x00, 0x00, 0xc4, 0x02, 0x00, 0x00, 0x74, 0x02, 0x00,
    0x00, 0x24, 0x02, 0x00, 0x00, 0xb4, 0x01, 0x00, 0x00, 0x70, 0x01, 0x00, 0x00, 0xfc, 0x00, 0x00, 0x00, 0xb4, 0x00,
    0x00, 0x00, 0x40, 0x00, 0x00, 0x00, 0x04, 0x00, 0x00, 0x00, 0x2e, 0xfc, 0xff, 0xff, 0x00, 0x00, 0x00, 0x01, 0x10,
    0x00, 0x00, 0x00, 0x10, 0x00, 0x00, 0x00, 0x0d, 0x00, 0x00, 0x00, 0x18, 0x00, 0x00, 0x00, 0x18, 0xfc, 0xff, 0xff,
    0x08, 0x00, 0x00, 0x00, 0x49, 0x64, 0x65, 0x6e, 0x74, 0x69, 0x74, 0x79, 0x00, 0x00, 0x00, 0x00, 0x02, 0x00, 0x00,
    0x00, 0x01, 0x00, 0x00, 0x00, 0x01, 0x00, 0x00, 0x00, 0x66, 0xfc, 0xff, 0xff, 0x00, 0x00, 0x00, 0x01, 0x10, 0x00,
    0x00, 0x00, 0x10, 0x00, 0x00, 0x00, 0x0c, 0x00, 0x00, 0x00, 0x50, 0x00, 0x00, 0x00, 0x50, 0xfc, 0xff, 0xff, 0x42,
    0x00, 0x00, 0x00, 0x6d, 0x6f, 0x64, 0x65, 0x6c, 0x2f, 0x74, 0x66, 0x2e, 0x6c, 0x69, 0x6e, 0x61, 0x6c, 0x67, 0x2e,
    0x6d, 0x61, 0x74, 0x6d, 0x75, 0x6c, 0x5f, 0x32, 0x2f, 0x4d, 0x61, 0x74, 0x4d, 0x75, 0x6c, 0x3b, 0x6d, 0x6f, 0x64,
    0x65, 0x6c, 0x2f, 0x74, 0x66, 0x2e, 0x5f, 0x5f, 0x6f, 0x70, 0x65, 0x72, 0x61, 0x74, 0x6f, 0x72, 0x73, 0x5f, 0x5f,
    0x2e, 0x61, 0x64, 0x64, 0x5f, 0x32, 0x2f, 0x41, 0x64, 0x64, 0x56, 0x32, 0x00, 0x00, 0x02, 0x00, 0x00, 0x00, 0x01,
    0x00, 0x00, 0x00, 0x01, 0x00, 0x00, 0x00, 0xd6, 0xfc, 0xff, 0xff, 0x00, 0x00, 0x00, 0x01, 0x10, 0x00, 0x00, 0x00,
    0x10, 0x00, 0x00, 0x00, 0x0b, 0x00, 0x00, 0x00, 0x24, 0x00, 0x00, 0x00, 0xc0, 0xfc, 0xff, 0xff, 0x15, 0x00, 0x00,
    0x00, 0x6d, 0x6f, 0x64, 0x65, 0x6c, 0x2f, 0x74, 0x66, 0x2e, 0x6e, 0x6e, 0x2e, 0x65, 0x6c, 0x75, 0x5f, 0x31, 0x2f,
    0x45, 0x6c, 0x75, 0x00, 0x00, 0x00, 0x02, 0x00, 0x00, 0x00, 0x01, 0x00, 0x00, 0x00, 0x20, 0x00, 0x00, 0x00, 0x1a,
    0xfd, 0xff, 0xff, 0x00, 0x00, 0x00, 0x01, 0x10, 0x00, 0x00, 0x00, 0x10, 0x00, 0x00, 0x00, 0x0a, 0x00, 0x00, 0x00,
    0x50, 0x00, 0x00, 0x00, 0x04, 0xfd, 0xff, 0xff, 0x42, 0x00, 0x00, 0x00, 0x6d, 0x6f, 0x64, 0x65, 0x6c, 0x2f, 0x74,
    0x66, 0x2e, 0x6c, 0x69, 0x6e, 0x61, 0x6c, 0x67, 0x2e, 0x6d, 0x61, 0x74, 0x6d, 0x75, 0x6c, 0x5f, 0x31, 0x2f, 0x4d,
    0x61, 0x74, 0x4d, 0x75, 0x6c, 0x3b, 0x6d, 0x6f, 0x64, 0x65, 0x6c, 0x2f, 0x74, 0x66, 0x2e, 0x5f, 0x5f, 0x6f, 0x70,
    0x65, 0x72, 0x61, 0x74, 0x6f, 0x72, 0x73, 0x5f, 0x5f, 0x2e, 0x61, 0x64, 0x64, 0x5f, 0x31, 0x2f, 0x41, 0x64, 0x64,
    0x56, 0x32, 0x00, 0x00, 0x02, 0x00, 0x00, 0x00, 0x01, 0x00, 0x00, 0x00, 0x20, 0x00, 0x00, 0x00, 0x8a, 0xfd, 0xff,
    0xff, 0x00, 0x00, 0x00, 0x01, 0x10, 0x00, 0x00, 0x00, 0x10, 0x00, 0x00, 0x00, 0x09, 0x00, 0x00, 0x00, 0x20, 0x00,
    0x00, 0x00, 0x74, 0xfd, 0xff, 0xff, 0x13, 0x00, 0x00, 0x00, 0x6d, 0x6f, 0x64, 0x65, 0x6c, 0x2f, 0x74, 0x66, 0x2e,
    0x6e, 0x6e, 0x2e, 0x65, 0x6c, 0x75, 0x2f, 0x45, 0x6c, 0x75, 0x00, 0x02, 0x00, 0x00, 0x00, 0x01, 0x00, 0x00, 0x00,
    0x20, 0x00, 0x00, 0x00, 0xca, 0xfd, 0xff, 0xff, 0x00, 0x00, 0x00, 0x01, 0x10, 0x00, 0x00, 0x00, 0x10, 0x00, 0x00,
    0x00, 0x08, 0x00, 0x00, 0x00, 0x4c, 0x00, 0x00, 0x00, 0xb4, 0xfd, 0xff, 0xff, 0x3e, 0x00, 0x00, 0x00, 0x6d, 0x6f,
    0x64, 0x65, 0x6c, 0x2f, 0x74, 0x66, 0x2e, 0x6c, 0x69, 0x6e, 0x61, 0x6c, 0x67, 0x2e, 0x6d, 0x61, 0x74, 0x6d, 0x75,
    0x6c, 0x2f, 0x4d, 0x61, 0x74, 0x4d, 0x75, 0x6c, 0x3b, 0x6d, 0x6f, 0x64, 0x65, 0x6c, 0x2f, 0x74, 0x66, 0x2e, 0x5f,
    0x5f, 0x6f, 0x70, 0x65, 0x72, 0x61, 0x74, 0x6f, 0x72, 0x73, 0x5f, 0x5f, 0x2e, 0x61, 0x64, 0x64, 0x2f, 0x41, 0x64,
    0x64, 0x56, 0x32, 0x00, 0x00, 0x02, 0x00, 0x00, 0x00, 0x01, 0x00, 0x00, 0x00, 0x20, 0x00, 0x00, 0x00, 0x36, 0xfe,
    0xff, 0xff, 0x00, 0x00, 0x00, 0x01, 0x10, 0x00, 0x00, 0x00, 0x10, 0x00, 0x00, 0x00, 0x07, 0x00, 0x00, 0x00, 0x30,
    0x00, 0x00, 0x00, 0x20, 0xfe, 0xff, 0xff, 0x20, 0x00, 0x00, 0x00, 0x6d, 0x6f, 0x64, 0x65, 0x6c, 0x2f, 0x74, 0x66,
    0x2e, 0x5f, 0x5f, 0x6f, 0x70, 0x65, 0x72, 0x61, 0x74, 0x6f, 0x72, 0x73, 0x5f, 0x5f, 0x2e, 0x61, 0x64, 0x64, 0x2f,
    0x41, 0x64, 0x64, 0x56, 0x32, 0x00, 0x00, 0x00, 0x00, 0x01, 0x00, 0x00, 0x00, 0x20, 0x00, 0x00, 0x00, 0x82, 0xfe,
    0xff, 0xff, 0x00, 0x00, 0x00, 0x01, 0x10, 0x00, 0x00, 0x00, 0x10, 0x00, 0x00, 0x00, 0x06, 0x00, 0x00, 0x00, 0x2c,
    0x00, 0x00, 0x00, 0x6c, 0xfe, 0xff, 0xff, 0x1d, 0x00, 0x00, 0x00, 0x6d, 0x6f, 0x64, 0x65, 0x6c, 0x2f, 0x74, 0x66,
    0x2e, 0x6c, 0x69, 0x6e, 0x61, 0x6c, 0x67, 0x2e, 0x6d, 0x61, 0x74, 0x6d, 0x75, 0x6c, 0x2f, 0x4d, 0x61, 0x74, 0x4d,
    0x75, 0x6c, 0x00, 0x00, 0x00, 0x02, 0x00, 0x00, 0x00, 0x20, 0x00, 0x00, 0x00, 0x05, 0x00, 0x00, 0x00, 0xce, 0xfe,
    0xff, 0xff, 0x00, 0x00, 0x00, 0x01, 0x10, 0x00, 0x00, 0x00, 0x10, 0x00, 0x00, 0x00, 0x05, 0x00, 0x00, 0x00, 0x2c,
    0x00, 0x00, 0x00, 0xb8, 0xfe, 0xff, 0xff, 0x1f, 0x00, 0x00, 0x00, 0x6d, 0x6f, 0x64, 0x65, 0x6c, 0x2f, 0x74, 0x66,
    0x2e, 0x6c, 0x69, 0x6e, 0x61, 0x6c, 0x67, 0x2e, 0x6d, 0x61, 0x74, 0x6d, 0x75, 0x6c, 0x5f, 0x31, 0x2f, 0x4d, 0x61,
    0x74, 0x4d, 0x75, 0x6c, 0x00, 0x02, 0x00, 0x00, 0x00, 0x20, 0x00, 0x00, 0x00, 0x20, 0x00, 0x00, 0x00, 0x1a, 0xff,
    0xff, 0xff, 0x00, 0x00, 0x00, 0x01, 0x10, 0x00, 0x00, 0x00, 0x10, 0x00, 0x00, 0x00, 0x04, 0x00, 0x00, 0x00, 0x2c,
    0x00, 0x00, 0x00, 0x04, 0xff, 0xff, 0xff, 0x1f, 0x00, 0x00, 0x00, 0x6d, 0x6f, 0x64, 0x65, 0x6c, 0x2f, 0x74, 0x66,
    0x2e, 0x6c, 0x69, 0x6e, 0x61, 0x6c, 0x67, 0x2e, 0x6d, 0x61, 0x74, 0x6d, 0x75, 0x6c, 0x5f, 0x32, 0x2f, 0x4d, 0x61,
    0x74, 0x4d, 0x75, 0x6c, 0x00, 0x02, 0x00, 0x00, 0x00, 0x01, 0x00, 0x00, 0x00, 0x20, 0x00, 0x00, 0x00, 0x66, 0xff,
    0xff, 0xff, 0x00, 0x00, 0x00, 0x01, 0x10, 0x00, 0x00, 0x00, 0x10, 0x00, 0x00, 0x00, 0x03, 0x00, 0x00, 0x00, 0x30,
    0x00, 0x00, 0x00, 0x50, 0xff, 0xff, 0xff, 0x22, 0x00, 0x00, 0x00, 0x6d, 0x6f, 0x64, 0x65, 0x6c, 0x2f, 0x74, 0x66,
    0x2e, 0x5f, 0x5f, 0x6f, 0x70, 0x65, 0x72, 0x61, 0x74, 0x6f, 0x72, 0x73, 0x5f, 0x5f, 0x2e, 0x61, 0x64, 0x64, 0x5f,
    0x31, 0x2f, 0x41, 0x64, 0x64, 0x56, 0x32, 0x00, 0x00, 0x01, 0x00, 0x00, 0x00, 0x20, 0x00, 0x00, 0x00, 0xb2, 0xff,
    0xff, 0xff, 0x00, 0x00, 0x00, 0x01, 0x10, 0x00, 0x00, 0x00, 0x10, 0x00, 0x00, 0x00, 0x02, 0x00, 0x00, 0x00, 0x30,
    0x00, 0x00, 0x00, 0x9c, 0xff, 0xff, 0xff, 0x22, 0x00, 0x00, 0x00, 0x6d, 0x6f, 0x64, 0x65, 0x6c, 0x2f, 0x74, 0x66,
    0x2e, 0x5f, 0x5f, 0x6f, 0x70, 0x65, 0x72, 0x61, 0x74, 0x6f, 0x72, 0x73, 0x5f, 0x5f, 0x2e, 0x61, 0x64, 0x64, 0x5f,
    0x32, 0x2f, 0x41, 0x64, 0x64, 0x56, 0x32, 0x00, 0x00, 0x01, 0x00, 0x00, 0x00, 0x01, 0x00, 0x00, 0x00, 0x00, 0x00,
    0x16, 0x00, 0x18, 0x00, 0x14, 0x00, 0x00, 0x00, 0x10, 0x00, 0x0c, 0x00, 0x08, 0x00, 0x00, 0x00, 0x00, 0x00, 0x00,
    0x00, 0x07, 0x00, 0x16, 0x00, 0x00, 0x00, 0x00, 0x00, 0x00, 0x01, 0x14, 0x00, 0x00, 0x00, 0x14, 0x00, 0x00, 0x00,
    0x01, 0x00, 0x00, 0x00, 0x14, 0x00, 0x00, 0x00, 0x04, 0x00, 0x04, 0x00, 0x04, 0x00, 0x00, 0x00, 0x03, 0x00, 0x00,
    0x00, 0x6f, 0x62, 0x73, 0x00, 0x02, 0x00, 0x00, 0x00, 0x01, 0x00, 0x00, 0x00, 0x05, 0x00, 0x00, 0x00, 0x03, 0x00,
    0x00, 0x00, 0x30, 0x00, 0x00, 0x00, 0x14, 0x00, 0x00, 0x00, 0x04, 0x00, 0x00, 0x00, 0xe8, 0xff, 0xff, 0xff, 0x1c,
    0x00, 0x00, 0x00, 0x00, 0x00, 0x00, 0x1c, 0xf4, 0xff, 0xff, 0xff, 0x6f, 0x00, 0x00, 0x00, 0x00, 0x00, 0x00, 0x6f,
    0x0c, 0x00, 0x0c, 0x00, 0x0b, 0x00, 0x00, 0x00, 0x00, 0x00, 0x04, 0x00, 0x0c, 0x00, 0x00, 0x00, 0x09, 0x00, 0x00,
    0x00, 0x00, 0x00, 0x00, 0x09};
inline constexpr unsigned int policy_model_len = 7168;
