unsigned char policy_model[] = {
    0x1c, 0x00, 0x00, 0x00, 0x54, 0x46, 0x4c, 0x33, 0x14, 0x00, 0x20, 0x00, 0x1c, 0x00, 0x18, 0x00, 0x14, 0x00, 0x10,
    0x00, 0x0c, 0x00, 0x00, 0x00, 0x08, 0x00, 0x04, 0x00, 0x14, 0x00, 0x00, 0x00, 0x1c, 0x00, 0x00, 0x00, 0x1c, 0x00,
    0x00, 0x00, 0x74, 0x00, 0x00, 0x00, 0xb0, 0x15, 0x00, 0x00, 0xc0, 0x15, 0x00, 0x00, 0xdc, 0x1a, 0x00, 0x00, 0x03,
    0x00, 0x00, 0x00, 0x00, 0x00, 0x00, 0x00, 0x02, 0x00, 0x00, 0x00, 0x34, 0x00, 0x00, 0x00, 0x04, 0x00, 0x00, 0x00,
    0xdc, 0xff, 0xff, 0xff, 0x0e, 0x00, 0x00, 0x00, 0x04, 0x00, 0x00, 0x00, 0x13, 0x00, 0x00, 0x00, 0x43, 0x4f, 0x4e,
    0x56, 0x45, 0x52, 0x53, 0x49, 0x4f, 0x4e, 0x5f, 0x4d, 0x45, 0x54, 0x41, 0x44, 0x41, 0x54, 0x41, 0x00, 0x08, 0x00,
    0x0c, 0x00, 0x08, 0x00, 0x04, 0x00, 0x08, 0x00, 0x00, 0x00, 0x0d, 0x00, 0x00, 0x00, 0x04, 0x00, 0x00, 0x00, 0x13,
    0x00, 0x00, 0x00, 0x6d, 0x69, 0x6e, 0x5f, 0x72, 0x75, 0x6e, 0x74, 0x69, 0x6d, 0x65, 0x5f, 0x76, 0x65, 0x72, 0x73,
    0x69, 0x6f, 0x6e, 0x00, 0x0f, 0x00, 0x00, 0x00, 0x38, 0x15, 0x00, 0x00, 0x30, 0x15, 0x00, 0x00, 0x1c, 0x15, 0x00,
    0x00, 0x84, 0x14, 0x00, 0x00, 0xf4, 0x13, 0x00, 0x00, 0xe4, 0x03, 0x00, 0x00, 0x54, 0x01, 0x00, 0x00, 0xc4, 0x00,
    0x00, 0x00, 0xbc, 0x00, 0x00, 0x00, 0xb4, 0x00, 0x00, 0x00, 0xac, 0x00, 0x00, 0x00, 0xa4, 0x00, 0x00, 0x00, 0x9c,
    0x00, 0x00, 0x00, 0x7c, 0x00, 0x00, 0x00, 0x04, 0x00, 0x00, 0x00, 0x1e, 0xeb, 0xff, 0xff, 0x04, 0x00, 0x00, 0x00,
    0x68, 0x00, 0x00, 0x00, 0x10, 0x00, 0x00, 0x00, 0x00, 0x00, 0x00, 0x00, 0x08, 0x00, 0x0e, 0x00, 0x08, 0x00, 0x04,
    0x00, 0x08, 0x00, 0x00, 0x00, 0x14, 0x00, 0x00, 0x00, 0x2c, 0x00, 0x00, 0x00, 0x00, 0x00, 0x0a, 0x00, 0x0c, 0x00,
    0x08, 0x00, 0x00, 0x00, 0x07, 0x00, 0x0a, 0x00, 0x00, 0x00, 0x00, 0x00, 0x00, 0x01, 0x04, 0x00, 0x00, 0x00, 0x00,
    0x00, 0x00, 0x00, 0x0c, 0x00, 0x18, 0x00, 0x14, 0x00, 0x10, 0x00, 0x0c, 0x00, 0x04, 0x00, 0x0c, 0x00, 0x00, 0x00,
    0x03, 0xa1, 0x42, 0x95, 0xc5, 0x87, 0x89, 0x84, 0x03, 0x00, 0x00, 0x00, 0x02, 0x00, 0x00, 0x00, 0x04, 0x00, 0x00,
    0x00, 0x06, 0x00, 0x00, 0x00, 0x32, 0x2e, 0x32, 0x31, 0x2e, 0x30, 0x00, 0x00, 0x92, 0xeb, 0xff, 0xff, 0x04, 0x00,
    0x00, 0x00, 0x10, 0x00, 0x00, 0x00, 0x31, 0x2e, 0x31, 0x34, 0x2e, 0x30, 0x00, 0x00, 0x00, 0x00, 0x00, 0x00, 0x00,
    0x00, 0x00, 0x00, 0x78, 0xe6, 0xff, 0xff, 0x7c, 0xe6, 0xff, 0xff, 0x80, 0xe6, 0xff, 0xff, 0x84, 0xe6, 0xff, 0xff,
    0x88, 0xe6, 0xff, 0xff, 0xc2, 0xeb, 0xff, 0xff, 0x04, 0x00, 0x00, 0x00, 0x80, 0x00, 0x00, 0x00, 0xc8, 0x1f, 0xe1,
    0x3d, 0xcd, 0xe7, 0xcc, 0xbe, 0x1a, 0x9b, 0x80, 0x3e, 0xee, 0xd6, 0xc9, 0x3d, 0x94, 0x48, 0x2f, 0x3e, 0x3a, 0xc1,
    0x5f, 0x3d, 0x4c, 0x06, 0xe7, 0xbe, 0x68, 0x83, 0x37, 0xbe, 0xac, 0xc3, 0x52, 0x3e, 0x3d, 0x9f, 0xc9, 0x3e, 0x26,
    0x99, 0xe4, 0x3c, 0x1b, 0x18, 0x44, 0x3c, 0x0d, 0x20, 0x0b, 0x3e, 0x0e, 0x34, 0xdd, 0xbe, 0x6b, 0x43, 0xcf, 0xbe,
    0x7b, 0xd4, 0xdc, 0xbd, 0xa4, 0x17, 0xb5, 0x3d, 0x43, 0x9e, 0x70, 0x3e, 0xbb, 0xd1, 0x93, 0x3e, 0x9a, 0x2c, 0xb6,
    0xbe, 0x67, 0x9f, 0x1b, 0x3e, 0x7b, 0xcb, 0xc0, 0xbe, 0x98, 0x22, 0x1e, 0xbe, 0x7c, 0xbe, 0xa8, 0x3d, 0x0e, 0x9f,
    0x28, 0xbf, 0x2c, 0xdb, 0x06, 0xbe, 0xcc, 0x5b, 0x01, 0xbe, 0xc8, 0x15, 0x71, 0xbe, 0x3b, 0x3c, 0x9b, 0xbd, 0x86,
    0xca, 0x99, 0xbe, 0x90, 0xd0, 0xe6, 0xbe, 0x6c, 0xba, 0x00, 0x3e, 0x4e, 0xec, 0xff, 0xff, 0x04, 0x00, 0x00, 0x00,
    0x80, 0x02, 0x00, 0x00, 0xdb, 0xc9, 0xc7, 0xbe, 0xaf, 0x83, 0x3a, 0x3e, 0xa8, 0xc0, 0xc1, 0xbe, 0xe5, 0x52, 0x20,
    0xbe, 0x9e, 0x4f, 0x23, 0xbf, 0xe8, 0xcb, 0xb0, 0x3e, 0x48, 0x1e, 0x73, 0xbd, 0x32, 0xbe, 0xae, 0x3e, 0xf6, 0xe7,
    0x05, 0xbf, 0x2b, 0x66, 0x98, 0x3d, 0x7a, 0x90, 0xbe, 0xbd, 0xc9, 0x1a, 0xb2, 0x3e, 0xb8, 0x8b, 0xa0, 0x3e, 0x30,
    0x43, 0x33, 0xbe, 0xfc, 0x86, 0xc6, 0x3e, 0xcf, 0x4f, 0x23, 0xbe, 0x78, 0x29, 0xf9, 0x3d, 0x61, 0xb8, 0x7a, 0xbd,
    0x48, 0x6d, 0xbf, 0xbe, 0xae, 0x68, 0x68, 0x3b, 0x8c, 0xce, 0x68, 0xbe, 0xc6, 0xe6, 0x47, 0xbe, 0x08, 0xce, 0xbf,
    0xbd, 0xb0, 0x0a, 0x28, 0xbe, 0xe9, 0x08, 0xe3, 0xbe, 0x5b, 0xd8, 0xad, 0x3e, 0xb4, 0x08, 0x31, 0x3f, 0xbd, 0xb1,
    0xa3, 0xbd, 0x35, 0x05, 0xa6, 0x3c, 0xd0, 0x7a, 0xf8, 0x3e, 0x41, 0xed, 0xee, 0x3e, 0xd9, 0x79, 0x5c, 0xbc, 0xab,
    0x7e, 0x99, 0x3e, 0x31, 0xed, 0x47, 0x3d, 0x57, 0xce, 0x6c, 0x3e, 0xe7, 0x35, 0x39, 0x3e, 0xab, 0xce, 0x3a, 0x3f,
    0x88, 0x33, 0xdf, 0x3d, 0xda, 0x85, 0xdb, 0xbd, 0xc2, 0xe4, 0x21, 0x3f, 0x4c, 0x37, 0x40, 0xbe, 0xd0, 0x80, 0x2a,
    0xbf, 0x4f, 0xc4, 0x5a, 0x3e, 0x44, 0x8e, 0x92, 0x3d, 0xca, 0xe6, 0x14, 0xbf, 0xa0, 0x58, 0x63, 0xbe, 0x48, 0x21,
    0x8f, 0xbe, 0x0c, 0xa9, 0xcc, 0x3d, 0xf7, 0xb0, 0x93, 0xbe, 0x32, 0xff, 0x6d, 0xbe, 0xf5, 0x6f, 0xa6, 0x3d, 0x2b,
    0x86, 0x47, 0xbe, 0xc4, 0xd8, 0x99, 0xbd, 0x47, 0x40, 0x08, 0x3f, 0x0c, 0x1a, 0xc9, 0x3d, 0xb1, 0x91, 0xd1, 0xbd,
    0x6f, 0x94, 0x21, 0xbf, 0xe8, 0x24, 0xc5, 0xbd, 0xf9, 0xea, 0x1a, 0x3f, 0xd6, 0x85, 0xd9, 0xbe, 0x1b, 0xd3, 0xcb,
    0xbe, 0xc7, 0xcf, 0x64, 0xbe, 0x9e, 0x90, 0x56, 0xbe, 0x2d, 0xf3, 0x08, 0xbd, 0xf7, 0x25, 0x2d, 0xbf, 0xc3, 0x88,
    0xf2, 0xbe, 0x07, 0xc4, 0x40, 0xbd, 0xfb, 0x76, 0x34, 0x3e, 0x45, 0x5d, 0x17, 0xbf, 0x6c, 0x2d, 0x9e, 0x3e, 0x51,
    0xc9, 0xaf, 0x3e, 0x0c, 0x3b, 0x9c, 0xbe, 0xc1, 0xf5, 0xc8, 0x3c, 0x8b, 0x3e, 0x27, 0x3e, 0xb8, 0x27, 0x18, 0xbf,
    0x93, 0x8f, 0x33, 0xbf, 0x6f, 0xf8, 0x88, 0xbf, 0xf2, 0xf9, 0xdd, 0xbe, 0x24, 0xe9, 0x87, 0x3c, 0xe0, 0xbb, 0x00,
    0xbf, 0xa1, 0x91, 0x4b, 0xbd, 0x33, 0xfd, 0x60, 0x3e, 0x4d, 0xc1, 0xa9, 0xbe, 0xa0, 0x6c, 0x34, 0xbc, 0x61, 0x29,
    0xa2, 0x3e, 0xd5, 0xee, 0x14, 0x3e, 0x62, 0x09, 0x7c, 0x3e, 0x23, 0x97, 0x70, 0x3e, 0x80, 0xf9, 0x5b, 0x3e, 0x50,
    0xe9, 0xfa, 0x3e, 0xf6, 0x86, 0x0c, 0xbc, 0x42, 0xe9, 0x1a, 0xbf, 0x6d, 0x9a, 0x47, 0xbd, 0x2c, 0x1c, 0xc4, 0xbe,
    0x49, 0xb5, 0x7d, 0xbe, 0xd4, 0x78, 0xaf, 0x3d, 0xb4, 0xed, 0x96, 0xbd, 0x4d, 0x89, 0x11, 0x3f, 0xd3, 0x74, 0x2d,
    0x3f, 0xc0, 0x2d, 0x2e, 0x3f, 0xac, 0xc0, 0xd2, 0xbe, 0x53, 0x3f, 0x9f, 0xbe, 0xf1, 0xe4, 0x42, 0x3e, 0x51, 0x1b,
    0x42, 0x3f, 0x77, 0x4b, 0xb4, 0x3c, 0x88, 0x62, 0xe9, 0xbe, 0x53, 0x9a, 0xbd, 0xbd, 0xcd, 0x6a, 0x2a, 0x39, 0xc9,
    0x74, 0x52, 0xbd, 0x1d, 0x92, 0x37, 0x3e, 0xb1, 0x8e, 0x94, 0xbd, 0x71, 0x96, 0x6d, 0xbe, 0xb0, 0xd3, 0xa0, 0xbe,
    0x65, 0x99, 0x30, 0xbe, 0xae, 0x06, 0x25, 0xbe, 0xda, 0x8a, 0x8a, 0xbd, 0x6e, 0xfb, 0x62, 0xbc, 0xa4, 0x6a, 0x0f,
    0x3f, 0xeb, 0x4d, 0x1f, 0x3f, 0x19, 0x92, 0x55, 0x3f, 0x7a, 0xc7, 0x07, 0x3f, 0xa1, 0xae, 0xe0, 0x3e, 0x04, 0x50,
    0xd8, 0x3e, 0x2d, 0xfd, 0xd0, 0xbe, 0x4c, 0xa5, 0xe3, 0x3e, 0x12, 0x89, 0x9e, 0x3e, 0xeb, 0x0e, 0x76, 0x3e, 0xd7,
    0x7f, 0xba, 0xbd, 0x67, 0xa8, 0x1e, 0xbf, 0x71, 0x2f, 0x6e, 0x3d, 0x88, 0xb1, 0x39, 0xbe, 0x74, 0xb5, 0xf2, 0x3e,
    0xb0, 0x67, 0x8e, 0x3d, 0x43, 0x81, 0xb9, 0x3d, 0x5e, 0xd0, 0xda, 0x3e, 0x14, 0x50, 0x8a, 0x3c, 0xeb, 0xa5, 0xaf,
    0x3d, 0xc8, 0x17, 0xc3, 0xbe, 0xe1, 0xf6, 0x8d, 0xbb, 0x97, 0xa4, 0x09, 0xbf, 0xa1, 0x8c, 0x8c, 0xbd, 0x8a, 0x7b,
    0xa8, 0x3e, 0x02, 0x4b, 0x1b, 0x3e, 0x16, 0x7c, 0x55, 0x3e, 0xcc, 0x07, 0x99, 0x3e, 0x28, 0x2a, 0x88, 0x3d, 0x39,
    0x59, 0xad, 0xbe, 0x23, 0x62, 0x7a, 0x3e, 0xf9, 0xc8, 0x9c, 0xbe, 0x32, 0xf2, 0xa4, 0xbd, 0xb6, 0x19, 0xb9, 0x3e,
    0x94, 0x02, 0x9d, 0xbe, 0x07, 0x0a, 0x8b, 0xbe, 0x0e, 0x3b, 0x48, 0x3c, 0xb2, 0xf7, 0x1b, 0x3e, 0x45, 0xbb, 0xfa,
    0xbc, 0x56, 0x42, 0xa4, 0xbe, 0xec, 0xd4, 0x9f, 0x3d, 0xa7, 0x1d, 0xf4, 0xbd, 0x28, 0xe0, 0x6b, 0xbe, 0xda, 0xee,
    0xff, 0xff, 0x04, 0x00, 0x00, 0x00, 0x00, 0x10, 0x00, 0x00, 0x22, 0xf6, 0x22, 0xbd, 0xbb, 0xa4, 0x71, 0xbe, 0xd2,
    0xfb, 0xb9, 0x3c, 0xb9, 0x08, 0xc2, 0xbd, 0x56, 0xdc, 0x85, 0x3b, 0x59, 0x68, 0x64, 0x3d, 0x73, 0xa6, 0xdf, 0xbd,
    0x17, 0xdb, 0x04, 0x3e, 0x6b, 0x16, 0x52, 0x3b, 0xee, 0xe7, 0x12, 0xbe, 0x84, 0x19, 0xac, 0x3c, 0xe2, 0x24, 0x2b,
    0x3e, 0xaa, 0x4f, 0x07, 0xbd, 0x2a, 0xbe, 0x3a, 0xbe, 0xd8, 0x2c, 0x02, 0xbe, 0xc8, 0x9a, 0xd8, 0xbc, 0xe3, 0xe9,
    0xa7, 0x3d, 0x13, 0x10, 0xa8, 0x3b, 0x5e, 0x2b, 0xf7, 0xbd, 0x8f, 0x98, 0x07, 0x3e, 0x99, 0x75, 0xba, 0xbc, 0x3b,
    0x58, 0x48, 0xbd, 0xbc, 0xb7, 0xb5, 0x3d, 0x3b, 0xbc, 0xee, 0xbb, 0xee, 0xe5, 0x11, 0x3e, 0x34, 0xef, 0xae, 0xbd,
    0x6c, 0x98, 0xab, 0x3c, 0x0e, 0x4a, 0xb8, 0xbd, 0x23, 0x85, 0x2b, 0x3e, 0x24, 0x8d, 0x61, 0xbd, 0xe7, 0x48, 0xe0,
    0xbd, 0x59, 0x6e, 0x7c, 0x3d, 0x27, 0x9d, 0x14, 0xbd, 0xc9, 0x2f, 0x05, 0x3d, 0x6d, 0xf2, 0x8b, 0x3e, 0xda, 0x4c,
    0x93, 0xbd, 0x9a, 0xaf, 0x84, 0xbe, 0x92, 0x9f, 0xe5, 0x3e, 0xaa, 0x72, 0x11, 0x3c, 0x60, 0x40, 0x4b, 0x3d, 0x39,
    0x62, 0xce, 0xbe, 0x57, 0x51, 0x9b, 0xbd, 0x04, 0xb6, 0xb9, 0x3d, 0xce, 0x98, 0x92, 0xbe, 0xce, 0x4e, 0xec, 0xbe,
    0xb8, 0x94, 0x38, 0xbe, 0x20, 0xa0, 0xcf, 0xbb, 0x42, 0x96, 0xfa, 0xbe, 0x5d, 0x1e, 0x1b, 0xbd, 0x8b, 0x8d, 0x80,
    0x3e, 0xe1, 0x53, 0x90, 0xbd, 0x1d, 0xc8, 0x58, 0x3e, 0x61, 0x44, 0xed, 0xbd, 0xb0, 0x83, 0x8f, 0xbe, 0x8d, 0xe0,
    0x4e, 0xbe, 0x9f, 0x21, 0x05, 0x3f, 0xae, 0x7f, 0xaa, 0x3e, 0x97, 0xe8, 0xee, 0x3d, 0x73, 0x61, 0x1c, 0x3d, 0x38,
    0xbb, 0x8c, 0xbd, 0xc2, 0x5a, 0xd5, 0x3d, 0xe0, 0xca, 0x0a, 0xbe, 0xd2, 0x63, 0x6a, 0xbd, 0xa4, 0x40, 0xcd, 0xbd,
    0x34, 0x78, 0xdf, 0xbe, 0x43, 0xb7, 0xe8, 0x3e, 0xdd, 0x87, 0x35, 0xbe, 0xbd, 0xfb, 0x2c, 0xbe, 0xd7, 0xf9, 0x6b,
    0xbe, 0xa5, 0xac, 0x9d, 0xbd, 0xc8, 0xaa, 0x11, 0x3f, 0x39, 0xd9, 0xe1, 0x3d, 0xa1, 0xb6, 0x47, 0xbe, 0x92, 0xd0,
    0x9b, 0xbe, 0x93, 0xe8, 0x53, 0xbe, 0x18, 0x61, 0x21, 0xbf, 0x21, 0x2b, 0xb4, 0xbe, 0x3a, 0x63, 0xc6, 0x3e, 0x86,
    0xc7, 0x5e, 0x3e, 0x32, 0x6b, 0xf9, 0x3b, 0x40, 0x6a, 0x49, 0xbe, 0x02, 0x06, 0x24, 0xba, 0x5d, 0x5e, 0x2c, 0xbe,
    0xef, 0xb1, 0x4e, 0x3e, 0xe7, 0xd5, 0x67, 0xbe, 0xc1, 0x8a, 0xc8, 0x3e, 0x4e, 0xb6, 0x11, 0x3e, 0x81, 0x38, 0x90,
    0xbe, 0x93, 0x99, 0x39, 0x3f, 0xb3, 0x42, 0xe0, 0x3e, 0x59, 0xe8, 0x76, 0x39, 0xa8, 0xce, 0x86, 0x3d, 0xc3, 0x6d,
    0x55, 0x3e, 0x1f, 0xcc, 0x2a, 0x3e, 0xbf, 0x87, 0xf1, 0x3e, 0xba, 0xb3, 0x7e, 0xbe, 0xe8, 0x42, 0xa7, 0xbe, 0x66,
    0x3c, 0x03, 0x3f, 0x47, 0xd5, 0xb1, 0x3d, 0xfa, 0xe5, 0x19, 0xbe, 0x0c, 0xe5, 0x5b, 0xbe, 0x3f, 0xed, 0x49, 0xbd,
    0x11, 0xce, 0xba, 0x3e, 0x9b, 0xdc, 0xb1, 0x3e, 0x44, 0xde, 0xbc, 0xbd, 0x26, 0xb5, 0xf5, 0xbe, 0x3c, 0x47, 0xb7,
    0xbc, 0x83, 0x33, 0xfe, 0xbe, 0x3a, 0x8b, 0x47, 0xbe, 0xc4, 0xc1, 0xd8, 0x3e, 0xa7, 0x51, 0x01, 0x3f, 0xe8, 0xfb,
    0x4d, 0x3d, 0x87, 0x59, 0x88, 0xbe, 0xef, 0xa6, 0x85, 0x3d, 0xbf, 0x1a, 0x72, 0xbe, 0x98, 0xe2, 0x88, 0x3e, 0x11,
    0x24, 0x83, 0xbe, 0x42, 0x81, 0xdb, 0x3e, 0xc6, 0xfa, 0x29, 0x3d, 0xf2, 0xd5, 0x9c, 0xbe, 0xd7, 0x57, 0x55, 0x3f,
    0x93, 0x01, 0x98, 0x3e, 0x99, 0x2a, 0x2a, 0x3e, 0x54, 0x46, 0xb0, 0x3d, 0x39, 0x64, 0x81, 0x3d, 0x52, 0x61, 0x00,
    0x3e, 0xf6, 0xbb, 0xf7, 0x3e, 0x7e, 0xfd, 0x0a, 0xbe, 0x27, 0x13, 0x8e, 0x3d, 0x2e, 0xae, 0xd4, 0x3e, 0xed, 0x73,
    0xb5, 0xbe, 0xb6, 0x5f, 0xf3, 0x3d, 0x6e, 0x69, 0x48, 0x3e, 0x20, 0x07, 0x21, 0x3e, 0x50, 0xc2, 0x0a, 0x3d, 0x77,
    0xce, 0x23, 0x3e, 0x38, 0x5a, 0x48, 0x3e, 0xa5, 0xab, 0x32, 0x3e, 0xfc, 0x3e, 0xf3, 0xbe, 0x1e, 0x38, 0x79, 0xbd,
    0xe5, 0x8c, 0xf2, 0x3d, 0x95, 0xd4, 0x05, 0x3f, 0xeb, 0x35, 0xd7, 0x3d, 0xec, 0xbc, 0xa0, 0x3e, 0x17, 0x57, 0x9f,
    0xbd, 0x90, 0xc8, 0x12, 0xbf, 0x9f, 0x55, 0x34, 0x3e, 0x43, 0xe4, 0x67, 0x3e, 0x04, 0x1a, 0x04, 0x3e, 0xbf, 0xe9,
    0xbf, 0x3e, 0xff, 0x06, 0x15, 0x3f, 0x38, 0x8b, 0x84, 0x3d, 0xd9, 0x5c, 0xb3, 0x3e, 0x98, 0xd7, 0x92, 0x3e, 0xee,
    0x55, 0x8d, 0x3d, 0xf7, 0x16, 0x81, 0x3e, 0x9e, 0xa2, 0x2a, 0xbe, 0x44, 0x03, 0xbd, 0x3e, 0x79, 0xe3, 0x12, 0x3d,
    0x76, 0x3c, 0xa7, 0xbd, 0x0a, 0xb2, 0xd3, 0x3c, 0xa4, 0x00, 0xca, 0xbd, 0xe3, 0x45, 0x06, 0x3e, 0x20, 0x30, 0x02,
    0x3d, 0x32, 0x68, 0x75, 0xbd, 0x66, 0x24, 0x25, 0x3d, 0x6e, 0xd7, 0x27, 0x3e, 0xab, 0x51, 0x6f, 0xbd, 0xbf, 0xd8,
    0xe2, 0x3d, 0x24, 0x6d, 0x6f, 0xba, 0x13, 0x44, 0x99, 0xba, 0xd8, 0x37, 0x46, 0x3d, 0x9c, 0xd5, 0xeb, 0x39, 0xbe,
    0xa5, 0xb6, 0x3d, 0x52, 0xd1, 0xa6, 0x3c, 0x4b, 0xf1, 0xb2, 0x3c, 0xa9, 0x19, 0x08, 0x3e, 0x56, 0x82, 0x9b, 0xbd,
    0xb6, 0x5f, 0x92, 0xbd, 0xd0, 0xb6, 0x42, 0x3e, 0x10, 0xb7, 0x1f, 0xbe, 0x00, 0xbf, 0xa0, 0x3b, 0x91, 0xca, 0x34,
    0xbe, 0xf1, 0xf8, 0x23, 0xbd, 0x34, 0xd8, 0x67, 0xbe, 0x2f, 0xbe, 0xf2, 0x3d, 0xdf, 0xac, 0x1f, 0xbe, 0xac, 0xe0,
    0x85, 0x3c, 0x8f, 0x97, 0xa1, 0xbd, 0x39, 0x40, 0x7c, 0x3d, 0x75, 0x53, 0xe6, 0xbd, 0x05, 0x23, 0x81, 0xbd, 0xd0,
    0x58, 0x7e, 0x3e, 0xdb, 0xb9, 0xa9, 0x3d, 0xa2, 0xf4, 0x06, 0xbe, 0xd8, 0x6c, 0x8e, 0x3d, 0xa8, 0xa2, 0x91, 0x3d,
    0x0e, 0x77, 0xad, 0xbe, 0xb6, 0xf1, 0x80, 0xbd, 0xf4, 0x3e, 0x7e, 0xbd, 0x66, 0x8f, 0x8b, 0x3e, 0x8c, 0x03, 0x82,
    0x3e, 0xde, 0x38, 0x0b, 0xbe, 0x2f, 0x93, 0x59, 0x3d, 0x4a, 0xba, 0x89, 0x3e, 0x1d, 0x5c, 0xd5, 0x3d, 0xa5, 0xf6,
    0xb9, 0x3c, 0xf1, 0x27, 0x18, 0x3e, 0xf1, 0xe7, 0x68, 0xbd, 0x38, 0x68, 0x3d, 0x3b, 0x86, 0x6b, 0x74, 0x3e, 0x7c,
    0x9c, 0x39, 0xbd, 0x1f, 0xf5, 0xed, 0x3b, 0x46, 0x26, 0x20, 0x3e, 0x26, 0xd0, 0xa6, 0xbd, 0xa6, 0xe5, 0x10, 0xbe,
    0x79, 0x29, 0xd3, 0xbe, 0xa2, 0xa5, 0x3b, 0x3c, 0x74, 0x8d, 0xfa, 0xbd, 0x4e, 0xee, 0xbb, 0xbc, 0x44, 0x0e, 0x88,
    0xbe, 0xff, 0x85, 0x88, 0x3e, 0x34, 0x5c, 0x6f, 0xbd, 0x8f, 0x3e, 0x35, 0x3e, 0x94, 0xc9, 0x0a, 0xbe, 0x53, 0x6f,
    0x01, 0x3e, 0x50, 0xc8, 0x5c, 0x3e, 0x38, 0xa5, 0x19, 0x3e, 0x94, 0x57, 0x38, 0x3d, 0xe3, 0x92, 0x44, 0x3e, 0xd3,
    0xcc, 0x75, 0x3d, 0xe0, 0x48, 0x65, 0x3e, 0xad, 0x43, 0x98, 0xbe, 0xc9, 0xb4, 0xdf, 0xbd, 0x03, 0x31, 0xa3, 0xbd,
    0x15, 0xe1, 0x01, 0xbe, 0x08, 0xef, 0x99, 0xbe, 0xb8, 0x62, 0xc5, 0xb9, 0xa5, 0x9a, 0x75, 0xbe, 0x3e, 0x65, 0x7f,
    0xbe, 0x9c, 0xb1, 0xd7, 0xbd, 0x95, 0x63, 0xa9, 0xbd, 0x57, 0x3e, 0x99, 0xbd, 0xc1, 0xd5, 0xbf, 0x3e, 0xb5, 0xe7,
    0xa4, 0xbd, 0x00, 0xd2, 0x9e, 0xbd, 0xa8, 0x76, 0x9a, 0xbd, 0xd0, 0x67, 0x43, 0x3e, 0x3e, 0x0e, 0x8a, 0x3e, 0x15,
    0x2a, 0x50, 0xbe, 0x65, 0x9d, 0x73, 0x3e, 0xc6, 0x28, 0x20, 0xbe, 0x85, 0x51, 0xde, 0x3b, 0x5a, 0x2a, 0x3f, 0xbe,
    0xca, 0x4e, 0x32, 0x3e, 0x10, 0x6b, 0xab, 0x38, 0x84, 0x06, 0xf2, 0xbd, 0xc3, 0x25, 0x9d, 0x3e, 0x5a, 0xaa, 0x28,
    0xbe, 0xcf, 0x16, 0xa3, 0xbd, 0xf5, 0xf0, 0x95, 0xbe, 0x27, 0x64, 0x00, 0xbd, 0xe7, 0xd3, 0xd8, 0x3e, 0xb0, 0x84,
    0x84, 0x3e, 0xad, 0x07, 0x6a, 0xbd, 0xd3, 0x0a, 0x9c, 0xbd, 0xce, 0x55, 0xc1, 0xbd, 0x58, 0x49, 0x8f, 0xbe, 0xce,
    0x4c, 0x34, 0xbe, 0x8e, 0x4d, 0x8e, 0x3e, 0x8f, 0xeb, 0x4f, 0x3e, 0xc9, 0xef, 0xb6, 0x3d, 0xe7, 0xd6, 0x09, 0xbe,
    0x0e, 0x24, 0x9a, 0x3d, 0x9a, 0x08, 0x39, 0xbe, 0x61, 0x31, 0x48, 0x3d, 0x59, 0x36, 0xb7, 0xbe, 0x33, 0x49, 0x8d,
    0x3e, 0x21, 0x0f, 0x47, 0x3e, 0xa8, 0xb3, 0x94, 0xbe, 0x92, 0xbe, 0xd2, 0x3e, 0xa0, 0x9d, 0x47, 0x3e, 0x26, 0x23,
    0x3d, 0x3e, 0x70, 0xa8, 0x41, 0xbe, 0x17, 0x00, 0x7a, 0x3d, 0x4c, 0xb1, 0xaf, 0x3d, 0x23, 0x03, 0xb4, 0x3e, 0xf0,
    0x17, 0x1b, 0x3e, 0x44, 0x71, 0xc0, 0xbd, 0xe1, 0x3e, 0x04, 0xbe, 0x91, 0xbb, 0x2f, 0xbe, 0x0d, 0xe6, 0xe8, 0x3d,
    0x11, 0xe4, 0x7e, 0xbd, 0xcc, 0x71, 0x66, 0x3d, 0x9f, 0x61, 0xf0, 0x3d, 0x9b, 0x78, 0x52, 0xbe, 0x95, 0xbf, 0x26,
    0x3e, 0x05, 0x91, 0xaa, 0xbd, 0x7d, 0x53, 0x13, 0xbb, 0x88, 0xf2, 0x98, 0x3d, 0xc3, 0xb2, 0x50, 0xbd, 0xc3, 0xd0,
    0x3b, 0xbc, 0xf3, 0x2c, 0xbc, 0x3d, 0x5c, 0x14, 0x15, 0x3e, 0xf8, 0x48, 0x45, 0xbd, 0xab, 0x73, 0x8f, 0x3d, 0x4c,
    0x00, 0xa5, 0xbd, 0x3d, 0x7e, 0x37, 0x3c, 0x99, 0x15, 0x09, 0x3e, 0xa8, 0x67, 0xaf, 0xbc, 0x5d, 0x48, 0xd4, 0xbd,
    0x9a, 0x08, 0x86, 0xbe, 0x0f, 0x32, 0x5a, 0x3d, 0x9b, 0x4d, 0x4f, 0xbd, 0x40, 0xd1, 0x42, 0xbc, 0x95, 0x89, 0x91,
    0xbd, 0x37, 0x76, 0xc9, 0x3c, 0x1c, 0xfc, 0xba, 0xbd, 0x50, 0xb5, 0x0d, 0xbe, 0x73, 0xe2, 0xf4, 0x3d, 0x1c, 0x3b,
    0x30, 0x3d, 0xd8, 0xa9, 0xa4, 0x3d, 0x86, 0x8e, 0xc4, 0xbc, 0x08, 0x3e, 0x6e, 0x3d, 0xcb, 0x5e, 0x04, 0x3e, 0xd9,
    0x86, 0x0e, 0xbe, 0xd2, 0xb3, 0xd3, 0xbd, 0x72, 0xfe, 0x0e, 0x3e, 0xb2, 0x50, 0x29, 0x3d, 0xdf, 0xe3, 0x44, 0xbc,
    0x4b, 0xa5, 0xbd, 0xbc, 0xc5, 0x94, 0x99, 0xbc, 0xd1, 0x65, 0xa9, 0xbd, 0xd5, 0x8a, 0xec, 0xbd, 0x2e, 0x66, 0xaf,
    0x3c, 0x72, 0x7f, 0xe5, 0xbd, 0x7b, 0x48, 0xce, 0x3d, 0x8f, 0x45, 0x9d, 0xbd, 0xa3, 0x7a, 0xb5, 0x3d, 0xbf, 0xab,
    0xeb, 0x3d, 0xd2, 0x7f, 0xdd, 0x3d, 0x5c, 0x49, 0xfd, 0xbd, 0x7f, 0xeb, 0x31, 0x3d, 0x93, 0x9e, 0x81, 0xbd, 0xd0,
    0x71, 0x4a, 0xbe, 0x6d, 0x63, 0x9c, 0x3c, 0x9c, 0xeb, 0x76, 0xbd, 0xbb, 0x79, 0x1c, 0xbd, 0x91, 0xc3, 0x52, 0x3e,
    0x0b, 0x16, 0x25, 0x3e, 0x3d, 0xe1, 0x60, 0x3d, 0x64, 0x70, 0x74, 0xbd, 0xad, 0x16, 0x39, 0xbe, 0x1f, 0xd9, 0x2c,
    0x3e, 0xc6, 0xec, 0x1d, 0xbe, 0x88, 0x03, 0x2b, 0x3e, 0xe1, 0x86, 0x93, 0xbd, 0x46, 0xc1, 0x4e, 0xbe, 0xaa, 0x23,
    0xbb, 0x3d, 0xbd, 0x70, 0xb1, 0x3d, 0x52, 0xd2, 0x11, 0xbe, 0xa5, 0x17, 0x81, 0xbd, 0x1c, 0x6a, 0x87, 0xbd, 0x44,
    0x92, 0x4e, 0x3d, 0xb6, 0xe8, 0xd0, 0x3d, 0x77, 0x69, 0x74, 0xbd, 0xb2, 0x7e, 0x8d, 0xbb, 0x49, 0x3d, 0x5f, 0xbe,
    0x57, 0x9d, 0x34, 0xbd, 0xa9, 0xdd, 0xcb, 0xbb, 0xb3, 0xb7, 0x88, 0xbc, 0x3c, 0x4e, 0x70, 0x3e, 0xa9, 0x0a, 0x06,
    0xbc, 0x19, 0x88, 0x47, 0xbd, 0xbb, 0xca, 0xe5, 0xbd, 0xe0, 0x21, 0xd8, 0x3c, 0x66, 0x03, 0x10, 0xbe, 0xa2, 0x37,
    0x07, 0x3e, 0xc6, 0x1a, 0x6a, 0x3e, 0x4f, 0x6c, 0xa4, 0x3d, 0x49, 0x09, 0x7c, 0x3d, 0x34, 0xce, 0x78, 0x3b, 0x82,
    0x97, 0xf0, 0xbb, 0x8c, 0xf4, 0xab, 0xbd, 0x3c, 0x4b, 0xf2, 0x3d, 0x1f, 0xf9, 0x8e, 0xbd, 0x25, 0x14, 0xfa, 0xbd,
    0xdc, 0x0d, 0xcb, 0xbd, 0x8b, 0xdb, 0xa6, 0x39, 0x8f, 0x11, 0x8a, 0x3c, 0x7e, 0x4b, 0x03, 0x3e, 0x9a, 0x7b, 0xa7,
    0x3d, 0xa0, 0xd1, 0x4d, 0x3d, 0x20, 0x4e, 0xc1, 0xbd, 0xfd, 0xa4, 0x23, 0x3e, 0x55, 0xc8, 0x23, 0x3d, 0x71, 0x2c,
    0x24, 0xbd, 0x77, 0xa4, 0xc5, 0xbd, 0xd7, 0x1e, 0xeb, 0x3d, 0x5c, 0x98, 0xf8, 0xbb, 0x66, 0xe5, 0x1e, 0x3d, 0x41,
    0x2b, 0x00, 0xbd, 0xda, 0x86, 0x42, 0xbd, 0x0a, 0xc4, 0x64, 0x3d, 0xce, 0x06, 0x16, 0x3d, 0xe4, 0x2e, 0x99, 0xbb,
    0xea, 0x32, 0xd7, 0xba, 0x2c, 0x5a, 0xd6, 0xbc, 0xd9, 0xbf, 0x7f, 0xbe, 0x5b, 0xe9, 0x18, 0xbe, 0x7f, 0xc0, 0x9d,
    0xbb, 0x73, 0x7f, 0x16, 0xbe, 0x93, 0xde, 0x2b, 0x3e, 0x42, 0x81, 0x11, 0x3e, 0x75, 0x76, 0xaf, 0xbc, 0x11, 0x36,
    0x26, 0xbe, 0x53, 0x37, 0xa4, 0xbd, 0xd2, 0xb6, 0x25, 0xbe, 0x2b, 0xbf, 0xbf, 0xbc, 0x36, 0xea, 0x00, 0xbd, 0xfb,
    0x72, 0x70, 0xbe, 0xd7, 0xb6, 0x78, 0x3e, 0x94, 0xc1, 0x9f, 0xbd, 0x71, 0x52, 0xad, 0xbd, 0xb1, 0x6e, 0xa3, 0xbc,
    0x6e, 0x7a, 0xc3, 0x3d, 0x4f, 0xdc, 0x9e, 0x3d, 0x28, 0x4f, 0x8e, 0xbe, 0xbf, 0x57, 0xda, 0x3d, 0x10, 0xdb, 0x8c,
    0x3d, 0xdb, 0xd9, 0x36, 0x3e, 0x8b, 0x6b, 0x33, 0x3e, 0x79, 0x4c, 0x23, 0x3e, 0xaf, 0x20, 0x62, 0x3e, 0x8d, 0x69,
    0xa1, 0xbd, 0xf6, 0x0c, 0x9a, 0xbd, 0x3d, 0x10, 0x54, 0x3d, 0x53, 0xfb, 0x00, 0x3e, 0x99, 0x06, 0x27, 0x3d, 0xd3,
    0x95, 0xcb, 0x3d, 0x49, 0xf5, 0x86, 0x3e, 0xa1, 0x58, 0x92, 0x3d, 0x8f, 0xfc, 0x15, 0xbe, 0x63, 0x29, 0xb1, 0x3d,
    0x44, 0x3d, 0x06, 0x3e, 0x70, 0x15, 0x37, 0xbe, 0x6b, 0xe1, 0x60, 0xbd, 0xbc, 0x8c, 0x01, 0x3e, 0x7d, 0xf2, 0xbc,
    0x3d, 0x71, 0x6f, 0xa8, 0xbd, 0xf4, 0xc5, 0x05, 0xbe, 0xf0, 0xcd, 0xf3, 0x3d, 0x58, 0x37, 0x39, 0xbe, 0xf7, 0x60,
    0xb7, 0xbb, 0x3e, 0x97, 0xde, 0xbd, 0x98, 0x03, 0x17, 0x3d, 0x96, 0x20, 0x17, 0x3e, 0x62, 0x02, 0x77, 0xbc, 0xff,
    0xcd, 0x05, 0x3e, 0x23, 0x2a, 0xee, 0xbd, 0xbc, 0xfc, 0xe9, 0x3c, 0xb5, 0x85, 0x07, 0xbe, 0xa9, 0x08, 0x59, 0xbd,
    0x81, 0x87, 0x36, 0x3d, 0x00, 0x28, 0xde, 0x3b, 0x6f, 0x9a, 0xe2, 0x3c, 0xdd, 0x35, 0x09, 0xbe, 0x58, 0xbf, 0x82,
    0x3d, 0xf4, 0x09, 0x4f, 0x3e, 0x18, 0x26, 0x35, 0xbe, 0x77, 0x9d, 0x8c, 0x3d, 0xb8, 0xe4, 0xd8, 0xbd, 0x03, 0xfa,
    0x74, 0x3e, 0x6e, 0xb7, 0xe1, 0xbd, 0xcd, 0xf2, 0xe7, 0x3c, 0x8b, 0x96, 0x04, 0xbe, 0xf5, 0x75, 0x9d, 0x3d, 0x0b,
    0x59, 0xcd, 0xbc, 0x32, 0xde, 0x07, 0x3e, 0x1e, 0xa1, 0xf4, 0x3c, 0xe5, 0xb0, 0x21, 0x3e, 0xb1, 0x9e, 0xc6, 0x3d,
    0xd3, 0x52, 0xcf, 0x3c, 0x47, 0x12, 0x8a, 0x3d, 0xb4, 0x72, 0x69, 0x3d, 0x6d, 0xf8, 0x5f, 0xbe, 0x45, 0x0c, 0x99,
    0x3c, 0xc0, 0x05, 0x94, 0xbd, 0xb2, 0x01, 0xba, 0xbc, 0x91, 0x5e, 0xae, 0x3c, 0x5e, 0x48, 0xaa, 0x3d, 0x71, 0xfc,
    0x90, 0x3e, 0x96, 0x97, 0x94, 0x3d, 0x2a, 0x88, 0x10, 0x3e, 0x27, 0xae, 0x86, 0x3e, 0x7d, 0x81, 0x4b, 0xbd, 0x9f,
    0x00, 0xa0, 0xbe, 0xfd, 0xae, 0x94, 0xbe, 0xb4, 0x7c, 0x29, 0x3d, 0x4a, 0x9c, 0xa1, 0xbe, 0x3b, 0x1a, 0x8b, 0xbe,
    0x76, 0x74, 0xc4, 0xbd, 0x5e, 0x60, 0x87, 0xbd, 0xb8, 0x54, 0xbf, 0xbe, 0x09, 0x95, 0x0a, 0xbe, 0x36, 0xc1, 0x28,
    0xbe, 0x7e, 0xa0, 0xcd, 0x3d, 0xa1, 0xb1, 0x81, 0x3e, 0x0b, 0xbe, 0x1f, 0xbe, 0xf4, 0x1a, 0x0c, 0x3e, 0xaa, 0xf7,
    0x9f, 0x3d, 0x44, 0xee, 0xe3, 0xbd, 0xde, 0xa2, 0x91, 0xbd, 0x91, 0x29, 0xd0, 0xbd, 0xc9, 0x4f, 0x36, 0xbe, 0xa1,
    0xaf, 0x05, 0x3e, 0x69, 0xa4, 0xdb, 0x3d, 0xb7, 0x66, 0xbe, 0xbd, 0x66, 0xf7, 0x1b, 0x3e, 0x83, 0x3b, 0xe0, 0xbd,
    0x01, 0x4a, 0x96, 0x3b, 0x73, 0x28, 0xff, 0x3c, 0x42, 0xee, 0x89, 0xbd, 0x15, 0x75, 0x07, 0x3d, 0x19, 0x5f, 0xb0,
    0x3d, 0x3c, 0xd9, 0xfd, 0xbd, 0x12, 0xbc, 0x43, 0x3d, 0xc8, 0xe2, 0x3d, 0xbd, 0x8d, 0xb8, 0xb4, 0x3c, 0x3a, 0xee,
    0x0e, 0x3e, 0x21, 0xe3, 0x15, 0xbe, 0xba, 0x2a, 0xe2, 0x3d, 0x8d, 0x96, 0x49, 0x3e, 0x8c, 0xfc, 0xa6, 0xbd, 0x0b,
    0x4e, 0x63, 0x3c, 0x29, 0x72, 0xce, 0x3b, 0xc1, 0xf8, 0x82, 0xbd, 0x4a, 0xb7, 0xf1, 0x3d, 0x06, 0x98, 0xa8, 0x3c,
    0x30, 0xe0, 0x9f, 0x3d, 0x8e, 0x98, 0xf0, 0xbd, 0xc9, 0xc1, 0x87, 0xbd, 0x6a, 0xa0, 0xaf, 0xbd, 0xbd, 0x24, 0x04,
    0xbe, 0x5e, 0x16, 0x50, 0xbe, 0x40, 0x02, 0xa6, 0x3d, 0x14, 0x30, 0x93, 0xbe, 0xc4, 0xf5, 0xd4, 0xbd, 0xd6, 0xee,
    0x82, 0xbe, 0xdb, 0x18, 0xec, 0xbe, 0x27, 0x12, 0x01, 0x3e, 0xe7, 0x88, 0x16, 0x3e, 0xe0, 0x19, 0x61, 0xbe, 0xb5,
    0xed, 0x56, 0xbe, 0x0a, 0x7a, 0x88, 0x3e, 0x6e, 0x86, 0x8c, 0xbd, 0xb3, 0xbc, 0x73, 0xbe, 0x12, 0xb8, 0x2f, 0x3e,
    0x84, 0x41, 0xa3, 0x3d, 0xdb, 0xf6, 0xc8, 0xbe, 0x1b, 0xb5, 0x73, 0xbc, 0xd9, 0x80, 0xb8, 0x3d, 0xc8, 0x09, 0xcd,
    0xbc, 0x50, 0x49, 0x77, 0xbc, 0x92, 0xcb, 0x1e, 0xbf, 0xe9, 0x40, 0x98, 0xbd, 0x42, 0x6a, 0xa9, 0xbc, 0x2d, 0xf5,
    0xd2, 0xbd, 0xe1, 0x3d, 0xd9, 0xbe, 0x30, 0x0d, 0x8f, 0x3d, 0x8d, 0x29, 0x3a, 0xbe, 0xa8, 0x9b, 0x8b, 0x3e, 0xe7,
    0x85, 0xb6, 0xbe, 0x42, 0xdd, 0x5c, 0x3e, 0x20, 0x7d, 0x75, 0x3e, 0xcc, 0xf2, 0x9d, 0x3d, 0x13, 0x39, 0x82, 0x3e,
    0x00, 0x8a, 0x8f, 0x3d, 0xca, 0x5c, 0x34, 0xbd, 0x0c, 0x2d, 0x01, 0xbd, 0x2a, 0x32, 0x5c, 0xbc, 0x27, 0x56, 0x8d,
    0xbe, 0xdf, 0xb8, 0xbf, 0xbd, 0x82, 0x5e, 0xc2, 0xbe, 0x56, 0x6a, 0x71, 0x3e, 0x03, 0x9d, 0x82, 0xbd, 0x15, 0x4f,
    0x7e, 0xbc, 0xe3, 0x59, 0xac, 0x3e, 0xdd, 0x08, 0x15, 0x3e, 0xd7, 0x03, 0x9b, 0xbd, 0x39, 0x0c, 0xa2, 0x3e, 0x36,
    0x54, 0x01, 0x3e, 0xe8, 0x62, 0x52, 0xbd, 0x8b, 0xe2, 0x80, 0xbe, 0x94, 0x7e, 0x4d, 0x3d, 0x10, 0x21, 0x99, 0xbe,
    0x43, 0x33, 0xb2, 0x3d, 0x3a, 0x0a, 0x42, 0xbe, 0x66, 0xfc, 0x83, 0x3e, 0x32, 0x1d, 0xbb, 0xbe, 0xb7, 0xdd, 0x97,
    0xbe, 0xfd, 0x2d, 0x0a, 0xbe, 0x5c, 0x6b, 0xf0, 0xbd, 0x33, 0x6a, 0x63, 0x3e, 0x84, 0xe5, 0x88, 0x3d, 0xaa, 0x17,
    0x12, 0xbe, 0xab, 0x9e, 0x26, 0x3e, 0x12, 0x1a, 0x55, 0xbd, 0x54, 0x1e, 0xa8, 0x3d, 0xc1, 0x61, 0x02, 0x3d, 0x77,
    0xd4, 0xe1, 0x3c, 0xe9, 0x8a, 0x43, 0xbe, 0x17, 0x61, 0x97, 0x3c, 0xa4, 0x15, 0x3f, 0x3d, 0xb9, 0x86, 0x06, 0xbe,
    0x85, 0x96, 0x0c, 0xbe, 0xe6, 0x38, 0x9c, 0xbd, 0x54, 0x1a, 0x41, 0xbd, 0x2c, 0x67, 0x98, 0x3c, 0xd7, 0x86, 0xd7,
    0xbd, 0x25, 0x09, 0x1a, 0x3e, 0xc5, 0x08, 0x27, 0xbe, 0xf1, 0x89, 0xf0, 0x3d, 0x33, 0x92, 0x42, 0x3e, 0x0e, 0xda,
    0x07, 0x3d, 0xab, 0xcf, 0x52, 0xbd, 0x9c, 0x2e, 0xb8, 0x3d, 0x85, 0x73, 0x73, 0x3d, 0x1e, 0xf9, 0x97, 0x3e, 0x51,
    0xd4, 0x0e, 0xbe, 0xab, 0x8f, 0xc5, 0x3d, 0x51, 0x97, 0x38, 0x3d, 0x34, 0x94, 0xa5, 0x3e, 0x3b, 0x84, 0xd6, 0x3c,
    0xf5, 0x7b, 0x7a, 0xbd, 0xb3, 0x38, 0x82, 0xbd, 0xf1, 0xb5, 0xac, 0xbd, 0xf3, 0x00, 0xbf, 0x3c, 0xd4, 0xd2, 0xb2,
    0x3c, 0x36, 0xbe, 0x08, 0xbe, 0xb1, 0xf8, 0x06, 0xbe, 0x15, 0xf5, 0xc0, 0xbd, 0xb3, 0xb3, 0x04, 0x3d, 0x96, 0xd0,
    0xdb, 0x3b, 0xa8, 0x8a, 0x3f, 0x3e, 0x4c, 0x70, 0xf5, 0xbd, 0x71, 0x86, 0xf9, 0xbc, 0x1b, 0x3a, 0x9d, 0xbd, 0xa0,
    0xe3, 0x41, 0xbd, 0x9a, 0x86, 0x07, 0xbe, 0xd4, 0xfc, 0x77, 0x3c, 0x4c, 0x52, 0x1a, 0xbe, 0xe2, 0xa9, 0xc3, 0x3c,
    0x15, 0xd4, 0x0c, 0x3d, 0xdb, 0x6c, 0xe7, 0x3d, 0x03, 0x03, 0xf3, 0xbd, 0x72, 0xea, 0x18, 0xbd, 0xde, 0xd9, 0x44,
    0xbe, 0x4f, 0xea, 0xee, 0x3d, 0xe5, 0x17, 0x2b, 0x3c, 0x82, 0x1d, 0x20, 0xbe, 0x9c, 0x42, 0x14, 0xbc, 0x08, 0xf1,
    0x7b, 0x3e, 0xee, 0xc5, 0xb3, 0x3d, 0xe1, 0xe9, 0xb0, 0xbd, 0x5a, 0x36, 0x44, 0x3d, 0xc0, 0xb3, 0x4d, 0x3e, 0x0c,
    0xb5, 0x3c, 0xbd, 0xc9, 0x30, 0x10, 0x3b, 0xf9, 0xf4, 0x27, 0x3e, 0x21, 0xd8, 0xc6, 0xbd, 0x2f, 0x5f, 0x4c, 0xbd,
    0xd3, 0xac, 0x11, 0xbe, 0x7d, 0x89, 0xf8, 0x3c, 0x80, 0x17, 0xa1, 0xbd, 0x2c, 0x5e, 0x00, 0x3e, 0xe5, 0xc7, 0x11,
    0xbd, 0x4a, 0x84, 0x0b, 0x3e, 0x37, 0xe5, 0x04, 0x3e, 0x0b, 0xa8, 0x98, 0x3e, 0xfb, 0x55, 0x4a, 0xbe, 0x38, 0x6e,
    0x7d, 0x3d, 0x25, 0x5f, 0x40, 0x3e, 0xbb, 0xb5, 0x58, 0xbd, 0x10, 0xea, 0xc4, 0x3d, 0xe4, 0x22, 0xf5, 0x3d, 0x64,
    0x1f, 0xa7, 0xbc, 0xe5, 0x98, 0x6f, 0xbe, 0x5a, 0x89, 0x2c, 0x3e, 0x63, 0x16, 0x76, 0xbd, 0x3c, 0x64, 0x34, 0xbd,
    0xd4, 0x66, 0xc1, 0x3d, 0x04, 0x8a, 0x34, 0x3d, 0xdd, 0x4e, 0x05, 0xbe, 0xbf, 0x90, 0x98, 0x3d, 0x23, 0xf0, 0x1c,
    0x3e, 0xdb, 0xce, 0x4d, 0xbe, 0xd2, 0x0b, 0x4a, 0xbd, 0xfc, 0x38, 0x86, 0x3c, 0xb0, 0xd8, 0x3f, 0xbe, 0x2e, 0x63,
    0xad, 0xbd, 0x99, 0xc6, 0xba, 0xbd, 0xde, 0x74, 0x43, 0xbb, 0x09, 0x3f, 0x05, 0x3e, 0xf9, 0x3a, 0xd5, 0x3d, 0xdc,
    0x9c, 0xdf, 0xbc, 0x07, 0xcc, 0xf1, 0xbd, 0x17, 0x58, 0x18, 0xbe, 0x51, 0x63, 0x12, 0xbe, 0x5d, 0x7d, 0x1a, 0xbd,
    0x42, 0x37, 0x24, 0xbc, 0x9e, 0x72, 0xc9, 0xbc, 0x6e, 0xb7, 0x0e, 0x3e, 0x5c, 0xfb, 0xdd, 0xbd, 0x43, 0x35, 0x0f,
    0xbe, 0x05, 0x85, 0xc3, 0x3c, 0x77, 0x52, 0xb9, 0x3d, 0x3c, 0x6c, 0x34, 0x3e, 0xcc, 0x35, 0x80, 0x3d, 0x8a, 0x4c,
    0x05, 0xbe, 0x69, 0xd5, 0x53, 0x3e, 0x86, 0x8e, 0xa7, 0x3b, 0xef, 0x59, 0xed, 0x3d, 0x4d, 0xba, 0x8d, 0xbd, 0x9d,
    0xf7, 0x66, 0x3b, 0xb6, 0x90, 0xd1, 0xbc, 0xa4, 0x0c, 0x1e, 0x3e, 0xa0, 0x1e, 0x2f, 0x3e, 0xc7, 0x57, 0x19, 0x3e,
    0xa5, 0xdc, 0xff, 0x3d, 0xd1, 0xd2, 0x4d, 0x3d, 0xdc, 0xd4, 0x20, 0xbd, 0x1a, 0x4e, 0x8f, 0xbd, 0xf6, 0xf8, 0x12,
    0x3e, 0xfb, 0x62, 0xd1, 0xbd, 0xa8, 0xd1, 0xb2, 0xbd, 0xda, 0xbf, 0x48, 0x3e, 0x3d, 0xcb, 0x4c, 0xbe, 0xcb, 0x62,
    0x1b, 0x3e, 0x18, 0xd4, 0xf4, 0xbd, 0x6e, 0x1a, 0x5c, 0x3d, 0x51, 0x42, 0xca, 0xbd, 0x07, 0xb2, 0xb4, 0x3d, 0xfa,
    0x3c, 0x5c, 0xbd, 0x2f, 0xde, 0xbc, 0xbd, 0x92, 0xf7, 0x74, 0xbd, 0xf7, 0x39, 0x5b, 0x3e, 0xd9, 0x56, 0x1f, 0x3e,
    0x52, 0xe3, 0xc0, 0x3d, 0x86, 0x0d, 0xf8, 0xbc, 0x43, 0x5d, 0xa2, 0x3d, 0xf1, 0x27, 0x2d, 0xbe, 0x7e, 0x54, 0xb7,
    0xbb, 0xa3, 0x8a, 0x0b, 0xbe, 0x26, 0x9c, 0x0b, 0x3e, 0x02, 0x0e, 0xfd, 0x3c, 0x7b, 0xce, 0xc5, 0x3d, 0xec, 0xad,
    0xb3, 0x3c, 0x25, 0x1d, 0x90, 0xbc, 0x45, 0x85, 0x0e, 0x3e, 0x08, 0x08, 0x02, 0x3e, 0xa4, 0x4a, 0x14, 0x3d, 0x75,
    0x0d, 0xcb, 0xbd, 0x97, 0x90, 0xcb, 0x3d, 0x6a, 0x0a, 0x1e, 0xbc, 0x69, 0x8b, 0x91, 0xbb, 0xe0, 0x89, 0xa3, 0x3b,
    0x37, 0xe5, 0xde, 0xbc, 0xca, 0x6e, 0x2b, 0xbe, 0x36, 0xa2, 0xcc, 0x3d, 0xf4, 0x2f, 0x24, 0xbe, 0x0c, 0xa1, 0xcf,
    0xbc, 0x1b, 0xb3, 0xb3, 0x3d, 0x78, 0x12, 0x2e, 0xbe, 0x51, 0x21, 0x58, 0x3e, 0x27, 0x36, 0x2e, 0xbe, 0x1f, 0xa1,
    0x44, 0x3e, 0x68, 0x76, 0x49, 0xbd, 0x03, 0xee, 0x6f, 0x3d, 0x29, 0xc9, 0x97, 0x3e, 0xcb, 0x6c, 0x78, 0x3e, 0x7d,
    0x6a, 0xa6, 0x3c, 0xc8, 0x6c, 0xf0, 0x3d, 0x7e, 0x71, 0x85, 0x3e, 0xf0, 0x8d, 0xe5, 0x3c, 0x52, 0x3e, 0x43, 0xbe,
    0x90, 0xae, 0x18, 0xb9, 0xe6, 0x4f, 0x9c, 0xbd, 0xdd, 0xa7, 0x6e, 0x3e, 0x2e, 0x70, 0x56, 0x3b, 0x38, 0x53, 0x8c,
    0x3d, 0x1c, 0x67, 0x67, 0xbe, 0xf1, 0xac, 0x1b, 0x3e, 0xee, 0x36, 0x66, 0xbe, 0x64, 0xe7, 0xeb, 0xbe, 0x86, 0xcb,
    0x8d, 0x3d, 0x4a, 0xcb, 0xb5, 0xbe, 0x21, 0x4b, 0x32, 0xbd, 0x6d, 0x5d, 0x51, 0xbc, 0x11, 0xb8, 0x22, 0xbd, 0xd1,
    0x12, 0xec, 0x3d, 0x56, 0xbc, 0xa7, 0xbc, 0x05, 0x55, 0x56, 0x3d, 0x11, 0x5c, 0xba, 0x3d, 0x01, 0x55, 0x8f, 0xbd,
    0x82, 0x7b, 0x6a, 0xbd, 0x31, 0x2c, 0x07, 0x3e, 0x95, 0x62, 0xc1, 0x3d, 0xbc, 0xee, 0x7a, 0xbd, 0x27, 0x15, 0x18,
    0x3e, 0x9d, 0x1d, 0x47, 0x3d, 0x19, 0x9b, 0xc9, 0xbd, 0xe4, 0x60, 0x6d, 0xbe, 0x77, 0x55, 0x29, 0x3b, 0x46, 0xfa,
    0x4d, 0xbd, 0x24, 0x8d, 0xfc, 0xbc, 0xa4, 0x24, 0xe6, 0xbc, 0xf5, 0x18, 0xe1, 0x3d, 0xa4, 0x6f, 0x1c, 0x3e, 0x07,
    0x01, 0xf8, 0xbc, 0x3b, 0xcb, 0x19, 0xbd, 0x3b, 0x1d, 0x1d, 0x3e, 0x8b, 0xa8, 0x32, 0xbc, 0x11, 0x90, 0xa9, 0xbd,
    0xb3, 0x4d, 0x73, 0xbd, 0x1c, 0xf5, 0x16, 0xbe, 0x60, 0x70, 0x24, 0xbe, 0xa0, 0x21, 0xc2, 0x3d, 0xbc, 0x90, 0xb1,
    0xbd, 0x4f, 0xc3, 0xb4, 0xbd, 0x84, 0x2f, 0xc4, 0xbd, 0xb8, 0x39, 0x2b, 0x3e, 0xad, 0xc3, 0x48, 0xbe, 0x9e, 0xa5,
    0x15, 0x3e, 0x37, 0xd5, 0x1b, 0x3e, 0xcc, 0x00, 0x85, 0xbd, 0x07, 0x48, 0x41, 0xbd, 0x32, 0x36, 0x7b, 0x3d, 0xbb,
    0xc1, 0x0d, 0xbe, 0xce, 0x85, 0x91, 0x3e, 0x01, 0x91, 0xe1, 0xbc, 0xd8, 0x94, 0x03, 0xbe, 0x87, 0x04, 0x46, 0xbe,
    0x5a, 0x10, 0x01, 0xbe, 0xd6, 0xc8, 0x78, 0xbe, 0x36, 0xd7, 0xa6, 0xbd, 0xfc, 0xeb, 0x04, 0x3b, 0x5c, 0xe5, 0x98,
    0xbe, 0xa2, 0xfd, 0x39, 0xbe, 0xe6, 0x48, 0xc0, 0xbc, 0x71, 0x49, 0x6a, 0xbe, 0x7f, 0x91, 0x22, 0x3e, 0x2c, 0x36,
    0xb7, 0x3d, 0x71, 0x97, 0x35, 0x3e, 0x3d, 0xa4, 0xa6, 0xbd, 0x39, 0x4c, 0xba, 0x3d, 0x39, 0xae, 0x6e, 0x3e, 0x3b,
    0x8a, 0xe0, 0xbd, 0x84, 0x97, 0x7e, 0x3e, 0x61, 0x17, 0x15, 0xbe, 0x45, 0xbe, 0x20, 0x3e, 0xf4, 0x07, 0x51, 0xbe,
    0x77, 0x9c, 0x2b, 0xbb, 0xf0, 0x29, 0x23, 0x3c, 0x5d, 0x7a, 0x06, 0x3e, 0xae, 0x0e, 0x10, 0x3e, 0xb3, 0xdc, 0x1e,
    0xbc, 0x55, 0xb2, 0x15, 0x3e, 0x9b, 0x62, 0x3d, 0xbe, 0xa9, 0x08, 0xfb, 0xbd, 0x82, 0x76, 0x27, 0x3e, 0xcc, 0x6f,
    0x95, 0x3d, 0x8f, 0x68, 0xe3, 0x3a, 0xf9, 0x51, 0x22, 0x3e, 0xca, 0xf9, 0x12, 0xbd, 0x24, 0xf3, 0xe5, 0xbd, 0x97,
    0xad, 0x83, 0x3b, 0xdb, 0x44, 0xdb, 0x3d, 0x33, 0x59, 0x00, 0xbe, 0x5d, 0xfc, 0x2e, 0x3d, 0x35, 0x9a, 0x90, 0xbd,
    0xb5, 0xe4, 0x85, 0x3e, 0x7f, 0xeb, 0x1a, 0x3e, 0xf5, 0x6a, 0x88, 0xbe, 0x86, 0xca, 0x3c, 0xbe, 0xb5, 0xbc, 0x6f,
    0x3d, 0xe6, 0xb1, 0x0f, 0x3c, 0x48, 0x15, 0x83, 0xbd, 0x80, 0x4e, 0xe7, 0xbd, 0xdb, 0x87, 0xde, 0xbd, 0x20, 0x89,
    0xe1, 0xbd, 0x07, 0x39, 0x15, 0x39, 0x91, 0x9b, 0xcb, 0x3d, 0x41, 0xba, 0x51, 0x3e, 0xc6, 0xac, 0xdb, 0x3d, 0xd1,
    0x00, 0xb2, 0x3d, 0x6a, 0x32, 0x88, 0x3b, 0xba, 0x53, 0x81, 0x3e, 0xd6, 0x79, 0xbc, 0xbc, 0x10, 0x90, 0x18, 0x3d,
    0xbe, 0xb6, 0x32, 0xbe, 0x85, 0x0f, 0x5f, 0x3e, 0x0d, 0xa8, 0x5a, 0x3e, 0x4e, 0x1d, 0xc9, 0x3d, 0xc9, 0x67, 0x9d,
    0xbe, 0xb7, 0x4f, 0xf9, 0xbd, 0xa8, 0x1e, 0xd1, 0xbe, 0x38, 0xf2, 0xcf, 0xbe, 0x7f, 0xf3, 0x87, 0xbb, 0x39, 0x77,
    0x87, 0x3e, 0xe1, 0xe5, 0x85, 0x3c, 0x7f, 0x36, 0x28, 0xbd, 0x28, 0xab, 0x93, 0xbd, 0x7c, 0xae, 0x3e, 0xbe, 0xa4,
    0xf6, 0xac, 0x3c, 0xdd, 0x4f, 0xa5, 0x3e, 0xea, 0x85, 0xd5, 0xbd, 0x77, 0x00, 0x85, 0x3e, 0xb4, 0xe1, 0xb0, 0x3e,
    0x28, 0x3f, 0x2c, 0x3e, 0xc6, 0x6d, 0xa3, 0x3e, 0x9f, 0x2d, 0xf1, 0x3d, 0xc9, 0x18, 0x70, 0x3e, 0xd8, 0x6e, 0xdc,
    0x3d, 0x92, 0x09, 0x32, 0x3d, 0xd8, 0xcb, 0x1b, 0x3e, 0x7c, 0xcc, 0xc4, 0x3e, 0x9f, 0x5e, 0x82, 0xbd, 0xcb, 0xb0,
    0x89, 0x3d, 0xf5, 0xba, 0x71, 0x3d, 0x4d, 0x57, 0x9b, 0x3c, 0x78, 0x77, 0xd8, 0x3d, 0xad, 0x7e, 0x48, 0x3d, 0xd7,
    0x1a, 0x05, 0xbd, 0x02, 0x21, 0x4c, 0xbd, 0x5c, 0x59, 0xdc, 0xbb, 0x81, 0x49, 0x00, 0x3e, 0x33, 0x95, 0x34, 0xbe,
    0x30, 0x67, 0x24, 0x3b, 0xa6, 0xa0, 0x93, 0x3d, 0x4e, 0xfb, 0xdc, 0xbd, 0xcc, 0xbf, 0xdb, 0x3d, 0x42, 0xbd, 0xe5,
    0xbc, 0x3c, 0x3f, 0x9a, 0xbd, 0x90, 0x66, 0xbc, 0x3c, 0xa0, 0x3b, 0xb5, 0x3c, 0x21, 0x94, 0x79, 0x3d, 0x7e, 0x4f,
    0x21, 0x3e, 0x29, 0x99, 0xae, 0xbd, 0x37, 0x68, 0x0c, 0xbd, 0x9d, 0xe7, 0x1b, 0xbc, 0xde, 0x4b, 0x48, 0xbe, 0x4a,
    0x77, 0x49, 0xbe, 0x4e, 0x57, 0xf1, 0x3b, 0xe0, 0x69, 0xcb, 0x3d, 0x1c, 0xf5, 0x8f, 0xbd, 0xa1, 0x9c, 0x0a, 0x3d,
    0x6f, 0x32, 0x50, 0x3e, 0x7e, 0x7a, 0xcf, 0x3c, 0x45, 0xbb, 0x51, 0xbc, 0xe0, 0x6c, 0xee, 0x3d, 0x67, 0x83, 0xad,
    0xbd, 0x5f, 0x3d, 0x0b, 0x3e, 0xfc, 0xe8, 0xd3, 0xbd, 0xa4, 0xdf, 0x2c, 0x3d, 0x50, 0x90, 0xb0, 0xbe, 0xc4, 0xda,
    0x73, 0x3d, 0xdd, 0x89, 0x21, 0xbc, 0x98, 0xc7, 0xf8, 0xbd, 0x41, 0xbc, 0x09, 0x3e, 0xa2, 0x42, 0xc1, 0x3d, 0xd5,
    0x86, 0x13, 0x3c, 0x16, 0x25, 0xe5, 0xba, 0xc6, 0xcb, 0x1c, 0xbd, 0x35, 0x48, 0x20, 0x3e, 0x41, 0xa1, 0x04, 0xbe,
    0x3c, 0x11, 0x17, 0x3e, 0xe3, 0x82, 0x10, 0x3e, 0xeb, 0xd2, 0x40, 0x3e, 0x31, 0x52, 0xd1, 0xbd, 0xf5, 0x46, 0xd7,
    0xbe, 0x8b, 0x5e, 0x54, 0x3e, 0x4e, 0xb2, 0x2c, 0xbd, 0xcf, 0xdd, 0x0f, 0x3e, 0x83, 0xe6, 0xd8, 0xbe, 0xb6, 0x4c,
    0x8c, 0x3d, 0xe1, 0xa4, 0x03, 0xbe, 0x86, 0x08, 0x84, 0x3d, 0x92, 0xf9, 0x02, 0x3e, 0xb7, 0xde, 0x9a, 0x3e, 0x80,
    0x75, 0x1f, 0xba, 0x65, 0x43, 0xc5, 0xbc, 0x1c, 0x49, 0xad, 0x3d, 0x3e, 0xbe, 0x43, 0xbd, 0x96, 0xfb, 0xac, 0xbd,
    0x0b, 0xca, 0xc6, 0xbd, 0x6c, 0x6d, 0xd6, 0x3d, 0xb9, 0xc8, 0xfd, 0x3c, 0x08, 0xb3, 0x14, 0x3b, 0xce, 0x55, 0x1d,
    0x3e, 0x38, 0x57, 0x07, 0xbe, 0xf5, 0x91, 0xc5, 0xbc, 0xbc, 0x33, 0x3a, 0x3e, 0x7b, 0x0f, 0x89, 0xbd, 0x9d, 0x06,
    0x45, 0x3c, 0x91, 0xd7, 0x53, 0xbd, 0xee, 0xe3, 0x14, 0xbe, 0x88, 0x9c, 0xca, 0x3d, 0x31, 0xec, 0xf6, 0x3d, 0x6b,
    0x52, 0xca, 0x3d, 0xc8, 0x4a, 0x23, 0xbe, 0x22, 0x16, 0xe4, 0x3c, 0x96, 0xe8, 0x85, 0xbd, 0xf0, 0xac, 0xbc, 0x3d,
    0xf8, 0x4f, 0x0c, 0x3e, 0x16, 0xac, 0xed, 0x3d, 0x77, 0xdc, 0xc7, 0x3e, 0xce, 0xc8, 0x7b, 0x3b, 0x5c, 0x31, 0xea,
    0xbc, 0xb9, 0x98, 0x69, 0xbd, 0xd8, 0x83, 0xe8, 0x3d, 0xe7, 0x75, 0xfe, 0xbd, 0xab, 0xac, 0x26, 0xbc, 0xc9, 0x54,
    0x58, 0x3e, 0xe6, 0xfe, 0xff, 0xff, 0x04, 0x00, 0x00, 0x00, 0x80, 0x00, 0x00, 0x00, 0x4f, 0xd0, 0x64, 0xbb, 0xd4,
    0x85, 0xc0, 0x3e, 0xc9, 0x37, 0x6a, 0xbe, 0x46, 0xbf, 0x3b, 0xbe, 0x63, 0xe2, 0xee, 0x3e, 0x31, 0x76, 0xb0, 0x3a,
    0x16, 0x6c, 0xc1, 0xbd, 0x15, 0xa5, 0xa9, 0x3d, 0x70, 0xdc, 0x5d, 0xbe, 0x29, 0x22, 0x91, 0x3b, 0xa1, 0xfd, 0x9a,
    0xb9, 0xe4, 0x02, 0x84, 0xbb, 0xa7, 0x6b, 0xec, 0xb9, 0xd5, 0x7e, 0x82, 0x3a, 0xce, 0xd3, 0x24, 0xba, 0x78, 0x7b,
    0xdc, 0xbd, 0x26, 0x1c, 0xaf, 0x3a, 0x6c, 0x86, 0x43, 0x3e, 0xf4, 0x84, 0x57, 0xbe, 0x89, 0x3f, 0xe8, 0x3a, 0xff,
    0x19, 0x0e, 0xba, 0xce, 0x34, 0xf4, 0xbb, 0x18, 0xc5, 0xf4, 0x3a, 0x7a, 0xfd, 0xa3, 0x3a, 0xbd, 0x75, 0xfa, 0x3c,
    0x0f, 0xac, 0xef, 0x39, 0x95, 0xe5, 0xec, 0x3b, 0x00, 0xb7, 0x87, 0xba, 0x19, 0x45, 0x5f, 0x3e, 0xd0, 0xb9, 0xa4,
    0xba, 0x6b, 0x00, 0x51, 0x3a, 0xae, 0x08, 0x3b, 0xb9, 0x72, 0xff, 0xff, 0xff, 0x04, 0x00, 0x00, 0x00, 0x80, 0x00,
    0x00, 0x00, 0x0b, 0xbd, 0x42, 0xbe, 0x9a, 0xf2, 0x37, 0x3d, 0x2c, 0xb6, 0x9e, 0xbe, 0x60, 0xde, 0xa5, 0xbe, 0xb5,
    0xc5, 0x96, 0xbe, 0x0d, 0xbb, 0x15, 0xbd, 0x18, 0x73, 0xd4, 0x3d, 0x35, 0xdd, 0x62, 0x3d, 0xec, 0xee, 0x39, 0xbe,
    0x38, 0x5a, 0xef, 0xbc, 0xb7, 0x6f, 0xad, 0xbd, 0xa4, 0x94, 0xee, 0x3d, 0x2c, 0xb3, 0x63, 0xbd, 0xea, 0x78, 0xdb,
    0xbc, 0x3f, 0x3a, 0x4b, 0xbd, 0x1a, 0x10, 0x04, 0x3e, 0xf7, 0xe7, 0xec, 0xbd, 0x96, 0x3a, 0x88, 0x3d, 0xae, 0xbb,
    0xe0, 0x3c, 0xa9, 0x74, 0xa0, 0x3c, 0x3e, 0x86, 0x01, 0x3e, 0xfa, 0x88, 0x1e, 0xbe, 0xcc, 0x0c, 0x17, 0x3e, 0xc9,
    0xec, 0x83, 0xbd, 0xe0, 0x4f, 0xf0, 0xbd, 0x00, 0x12, 0xd3, 0xbd, 0xc1, 0xa7, 0x23, 0x3a, 0x4e, 0x77, 0x83, 0x3d,
    0xfa, 0x64, 0xaa, 0xbe, 0x76, 0x50, 0xa9, 0x3d, 0x1b, 0x41, 0x97, 0xbd, 0xff, 0xeb, 0xce, 0x3d, 0x00, 0x00, 0x06,
    0x00, 0x08, 0x00, 0x04, 0x00, 0x06, 0x00, 0x00, 0x00, 0x04, 0x00, 0x00, 0x00, 0x04, 0x00, 0x00, 0x00, 0x3b, 0x14,
    0x8d, 0xbd, 0xe0, 0xfa, 0xff, 0xff, 0xe4, 0xfa, 0xff, 0xff, 0x0f, 0x00, 0x00, 0x00, 0x4d, 0x4c, 0x49, 0x52, 0x20,
    0x43, 0x6f, 0x6e, 0x76, 0x65, 0x72, 0x74, 0x65, 0x64, 0x2e, 0x00, 0x01, 0x00, 0x00, 0x00, 0x14, 0x00, 0x00, 0x00,
    0x00, 0x00, 0x0e, 0x00, 0x18, 0x00, 0x14, 0x00, 0x10, 0x00, 0x0c, 0x00, 0x08, 0x00, 0x04, 0x00, 0x0e, 0x00, 0x00,
    0x00, 0x14, 0x00, 0x00, 0x00, 0x1c, 0x00, 0x00, 0x00, 0x1c, 0x01, 0x00, 0x00, 0x20, 0x01, 0x00, 0x00, 0x24, 0x01,
    0x00, 0x00, 0x04, 0x00, 0x00, 0x00, 0x6d, 0x61, 0x69, 0x6e, 0x00, 0x00, 0x00, 0x00, 0x05, 0x00, 0x00, 0x00, 0xd0,
    0x00, 0x00, 0x00, 0x9c, 0x00, 0x00, 0x00, 0x5c, 0x00, 0x00, 0x00, 0x38, 0x00, 0x00, 0x00, 0x04, 0x00, 0x00, 0x00,
    0x52, 0xff, 0xff, 0xff, 0x10, 0x00, 0x00, 0x00, 0x00, 0x00, 0x00, 0x08, 0x0c, 0x00, 0x00, 0x00, 0x10, 0x00, 0x00,
    0x00, 0x64, 0xfb, 0xff, 0xff, 0x01, 0x00, 0x00, 0x00, 0x0b, 0x00, 0x00, 0x00, 0x03, 0x00, 0x00, 0x00, 0x0a, 0x00,
    0x00, 0x00, 0x03, 0x00, 0x00, 0x00, 0x01, 0x00, 0x00, 0x00, 0xae, 0xff, 0xff, 0xff, 0x0c, 0x00, 0x00, 0x00, 0x10,
    0x00, 0x00, 0x00, 0x01, 0x00, 0x00, 0x00, 0x01, 0x00, 0x00, 0x00, 0x0a, 0x00, 0x00, 0x00, 0x01, 0x00, 0x00, 0x00,
    0x09, 0x00, 0x00, 0x00, 0xa2, 0xff, 0xff, 0xff, 0x10, 0x00, 0x00, 0x00, 0x00, 0x00, 0x00, 0x08, 0x0c, 0x00, 0x00,
    0x00, 0x10, 0x00, 0x00, 0x00, 0xb4, 0xfb, 0xff, 0xff, 0x01, 0x00, 0x00, 0x00, 0x09, 0x00, 0x00, 0x00, 0x03, 0x00,
    0x00, 0x00, 0x08, 0x00, 0x00, 0x00, 0x04, 0x00, 0x00, 0x00, 0x02, 0x00, 0x00, 0x00, 0x00, 0x00, 0x0a, 0x00, 0x10,
    0x00, 0x0c, 0x00, 0x08, 0x00, 0x04, 0x00, 0x0a, 0x00, 0x00, 0x00, 0x0c, 0x00, 0x00, 0x00, 0x10, 0x00, 0x00, 0x00,
    0x01, 0x00, 0x00, 0x00, 0x01, 0x00, 0x00, 0x00, 0x08, 0x00, 0x00, 0x00, 0x01, 0x00, 0x00, 0x00, 0x07, 0x00, 0x00,
    0x00, 0x00, 0x00, 0x0e, 0x00, 0x14, 0x00, 0x00, 0x00, 0x10, 0x00, 0x0c, 0x00, 0x0b, 0x00, 0x04, 0x00, 0x0e, 0x00,
    0x00, 0x00, 0x10, 0x00, 0x00, 0x00, 0x00, 0x00, 0x00, 0x08, 0x0c, 0x00, 0x00, 0x00, 0x10, 0x00, 0x00, 0x00, 0x20,
    0xfc, 0xff, 0xff, 0x01, 0x00, 0x00, 0x00, 0x07, 0x00, 0x00, 0x00, 0x03, 0x00, 0x00, 0x00, 0x00, 0x00, 0x00, 0x00,
    0x05, 0x00, 0x00, 0x00, 0x06, 0x00, 0x00, 0x00, 0x01, 0x00, 0x00, 0x00, 0x0b, 0x00, 0x00, 0x00, 0x01, 0x00, 0x00,
    0x00, 0x00, 0x00, 0x00, 0x00, 0x0c, 0x00, 0x00, 0x00, 0x98, 0x03, 0x00, 0x00, 0x40, 0x03, 0x00, 0x00, 0xf0, 0x02,
    0x00, 0x00, 0xa0, 0x02, 0x00, 0x00, 0x50, 0x02, 0x00, 0x00, 0x00, 0x02, 0x00, 0x00, 0xb0, 0x01, 0x00, 0x00, 0x40,
    0x01, 0x00, 0x00, 0xfc, 0x00, 0x00, 0x00, 0x88, 0x00, 0x00, 0x00, 0x40, 0x00, 0x00, 0x00, 0x04, 0x00, 0x00, 0x00,
    0xae, 0xfc, 0xff, 0xff, 0x00, 0x00, 0x00, 0x01, 0x10, 0x00, 0x00, 0x00, 0x10, 0x00, 0x00, 0x00, 0x0c, 0x00, 0x00,
    0x00, 0x18, 0x00, 0x00, 0x00, 0x98, 0xfc, 0xff, 0xff, 0x08, 0x00, 0x00, 0x00, 0x49, 0x64, 0x65, 0x6e, 0x74, 0x69,
    0x74, 0x79, 0x00, 0x00, 0x00, 0x00, 0x02, 0x00, 0x00, 0x00, 0x01, 0x00, 0x00, 0x00, 0x01, 0x00, 0x00, 0x00, 0xe6,
    0xfc, 0xff, 0xff, 0x00, 0x00, 0x00, 0x01, 0x10, 0x00, 0x00, 0x00, 0x10, 0x00, 0x00, 0x00, 0x0b, 0x00, 0x00, 0x00,
    0x24, 0x00, 0x00, 0x00, 0xd0, 0xfc, 0xff, 0xff, 0x15, 0x00, 0x00, 0x00, 0x6d, 0x6f, 0x64, 0x65, 0x6c, 0x2f, 0x74,
    0x66, 0x2e, 0x6e, 0x6e, 0x2e, 0x65, 0x6c, 0x75, 0x5f, 0x31, 0x2f, 0x45, 0x6c, 0x75, 0x00, 0x00, 0x00, 0x02, 0x00,
    0x00, 0x00, 0x01, 0x00, 0x00, 0x00, 0x20, 0x00, 0x00, 0x00, 0x2a, 0xfd, 0xff, 0xff, 0x00, 0x00, 0x00, 0x01, 0x10,
    0x00, 0x00, 0x00, 0x10, 0x00, 0x00, 0x00, 0x0a, 0x00, 0x00, 0x00, 0x50, 0x00, 0x00, 0x00, 0x14, 0xfd, 0xff, 0xff,
    0x42, 0x00, 0x00, 0x00, 0x6d, 0x6f, 0x64, 0x65, 0x6c, 0x2f, 0x74, 0x66, 0x2e, 0x6c, 0x69, 0x6e, 0x61, 0x6c, 0x67,
    0x2e, 0x6d, 0x61, 0x74, 0x6d, 0x75, 0x6c, 0x5f, 0x31, 0x2f, 0x4d, 0x61, 0x74, 0x4d, 0x75, 0x6c, 0x3b, 0x6d, 0x6f,
    0x64, 0x65, 0x6c, 0x2f, 0x74, 0x66, 0x2e, 0x5f, 0x5f, 0x6f, 0x70, 0x65, 0x72, 0x61, 0x74, 0x6f, 0x72, 0x73, 0x5f,
    0x5f, 0x2e, 0x61, 0x64, 0x64, 0x5f, 0x31, 0x2f, 0x41, 0x64, 0x64, 0x56, 0x32, 0x00, 0x00, 0x02, 0x00, 0x00, 0x00,
    0x01, 0x00, 0x00, 0x00, 0x20, 0x00, 0x00, 0x00, 0x9a, 0xfd, 0xff, 0xff, 0x00, 0x00, 0x00, 0x01, 0x10, 0x00, 0x00,
    0x00, 0x10, 0x00, 0x00, 0x00, 0x09, 0x00, 0x00, 0x00, 0x20, 0x00, 0x00, 0x00, 0x84, 0xfd, 0xff, 0xff, 0x13, 0x00,
    0x00, 0x00, 0x6d, 0x6f, 0x64, 0x65, 0x6c, 0x2f, 0x74, 0x66, 0x2e, 0x6e, 0x6e, 0x2e, 0x65, 0x6c, 0x75, 0x2f, 0x45,
    0x6c, 0x75, 0x00, 0x02, 0x00, 0x00, 0x00, 0x01, 0x00, 0x00, 0x00, 0x20, 0x00, 0x00, 0x00, 0xda, 0xfd, 0xff, 0xff,
    0x00, 0x00, 0x00, 0x01, 0x10, 0x00, 0x00, 0x00, 0x10, 0x00, 0x00, 0x00, 0x08, 0x00, 0x00, 0x00, 0x4c, 0x00, 0x00,
    0x00, 0xc4, 0xfd, 0xff, 0xff, 0x3e, 0x00, 0x00, 0x00, 0x6d, 0x6f, 0x64, 0x65, 0x6c, 0x2f, 0x74, 0x66, 0x2e, 0x6c,
    0x69, 0x6e, 0x61, 0x6c, 0x67, 0x2e, 0x6d, 0x61, 0x74, 0x6d, 0x75, 0x6c, 0x2f, 0x4d, 0x61, 0x74, 0x4d, 0x75, 0x6c,
    0x3b, 0x6d, 0x6f, 0x64, 0x65, 0x6c, 0x2f, 0x74, 0x66, 0x2e, 0x5f, 0x5f, 0x6f, 0x70, 0x65, 0x72, 0x61, 0x74, 0x6f,
    0x72, 0x73, 0x5f, 0x5f, 0x2e, 0x61, 0x64, 0x64, 0x2f, 0x41, 0x64, 0x64, 0x56, 0x32, 0x00, 0x00, 0x02, 0x00, 0x00,
    0x00, 0x01, 0x00, 0x00, 0x00, 0x20, 0x00, 0x00, 0x00, 0x46, 0xfe, 0xff, 0xff, 0x00, 0x00, 0x00, 0x01, 0x10, 0x00,
    0x00, 0x00, 0x10, 0x00, 0x00, 0x00, 0x07, 0x00, 0x00, 0x00, 0x30, 0x00, 0x00, 0x00, 0x30, 0xfe, 0xff, 0xff, 0x20,
    0x00, 0x00, 0x00, 0x6d, 0x6f, 0x64, 0x65, 0x6c, 0x2f, 0x74, 0x66, 0x2e, 0x5f, 0x5f, 0x6f, 0x70, 0x65, 0x72, 0x61,
    0x74, 0x6f, 0x72, 0x73, 0x5f, 0x5f, 0x2e, 0x61, 0x64, 0x64, 0x2f, 0x41, 0x64, 0x64, 0x56, 0x32, 0x00, 0x00, 0x00,
    0x00, 0x01, 0x00, 0x00, 0x00, 0x20, 0x00, 0x00, 0x00, 0x92, 0xfe, 0xff, 0xff, 0x00, 0x00, 0x00, 0x01, 0x10, 0x00,
    0x00, 0x00, 0x10, 0x00, 0x00, 0x00, 0x06, 0x00, 0x00, 0x00, 0x2c, 0x00, 0x00, 0x00, 0x7c, 0xfe, 0xff, 0xff, 0x1d,
    0x00, 0x00, 0x00, 0x6d, 0x6f, 0x64, 0x65, 0x6c, 0x2f, 0x74, 0x66, 0x2e, 0x6c, 0x69, 0x6e, 0x61, 0x6c, 0x67, 0x2e,
    0x6d, 0x61, 0x74, 0x6d, 0x75, 0x6c, 0x2f, 0x4d, 0x61, 0x74, 0x4d, 0x75, 0x6c, 0x00, 0x00, 0x00, 0x02, 0x00, 0x00,
    0x00, 0x20, 0x00, 0x00, 0x00, 0x05, 0x00, 0x00, 0x00, 0xde, 0xfe, 0xff, 0xff, 0x00, 0x00, 0x00, 0x01, 0x10, 0x00,
    0x00, 0x00, 0x10, 0x00, 0x00, 0x00, 0x05, 0x00, 0x00, 0x00, 0x2c, 0x00, 0x00, 0x00, 0xc8, 0xfe, 0xff, 0xff, 0x1f,
    0x00, 0x00, 0x00, 0x6d, 0x6f, 0x64, 0x65, 0x6c, 0x2f, 0x74, 0x66, 0x2e, 0x6c, 0x69, 0x6e, 0x61, 0x6c, 0x67, 0x2e,
    0x6d, 0x61, 0x74, 0x6d, 0x75, 0x6c, 0x5f, 0x31, 0x2f, 0x4d, 0x61, 0x74, 0x4d, 0x75, 0x6c, 0x00, 0x02, 0x00, 0x00,
    0x00, 0x20, 0x00, 0x00, 0x00, 0x20, 0x00, 0x00, 0x00, 0x2a, 0xff, 0xff, 0xff, 0x00, 0x00, 0x00, 0x01, 0x10, 0x00,
    0x00, 0x00, 0x10, 0x00, 0x00, 0x00, 0x04, 0x00, 0x00, 0x00, 0x2c, 0x00, 0x00, 0x00, 0x14, 0xff, 0xff, 0xff, 0x1f,
    0x00, 0x00, 0x00, 0x6d, 0x6f, 0x64, 0x65, 0x6c, 0x2f, 0x74, 0x66, 0x2e, 0x6c, 0x69, 0x6e, 0x61, 0x6c, 0x67, 0x2e,
    0x6d, 0x61, 0x74, 0x6d, 0x75, 0x6c, 0x5f, 0x32, 0x2f, 0x4d, 0x61, 0x74, 0x4d, 0x75, 0x6c, 0x00, 0x02, 0x00, 0x00,
    0x00, 0x01, 0x00, 0x00, 0x00, 0x20, 0x00, 0x00, 0x00, 0x76, 0xff, 0xff, 0xff, 0x00, 0x00, 0x00, 0x01, 0x10, 0x00,
    0x00, 0x00, 0x10, 0x00, 0x00, 0x00, 0x03, 0x00, 0x00, 0x00, 0x30, 0x00, 0x00, 0x00, 0x60, 0xff, 0xff, 0xff, 0x22,
    0x00, 0x00, 0x00, 0x6d, 0x6f, 0x64, 0x65, 0x6c, 0x2f, 0x74, 0x66, 0x2e, 0x5f, 0x5f, 0x6f, 0x70, 0x65, 0x72, 0x61,
    0x74, 0x6f, 0x72, 0x73, 0x5f, 0x5f, 0x2e, 0x61, 0x64, 0x64, 0x5f, 0x31, 0x2f, 0x41, 0x64, 0x64, 0x56, 0x32, 0x00,
    0x00, 0x01, 0x00, 0x00, 0x00, 0x20, 0x00, 0x00, 0x00, 0xc2, 0xff, 0xff, 0xff, 0x00, 0x00, 0x00, 0x01, 0x10, 0x00,
    0x00, 0x00, 0x10, 0x00, 0x00, 0x00, 0x02, 0x00, 0x00, 0x00, 0x20, 0x00, 0x00, 0x00, 0xac, 0xff, 0xff, 0xff, 0x12,
    0x00, 0x00, 0x00, 0x6d, 0x6f, 0x64, 0x65, 0x6c, 0x2f, 0x61, 0x63, 0x74, 0x69, 0x6f, 0x6e, 0x2f, 0x41, 0x64, 0x64,
    0x56, 0x32, 0x00, 0x00, 0x01, 0x00, 0x00, 0x00, 0x01, 0x00, 0x00, 0x00, 0x00, 0x00, 0x16, 0x00, 0x18, 0x00, 0x14,
    0x00, 0x00, 0x00, 0x10, 0x00, 0x0c, 0x00, 0x08, 0x00, 0x00, 0x00, 0x00, 0x00, 0x00, 0x00, 0x07, 0x00, 0x16, 0x00,
    0x00, 0x00, 0x00, 0x00, 0x00, 0x01, 0x14, 0x00, 0x00, 0x00, 0x14, 0x00, 0x00, 0x00, 0x01, 0x00, 0x00, 0x00, 0x14,
    0x00, 0x00, 0x00, 0x04, 0x00, 0x04, 0x00, 0x04, 0x00, 0x00, 0x00, 0x03, 0x00, 0x00, 0x00, 0x6f, 0x62, 0x73, 0x00,
    0x02, 0x00, 0x00, 0x00, 0x01, 0x00, 0x00, 0x00, 0x05, 0x00, 0x00, 0x00, 0x02, 0x00, 0x00, 0x00, 0x20, 0x00, 0x00,
    0x00, 0x04, 0x00, 0x00, 0x00, 0xf4, 0xff, 0xff, 0xff, 0x6f, 0x00, 0x00, 0x00, 0x00, 0x00, 0x00, 0x6f, 0x0c, 0x00,
    0x0c, 0x00, 0x0b, 0x00, 0x00, 0x00, 0x00, 0x00, 0x04, 0x00, 0x0c, 0x00, 0x00, 0x00, 0x09, 0x00, 0x00, 0x00, 0x00,
    0x00, 0x00, 0x09};
unsigned int policy_model_len = 6976;
