#ifndef POLICY_MODEL_H
#define POLICY_MODEL_H

// Input normalisation (running mean / variance from SKRL preprocessor)
// float input_mean[] = {0.08212089f, -0.03797425f, 0.00147207f, 0.97304285f, 0.10624244f};
// float input_var[] = {0.01290458f, 0.43443382f, 0.02802022f, 0.02517024f, 6.69690084f};
// const int input_size = 5;

unsigned char policy_model[] = {
    0x1c, 0x00, 0x00, 0x00, 0x54, 0x46, 0x4c, 0x33, 0x14, 0x00, 0x20, 0x00, 0x1c, 0x00, 0x18, 0x00, 0x14, 0x00, 0x10,
    0x00, 0x0c, 0x00, 0x00, 0x00, 0x08, 0x00, 0x04, 0x00, 0x14, 0x00, 0x00, 0x00, 0x1c, 0x00, 0x00, 0x00, 0x1c, 0x00,
    0x00, 0x00, 0x74, 0x00, 0x00, 0x00, 0xb8, 0x15, 0x00, 0x00, 0xc8, 0x15, 0x00, 0x00, 0x8c, 0x1b, 0x00, 0x00, 0x03,
    0x00, 0x00, 0x00, 0x00, 0x00, 0x00, 0x00, 0x02, 0x00, 0x00, 0x00, 0x34, 0x00, 0x00, 0x00, 0x04, 0x00, 0x00, 0x00,
    0xdc, 0xff, 0xff, 0xff, 0x0f, 0x00, 0x00, 0x00, 0x04, 0x00, 0x00, 0x00, 0x13, 0x00, 0x00, 0x00, 0x43, 0x4f, 0x4e,
    0x56, 0x45, 0x52, 0x53, 0x49, 0x4f, 0x4e, 0x5f, 0x4d, 0x45, 0x54, 0x41, 0x44, 0x41, 0x54, 0x41, 0x00, 0x08, 0x00,
    0x0c, 0x00, 0x08, 0x00, 0x04, 0x00, 0x08, 0x00, 0x00, 0x00, 0x0e, 0x00, 0x00, 0x00, 0x04, 0x00, 0x00, 0x00, 0x13,
    0x00, 0x00, 0x00, 0x6d, 0x69, 0x6e, 0x5f, 0x72, 0x75, 0x6e, 0x74, 0x69, 0x6d, 0x65, 0x5f, 0x76, 0x65, 0x72, 0x73,
    0x69, 0x6f, 0x6e, 0x00, 0x10, 0x00, 0x00, 0x00, 0x40, 0x15, 0x00, 0x00, 0x38, 0x15, 0x00, 0x00, 0x24, 0x15, 0x00,
    0x00, 0x8c, 0x14, 0x00, 0x00, 0xfc, 0x13, 0x00, 0x00, 0xec, 0x03, 0x00, 0x00, 0x5c, 0x01, 0x00, 0x00, 0xcc, 0x00,
    0x00, 0x00, 0xc4, 0x00, 0x00, 0x00, 0xbc, 0x00, 0x00, 0x00, 0xb4, 0x00, 0x00, 0x00, 0xac, 0x00, 0x00, 0x00, 0xa4,
    0x00, 0x00, 0x00, 0x9c, 0x00, 0x00, 0x00, 0x7c, 0x00, 0x00, 0x00, 0x04, 0x00, 0x00, 0x00, 0x1a, 0xeb, 0xff, 0xff,
    0x04, 0x00, 0x00, 0x00, 0x68, 0x00, 0x00, 0x00, 0x10, 0x00, 0x00, 0x00, 0x00, 0x00, 0x00, 0x00, 0x08, 0x00, 0x0e,
    0x00, 0x08, 0x00, 0x04, 0x00, 0x08, 0x00, 0x00, 0x00, 0x14, 0x00, 0x00, 0x00, 0x2c, 0x00, 0x00, 0x00, 0x00, 0x00,
    0x0a, 0x00, 0x0c, 0x00, 0x08, 0x00, 0x00, 0x00, 0x07, 0x00, 0x0a, 0x00, 0x00, 0x00, 0x00, 0x00, 0x00, 0x01, 0x04,
    0x00, 0x00, 0x00, 0x00, 0x00, 0x00, 0x00, 0x0c, 0x00, 0x18, 0x00, 0x14, 0x00, 0x10, 0x00, 0x0c, 0x00, 0x04, 0x00,
    0x0c, 0x00, 0x00, 0x00, 0xf9, 0x6e, 0xbe, 0x08, 0xe0, 0x73, 0xb6, 0x92, 0x03, 0x00, 0x00, 0x00, 0x02, 0x00, 0x00,
    0x00, 0x04, 0x00, 0x00, 0x00, 0x06, 0x00, 0x00, 0x00, 0x32, 0x2e, 0x32, 0x31, 0x2e, 0x30, 0x00, 0x00, 0x8e, 0xeb,
    0xff, 0xff, 0x04, 0x00, 0x00, 0x00, 0x10, 0x00, 0x00, 0x00, 0x31, 0x2e, 0x31, 0x34, 0x2e, 0x30, 0x00, 0x00, 0x00,
    0x00, 0x00, 0x00, 0x00, 0x00, 0x00, 0x00, 0xcc, 0xe5, 0xff, 0xff, 0xd0, 0xe5, 0xff, 0xff, 0xd4, 0xe5, 0xff, 0xff,
    0xd8, 0xe5, 0xff, 0xff, 0xdc, 0xe5, 0xff, 0xff, 0xe0, 0xe5, 0xff, 0xff, 0xc2, 0xeb, 0xff, 0xff, 0x04, 0x00, 0x00,
    0x00, 0x80, 0x00, 0x00, 0x00, 0x60, 0x22, 0xee, 0x3d, 0x28, 0x0e, 0x18, 0xbf, 0xa5, 0x2f, 0xac, 0x3e, 0x48, 0xfd,
    0x66, 0x3d, 0x49, 0x5a, 0xaa, 0x3d, 0x5b, 0xbb, 0xe6, 0x3d, 0x81, 0x22, 0xd4, 0xbe, 0xe5, 0xfc, 0x67, 0xbe, 0x53,
    0x32, 0x58, 0xbd, 0x8b, 0x8b, 0xa2, 0x3e, 0x09, 0x54, 0xe6, 0x3e, 0xeb, 0x8e, 0x58, 0xbd, 0xde, 0xf8, 0x82, 0x3d,
    0xc6, 0x7c, 0x35, 0xbf, 0xf2, 0x9f, 0x89, 0xbe, 0xc3, 0xa2, 0xfa, 0xbe, 0x8f, 0xfa, 0xce, 0x3e, 0x60, 0x13, 0xf3,
    0x3e, 0x80, 0x98, 0x97, 0x3e, 0x0d, 0x9e, 0xfb, 0xbe, 0x56, 0xc9, 0x90, 0x3e, 0xe2, 0x36, 0x26, 0xbf, 0xec, 0x93,
    0x95, 0xbe, 0xf5, 0x20, 0x02, 0x3b, 0x69, 0x3c, 0xc3, 0xbe, 0xac, 0x04, 0xa5, 0xbe, 0x5d, 0x21, 0xb7, 0xbe, 0x52,
    0xe4, 0x4e, 0xbf, 0xba, 0xdd, 0xc4, 0x3d, 0x2d, 0x56, 0x31, 0xbf, 0x7e, 0xac, 0x1b, 0xbf, 0x6b, 0x5b, 0x9a, 0x3e,
    0x4e, 0xec, 0xff, 0xff, 0x04, 0x00, 0x00, 0x00, 0x80, 0x02, 0x00, 0x00, 0x3a, 0x12, 0xb0, 0xbe, 0x11, 0x9a, 0xb2,
    0x3d, 0xb6, 0x3e, 0x04, 0xbf, 0xfc, 0xc5, 0x09, 0x3e, 0xf5, 0xeb, 0xff, 0xbe, 0xc8, 0x28, 0x94, 0x3e, 0x6c, 0x60,
    0x02, 0x3e, 0x48, 0x66, 0xc4, 0x3e, 0x6b, 0x05, 0x5b, 0xbe, 0x34, 0xe5, 0x9e, 0xbe, 0xff, 0x05, 0xb6, 0x3d, 0xd1,
    0x42, 0xa1, 0x3e, 0xa2, 0xd6, 0x53, 0x3e, 0xfc, 0x91, 0x80, 0xbe, 0x50, 0xae, 0x4a, 0x3e, 0xf0, 0x19, 0xaf, 0xbe,
    0x54, 0x23, 0xc9, 0x3e, 0xf6, 0x61, 0x4d, 0xbe, 0xf8, 0xf8, 0x89, 0xbe, 0x6d, 0x26, 0x5a, 0xbc, 0xa2, 0x92, 0xd7,
    0xbe, 0x01, 0x7c, 0x15, 0x3e, 0xad, 0x56, 0x37, 0x3e, 0x63, 0xbf, 0x81, 0xbd, 0xa8, 0xc9, 0xfa, 0xbc, 0xd3, 0xa6,
    0x70, 0x3e, 0x14, 0x49, 0xdd, 0x3e, 0x6a, 0x71, 0x0b, 0xbe, 0xe5, 0xb7, 0x6a, 0x3e, 0x51, 0x18, 0x65, 0x3e, 0xab,
    0x79, 0xb7, 0x3e, 0x61, 0xde, 0xe6, 0xbe, 0x87, 0xb3, 0x93, 0x3e, 0x30, 0x71, 0x32, 0x3e, 0x07, 0xbc, 0xd4, 0x3e,
    0x75, 0x79, 0xaf, 0xbd, 0xe0, 0xdf, 0x31, 0x3f, 0xb4, 0xee, 0x1c, 0xbb, 0xee, 0xb2, 0x0a, 0x3e, 0x2f, 0x77, 0x12,
    0x3f, 0x0b, 0xa2, 0x0c, 0xbf, 0x19, 0x06, 0xbe, 0xbe, 0x90, 0xe9, 0xa8, 0xbd, 0xdd, 0x24, 0x4c, 0xbe, 0x65, 0x18,
    0xb4, 0xbe, 0xe6, 0xdf, 0xd7, 0xbd, 0x47, 0xae, 0x9b, 0xbe, 0x5c, 0xe2, 0x3e, 0xbe, 0x11, 0xd4, 0xaa, 0xbe, 0xb9,
    0xcb, 0x36, 0xbe, 0xd9, 0x54, 0x19, 0x3e, 0xe2, 0x72, 0x22, 0xbe, 0xb2, 0x48, 0xe0, 0xbd, 0x34, 0xfb, 0x30, 0x3f,
    0xb1, 0x14, 0x3c, 0x3e, 0x57, 0x55, 0x19, 0x3d, 0x21, 0x19, 0x1b, 0xbf, 0x01, 0xe5, 0x2b, 0xbe, 0xba, 0xd8, 0x2f,
    0x3f, 0x48, 0xc1, 0xb0, 0xbd, 0x2a, 0xd8, 0x44, 0xbe, 0xbc, 0xb9, 0xac, 0xbe, 0x47, 0x9d, 0x4e, 0xbe, 0xe6, 0x61,
    0x54, 0x3e, 0x98, 0x6e, 0x02, 0xbf, 0x43, 0x2b, 0x69, 0xbe, 0x93, 0x5b, 0x73, 0x3e, 0x39, 0x16, 0xea, 0x3c, 0xb5,
    0x8f, 0x3b, 0xbf, 0x7b, 0x89, 0x6a, 0x3f, 0x31, 0x73, 0x12, 0x3f, 0xce, 0x6e, 0x21, 0xbe, 0x67, 0xe1, 0x58, 0x3e,
    0x7a, 0xd6, 0x42, 0x3e, 0x4d, 0x44, 0xa1, 0xbe, 0x9a, 0x0d, 0x23, 0xbf, 0xca, 0x1b, 0x41, 0xbf, 0xc7, 0x37, 0x1e,
    0xbe, 0xd9, 0xd3, 0x74, 0xbe, 0xa4, 0x95, 0x46, 0x3e, 0x29, 0xed, 0x9f, 0xbe, 0x09, 0x70, 0x12, 0xbd, 0x96, 0xdc,
    0x1c, 0xbf, 0x27, 0x17, 0xa7, 0x3e, 0x27, 0x88, 0xca, 0x3e, 0x7a, 0xe5, 0x0b, 0x3e, 0x6b, 0x28, 0xec, 0x3d, 0x10,
    0x20, 0x58, 0x3e, 0x76, 0x98, 0x22, 0xbc, 0x9a, 0x0d, 0x56, 0x3e, 0x54, 0x62, 0x17, 0x3e, 0x89, 0xc7, 0xbe, 0xbe,
    0x8f, 0xe9, 0x93, 0xbe, 0x52, 0x21, 0x16, 0xbf, 0x9c, 0xd0, 0xb7, 0xbd, 0x8b, 0xfe, 0x1e, 0xbc, 0xa4, 0xda, 0x9f,
    0xbe, 0xe6, 0x6c, 0x47, 0x3f, 0xb8, 0xc6, 0x07, 0x3f, 0xb4, 0xc8, 0x36, 0x3f, 0xfc, 0xa5, 0x42, 0xbe, 0x2b, 0xfd,
    0x0b, 0xbe, 0xa9, 0x75, 0x35, 0xbe, 0xc3, 0x23, 0x44, 0x3f, 0xba, 0xbc, 0x80, 0xbe, 0xc8, 0xc7, 0x3c, 0xbe, 0x54,
    0xbb, 0x27, 0x3e, 0x43, 0x73, 0xda, 0xbd, 0xaa, 0x87, 0xc4, 0xbd, 0xa9, 0xfb, 0x04, 0x3f, 0xaf, 0x25, 0x7d, 0xbe,
    0x1c, 0x34, 0xa5, 0xbe, 0x26, 0x38, 0x96, 0xbe, 0xaa, 0xf5, 0x70, 0xbc, 0x8e, 0x89, 0x07, 0xbe, 0x96, 0x03, 0x95,
    0xbe, 0xc7, 0x2d, 0x21, 0xbe, 0x1b, 0x1e, 0x36, 0x3f, 0xb1, 0x85, 0x2f, 0x3f, 0xbd, 0x95, 0x24, 0x3f, 0x40, 0xd8,
    0x14, 0x3f, 0x6b, 0xe8, 0x04, 0x3f, 0x82, 0x4b, 0xb9, 0x3e, 0x1b, 0x55, 0xbc, 0xbd, 0x05, 0xbd, 0x50, 0x3d, 0x29,
    0x11, 0xba, 0x3e, 0x87, 0x21, 0x31, 0x3d, 0x6e, 0xcc, 0xf7, 0xbd, 0x87, 0xa7, 0x84, 0xbf, 0x4a, 0x73, 0xfd, 0xbd,
    0x04, 0x49, 0x2e, 0xbe, 0xde, 0xf1, 0xd5, 0x3e, 0xdf, 0xd2, 0x4f, 0xbe, 0xdb, 0x00, 0xcb, 0x3d, 0x44, 0xcf, 0x2c,
    0x3f, 0x5e, 0x9e, 0x91, 0x3e, 0x16, 0x3e, 0xd4, 0x3e, 0x5f, 0xe5, 0xbe, 0xbd, 0x2f, 0xf8, 0x0a, 0xbf, 0xbb, 0xae,
    0x43, 0xbd, 0xb4, 0xb6, 0x33, 0xbe, 0x66, 0x7a, 0x8a, 0xbc, 0x47, 0x40, 0x8e, 0xbe, 0x3d, 0x9a, 0x9d, 0x3e, 0xd4,
    0x41, 0x14, 0xbe, 0x09, 0x1c, 0x95, 0xbe, 0xd6, 0x67, 0x82, 0xbe, 0x1a, 0x37, 0x06, 0x3e, 0x73, 0x11, 0x2a, 0xbf,
    0x3f, 0x26, 0x8b, 0x3e, 0xf2, 0x24, 0xe6, 0x3e, 0x53, 0xd4, 0x66, 0xbe, 0x2a, 0x2e, 0x83, 0xbd, 0x77, 0x7c, 0xd2,
    0xbd, 0x4f, 0x0c, 0x7f, 0x3e, 0xc2, 0xc2, 0xba, 0x3d, 0x9a, 0x1b, 0x21, 0xbe, 0x37, 0xd3, 0xe1, 0x3d, 0x11, 0xa0,
    0xee, 0xbe, 0x90, 0xd6, 0x41, 0xbe, 0xda, 0xee, 0xff, 0xff, 0x04, 0x00, 0x00, 0x00, 0x00, 0x10, 0x00, 0x00, 0x18,
    0x36, 0x76, 0xbd, 0xbe, 0xd0, 0x68, 0xbe, 0x18, 0x03, 0x2b, 0x3d, 0x2f, 0xec, 0x95, 0xbd, 0xd9, 0xae, 0x89, 0x3d,
    0x67, 0x88, 0xdc, 0xbd, 0xab, 0x3d, 0x9c, 0xbd, 0xf3, 0xf8, 0x81, 0x3e, 0x60, 0x74, 0xb2, 0x3d, 0x8b, 0x85, 0xc2,
    0xbc, 0x6d, 0x00, 0x1e, 0xb8, 0x80, 0x4a, 0x18, 0x3e, 0x81, 0xd3, 0x85, 0x3d, 0x59, 0xce, 0x09, 0xbe, 0x2c, 0x9d,
    0x7d, 0xbe, 0x58, 0x1d, 0x8e, 0x3d, 0x44, 0x20, 0x67, 0x3d, 0x58, 0x9c, 0x0b, 0x3c, 0xb3, 0x6e, 0x5d, 0xbe, 0xcf,
    0x77, 0xf2, 0x3d, 0xa8, 0x6f, 0xfb, 0x3c, 0x65, 0xe8, 0x8b, 0x3d, 0x6d, 0x7f, 0x20, 0x3c, 0xcf, 0xa9, 0x2d, 0x3d,
    0x6a, 0xdf, 0xa5, 0x3d, 0x5f, 0xf6, 0x9e, 0xbc, 0xca, 0x88, 0x0e, 0x3c, 0xe7, 0x48, 0x84, 0xbe, 0xd5, 0x0f, 0x40,
    0x3e, 0xe4, 0x50, 0x4d, 0x3d, 0xc5, 0xe5, 0x54, 0xbe, 0x42, 0x84, 0xb8, 0x3d, 0x64, 0x4b, 0xec, 0x3d, 0x40, 0xf7,
    0x34, 0x3e, 0x3a, 0x43, 0x50, 0x3e, 0xe6, 0x78, 0x30, 0xbd, 0x0a, 0x2c, 0x62, 0xbe, 0x1a, 0x44, 0x8b, 0x3e, 0x03,
    0x8c, 0x28, 0x3c, 0x98, 0x68, 0x09, 0xbe, 0x84, 0x33, 0xb8, 0xbe, 0x76, 0x6e, 0x02, 0xbe, 0xd9, 0x05, 0x15, 0x3d,
    0x7d, 0x51, 0x35, 0xbe, 0x85, 0x7b, 0x82, 0xbe, 0xb7, 0x6b, 0x95, 0xbe, 0x35, 0x1c, 0x71, 0x3e, 0x13, 0x4e, 0xb5,
    0xbe, 0x94, 0x06, 0xc6, 0xbe, 0xf0, 0xc7, 0x21, 0x3e, 0x77, 0x85, 0xd6, 0x3d, 0x4d, 0xc9, 0x3a, 0x3e, 0x7f, 0x2a,
    0x76, 0xbe, 0xd7, 0xb8, 0x78, 0xbe, 0x89, 0x4d, 0x16, 0xbe, 0xf4, 0x8d, 0xb5, 0x3e, 0xca, 0x0c, 0xc5, 0x3e, 0xfe,
    0x01, 0x35, 0x3e, 0x9d, 0x67, 0x24, 0xbe, 0xa7, 0xf9, 0x09, 0x3d, 0x83, 0x47, 0x54, 0xbd, 0xd1, 0xfb, 0x74, 0xbe,
    0x96, 0x77, 0x02, 0x3e, 0xe6, 0x32, 0xff, 0xbc, 0x94, 0x47, 0x19, 0xbe, 0xaf, 0xd2, 0x5b, 0x3d, 0x64, 0x13, 0x4e,
    0xbe, 0xfa, 0x76, 0x13, 0xbe, 0x92, 0xd5, 0xbb, 0xbd, 0x22, 0xbe, 0x73, 0xbe, 0x9c, 0x34, 0x66, 0x3e, 0xce, 0xa0,
    0xb3, 0xbc, 0xff, 0xaf, 0xa5, 0xbd, 0xc6, 0x1e, 0xa9, 0xbd, 0x27, 0x29, 0x53, 0xbe, 0x3b, 0x6e, 0x99, 0xbe, 0x82,
    0xaa, 0xab, 0xbe, 0x9f, 0xab, 0xa6, 0x3e, 0xd1, 0x13, 0x4f, 0xbe, 0x31, 0xbd, 0xa4, 0xbe, 0xb3, 0x5b, 0xd3, 0xbd,
    0xa6, 0x13, 0x30, 0xbd, 0x28, 0xf8, 0x5e, 0xbd, 0xa9, 0x4c, 0xdb, 0x3d, 0xf0, 0x94, 0x22, 0xbe, 0x16, 0xb3, 0x6c,
    0x3e, 0x35, 0x74, 0x15, 0x3e, 0x4d, 0x25, 0x79, 0xbd, 0xda, 0x89, 0x77, 0xbd, 0xa3, 0x26, 0x6d, 0x3e, 0x8b, 0x8d,
    0x3c, 0x3c, 0xb9, 0x79, 0x9e, 0x3d, 0x1f, 0x46, 0x68, 0xbd, 0xf3, 0xb4, 0xb8, 0x3d, 0xd7, 0x79, 0x15, 0x3e, 0xc1,
    0x06, 0x4e, 0xbe, 0x3c, 0x92, 0x97, 0xbd, 0xce, 0x50, 0x92, 0x3e, 0x85, 0xcd, 0x66, 0x3d, 0xac, 0x52, 0xdc, 0xbd,
    0x1d, 0x0e, 0xbe, 0xbc, 0xe4, 0x3c, 0x8b, 0xbd, 0xeb, 0x84, 0xdb, 0x3b, 0x73, 0x0f, 0x12, 0x3e, 0x14, 0x83, 0x19,
    0x3e, 0x11, 0xf8, 0xa6, 0xbe, 0x97, 0x90, 0xbe, 0x3c, 0x61, 0xb8, 0xaf, 0xbd, 0x16, 0xbf, 0x56, 0xbd, 0xf3, 0x5e,
    0xa0, 0x3e, 0xf3, 0x3a, 0x8a, 0x3e, 0xb6, 0xeb, 0x97, 0xbd, 0xfa, 0xbe, 0x19, 0xbe, 0x66, 0x85, 0xc0, 0x3c, 0x48,
    0xc0, 0x3e, 0xbe, 0x62, 0x7b, 0x8b, 0x3d, 0xb0, 0x25, 0x59, 0xbe, 0x0f, 0xd7, 0x2c, 0x3e, 0xb3, 0xf1, 0x28, 0x3d,
    0xd1, 0xa0, 0x85, 0xbe, 0xc3, 0x4f, 0x68, 0x3e, 0xdf, 0xea, 0x66, 0x3c, 0xa0, 0x60, 0xaa, 0x3e, 0xfe, 0x41, 0x9c,
    0x3e, 0x40, 0xfd, 0x33, 0xbe, 0xd8, 0xeb, 0x66, 0x3c, 0xfc, 0xcc, 0x9e, 0x3e, 0xfe, 0xca, 0x14, 0xbe, 0x15, 0x5f,
    0x89, 0x3d, 0x90, 0x96, 0x95, 0x3e, 0x4d, 0xa4, 0x2f, 0xbe, 0x07, 0x1d, 0xb6, 0x3d, 0xd1, 0xb2, 0x85, 0x3e, 0xb6,
    0xb3, 0x09, 0x3e, 0x76, 0x8c, 0x53, 0xbd, 0x9d, 0xab, 0x4c, 0x3d, 0xe2, 0x6f, 0x27, 0x3e, 0x89, 0xbc, 0xfb, 0x3d,
    0x9b, 0x42, 0xbc, 0xbe, 0xe0, 0x0a, 0x7f, 0x3d, 0x2e, 0x98, 0x87, 0x3d, 0xc7, 0x0b, 0xa8, 0x3e, 0xd9, 0x60, 0x26,
    0x3e, 0x9e, 0x9d, 0x1e, 0x3e, 0x80, 0x4a, 0xc3, 0xbc, 0xba, 0xd6, 0xad, 0xbe, 0x49, 0x60, 0x85, 0x3b, 0xaf, 0x5a,
    0xda, 0x3d, 0x0c, 0x1d, 0x09, 0xbe, 0xac, 0x28, 0x42, 0x3e, 0x50, 0x9b, 0xaa, 0x3e, 0xb0, 0xe4, 0x9a, 0x3d, 0xca,
    0x41, 0x80, 0x3e, 0xb9, 0x92, 0x9c, 0x3e, 0x3b, 0x76, 0x0f, 0x3d, 0x0d, 0xf7, 0xb0, 0x3e, 0xd3, 0xc7, 0x99, 0xbe,
    0xfc, 0xa5, 0x50, 0x3e, 0xea, 0x63, 0xe7, 0x3c, 0x12, 0xef, 0xeb, 0xbd, 0x69, 0x29, 0x64, 0x3d, 0x6b, 0x69, 0xf6,
    0xbd, 0x17, 0xc8, 0xe8, 0x3d, 0xa4, 0x96, 0xd4, 0x3d, 0xd6, 0xdb, 0x4c, 0xbd, 0xb0, 0xc8, 0x9a, 0x3d, 0xf2, 0x3d,
    0xd7, 0x3d, 0x06, 0x7e, 0x2e, 0xbd, 0xe1, 0xa5, 0x00, 0x3e, 0x40, 0x2b, 0x00, 0x3c, 0xca, 0xc7, 0xb2, 0xbc, 0x91,
    0x34, 0xd0, 0x3c, 0x9e, 0xd7, 0x34, 0x3d, 0xfd, 0x15, 0xf5, 0x3d, 0x71, 0x35, 0x7a, 0x3c, 0xd2, 0x78, 0x10, 0xbc,
    0x53, 0xf9, 0xef, 0x3d, 0xec, 0x25, 0xfd, 0xbd, 0x26, 0x5a, 0x81, 0xbc, 0x49, 0xac, 0x0c, 0x3c, 0xeb, 0xc8, 0x8a,
    0xbd, 0xda, 0x7e, 0x9c, 0xbc, 0xf7, 0x24, 0x2f, 0xbe, 0x46, 0x65, 0x47, 0xbe, 0xf8, 0x2b, 0x59, 0xbe, 0xd9, 0x1f,
    0xe4, 0x3d, 0x0e, 0xad, 0x45, 0xbe, 0x51, 0x35, 0xcb, 0x3d, 0x56, 0xc3, 0x90, 0xbe, 0x4a, 0xde, 0x8b, 0x3d, 0xfd,
    0xd1, 0xe0, 0xbd, 0xbe, 0x15, 0x55, 0xbd, 0x93, 0x53, 0x57, 0x3e, 0x87, 0x64, 0x84, 0x3e, 0x3f, 0x17, 0x10, 0xbe,
    0xa3, 0x8d, 0x8e, 0x3c, 0x71, 0x8c, 0x36, 0xbe, 0xbd, 0xe5, 0x70, 0xbd, 0xb5, 0x80, 0x78, 0x3e, 0xc6, 0x44, 0x8c,
    0x3e, 0xc2, 0x60, 0xdc, 0x3d, 0xcf, 0x09, 0x8b, 0x3d, 0x77, 0xa5, 0xb3, 0xbe, 0x32, 0xbc, 0x93, 0xbe, 0x26, 0x0f,
    0x39, 0x3d, 0xa2, 0xe1, 0xdf, 0x3e, 0x67, 0xfe, 0x94, 0x3a, 0x93, 0x8c, 0x19, 0x3e, 0xb5, 0x82, 0x24, 0xbe, 0xb7,
    0x56, 0x2b, 0xbe, 0x18, 0x8e, 0xf0, 0x3d, 0x9a, 0x1d, 0x27, 0x3e, 0x95, 0x0c, 0xc4, 0xbd, 0xe5, 0x57, 0x9b, 0x3e,
    0xdd, 0x45, 0x67, 0xbd, 0xfc, 0x30, 0x23, 0xbe, 0xd7, 0x0d, 0x82, 0xbd, 0xba, 0xf8, 0xd4, 0x3e, 0xb1, 0xac, 0x93,
    0x3e, 0x34, 0xe7, 0x0d, 0x3e, 0xc0, 0x76, 0x13, 0xbe, 0xda, 0x09, 0x08, 0x3f, 0xc4, 0xa5, 0x9d, 0x3d, 0xf6, 0x06,
    0x5a, 0xbd, 0xac, 0x85, 0xf4, 0xbe, 0x39, 0xd3, 0x1a, 0x3d, 0xa0, 0x59, 0x44, 0x3e, 0x02, 0xf5, 0x21, 0x3d, 0xc5,
    0x05, 0x67, 0xbd, 0xde, 0x11, 0x12, 0x3e, 0xee, 0xff, 0x28, 0x3e, 0xc3, 0xc5, 0x04, 0x3f, 0x7b, 0xe9, 0x85, 0xbe,
    0x52, 0x19, 0x40, 0xbe, 0x2c, 0x37, 0x2f, 0x3d, 0xac, 0x4a, 0x01, 0xbe, 0x17, 0xd5, 0xf4, 0xbe, 0x69, 0x36, 0x9d,
    0x3d, 0x57, 0xf8, 0x9e, 0xbe, 0xe0, 0x89, 0x42, 0xbe, 0xf4, 0x0a, 0x1f, 0xbe, 0xf3, 0x23, 0x00, 0xbc, 0xb0, 0x36,
    0x05, 0xbe, 0x62, 0xce, 0x13, 0x3f, 0x3b, 0xf1, 0xcb, 0xbe, 0xa9, 0x3c, 0x51, 0x3d, 0xfa, 0x7e, 0x1a, 0xbe, 0x5b,
    0x61, 0xa5, 0x3e, 0xd8, 0x28, 0x53, 0x3e, 0x50, 0xad, 0x87, 0xbe, 0x7b, 0x94, 0xb9, 0x3e, 0xe1, 0x41, 0x5a, 0xbe,
    0x59, 0x1a, 0xbe, 0xbe, 0xef, 0xce, 0x13, 0xbe, 0x0b, 0x58, 0x36, 0x3e, 0x53, 0xb4, 0x07, 0xbe, 0xfd, 0x15, 0xa3,
    0x3d, 0xde, 0x30, 0x33, 0x3d, 0x58, 0xb1, 0x7b, 0xbe, 0x05, 0x1e, 0x06, 0xbd, 0x5a, 0x53, 0x8a, 0xbe, 0xd6, 0xa3,
    0xe0, 0xbd, 0xf6, 0x44, 0x80, 0x3e, 0xbd, 0xb1, 0x11, 0x3e, 0x95, 0x20, 0x4f, 0xbc, 0xc7, 0xda, 0x0b, 0x3e, 0xf3,
    0xfe, 0x3f, 0xbe, 0xd1, 0x5c, 0x8d, 0xbd, 0xe1, 0x81, 0xc2, 0xbd, 0x07, 0xe7, 0xf6, 0x3d, 0xc5, 0x3a, 0x0c, 0xbe,
    0xd3, 0x6a, 0x18, 0xbe, 0xd9, 0x8e, 0x8b, 0xbd, 0xf8, 0x4e, 0x61, 0xbc, 0x10, 0x09, 0xeb, 0xbd, 0x2c, 0x55, 0xe2,
    0xbd, 0xbf, 0x64, 0x99, 0xbe, 0x5c, 0xd2, 0x98, 0x3d, 0x9e, 0xdd, 0x85, 0x3e, 0xf3, 0xff, 0x55, 0xbe, 0xd6, 0x96,
    0x67, 0xbe, 0x07, 0xde, 0xd7, 0x3d, 0x30, 0x97, 0xfb, 0x3d, 0xc7, 0x30, 0x2f, 0xbe, 0x69, 0x3c, 0xf5, 0xbd, 0xec,
    0xdc, 0xe6, 0x39, 0x72, 0xd2, 0x8a, 0x3c, 0xab, 0x38, 0xca, 0x3d, 0xa4, 0xe6, 0x51, 0xbe, 0x7a, 0x4b, 0x2c, 0xbd,
    0xcc, 0xf4, 0x8a, 0xbd, 0x48, 0x72, 0x93, 0x3e, 0x10, 0xcb, 0xfe, 0xbd, 0xcb, 0x2a, 0xef, 0x3d, 0x0b, 0x4f, 0x84,
    0x3d, 0xec, 0x8f, 0xcd, 0x3c, 0xae, 0xc0, 0xb5, 0x3b, 0xe3, 0x6c, 0x9f, 0xbd, 0x8f, 0xb5, 0xbd, 0xbd, 0x76, 0xe0,
    0x9d, 0x3e, 0xfa, 0xf0, 0x12, 0xbf, 0xb6, 0x1c, 0xe1, 0xbb, 0x0c, 0x19, 0xa2, 0xbd, 0x19, 0x24, 0x93, 0x3d, 0x41,
    0x0f, 0x4c, 0x3d, 0xeb, 0x7a, 0x6b, 0x3d, 0x5d, 0x3e, 0x43, 0xbe, 0xdb, 0x18, 0x4d, 0x3d, 0x8a, 0x2e, 0x04, 0x3e,
    0xfa, 0x6b, 0x6a, 0x3d, 0x4e, 0xe8, 0x2d, 0xbd, 0xf1, 0xff, 0x12, 0xbd, 0xb9, 0x97, 0x0b, 0x3e, 0x14, 0xee, 0x41,
    0xbc, 0xda, 0x65, 0xdc, 0x3d, 0x2d, 0x3c, 0x32, 0xbe, 0x95, 0x5b, 0x0a, 0x3d, 0x5b, 0xbb, 0xe9, 0xbd, 0x31, 0xc9,
    0x5b, 0xbe, 0x96, 0x69, 0x93, 0xbc, 0xef, 0x82, 0x3a, 0xbd, 0x86, 0xa1, 0x70, 0x3e, 0x65, 0x89, 0x3a, 0x3c, 0x75,
    0x1b, 0x2f, 0x3e, 0xc9, 0x34, 0x8d, 0x3d, 0x91, 0x9b, 0xd8, 0xbd, 0xeb, 0xa4, 0xce, 0xbd, 0xd3, 0xb7, 0xa7, 0x3e,
    0x6e, 0x6b, 0x85, 0x3d, 0xda, 0x70, 0x11, 0xbc, 0x6a, 0x6b, 0xea, 0xbd, 0x05, 0xac, 0xc9, 0x3e, 0x29, 0x87, 0xea,
    0xbe, 0x87, 0x0b, 0xec, 0xbd, 0x03, 0x9c, 0x7f, 0x3d, 0xdc, 0x86, 0x58, 0xbd, 0xde, 0xbc, 0xc6, 0x3c, 0xf5, 0x40,
    0x9d, 0xbd, 0xe9, 0x70, 0xc9, 0x3d, 0xd8, 0xe8, 0xdd, 0x3c, 0xda, 0xcc, 0x63, 0x3e, 0x83, 0x0f, 0x13, 0xbe, 0x3a,
    0xb7, 0x37, 0xbc, 0x47, 0xff, 0x01, 0xbe, 0xc4, 0xff, 0xc3, 0x3d, 0x5b, 0xf2, 0xc5, 0xbd, 0xee, 0x9a, 0x6c, 0xbe,
    0xcb, 0xc4, 0x9d, 0xbd, 0x26, 0x93, 0x2a, 0x3c, 0x58, 0x54, 0xf5, 0x3d, 0xd9, 0xdd, 0xca, 0xbd, 0x93, 0xcf, 0x8b,
    0xbd, 0x4a, 0x7b, 0xcc, 0xbe, 0x91, 0x30, 0x78, 0x3e, 0x73, 0x1c, 0xf8, 0xbd, 0xf0, 0x15, 0x9d, 0x3d, 0x8a, 0xa4,
    0x7b, 0xbe, 0xd2, 0x9a, 0x42, 0xbe, 0xc5, 0x6a, 0x42, 0x3e, 0x5a, 0x18, 0x9d, 0x3d, 0x08, 0xe5, 0x7e, 0xbc, 0xfa,
    0x84, 0x27, 0xbe, 0x10, 0x5b, 0x49, 0x3c, 0x51, 0xe1, 0x1f, 0x3e, 0x59, 0x75, 0xf4, 0xbc, 0x97, 0xed, 0x36, 0xbe,
    0x4f, 0x0b, 0x19, 0x3e, 0x40, 0x14, 0x8e, 0xbd, 0x7d, 0xd4, 0x4e, 0xbe, 0x71, 0x2c, 0x59, 0xbb, 0x29, 0x51, 0x16,
    0x3e, 0xcf, 0xa3, 0xe7, 0x3e, 0xef, 0xbc, 0xa0, 0xbc, 0xb4, 0xc3, 0xe8, 0xbc, 0x5b, 0x26, 0xb1, 0xbd, 0x3a, 0x1b,
    0x84, 0x3e, 0xb9, 0x57, 0x82, 0x3d, 0x37, 0x7a, 0x9e, 0x3e, 0x9a, 0xc7, 0x0f, 0x3e, 0xb3, 0x98, 0x15, 0x3e, 0xda,
    0xac, 0x54, 0xbe, 0x4c, 0xdc, 0xdc, 0xbd, 0x79, 0xc7, 0xa6, 0x3e, 0xab, 0x4f, 0xcc, 0xbc, 0xc2, 0xf3, 0x6d, 0x3e,
    0x24, 0x90, 0x48, 0xbe, 0xc0, 0x6f, 0x51, 0xbe, 0x0b, 0x7d, 0xe5, 0x3d, 0xb6, 0x63, 0x38, 0x3e, 0xc0, 0x51, 0x45,
    0xbe, 0x38, 0x36, 0x10, 0x3e, 0x7b, 0x81, 0x31, 0x3e, 0x0a, 0x5f, 0x9f, 0x3e, 0x1f, 0x92, 0xa2, 0x3d, 0x1e, 0xa4,
    0x2f, 0x3e, 0xac, 0xe6, 0xcf, 0x3d, 0x55, 0x07, 0x20, 0x3e, 0x5e, 0xb6, 0x2d, 0x3c, 0xd3, 0xcc, 0x1c, 0xbd, 0xa8,
    0x7a, 0xe2, 0x3e, 0x3e, 0x4f, 0x8c, 0x3e, 0xba, 0x9c, 0x00, 0xbe, 0xcb, 0x26, 0x34, 0x3d, 0x0d, 0x67, 0x3d, 0xbe,
    0x8d, 0xc0, 0x5c, 0x3e, 0x9f, 0xed, 0xfd, 0x3d, 0x4d, 0xc5, 0xd2, 0x3d, 0x16, 0xa1, 0x8f, 0xbe, 0x3d, 0xc4, 0x93,
    0xbe, 0x67, 0xf8, 0xd2, 0xbe, 0x12, 0xfd, 0x47, 0x3d, 0x91, 0x9e, 0xd6, 0xbd, 0x24, 0xfa, 0x3d, 0xbd, 0xa7, 0xdc,
    0x4e, 0x3e, 0x1e, 0x5b, 0x69, 0xbd, 0x15, 0xee, 0x98, 0xbe, 0xf6, 0x14, 0x3b, 0x3e, 0xf5, 0x03, 0x76, 0xbd, 0x61,
    0x1c, 0xe3, 0xbe, 0x47, 0xee, 0xee, 0xbc, 0xdd, 0x75, 0xb6, 0xbd, 0xd5, 0xf0, 0x78, 0xba, 0x54, 0xe2, 0xb1, 0x3d,
    0x45, 0x92, 0xa5, 0xbe, 0x73, 0x74, 0x17, 0xbd, 0x61, 0x08, 0x2c, 0x3e, 0x0e, 0xc9, 0x5a, 0xbe, 0xbf, 0xe6, 0x3d,
    0x3e, 0x56, 0xea, 0xda, 0x3e, 0x6c, 0x40, 0x7b, 0x3d, 0x20, 0x5c, 0x91, 0x3e, 0xab, 0xce, 0x9e, 0x3e, 0xb5, 0x09,
    0x41, 0xbe, 0x2f, 0x62, 0x3b, 0xbe, 0x37, 0x5c, 0xb6, 0xbd, 0x78, 0xf0, 0xbd, 0xbe, 0x36, 0x43, 0xa6, 0xbd, 0x78,
    0x03, 0x1d, 0x3e, 0x96, 0xd5, 0xcf, 0x3e, 0xd2, 0x3e, 0xc8, 0xbe, 0xc5, 0x0f, 0x8d, 0xbd, 0xcb, 0x8e, 0x20, 0x3e,
    0x42, 0x1a, 0x8e, 0xbe, 0x57, 0x51, 0x63, 0x3e, 0xb6, 0xc1, 0x56, 0x3d, 0xfb, 0x5d, 0x05, 0xbc, 0x55, 0x14, 0x48,
    0x3d, 0xb2, 0x7b, 0xae, 0xbd, 0xe4, 0x61, 0x7c, 0xbb, 0xd2, 0x4f, 0x99, 0x3c, 0x83, 0xc8, 0xe6, 0xbd, 0xff, 0xa2,
    0x3f, 0x3d, 0xfb, 0x8d, 0x81, 0xbe, 0x28, 0x5e, 0x86, 0xba, 0x63, 0x41, 0xed, 0xbd, 0xe0, 0xeb, 0x13, 0x3d, 0x0a,
    0xce, 0xbf, 0x3d, 0x77, 0x60, 0x2b, 0x3c, 0xf0, 0xef, 0xc6, 0x3d, 0x73, 0x15, 0x02, 0xbe, 0x51, 0x92, 0x4a, 0x3d,
    0x6b, 0xe0, 0xca, 0xbd, 0x0f, 0xa6, 0x6b, 0xbe, 0x8a, 0x98, 0xb3, 0xbc, 0x35, 0x5e, 0x69, 0xbc, 0x6d, 0x76, 0x95,
    0x3c, 0xe5, 0xcc, 0x91, 0xbd, 0xe4, 0x10, 0x0c, 0x3e, 0x3e, 0x94, 0x8b, 0x3d, 0xbc, 0xc4, 0x34, 0xbe, 0x0e, 0x72,
    0xf3, 0x3d, 0xbd, 0x21, 0x02, 0x3d, 0x82, 0x47, 0x5f, 0x3e, 0x66, 0xc2, 0xff, 0xbc, 0x90, 0xfe, 0xec, 0x3c, 0xf8,
    0x0e, 0xdc, 0xbd, 0xd2, 0x12, 0xbc, 0xbd, 0x78, 0xfc, 0x08, 0x3d, 0x17, 0x81, 0x0d, 0x3e, 0x71, 0x7d, 0xe8, 0x3c,
    0x73, 0xa9, 0x82, 0x3d, 0xd2, 0x99, 0xf9, 0x3e, 0xaf, 0x77, 0xbc, 0x3d, 0x64, 0xbe, 0xaa, 0xbd, 0x2a, 0x37, 0x71,
    0xbe, 0xbc, 0x83, 0x5b, 0x3c, 0x6f, 0xe3, 0x00, 0x3e, 0x9e, 0x61, 0xe6, 0x3d, 0xb5, 0x11, 0x9b, 0xbe, 0xd6, 0x1d,
    0x6d, 0xbe, 0xb2, 0x82, 0x78, 0xbd, 0x02, 0x60, 0x4a, 0x3e, 0x6b, 0xdf, 0x93, 0xbe, 0xac, 0x82, 0xed, 0x3d, 0x34,
    0x77, 0x96, 0x3e, 0xd7, 0x6c, 0x04, 0xbe, 0x35, 0xa5, 0x13, 0xbf, 0x44, 0xb9, 0x4c, 0xbe, 0xf7, 0x06, 0x1e, 0xbd,
    0xcb, 0x3a, 0x87, 0xbe, 0x1c, 0x5e, 0xb3, 0xbe, 0x0d, 0x29, 0x3c, 0xbe, 0xfd, 0x2a, 0xd6, 0xbd, 0x60, 0x5f, 0xf1,
    0xbe, 0xa5, 0xbd, 0xed, 0x3e, 0x0d, 0x23, 0xa6, 0xbd, 0xbe, 0x8f, 0x90, 0x3d, 0x44, 0xa4, 0x66, 0x3e, 0xf2, 0x58,
    0x87, 0xbe, 0xb2, 0x2c, 0xf4, 0x3d, 0x4d, 0xd4, 0x90, 0x3e, 0x69, 0x2f, 0x18, 0xbe, 0x69, 0xf1, 0xb5, 0xbd, 0xb3,
    0xcb, 0x11, 0xbe, 0xdf, 0xf8, 0xf2, 0xbd, 0xea, 0xa0, 0xa5, 0x3d, 0x07, 0xbd, 0x14, 0x3e, 0x32, 0x5a, 0x79, 0xbd,
    0x72, 0x30, 0x07, 0x3e, 0xe2, 0x7a, 0x3b, 0xbe, 0xc2, 0x87, 0x3b, 0x3c, 0x4c, 0xb3, 0xfb, 0x3b, 0x29, 0xc7, 0x0a,
    0x3c, 0x2c, 0xb7, 0xab, 0xbd, 0xfb, 0x7c, 0x2a, 0x3e, 0x69, 0x92, 0x22, 0xbe, 0xae, 0x69, 0x2a, 0x3e, 0x36, 0x59,
    0xb9, 0xbc, 0x71, 0x2b, 0xf8, 0x3d, 0x4b, 0xcd, 0x31, 0x3e, 0x08, 0x22, 0x14, 0xbe, 0xf8, 0xee, 0xdc, 0x3d, 0x46,
    0x30, 0x22, 0x3e, 0x37, 0x31, 0x39, 0xbd, 0xb0, 0xee, 0x8f, 0x3c, 0xc8, 0xdb, 0xf0, 0x3c, 0x3d, 0xbb, 0xad, 0x3c,
    0x7c, 0x4a, 0x4f, 0x3e, 0x1c, 0x6a, 0x6c, 0x3d, 0x1d, 0x88, 0xeb, 0x3d, 0x1c, 0x56, 0x0b, 0xbe, 0xbe, 0x97, 0xc0,
    0xbc, 0x2a, 0x5c, 0x22, 0x3c, 0xbe, 0x7c, 0xb2, 0xbd, 0x6e, 0x86, 0x96, 0xbd, 0xe7, 0xd4, 0x02, 0x3d, 0x00, 0x16,
    0xab, 0xbd, 0x68, 0xb3, 0x2b, 0xbc, 0x34, 0x7c, 0xc0, 0xbd, 0x68, 0xae, 0x7e, 0xbe, 0x30, 0x1d, 0xe3, 0xbd, 0xa9,
    0x2d, 0xd6, 0xbd, 0x7e, 0x42, 0xe0, 0x3d, 0xa3, 0xf9, 0xd1, 0xbd, 0xc8, 0xf1, 0x89, 0x3e, 0xe2, 0x27, 0x5f, 0xbe,
    0xa1, 0x83, 0xf6, 0x3d, 0x9a, 0xbf, 0xb6, 0x3d, 0x4d, 0x61, 0xa0, 0xbd, 0x1a, 0x81, 0x56, 0x3c, 0xb3, 0xc1, 0x17,
    0x3e, 0x9a, 0xc6, 0xdc, 0x3d, 0x2a, 0x4c, 0x49, 0xbe, 0x36, 0x6e, 0x03, 0xbd, 0x23, 0xba, 0xac, 0xbd, 0x03, 0xbf,
    0xa7, 0xbd, 0x6f, 0xd0, 0xaf, 0xbd, 0x49, 0xa8, 0x05, 0xbe, 0xfe, 0x33, 0x77, 0xbb, 0x53, 0xa5, 0x21, 0xbd, 0x82,
    0x84, 0x0f, 0x3d, 0x21, 0xaf, 0x83, 0x3e, 0xdb, 0xff, 0x0a, 0xbe, 0xaa, 0x4c, 0xad, 0x3d, 0x86, 0x38, 0x33, 0xbc,
    0x57, 0xc4, 0x76, 0x3d, 0xa8, 0x3c, 0x45, 0x3e, 0x71, 0x8f, 0x9f, 0xbd, 0x05, 0xac, 0x7a, 0xbe, 0x04, 0x32, 0x74,
    0x3d, 0x37, 0x92, 0x88, 0x3c, 0x1a, 0x68, 0x95, 0xbe, 0xa9, 0x0e, 0xb1, 0xbd, 0x3f, 0xd2, 0xbe, 0xbe, 0x1a, 0xe6,
    0xc0, 0x3d, 0xb8, 0x17, 0xcc, 0x3d, 0xff, 0xb9, 0x60, 0x3d, 0x3c, 0x1d, 0x01, 0x3f, 0x14, 0x53, 0xa9, 0x3e, 0xa3,
    0x56, 0x29, 0xbe, 0x1c, 0xe3, 0xa1, 0xbc, 0xc0, 0x1c, 0xc2, 0xbc, 0x75, 0x8f, 0x89, 0x3d, 0x6b, 0x7c, 0x8e, 0xbe,
    0x4b, 0x14, 0xdf, 0xbd, 0x8c, 0x1d, 0xbd, 0xbe, 0x72, 0x7d, 0x80, 0x3e, 0x1d, 0xc2, 0x70, 0xbe, 0xa9, 0x80, 0xa8,
    0x3e, 0xcb, 0x88, 0x5b, 0xbe, 0xfe, 0x71, 0x02, 0xbf, 0x16, 0x44, 0x99, 0xbe, 0xc0, 0x79, 0x69, 0xbe, 0xc0, 0x47,
    0xbd, 0xbd, 0xdf, 0xff, 0xd5, 0x3d, 0x96, 0xf7, 0xd4, 0xbd, 0x2a, 0x08, 0xf1, 0xbd, 0x5c, 0x10, 0x2a, 0xbe, 0x8f,
    0xed, 0x0a, 0x3b, 0x92, 0xc2, 0x4f, 0x3c, 0x33, 0x3f, 0x61, 0xbe, 0xd3, 0xc2, 0x6c, 0xbe, 0x31, 0xf8, 0xd7, 0xbd,
    0x8a, 0x1a, 0x0d, 0xbe, 0x9c, 0x2d, 0x44, 0xbd, 0xb1, 0x20, 0x39, 0xbe, 0x07, 0xb1, 0x10, 0xbe, 0x23, 0xff, 0x8d,
    0xbd, 0x6e, 0xed, 0x04, 0x3c, 0x4d, 0x11, 0x56, 0x3e, 0xf9, 0xa3, 0xf5, 0x3d, 0x4d, 0x61, 0xd3, 0xbd, 0x5e, 0xd8,
    0x0f, 0x3e, 0x5c, 0xba, 0x90, 0x3e, 0x61, 0xc5, 0xb4, 0x3d, 0x5e, 0xfe, 0x40, 0xbe, 0xe2, 0x18, 0x6a, 0x3e, 0x0c,
    0xf7, 0xc2, 0x3c, 0x03, 0x85, 0x23, 0x3e, 0x5a, 0x46, 0x42, 0xbd, 0xdb, 0xe7, 0x87, 0x3e, 0x54, 0x3c, 0x13, 0xbd,
    0xde, 0x2b, 0x46, 0x3e, 0xd9, 0xf7, 0x40, 0x3d, 0x72, 0xe3, 0xc9, 0x3c, 0x68, 0x97, 0xc5, 0xbd, 0x50, 0x4a, 0x78,
    0xbd, 0x68, 0xc4, 0xfd, 0x3d, 0xd5, 0x8b, 0x6c, 0x3e, 0x9e, 0x7b, 0x65, 0xbe, 0x81, 0x41, 0x4a, 0xbe, 0x70, 0xcb,
    0x5c, 0xbe, 0xf7, 0x85, 0x6c, 0x3d, 0x2a, 0x16, 0x3c, 0xbd, 0xb0, 0x03, 0x18, 0x3e, 0x1a, 0x3a, 0x60, 0xbc, 0x48,
    0x09, 0xa0, 0xbd, 0x7d, 0x2b, 0x18, 0xbe, 0x21, 0x02, 0x8b, 0x3d, 0x70, 0x82, 0x6a, 0xbe, 0x4a, 0x21, 0xf9, 0x3d,
    0x5e, 0x3d, 0x22, 0xbf, 0x3c, 0x26, 0x2f, 0x3e, 0xf9, 0x7c, 0xac, 0x3d, 0x38, 0xaa, 0x0e, 0x3e, 0x41, 0x9f, 0x66,
    0xbd, 0xef, 0xac, 0x19, 0x3d, 0x63, 0x50, 0x62, 0xbe, 0x67, 0x48, 0xde, 0x3d, 0x58, 0x23, 0xba, 0xbd, 0x55, 0xfb,
    0x5e, 0xbd, 0x0c, 0x7b, 0x3d, 0x3c, 0xda, 0xdd, 0x55, 0x3e, 0xad, 0x2b, 0x57, 0x3d, 0x09, 0x3d, 0x56, 0x3d, 0xa2,
    0xe8, 0xae, 0x3d, 0x28, 0x95, 0xc4, 0x3e, 0x8d, 0x33, 0x58, 0x3d, 0x6f, 0x15, 0x3c, 0x3d, 0xfb, 0xa7, 0xd8, 0x3d,
    0x8e, 0xfa, 0xc7, 0x3c, 0x2f, 0x05, 0xc3, 0xbd, 0x2c, 0xec, 0xf9, 0xbd, 0x2a, 0x83, 0xa7, 0xbc, 0xfb, 0xa3, 0x1a,
    0xbd, 0x0c, 0xe3, 0xec, 0x3d, 0x43, 0x05, 0xde, 0x3d, 0x83, 0x47, 0xb3, 0x3d, 0x09, 0x1f, 0x31, 0x3d, 0x12, 0x80,
    0xbc, 0x3d, 0xb6, 0xc1, 0xa5, 0xbd, 0x03, 0xbd, 0x0a, 0x3e, 0xa1, 0x95, 0x91, 0x3e, 0xf7, 0x1a, 0x6a, 0x3b, 0xab,
    0x89, 0x51, 0x3e, 0x6d, 0x43, 0x10, 0x3d, 0xab, 0xd4, 0xa7, 0xbc, 0x92, 0xc0, 0xee, 0xbd, 0x7a, 0xc2, 0x66, 0x3e,
    0x0b, 0xce, 0x43, 0xbc, 0x83, 0x96, 0xa5, 0x3d, 0x95, 0x7b, 0xe5, 0x3b, 0x93, 0x67, 0x2e, 0x3e, 0x47, 0x0b, 0x1b,
    0xbe, 0x26, 0x5c, 0x72, 0xbb, 0x3f, 0x73, 0x75, 0x3d, 0xde, 0x87, 0x45, 0xbe, 0x8f, 0xd3, 0x60, 0xbe, 0xf6, 0x6f,
    0xd1, 0xbd, 0xb9, 0xcb, 0x8c, 0xbe, 0x0b, 0x19, 0x78, 0xbd, 0xa4, 0xb5, 0x88, 0xbe, 0xde, 0x8b, 0xde, 0xbd, 0x5a,
    0xf4, 0x6f, 0x3e, 0x53, 0xd2, 0x28, 0x3e, 0x12, 0xde, 0x34, 0x3d, 0xd8, 0xe6, 0xd1, 0xbd, 0xbb, 0x15, 0x15, 0xbe,
    0x3e, 0xc0, 0x2e, 0xbe, 0x12, 0x7b, 0x80, 0xbd, 0x6b, 0x2d, 0xf3, 0x3c, 0x83, 0xe3, 0x75, 0x3e, 0x8c, 0xc9, 0xe0,
    0x3d, 0x63, 0xf0, 0xb2, 0xbd, 0xb7, 0x22, 0x80, 0xbe, 0x92, 0x8d, 0x73, 0x3e, 0x4d, 0x4b, 0x2a, 0xbc, 0xd6, 0xf2,
    0x6b, 0x3d, 0xb5, 0x76, 0x2c, 0x3d, 0xaf, 0x9f, 0x49, 0xbe, 0x7e, 0x4d, 0xf7, 0xbc, 0x90, 0x17, 0xcc, 0x3c, 0x9b,
    0x72, 0x88, 0xbc, 0xdf, 0xea, 0x42, 0xbd, 0x73, 0xfe, 0x0d, 0xbd, 0xcf, 0x3a, 0x27, 0xbe, 0xf1, 0x9c, 0xb6, 0x3d,
    0x8b, 0x89, 0x30, 0x3e, 0xe0, 0x09, 0x27, 0x3e, 0xfe, 0xbf, 0xbb, 0x3d, 0xfd, 0x31, 0x13, 0xbd, 0x23, 0xf0, 0x2c,
    0xbc, 0x01, 0x7b, 0x48, 0xbc, 0x13, 0xef, 0x32, 0x3e, 0x05, 0x05, 0x72, 0xbe, 0xe4, 0x86, 0x7f, 0xbd, 0xbe, 0xa8,
    0x44, 0x3d, 0x6c, 0xbf, 0x96, 0xbe, 0xc6, 0x8d, 0x26, 0x3e, 0x43, 0x5e, 0xbb, 0xbe, 0xb9, 0xda, 0x18, 0x3e, 0x72,
    0x54, 0xe7, 0xbd, 0xa5, 0x8d, 0x24, 0x3e, 0xfb, 0x81, 0xc8, 0xbd, 0x9b, 0xfd, 0x1b, 0xbe, 0x1b, 0xc9, 0x71, 0xbe,
    0x0a, 0x2b, 0x56, 0x3e, 0x94, 0x99, 0x86, 0xbe, 0xae, 0x56, 0xf8, 0x3e, 0xca, 0x09, 0x02, 0xbc, 0x8a, 0xb0, 0x80,
    0x3e, 0xa3, 0xea, 0xa0, 0xbe, 0xf1, 0xf6, 0x05, 0xbe, 0x89, 0xde, 0x1d, 0xbe, 0x3c, 0x12, 0x82, 0xbc, 0xa1, 0xfb,
    0xba, 0x3d, 0x2a, 0x00, 0x97, 0xbd, 0x41, 0x2a, 0x1a, 0x3d, 0xd3, 0xfb, 0x66, 0xbb, 0xf3, 0x54, 0x95, 0x3d, 0xf5,
    0xed, 0x06, 0x3e, 0x66, 0x8c, 0x12, 0x3c, 0x68, 0x47, 0x15, 0x3c, 0x50, 0x48, 0x03, 0x3e, 0xcc, 0x10, 0xb2, 0xbc,
    0x08, 0x09, 0x2b, 0x3c, 0x95, 0xa8, 0x49, 0x3e, 0x3b, 0x61, 0x16, 0xbd, 0x1f, 0xb3, 0x11, 0xbe, 0xfc, 0x6e, 0x20,
    0x3e, 0xe5, 0xbf, 0x04, 0xbe, 0xed, 0x50, 0xb8, 0xbb, 0xb7, 0xca, 0x2e, 0x3d, 0x44, 0x6c, 0x78, 0xbe, 0x1b, 0xcd,
    0x99, 0x3e, 0x19, 0x81, 0xb1, 0xbe, 0x51, 0x8f, 0x1a, 0x3e, 0x32, 0x24, 0x8f, 0xbd, 0x3a, 0x3d, 0x3b, 0xbd, 0xb9,
    0xca, 0x8c, 0x3e, 0xb4, 0x5f, 0x84, 0x3e, 0x56, 0xb9, 0x89, 0x3d, 0xc0, 0xb2, 0x14, 0x3e, 0x5a, 0xfe, 0xcc, 0x3e,
    0x6c, 0x8b, 0x84, 0x3d, 0xd5, 0xd1, 0x74, 0xbe, 0x61, 0x3e, 0x7e, 0xbe, 0x51, 0xd7, 0xa2, 0xbc, 0x53, 0xbe, 0x27,
    0x3e, 0x73, 0xdb, 0x5f, 0x3e, 0x56, 0xe0, 0x23, 0x3e, 0xa8, 0x99, 0x22, 0xbe, 0x0d, 0x79, 0x77, 0x3e, 0x06, 0x72,
    0xbf, 0xbd, 0x95, 0x78, 0x67, 0xbe, 0x12, 0x8e, 0xdc, 0x3d, 0x71, 0x1d, 0x8a, 0xbd, 0xd6, 0xb6, 0xcb, 0xbc, 0x11,
    0x6c, 0x8b, 0x3c, 0x41, 0xae, 0x93, 0xbe, 0x5a, 0x67, 0x0c, 0x3e, 0x6a, 0x6a, 0x32, 0x3d, 0xaf, 0x71, 0x8d, 0x3e,
    0x00, 0xd3, 0x88, 0x3e, 0x4f, 0x10, 0xb0, 0x3c, 0x8f, 0x3b, 0xc5, 0x3e, 0xe4, 0x96, 0xd3, 0x3c, 0x13, 0xad, 0x55,
    0x3f, 0x5f, 0x53, 0x6d, 0x3e, 0xa4, 0xb7, 0x0b, 0xbf, 0x80, 0x43, 0x6a, 0xbc, 0xa8, 0xc9, 0xed, 0xbf, 0x16, 0xc4,
    0x8f, 0xbe, 0x79, 0x1e, 0x16, 0x3e, 0x8e, 0x4c, 0xd0, 0xbd, 0xeb, 0x63, 0x3e, 0x3e, 0xa6, 0xeb, 0x34, 0xbe, 0x87,
    0xa2, 0x00, 0x3e, 0x8a, 0x50, 0x26, 0xbe, 0xe4, 0x0a, 0xca, 0x3c, 0xe3, 0x6a, 0xec, 0xbe, 0x7e, 0xa6, 0xa8, 0x3e,
    0x49, 0x09, 0x11, 0xbe, 0xe2, 0x76, 0x9b, 0xbd, 0x87, 0xfb, 0x16, 0x3f, 0xac, 0x30, 0xa5, 0x3e, 0xde, 0x17, 0x2d,
    0x3f, 0x68, 0x09, 0x3c, 0x3f, 0xe3, 0xf4, 0x1f, 0xbd, 0x2f, 0xd8, 0x33, 0x3d, 0xa9, 0xf6, 0x16, 0x3f, 0xd4, 0x20,
    0x48, 0xbe, 0x38, 0xd8, 0xaa, 0x3d, 0x4f, 0x89, 0x4e, 0x3e, 0x49, 0x54, 0x11, 0x3d, 0x7b, 0xd8, 0x67, 0x3e, 0x70,
    0xd5, 0x62, 0xbe, 0x8e, 0x4e, 0x01, 0xbe, 0x75, 0x8e, 0x07, 0xbe, 0x8c, 0x43, 0x7d, 0x3e, 0xb5, 0xed, 0x00, 0x3e,
    0xa5, 0x55, 0x05, 0x3e, 0x97, 0x41, 0x7e, 0xbe, 0x2e, 0xf1, 0x26, 0x3f, 0x86, 0x64, 0xb1, 0xbe, 0x70, 0x1e, 0xd7,
    0xbd, 0x0d, 0x3e, 0x83, 0x3c, 0xc6, 0x2f, 0xc0, 0xbc, 0xca, 0x9c, 0xf3, 0xbd, 0x17, 0x72, 0x06, 0xbe, 0xa2, 0x0d,
    0x16, 0x3e, 0x7b, 0xce, 0x02, 0x3d, 0x2f, 0x67, 0x13, 0x3e, 0xb6, 0x32, 0x58, 0x3e, 0xba, 0xb0, 0xd9, 0x3d, 0x85,
    0x8f, 0x54, 0xbe, 0x3d, 0x51, 0x74, 0x3e, 0xfa, 0x9c, 0xc1, 0x3d, 0x8e, 0xd7, 0xee, 0x3c, 0x39, 0x72, 0x02, 0xbe,
    0x07, 0xc4, 0x1d, 0x3e, 0x85, 0xcc, 0x3e, 0xbe, 0x81, 0x34, 0x0a, 0xbe, 0x2e, 0x7e, 0x10, 0x3d, 0x46, 0x91, 0x23,
    0x3e, 0x10, 0x54, 0x61, 0x3e, 0x85, 0xd7, 0xbc, 0x3c, 0xb3, 0x2d, 0xfd, 0x3d, 0xbb, 0x70, 0x20, 0xbe, 0x86, 0x82,
    0xc4, 0xbd, 0x50, 0x97, 0x64, 0x3e, 0xd4, 0x54, 0x46, 0x3e, 0x8c, 0xfa, 0x5f, 0x3d, 0xc7, 0x03, 0x1b, 0x3e, 0xff,
    0xdb, 0x62, 0xbd, 0x3d, 0x59, 0xe7, 0x3d, 0xcb, 0x48, 0x23, 0xbe, 0xdc, 0xe7, 0x34, 0x3d, 0xd2, 0xd0, 0xe4, 0xbd,
    0x00, 0x04, 0xda, 0xbb, 0x12, 0xce, 0x31, 0xbe, 0x22, 0xa3, 0x8a, 0x3e, 0x64, 0x31, 0xcd, 0x3d, 0xed, 0xed, 0x3c,
    0xbe, 0x6d, 0x67, 0xa6, 0xbd, 0xd9, 0xc3, 0x99, 0xbd, 0x2c, 0x60, 0x51, 0xbc, 0x88, 0xe1, 0xb1, 0xbd, 0x03, 0xac,
    0x73, 0xbd, 0xf4, 0xbc, 0x91, 0xbe, 0x80, 0x00, 0x40, 0xbe, 0xa4, 0x9a, 0x8f, 0x3b, 0x0f, 0x1a, 0xc6, 0xbb, 0x7a,
    0x9c, 0x58, 0x3e, 0x32, 0x02, 0xa0, 0x3d, 0x8b, 0x42, 0x17, 0x3d, 0xee, 0x87, 0xe5, 0x3d, 0x93, 0x4c, 0x08, 0x3f,
    0x1b, 0xec, 0x46, 0xbe, 0x72, 0x0f, 0xb6, 0x3d, 0x0b, 0xa6, 0xdb, 0xbe, 0x5a, 0xe7, 0x10, 0x3d, 0xb9, 0x1f, 0xbb,
    0x3e, 0x78, 0x91, 0xaa, 0x3e, 0x02, 0x81, 0x2e, 0xbe, 0xcf, 0xbe, 0xa5, 0xbe, 0x6f, 0x29, 0x92, 0xbf, 0x19, 0x42,
    0x16, 0xbe, 0x46, 0x0e, 0x1b, 0xbe, 0x32, 0x3f, 0xd2, 0x3e, 0x24, 0xcd, 0x14, 0x3e, 0xcf, 0x1f, 0x26, 0x3e, 0x2b,
    0xa2, 0x31, 0xbf, 0x7e, 0x80, 0xd7, 0xbe, 0x7d, 0xab, 0x81, 0xbe, 0x85, 0x8b, 0xc6, 0x3e, 0xce, 0x3d, 0x2d, 0xbf,
    0x39, 0x97, 0xdf, 0x3e, 0x84, 0x75, 0x1b, 0x3f, 0x15, 0x6e, 0x7b, 0x3d, 0xce, 0xcd, 0xcc, 0x3e, 0xab, 0x0f, 0x17,
    0x3f, 0xdb, 0x8a, 0x02, 0x3f, 0x2f, 0x98, 0xdf, 0x3e, 0x91, 0x40, 0x46, 0xbe, 0x9d, 0x06, 0xb9, 0x3e, 0xbb, 0x83,
    0x65, 0x3f, 0x70, 0xb8, 0xd5, 0xbe, 0xf6, 0x00, 0x96, 0xbc, 0xbe, 0xd8, 0xb1, 0x3d, 0xa0, 0x1b, 0x99, 0x3c, 0x97,
    0x88, 0x35, 0x3d, 0xb9, 0xe9, 0x23, 0xbb, 0x2a, 0x45, 0xe1, 0x3b, 0xa1, 0xf9, 0x0f, 0xbd, 0x26, 0x30, 0xd3, 0xbd,
    0x7d, 0x3d, 0x27, 0x3e, 0x59, 0x05, 0x6f, 0xbe, 0x4c, 0xa8, 0x90, 0x3d, 0x7b, 0xf9, 0x01, 0xbd, 0x5f, 0xc2, 0x02,
    0xbe, 0x5d, 0x10, 0x9f, 0x3d, 0x35, 0x4c, 0xb3, 0x3d, 0x64, 0xd9, 0x87, 0xbc, 0x62, 0x6a, 0x46, 0x3a, 0xdf, 0x9b,
    0x9f, 0x3c, 0x19, 0xe7, 0xae, 0x3c, 0x53, 0x01, 0x24, 0x3e, 0x79, 0x69, 0x7a, 0x3d, 0x76, 0x22, 0x28, 0xbd, 0xb6,
    0x1c, 0x9a, 0xbd, 0x51, 0x0f, 0x8f, 0xbe, 0x3f, 0xc5, 0xb7, 0xbd, 0x56, 0x87, 0xee, 0xbc, 0xa9, 0x42, 0x02, 0x3e,
    0xbf, 0x10, 0xba, 0xbd, 0xf4, 0xed, 0x1d, 0x3c, 0x53, 0x4b, 0x35, 0x3e, 0x54, 0xdb, 0x0d, 0xbd, 0x42, 0x9e, 0xe1,
    0x3c, 0x32, 0xbc, 0xde, 0x3c, 0x36, 0xf4, 0xa8, 0xbe, 0x99, 0x16, 0x57, 0xbd, 0x25, 0x55, 0x22, 0xbe, 0x9a, 0xdc,
    0x9f, 0xbd, 0xa2, 0x91, 0x8c, 0xbe, 0x96, 0x6a, 0x38, 0x3c, 0x24, 0x45, 0xc3, 0xbe, 0x75, 0xad, 0xe4, 0xbd, 0x0c,
    0x6d, 0x80, 0x3e, 0x33, 0xab, 0xcd, 0x3d, 0xf5, 0x65, 0xc5, 0x3e, 0x9a, 0x5c, 0x2b, 0x3e, 0x55, 0x42, 0x83, 0xbd,
    0xce, 0xd6, 0x7d, 0xbe, 0x19, 0xbd, 0x2e, 0xbe, 0x63, 0x67, 0x6d, 0x3e, 0x55, 0x3c, 0x3d, 0xbd, 0xf0, 0xf0, 0xca,
    0x3e, 0x00, 0x6d, 0x49, 0xbe, 0xb2, 0x07, 0x39, 0xbe, 0x93, 0x8c, 0xcd, 0x3d, 0xf2, 0x34, 0x07, 0x3e, 0xf9, 0x78,
    0xf1, 0x3d, 0x9c, 0x7c, 0x0b, 0xbf, 0xbe, 0xa8, 0x63, 0x3d, 0x72, 0x7a, 0x91, 0xbe, 0x06, 0xc1, 0xb7, 0xbd, 0xf3,
    0xea, 0x3b, 0xbd, 0x71, 0xdb, 0x8a, 0x3e, 0xdc, 0xbd, 0x06, 0xbe, 0x9e, 0xbf, 0x02, 0xbd, 0x02, 0x5a, 0x4c, 0x3e,
    0x00, 0x1c, 0xa3, 0x3c, 0x2e, 0x08, 0x15, 0xbe, 0x50, 0x24, 0x99, 0xbc, 0xb2, 0x6a, 0x3a, 0xbc, 0x97, 0xce, 0x2b,
    0xbd, 0xef, 0x16, 0xc1, 0x3d, 0xd5, 0xe9, 0x37, 0x3e, 0xa4, 0x11, 0x50, 0xbe, 0x29, 0x0f, 0xaa, 0x3c, 0x4b, 0xe8,
    0x0a, 0xbd, 0x64, 0x1a, 0x79, 0x3e, 0x42, 0xb5, 0x28, 0xbe, 0x3a, 0xeb, 0x12, 0xbe, 0xf3, 0xb3, 0x54, 0xbe, 0xc9,
    0xe4, 0xc6, 0x3d, 0x89, 0xe6, 0x6d, 0xbd, 0x8e, 0x94, 0x47, 0xba, 0x82, 0xfe, 0xdf, 0xbd, 0x72, 0xce, 0x2a, 0x3d,
    0x51, 0x22, 0x2c, 0xbe, 0x01, 0x6f, 0xa2, 0xbb, 0x7c, 0x83, 0x7d, 0x3e, 0x8c, 0xc6, 0xd3, 0x3c, 0xc6, 0x03, 0x4a,
    0x3e, 0xf1, 0xd1, 0x0e, 0x3e, 0x0e, 0xa9, 0x37, 0xbe, 0x30, 0x4d, 0x2f, 0xbd, 0x2d, 0x3f, 0xa5, 0xbd, 0x35, 0x1e,
    0x9b, 0xbd, 0xbc, 0xa5, 0xb4, 0xbd, 0xba, 0x52, 0x0b, 0x3e, 0xe6, 0xfe, 0xff, 0xff, 0x04, 0x00, 0x00, 0x00, 0x80,
    0x00, 0x00, 0x00, 0x74, 0x11, 0x33, 0x3c, 0x72, 0x48, 0x9e, 0x3e, 0x98, 0xe3, 0x12, 0xbe, 0xc8, 0x89, 0x80, 0xbd,
    0xe3, 0xa2, 0x24, 0x3e, 0x6b, 0x2c, 0x12, 0xb9, 0x29, 0x87, 0x43, 0xbe, 0x0b, 0x81, 0xdd, 0x3d, 0xac, 0x44, 0xa7,
    0xbd, 0x99, 0xc1, 0x1f, 0x3b, 0x4c, 0x37, 0x02, 0x3b, 0x39, 0x5a, 0x95, 0x3d, 0x07, 0x76, 0xb9, 0x3d, 0x76, 0x84,
    0x06, 0x3d, 0x3a, 0x93, 0x1a, 0xb9, 0xd6, 0x76, 0x9f, 0xbe, 0xcf, 0xbc, 0xb8, 0xbb, 0x6b, 0x19, 0x6f, 0x3a, 0x12,
    0x22, 0x89, 0xbd, 0x67, 0xb2, 0x7b, 0x3c, 0x93, 0xe8, 0x83, 0x3a, 0xea, 0x61, 0xe1, 0x3d, 0xe4, 0xa7, 0x3f, 0xbb,
    0x71, 0xef, 0x12, 0xbb, 0xdb, 0x49, 0x9d, 0x3d, 0x8a, 0x52, 0xbf, 0x3a, 0x92, 0xb0, 0x0c, 0x3b, 0xf8, 0x3d, 0x52,
    0x3b, 0x67, 0xc4, 0xe9, 0x3e, 0x01, 0x0a, 0xf4, 0x3a, 0x4d, 0x05, 0xd1, 0xbd, 0xbc, 0x3f, 0x08, 0x3b, 0x72, 0xff,
    0xff, 0xff, 0x04, 0x00, 0x00, 0x00, 0x80, 0x00, 0x00, 0x00, 0x96, 0xea, 0x36, 0xbe, 0xe7, 0x77, 0x06, 0x3c, 0x03,
    0x8d, 0x4a, 0xbe, 0xf1, 0x2e, 0x87, 0xbe, 0x43, 0x21, 0xa2, 0xbe, 0x65, 0x57, 0x97, 0xbc, 0xb1, 0x7b, 0x3d, 0xbe,
    0x35, 0xfe, 0x6d, 0x3d, 0xb9, 0xd0, 0x04, 0xbe, 0xf0, 0xf0, 0xa2, 0xbd, 0x8a, 0x72, 0xa9, 0xbd, 0x7a, 0xa9, 0xe6,
    0x3d, 0xc2, 0x68, 0x1b, 0xbc, 0xf3, 0xaa, 0x78, 0xbe, 0xac, 0xd5, 0x94, 0xbd, 0x29, 0xc7, 0xe7, 0x3c, 0xa7, 0xc2,
    0xe0, 0xbd, 0x8f, 0x8d, 0xb9, 0x3d, 0x35, 0x25, 0xdc, 0x3a, 0xdc, 0x15, 0xc8, 0xbd, 0x78, 0xef, 0x18, 0x3e, 0x65,
    0x5e, 0x76, 0xbd, 0xf7, 0x57, 0xf7, 0x3d, 0xa2, 0xa9, 0x09, 0xbe, 0xdc, 0xf1, 0x4c, 0xbe, 0x8c, 0x7e, 0x69, 0xbe,
    0x7f, 0x22, 0xec, 0xbc, 0x64, 0x45, 0x8d, 0x3d, 0x51, 0xd4, 0x2d, 0xbf, 0x95, 0x33, 0xe9, 0x3d, 0x7b, 0x3c, 0x31,
    0xbe, 0xa1, 0x9a, 0x5e, 0x3d, 0x00, 0x00, 0x06, 0x00, 0x08, 0x00, 0x04, 0x00, 0x06, 0x00, 0x00, 0x00, 0x04, 0x00,
    0x00, 0x00, 0x04, 0x00, 0x00, 0x00, 0xec, 0x28, 0xba, 0xbb, 0x38, 0xfa, 0xff, 0xff, 0x3c, 0xfa, 0xff, 0xff, 0x0f,
    0x00, 0x00, 0x00, 0x4d, 0x4c, 0x49, 0x52, 0x20, 0x43, 0x6f, 0x6e, 0x76, 0x65, 0x72, 0x74, 0x65, 0x64, 0x2e, 0x00,
    0x01, 0x00, 0x00, 0x00, 0x14, 0x00, 0x00, 0x00, 0x00, 0x00, 0x0e, 0x00, 0x18, 0x00, 0x14, 0x00, 0x10, 0x00, 0x0c,
    0x00, 0x08, 0x00, 0x04, 0x00, 0x0e, 0x00, 0x00, 0x00, 0x14, 0x00, 0x00, 0x00, 0x1c, 0x00, 0x00, 0x00, 0x40, 0x01,
    0x00, 0x00, 0x44, 0x01, 0x00, 0x00, 0x48, 0x01, 0x00, 0x00, 0x04, 0x00, 0x00, 0x00, 0x6d, 0x61, 0x69, 0x6e, 0x00,
    0x00, 0x00, 0x00, 0x06, 0x00, 0x00, 0x00, 0xf4, 0x00, 0x00, 0x00, 0xc0, 0x00, 0x00, 0x00, 0x80, 0x00, 0x00, 0x00,
    0x5c, 0x00, 0x00, 0x00, 0x28, 0x00, 0x00, 0x00, 0x04, 0x00, 0x00, 0x00, 0x5e, 0xff, 0xff, 0xff, 0x0c, 0x00, 0x00,
    0x00, 0x10, 0x00, 0x00, 0x00, 0x02, 0x00, 0x00, 0x00, 0x01, 0x00, 0x00, 0x00, 0x0c, 0x00, 0x00, 0x00, 0x01, 0x00,
    0x00, 0x00, 0x0b, 0x00, 0x00, 0x00, 0x52, 0xff, 0xff, 0xff, 0x10, 0x00, 0x00, 0x00, 0x00, 0x00, 0x00, 0x08, 0x0c,
    0x00, 0x00, 0x00, 0x10, 0x00, 0x00, 0x00, 0xe0, 0xfa, 0xff, 0xff, 0x01, 0x00, 0x00, 0x00, 0x0b, 0x00, 0x00, 0x00,
    0x03, 0x00, 0x00, 0x00, 0x0a, 0x00, 0x00, 0x00, 0x03, 0x00, 0x00, 0x00, 0x01, 0x00, 0x00, 0x00, 0xae, 0xff, 0xff,
    0xff, 0x0c, 0x00, 0x00, 0x00, 0x10, 0x00, 0x00, 0x00, 0x01, 0x00, 0x00, 0x00, 0x01, 0x00, 0x00, 0x00, 0x0a, 0x00,
    0x00, 0x00, 0x01, 0x00, 0x00, 0x00, 0x09, 0x00, 0x00, 0x00, 0xa2, 0xff, 0xff, 0xff, 0x10, 0x00, 0x00, 0x00, 0x00,
    0x00, 0x00, 0x08, 0x0c, 0x00, 0x00, 0x00, 0x10, 0x00, 0x00, 0x00, 0x30, 0xfb, 0xff, 0xff, 0x01, 0x00, 0x00, 0x00,
    0x09, 0x00, 0x00, 0x00, 0x03, 0x00, 0x00, 0x00, 0x08, 0x00, 0x00, 0x00, 0x04, 0x00, 0x00, 0x00, 0x02, 0x00, 0x00,
    0x00, 0x00, 0x00, 0x0a, 0x00, 0x10, 0x00, 0x0c, 0x00, 0x08, 0x00, 0x04, 0x00, 0x0a, 0x00, 0x00, 0x00, 0x0c, 0x00,
    0x00, 0x00, 0x10, 0x00, 0x00, 0x00, 0x01, 0x00, 0x00, 0x00, 0x01, 0x00, 0x00, 0x00, 0x08, 0x00, 0x00, 0x00, 0x01,
    0x00, 0x00, 0x00, 0x07, 0x00, 0x00, 0x00, 0x00, 0x00, 0x0e, 0x00, 0x14, 0x00, 0x00, 0x00, 0x10, 0x00, 0x0c, 0x00,
    0x0b, 0x00, 0x04, 0x00, 0x0e, 0x00, 0x00, 0x00, 0x10, 0x00, 0x00, 0x00, 0x00, 0x00, 0x00, 0x08, 0x0c, 0x00, 0x00,
    0x00, 0x10, 0x00, 0x00, 0x00, 0x9c, 0xfb, 0xff, 0xff, 0x01, 0x00, 0x00, 0x00, 0x07, 0x00, 0x00, 0x00, 0x03, 0x00,
    0x00, 0x00, 0x00, 0x00, 0x00, 0x00, 0x05, 0x00, 0x00, 0x00, 0x06, 0x00, 0x00, 0x00, 0x01, 0x00, 0x00, 0x00, 0x0c,
    0x00, 0x00, 0x00, 0x01, 0x00, 0x00, 0x00, 0x00, 0x00, 0x00, 0x00, 0x0d, 0x00, 0x00, 0x00, 0x1c, 0x04, 0x00, 0x00,
    0xb4, 0x03, 0x00, 0x00, 0x64, 0x03, 0x00, 0x00, 0x14, 0x03, 0x00, 0x00, 0xc4, 0x02, 0x00, 0x00, 0x74, 0x02, 0x00,
    0x00, 0x24, 0x02, 0x00, 0x00, 0xb4, 0x01, 0x00, 0x00, 0x70, 0x01, 0x00, 0x00, 0xfc, 0x00, 0x00, 0x00, 0xb4, 0x00,
    0x00, 0x00, 0x40, 0x00, 0x00, 0x00, 0x04, 0x00, 0x00, 0x00, 0x2e, 0xfc, 0xff, 0xff, 0x00, 0x00, 0x00, 0x01, 0x10,
    0x00, 0x00, 0x00, 0x10, 0x00, 0x00, 0x00, 0x0d, 0x00, 0x00, 0x00, 0x18, 0x00, 0x00, 0x00, 0x18, 0xfc, 0xff, 0xff,
    0x08, 0x00, 0x00, 0x00, 0x49, 0x64, 0x65, 0x6e, 0x74, 0x69, 0x74, 0x79, 0x00, 0x00, 0x00, 0x00, 0x02, 0x00, 0x00,
    0x00, 0x01, 0x00, 0x00, 0x00, 0x01, 0x00, 0x00, 0x00, 0x66, 0xfc, 0xff, 0xff, 0x00, 0x00, 0x00, 0x01, 0x10, 0x00,
    0x00, 0x00, 0x10, 0x00, 0x00, 0x00, 0x0c, 0x00, 0x00, 0x00, 0x50, 0x00, 0x00, 0x00, 0x50, 0xfc, 0xff, 0xff, 0x42,
    0x00, 0x00, 0x00, 0x6d, 0x6f, 0x64, 0x65, 0x6c, 0x2f, 0x74, 0x66, 0x2e, 0x6c, 0x69, 0x6e, 0x61, 0x6c, 0x67, 0x2e,
    0x6d, 0x61, 0x74, 0x6d, 0x75, 0x6c, 0x5f, 0x32, 0x2f, 0x4d, 0x61, 0x74, 0x4d, 0x75, 0x6c, 0x3b, 0x6d, 0x6f, 0x64,
    0x65, 0x6c, 0x2f, 0x74, 0x66, 0x2e, 0x5f, 0x5f, 0x6f, 0x70, 0x65, 0x72, 0x61, 0x74, 0x6f, 0x72, 0x73, 0x5f, 0x5f,
    0x2e, 0x61, 0x64, 0x64, 0x5f, 0x32, 0x2f, 0x41, 0x64, 0x64, 0x56, 0x32, 0x00, 0x00, 0x02, 0x00, 0x00, 0x00, 0x01,
    0x00, 0x00, 0x00, 0x01, 0x00, 0x00, 0x00, 0xd6, 0xfc, 0xff, 0xff, 0x00, 0x00, 0x00, 0x01, 0x10, 0x00, 0x00, 0x00,
    0x10, 0x00, 0x00, 0x00, 0x0b, 0x00, 0x00, 0x00, 0x24, 0x00, 0x00, 0x00, 0xc0, 0xfc, 0xff, 0xff, 0x15, 0x00, 0x00,
    0x00, 0x6d, 0x6f, 0x64, 0x65, 0x6c, 0x2f, 0x74, 0x66, 0x2e, 0x6e, 0x6e, 0x2e, 0x65, 0x6c, 0x75, 0x5f, 0x31, 0x2f,
    0x45, 0x6c, 0x75, 0x00, 0x00, 0x00, 0x02, 0x00, 0x00, 0x00, 0x01, 0x00, 0x00, 0x00, 0x20, 0x00, 0x00, 0x00, 0x1a,
    0xfd, 0xff, 0xff, 0x00, 0x00, 0x00, 0x01, 0x10, 0x00, 0x00, 0x00, 0x10, 0x00, 0x00, 0x00, 0x0a, 0x00, 0x00, 0x00,
    0x50, 0x00, 0x00, 0x00, 0x04, 0xfd, 0xff, 0xff, 0x42, 0x00, 0x00, 0x00, 0x6d, 0x6f, 0x64, 0x65, 0x6c, 0x2f, 0x74,
    0x66, 0x2e, 0x6c, 0x69, 0x6e, 0x61, 0x6c, 0x67, 0x2e, 0x6d, 0x61, 0x74, 0x6d, 0x75, 0x6c, 0x5f, 0x31, 0x2f, 0x4d,
    0x61, 0x74, 0x4d, 0x75, 0x6c, 0x3b, 0x6d, 0x6f, 0x64, 0x65, 0x6c, 0x2f, 0x74, 0x66, 0x2e, 0x5f, 0x5f, 0x6f, 0x70,
    0x65, 0x72, 0x61, 0x74, 0x6f, 0x72, 0x73, 0x5f, 0x5f, 0x2e, 0x61, 0x64, 0x64, 0x5f, 0x31, 0x2f, 0x41, 0x64, 0x64,
    0x56, 0x32, 0x00, 0x00, 0x02, 0x00, 0x00, 0x00, 0x01, 0x00, 0x00, 0x00, 0x20, 0x00, 0x00, 0x00, 0x8a, 0xfd, 0xff,
    0xff, 0x00, 0x00, 0x00, 0x01, 0x10, 0x00, 0x00, 0x00, 0x10, 0x00, 0x00, 0x00, 0x09, 0x00, 0x00, 0x00, 0x20, 0x00,
    0x00, 0x00, 0x74, 0xfd, 0xff, 0xff, 0x13, 0x00, 0x00, 0x00, 0x6d, 0x6f, 0x64, 0x65, 0x6c, 0x2f, 0x74, 0x66, 0x2e,
    0x6e, 0x6e, 0x2e, 0x65, 0x6c, 0x75, 0x2f, 0x45, 0x6c, 0x75, 0x00, 0x02, 0x00, 0x00, 0x00, 0x01, 0x00, 0x00, 0x00,
    0x20, 0x00, 0x00, 0x00, 0xca, 0xfd, 0xff, 0xff, 0x00, 0x00, 0x00, 0x01, 0x10, 0x00, 0x00, 0x00, 0x10, 0x00, 0x00,
    0x00, 0x08, 0x00, 0x00, 0x00, 0x4c, 0x00, 0x00, 0x00, 0xb4, 0xfd, 0xff, 0xff, 0x3e, 0x00, 0x00, 0x00, 0x6d, 0x6f,
    0x64, 0x65, 0x6c, 0x2f, 0x74, 0x66, 0x2e, 0x6c, 0x69, 0x6e, 0x61, 0x6c, 0x67, 0x2e, 0x6d, 0x61, 0x74, 0x6d, 0x75,
    0x6c, 0x2f, 0x4d, 0x61, 0x74, 0x4d, 0x75, 0x6c, 0x3b, 0x6d, 0x6f, 0x64, 0x65, 0x6c, 0x2f, 0x74, 0x66, 0x2e, 0x5f,
    0x5f, 0x6f, 0x70, 0x65, 0x72, 0x61, 0x74, 0x6f, 0x72, 0x73, 0x5f, 0x5f, 0x2e, 0x61, 0x64, 0x64, 0x2f, 0x41, 0x64,
    0x64, 0x56, 0x32, 0x00, 0x00, 0x02, 0x00, 0x00, 0x00, 0x01, 0x00, 0x00, 0x00, 0x20, 0x00, 0x00, 0x00, 0x36, 0xfe,
    0xff, 0xff, 0x00, 0x00, 0x00, 0x01, 0x10, 0x00, 0x00, 0x00, 0x10, 0x00, 0x00, 0x00, 0x07, 0x00, 0x00, 0x00, 0x30,
    0x00, 0x00, 0x00, 0x20, 0xfe, 0xff, 0xff, 0x20, 0x00, 0x00, 0x00, 0x6d, 0x6f, 0x64, 0x65, 0x6c, 0x2f, 0x74, 0x66,
    0x2e, 0x5f, 0x5f, 0x6f, 0x70, 0x65, 0x72, 0x61, 0x74, 0x6f, 0x72, 0x73, 0x5f, 0x5f, 0x2e, 0x61, 0x64, 0x64, 0x2f,
    0x41, 0x64, 0x64, 0x56, 0x32, 0x00, 0x00, 0x00, 0x00, 0x01, 0x00, 0x00, 0x00, 0x20, 0x00, 0x00, 0x00, 0x82, 0xfe,
    0xff, 0xff, 0x00, 0x00, 0x00, 0x01, 0x10, 0x00, 0x00, 0x00, 0x10, 0x00, 0x00, 0x00, 0x06, 0x00, 0x00, 0x00, 0x2c,
    0x00, 0x00, 0x00, 0x6c, 0xfe, 0xff, 0xff, 0x1d, 0x00, 0x00, 0x00, 0x6d, 0x6f, 0x64, 0x65, 0x6c, 0x2f, 0x74, 0x66,
    0x2e, 0x6c, 0x69, 0x6e, 0x61, 0x6c, 0x67, 0x2e, 0x6d, 0x61, 0x74, 0x6d, 0x75, 0x6c, 0x2f, 0x4d, 0x61, 0x74, 0x4d,
    0x75, 0x6c, 0x00, 0x00, 0x00, 0x02, 0x00, 0x00, 0x00, 0x20, 0x00, 0x00, 0x00, 0x05, 0x00, 0x00, 0x00, 0xce, 0xfe,
    0xff, 0xff, 0x00, 0x00, 0x00, 0x01, 0x10, 0x00, 0x00, 0x00, 0x10, 0x00, 0x00, 0x00, 0x05, 0x00, 0x00, 0x00, 0x2c,
    0x00, 0x00, 0x00, 0xb8, 0xfe, 0xff, 0xff, 0x1f, 0x00, 0x00, 0x00, 0x6d, 0x6f, 0x64, 0x65, 0x6c, 0x2f, 0x74, 0x66,
    0x2e, 0x6c, 0x69, 0x6e, 0x61, 0x6c, 0x67, 0x2e, 0x6d, 0x61, 0x74, 0x6d, 0x75, 0x6c, 0x5f, 0x31, 0x2f, 0x4d, 0x61,
    0x74, 0x4d, 0x75, 0x6c, 0x00, 0x02, 0x00, 0x00, 0x00, 0x20, 0x00, 0x00, 0x00, 0x20, 0x00, 0x00, 0x00, 0x1a, 0xff,
    0xff, 0xff, 0x00, 0x00, 0x00, 0x01, 0x10, 0x00, 0x00, 0x00, 0x10, 0x00, 0x00, 0x00, 0x04, 0x00, 0x00, 0x00, 0x2c,
    0x00, 0x00, 0x00, 0x04, 0xff, 0xff, 0xff, 0x1f, 0x00, 0x00, 0x00, 0x6d, 0x6f, 0x64, 0x65, 0x6c, 0x2f, 0x74, 0x66,
    0x2e, 0x6c, 0x69, 0x6e, 0x61, 0x6c, 0x67, 0x2e, 0x6d, 0x61, 0x74, 0x6d, 0x75, 0x6c, 0x5f, 0x32, 0x2f, 0x4d, 0x61,
    0x74, 0x4d, 0x75, 0x6c, 0x00, 0x02, 0x00, 0x00, 0x00, 0x01, 0x00, 0x00, 0x00, 0x20, 0x00, 0x00, 0x00, 0x66, 0xff,
    0xff, 0xff, 0x00, 0x00, 0x00, 0x01, 0x10, 0x00, 0x00, 0x00, 0x10, 0x00, 0x00, 0x00, 0x03, 0x00, 0x00, 0x00, 0x30,
    0x00, 0x00, 0x00, 0x50, 0xff, 0xff, 0xff, 0x22, 0x00, 0x00, 0x00, 0x6d, 0x6f, 0x64, 0x65, 0x6c, 0x2f, 0x74, 0x66,
    0x2e, 0x5f, 0x5f, 0x6f, 0x70, 0x65, 0x72, 0x61, 0x74, 0x6f, 0x72, 0x73, 0x5f, 0x5f, 0x2e, 0x61, 0x64, 0x64, 0x5f,
    0x31, 0x2f, 0x41, 0x64, 0x64, 0x56, 0x32, 0x00, 0x00, 0x01, 0x00, 0x00, 0x00, 0x20, 0x00, 0x00, 0x00, 0xb2, 0xff,
    0xff, 0xff, 0x00, 0x00, 0x00, 0x01, 0x10, 0x00, 0x00, 0x00, 0x10, 0x00, 0x00, 0x00, 0x02, 0x00, 0x00, 0x00, 0x30,
    0x00, 0x00, 0x00, 0x9c, 0xff, 0xff, 0xff, 0x22, 0x00, 0x00, 0x00, 0x6d, 0x6f, 0x64, 0x65, 0x6c, 0x2f, 0x74, 0x66,
    0x2e, 0x5f, 0x5f, 0x6f, 0x70, 0x65, 0x72, 0x61, 0x74, 0x6f, 0x72, 0x73, 0x5f, 0x5f, 0x2e, 0x61, 0x64, 0x64, 0x5f,
    0x32, 0x2f, 0x41, 0x64, 0x64, 0x56, 0x32, 0x00, 0x00, 0x01, 0x00, 0x00, 0x00, 0x01, 0x00, 0x00, 0x00, 0x00, 0x00,
    0x16, 0x00, 0x18, 0x00, 0x14, 0x00, 0x00, 0x00, 0x10, 0x00, 0x0c, 0x00, 0x08, 0x00, 0x00, 0x00, 0x00, 0x00, 0x00,
    0x00, 0x07, 0x00, 0x16, 0x00, 0x00, 0x00, 0x00, 0x00, 0x00, 0x01, 0x14, 0x00, 0x00, 0x00, 0x14, 0x00, 0x00, 0x00,
    0x01, 0x00, 0x00, 0x00, 0x14, 0x00, 0x00, 0x00, 0x04, 0x00, 0x04, 0x00, 0x04, 0x00, 0x00, 0x00, 0x03, 0x00, 0x00,
    0x00, 0x6f, 0x62, 0x73, 0x00, 0x02, 0x00, 0x00, 0x00, 0x01, 0x00, 0x00, 0x00, 0x05, 0x00, 0x00, 0x00, 0x03, 0x00,
    0x00, 0x00, 0x30, 0x00, 0x00, 0x00, 0x14, 0x00, 0x00, 0x00, 0x04, 0x00, 0x00, 0x00, 0xe8, 0xff, 0xff, 0xff, 0x1c,
    0x00, 0x00, 0x00, 0x00, 0x00, 0x00, 0x1c, 0xf4, 0xff, 0xff, 0xff, 0x6f, 0x00, 0x00, 0x00, 0x00, 0x00, 0x00, 0x6f,
    0x0c, 0x00, 0x0c, 0x00, 0x0b, 0x00, 0x00, 0x00, 0x00, 0x00, 0x04, 0x00, 0x0c, 0x00, 0x00, 0x00, 0x09, 0x00, 0x00,
    0x00, 0x00, 0x00, 0x00, 0x09};
unsigned int policy_model_len = 7168;

#endif // POLICY_MODEL_H
