#pragma once

// Input normalisation (running mean / variance from SKRL preprocessor)
// float MODEL_INPUT_MEAN[] = {0.03160070f, -0.04923343f, 0.00269673f, 0.97471118f, 0.13676924f};
// float MODEL_INPUT_VAR[] = {0.00872619f, 0.38674623f, 0.02406406f, 0.02587135f, 6.36017227f};
// const int MODEL_INPUT_SIZE = 5;

constexpr float MODEL_INPUT_MEAN[] = {0.03160070f, -0.04923343f, 0.00269673f, 0.97471118f, 0.13676924f};
constexpr float MODEL_INPUT_VAR[] = {0.00872619f, 0.38674623f, 0.02406406f, 0.02587135f, 6.36017227f};
constexpr int MODEL_INPUT_SIZE = 5;

inline constexpr unsigned char policy_model[] = {
    0x1c, 0x00, 0x00, 0x00, 0x54, 0x46, 0x4c, 0x33, 0x14, 0x00, 0x20, 0x00, 0x1c, 0x00, 0x18, 0x00, 0x14, 0x00, 0x10,
    0x00, 0x0c, 0x00, 0x00, 0x00, 0x08, 0x00, 0x04, 0x00, 0x14, 0x00, 0x00, 0x00, 0x1c, 0x00, 0x00, 0x00, 0x1c, 0x00,
    0x00, 0x00, 0x74, 0x00, 0x00, 0x00, 0xb8, 0x15, 0x00, 0x00, 0xc8, 0x15, 0x00, 0x00, 0x8c, 0x1b, 0x00, 0x00, 0x03,
    0x00, 0x00, 0x00, 0x00, 0x00, 0x00, 0x00, 0x02, 0x00, 0x00, 0x00, 0x34, 0x00, 0x00, 0x00, 0x04, 0x00, 0x00, 0x00,
    0xdc, 0xff, 0xff, 0xff, 0x0f, 0x00, 0x00, 0x00, 0x04, 0x00, 0x00, 0x00, 0x13, 0x00, 0x00, 0x00, 0x43, 0x4f, 0x4e,
    0x56, 0x45, 0x52, 0x53, 0x49, 0x4f, 0x4e, 0x5f, 0x4d, 0x45, 0x54, 0x41, 0x44, 0x41, 0x54, 0x41, 0x00, 0x08, 0x00,
    0x0c, 0x00, 0x08, 0x00, 0x04, 0x00, 0x08, 0x00, 0x00, 0x00, 0x0e, 0x00, 0x00, 0x00, 0x04, 0x00, 0x00, 0x00, 0x13,
    0x00, 0x00, 0x00, 0x6d, 0x69, 0x6e, 0x5f, 0x72, 0x75, 0x6e, 0x74, 0x69, 0x6d, 0x65, 0x5f, 0x76, 0x65, 0x72, 0x73,
    0x69, 0x6f, 0x6e, 0x00, 0x10, 0x00, 0x00, 0x00, 0x40, 0x15, 0x00, 0x00, 0x38, 0x15, 0x00, 0x00, 0x24, 0x15, 0x00,
    0x00, 0x8c, 0x14, 0x00, 0x00, 0xfc, 0x13, 0x00, 0x00, 0xec, 0x03, 0x00, 0x00, 0x5c, 0x01, 0x00, 0x00, 0xcc, 0x00,
    0x00, 0x00, 0xc4, 0x00, 0x00, 0x00, 0xbc, 0x00, 0x00, 0x00, 0xb4, 0x00, 0x00, 0x00, 0xac, 0x00, 0x00, 0x00, 0xa4,
    0x00, 0x00, 0x00, 0x9c, 0x00, 0x00, 0x00, 0x7c, 0x00, 0x00, 0x00, 0x04, 0x00, 0x00, 0x00, 0x1a, 0xeb, 0xff, 0xff,
    0x04, 0x00, 0x00, 0x00, 0x68, 0x00, 0x00, 0x00, 0x10, 0x00, 0x00, 0x00, 0x00, 0x00, 0x00, 0x00, 0x08, 0x00, 0x0e,
    0x00, 0x08, 0x00, 0x04, 0x00, 0x08, 0x00, 0x00, 0x00, 0x14, 0x00, 0x00, 0x00, 0x2c, 0x00, 0x00, 0x00, 0x00, 0x00,
    0x0a, 0x00, 0x0c, 0x00, 0x08, 0x00, 0x00, 0x00, 0x07, 0x00, 0x0a, 0x00, 0x00, 0x00, 0x00, 0x00, 0x00, 0x01, 0x04,
    0x00, 0x00, 0x00, 0x00, 0x00, 0x00, 0x00, 0x0c, 0x00, 0x18, 0x00, 0x14, 0x00, 0x10, 0x00, 0x0c, 0x00, 0x04, 0x00,
    0x0c, 0x00, 0x00, 0x00, 0xf9, 0x6e, 0xbe, 0x08, 0xe0, 0x73, 0xb6, 0x92, 0x03, 0x00, 0x00, 0x00, 0x02, 0x00, 0x00,
    0x00, 0x04, 0x00, 0x00, 0x00, 0x06, 0x00, 0x00, 0x00, 0x32, 0x2e, 0x32, 0x31, 0x2e, 0x30, 0x00, 0x00, 0x8e, 0xeb,
    0xff, 0xff, 0x04, 0x00, 0x00, 0x00, 0x10, 0x00, 0x00, 0x00, 0x31, 0x2e, 0x31, 0x34, 0x2e, 0x30, 0x00, 0x00, 0x00,
    0x00, 0x00, 0x00, 0x00, 0x00, 0x00, 0x00, 0xcc, 0xe5, 0xff, 0xff, 0xd0, 0xe5, 0xff, 0xff, 0xd4, 0xe5, 0xff, 0xff,
    0xd8, 0xe5, 0xff, 0xff, 0xdc, 0xe5, 0xff, 0xff, 0xe0, 0xe5, 0xff, 0xff, 0xc2, 0xeb, 0xff, 0xff, 0x04, 0x00, 0x00,
    0x00, 0x80, 0x00, 0x00, 0x00, 0xb8, 0x21, 0x84, 0xbd, 0x23, 0xa5, 0x48, 0xbf, 0x7f, 0x50, 0xbd, 0x3e, 0x5e, 0xdf,
    0xea, 0xbc, 0xcd, 0xb4, 0x53, 0x3e, 0x8a, 0xdf, 0xc4, 0x3d, 0xa1, 0xe7, 0x18, 0xbf, 0xb7, 0x61, 0x79, 0xbe, 0xd8,
    0x68, 0x97, 0x3d, 0x66, 0x9e, 0x15, 0x3f, 0x27, 0xfb, 0xb4, 0x3e, 0x97, 0x68, 0x6a, 0xbe, 0xc4, 0xdb, 0x59, 0x3d,
    0x0d, 0x9c, 0x53, 0xbf, 0x4b, 0xf8, 0xd7, 0xbe, 0xe4, 0x6d, 0xee, 0xbe, 0xe0, 0x07, 0x10, 0x3f, 0x9e, 0x8c, 0x2a,
    0x3f, 0x03, 0xe0, 0x39, 0x3e, 0x57, 0x50, 0xed, 0xbe, 0x5a, 0xa0, 0xc0, 0x3e, 0xc0, 0x63, 0x13, 0xbf, 0x97, 0xcc,
    0xb3, 0xbe, 0x26, 0x3b, 0x51, 0x3e, 0x8e, 0xe0, 0x3b, 0xbf, 0x66, 0x52, 0xef, 0xbe, 0x39, 0x56, 0xaf, 0xbe, 0x86,
    0xaa, 0x21, 0xbf, 0x9b, 0xe6, 0x33, 0x3e, 0x07, 0x81, 0x5b, 0xbf, 0x4b, 0xa9, 0x4b, 0xbf, 0xc3, 0x01, 0x83, 0x3e,
    0x4e, 0xec, 0xff, 0xff, 0x04, 0x00, 0x00, 0x00, 0x80, 0x02, 0x00, 0x00, 0xa8, 0xc6, 0x89, 0xbe, 0xc1, 0xf6, 0x91,
    0x3d, 0xd8, 0x23, 0x99, 0xbe, 0x86, 0xcb, 0x61, 0xbe, 0xec, 0xa7, 0xe3, 0xbe, 0x12, 0xce, 0xb9, 0x3e, 0x17, 0x5b,
    0xc2, 0xbd, 0x18, 0x4b, 0x2c, 0x3e, 0xd7, 0xc1, 0x62, 0xbd, 0x3b, 0xd1, 0x92, 0x3d, 0xe8, 0xac, 0x78, 0xbd, 0x45,
    0x3b, 0xa6, 0x3e, 0x60, 0x88, 0x82, 0x3e, 0xc9, 0xa2, 0x5b, 0xbe, 0xcf, 0x21, 0x0b, 0x3f, 0x64, 0x4e, 0xb2, 0xbe,
    0x0b, 0xa0, 0x4e, 0x3e, 0x50, 0xd8, 0x47, 0xbe, 0xe8, 0x13, 0x82, 0xbe, 0xe2, 0x52, 0x93, 0x3d, 0x94, 0x58, 0x4b,
    0xbe, 0x8d, 0xec, 0x87, 0x3d, 0x24, 0x6e, 0x03, 0x3d, 0xed, 0x99, 0x95, 0xbd, 0x59, 0xe6, 0x3e, 0xbc, 0xd4, 0xb7,
    0xe1, 0x3d, 0x07, 0x48, 0xf7, 0x3e, 0xa8, 0xa0, 0xc8, 0x3c, 0x09, 0x68, 0x80, 0x3e, 0x96, 0x76, 0x9e, 0x3e, 0x6f,
    0x10, 0x8d, 0x3e, 0x52, 0x05, 0x3a, 0xbe, 0x1f, 0x57, 0xe6, 0x3c, 0xf1, 0x9a, 0x93, 0x3e, 0xfa, 0xd1, 0xc8, 0x3d,
    0x04, 0x81, 0x5a, 0xbe, 0x1b, 0x34, 0x1c, 0x3f, 0x5b, 0x75, 0x1b, 0xbe, 0xb0, 0x76, 0xe3, 0x3d, 0x8d, 0x48, 0xc9,
    0x3e, 0x54, 0x57, 0xd6, 0xbd, 0x81, 0x21, 0xdb, 0xbe, 0x40, 0x45, 0x55, 0x3e, 0x5e, 0x55, 0x5b, 0xbd, 0xa7, 0x62,
    0xf0, 0xbe, 0xdb, 0x54, 0x40, 0x3d, 0xfa, 0x7f, 0x0e, 0xbe, 0x86, 0xe6, 0x80, 0x3a, 0xf8, 0xea, 0x5f, 0xbe, 0x46,
    0x80, 0xbb, 0xbe, 0xf2, 0x44, 0x00, 0xbc, 0xc4, 0x3f, 0x01, 0xbe, 0xcd, 0xa8, 0x2b, 0xbe, 0x2a, 0x46, 0x01, 0x3f,
    0x0d, 0x57, 0xb0, 0x3e, 0x08, 0x8d, 0x40, 0xbe, 0x96, 0xd4, 0xdb, 0xbe, 0x3f, 0x29, 0x59, 0xbe, 0xaa, 0xf9, 0x10,
    0x3f, 0x62, 0xc4, 0x8b, 0xbe, 0x7e, 0x27, 0x54, 0xbd, 0xd3, 0x66, 0xb3, 0xbe, 0x07, 0x65, 0xdb, 0x39, 0xe6, 0xe9,
    0xf7, 0x3d, 0xc2, 0x9d, 0x88, 0xbf, 0x47, 0x39, 0x7c, 0xbe, 0x23, 0xd5, 0x3a, 0x3d, 0xab, 0x19, 0x64, 0xbc, 0xe2,
    0x1c, 0x23, 0xbf, 0xbe, 0x7a, 0x4f, 0x3f, 0xa6, 0x66, 0xd6, 0x3e, 0x20, 0xcf, 0x4a, 0xbe, 0x55, 0x7e, 0xef, 0x3e,
    0xc7, 0x5f, 0x60, 0xbd, 0x0e, 0x0d, 0x15, 0xbc, 0x8c, 0x30, 0x81, 0xbe, 0x62, 0xcb, 0x3e, 0xbf, 0xd7, 0xb7, 0x7c,
    0xbe, 0xd7, 0xbd, 0x43, 0xbe, 0x8d, 0x5e, 0x2d, 0xbe, 0x38, 0x88, 0xf0, 0xbd, 0x91, 0x59, 0x8a, 0xbc, 0x05, 0x6d,
    0x28, 0xbf, 0xd8, 0xf9, 0x89, 0x3e, 0xcc, 0xe0, 0x2f, 0x3e, 0x81, 0x30, 0x5f, 0x3d, 0xbd, 0x57, 0x00, 0x3e, 0x2b,
    0x4a, 0x95, 0x3e, 0xc8, 0xfe, 0x0e, 0x3e, 0x4b, 0xd5, 0xae, 0x3e, 0x56, 0x41, 0x06, 0x3e, 0xf2, 0x97, 0xeb, 0xbe,
    0x03, 0x76, 0x8e, 0xbe, 0x01, 0x8d, 0xd6, 0xbe, 0x44, 0x4a, 0x8f, 0xbd, 0x6a, 0xe1, 0x40, 0x3d, 0x2d, 0x75, 0x67,
    0xbd, 0x67, 0x8b, 0x2e, 0x3f, 0xbc, 0x34, 0x14, 0x3f, 0x00, 0x57, 0xa8, 0x3e, 0x1b, 0xa0, 0x66, 0xbe, 0x4f, 0x81,
    0x10, 0xbe, 0x3f, 0x3a, 0x24, 0xbe, 0xa2, 0x99, 0x57, 0x3f, 0xdd, 0x01, 0x08, 0xbe, 0x7c, 0x0b, 0xb0, 0xbd, 0x0f,
    0x1a, 0xd3, 0x3d, 0xb5, 0xcb, 0x2b, 0xbe, 0xd0, 0x1f, 0x15, 0x3e, 0x91, 0xf8, 0x68, 0x3e, 0x6a, 0xcb, 0xf9, 0xbd,
    0x19, 0x75, 0x5e, 0xbe, 0xa7, 0xa8, 0xa5, 0xbd, 0x5e, 0x31, 0x54, 0xbc, 0x4a, 0xaf, 0x9d, 0xbe, 0x61, 0xd6, 0xba,
    0xbc, 0xae, 0x9b, 0x83, 0xbc, 0x37, 0x3e, 0x0d, 0x3f, 0xeb, 0x3d, 0x4f, 0x3f, 0x89, 0xc7, 0x25, 0x3f, 0x70, 0x08,
    0xff, 0x3e, 0x82, 0x5f, 0xa0, 0x3e, 0x81, 0xc9, 0xc7, 0x3e, 0x52, 0xe5, 0x44, 0xbe, 0x99, 0xd2, 0xeb, 0x3e, 0xa0,
    0x57, 0x5d, 0x3e, 0x21, 0xc5, 0x73, 0xbd, 0x83, 0x2d, 0x03, 0x3e, 0x79, 0x44, 0x5d, 0xbf, 0x99, 0x68, 0x05, 0x3d,
    0x5b, 0x66, 0xeb, 0xbd, 0x6d, 0x27, 0x0e, 0x3f, 0xfb, 0x99, 0xfc, 0xbe, 0x35, 0x8c, 0x54, 0x3e, 0x92, 0xd7, 0xde,
    0x3e, 0x3f, 0x92, 0x99, 0xbb, 0xc4, 0x95, 0x9f, 0x3e, 0xf7, 0x35, 0xe8, 0x3d, 0x03, 0x36, 0xbb, 0xbd, 0xad, 0x23,
    0x43, 0x3e, 0xb9, 0x63, 0x2d, 0xbe, 0x78, 0xde, 0x9f, 0xbe, 0xaf, 0x06, 0x94, 0xbd, 0x68, 0xbb, 0xae, 0x3e, 0xb5,
    0xaf, 0xd9, 0xbe, 0x07, 0xc5, 0xf0, 0x3c, 0x44, 0x8b, 0x82, 0xbe, 0x6c, 0x5e, 0xe0, 0x3d, 0x3d, 0x8a, 0x01, 0xbf,
    0x01, 0xfc, 0x66, 0x3e, 0xef, 0x6a, 0xd1, 0x3e, 0x6c, 0x0b, 0xf0, 0xbb, 0x49, 0xf8, 0x60, 0xbd, 0xac, 0x74, 0x4b,
    0x3e, 0xd2, 0xd1, 0x80, 0x3e, 0x3f, 0x71, 0x7f, 0x3e, 0xb2, 0xd5, 0x22, 0xbe, 0x1b, 0xa4, 0x4f, 0xbd, 0xa8, 0x3f,
    0xc3, 0xbe, 0x77, 0x32, 0xdb, 0xbe, 0xda, 0xee, 0xff, 0xff, 0x04, 0x00, 0x00, 0x00, 0x00, 0x10, 0x00, 0x00, 0x1b,
    0xba, 0x27, 0x3e, 0xf9, 0x26, 0x15, 0xbe, 0xeb, 0x7a, 0x98, 0xbe, 0x05, 0xd9, 0x4a, 0x3e, 0x85, 0xa0, 0x60, 0xbc,
    0x41, 0x25, 0x83, 0xbe, 0xda, 0xf5, 0x04, 0xbd, 0x1b, 0xd5, 0xfb, 0xbc, 0x3d, 0xa5, 0xb5, 0x3d, 0xfd, 0x42, 0x25,
    0x3c, 0x8f, 0xf1, 0x37, 0xbe, 0x6b, 0xa8, 0xe0, 0x3e, 0x84, 0xd2, 0x82, 0x3e, 0xcc, 0x46, 0x16, 0x3d, 0x1d, 0x73,
    0x82, 0xbe, 0xeb, 0x87, 0xaa, 0x3e, 0x8b, 0x13, 0x88, 0xbd, 0x2f, 0x87, 0x5d, 0xbe, 0x75, 0x0b, 0x0e, 0xbd, 0x27,
    0xe7, 0x49, 0x3e, 0x1f, 0xbb, 0xa9, 0x3c, 0x5a, 0xd0, 0x37, 0x3e, 0x7c, 0xc8, 0x94, 0x3e, 0xd1, 0xee, 0xa1, 0xbd,
    0x3b, 0xf6, 0xa3, 0x3e, 0x85, 0x83, 0x91, 0x3d, 0x2a, 0x91, 0xc1, 0xbd, 0x30, 0x24, 0x99, 0xbe, 0x0c, 0x40, 0x6a,
    0x3e, 0x6a, 0x31, 0x96, 0x3e, 0x5b, 0x43, 0x9c, 0xbe, 0x29, 0x9e, 0x07, 0x3f, 0x33, 0x7b, 0xe7, 0xbc, 0x53, 0x44,
    0xef, 0x3d, 0x4d, 0x04, 0x8c, 0x3e, 0xae, 0xe9, 0xd8, 0xbc, 0xed, 0xf2, 0x3a, 0xbe, 0x7c, 0x13, 0x72, 0x3e, 0xc6,
    0xff, 0x8a, 0x3d, 0xde, 0x77, 0xc5, 0x3d, 0xe8, 0x11, 0x92, 0xbe, 0x49, 0x67, 0xc2, 0xbd, 0x9c, 0x2d, 0xb0, 0x3d,
    0x4f, 0xde, 0x7f, 0xbe, 0xe5, 0x63, 0xe1, 0xbe, 0x65, 0x43, 0x98, 0xbe, 0xc5, 0xbd, 0x25, 0x3e, 0xd8, 0xde, 0x9f,
    0xbe, 0x53, 0xa9, 0x9f, 0xbe, 0x4e, 0xed, 0x33, 0x3e, 0xbd, 0xc1, 0xa8, 0x3c, 0xc4, 0x7f, 0x2a, 0x3e, 0x08, 0x90,
    0x42, 0xbe, 0xf6, 0xdb, 0x54, 0xbe, 0xd4, 0x0c, 0x4c, 0xbe, 0x67, 0xd0, 0xe0, 0x3e, 0x77, 0x6b, 0xae, 0x3e, 0x85,
    0x8b, 0xdb, 0x3d, 0xe8, 0xf7, 0xc1, 0x3d, 0xa9, 0x52, 0xf5, 0x3c, 0xd2, 0xff, 0x89, 0xbe, 0x90, 0x6f, 0x28, 0xbe,
    0x05, 0xa2, 0xdd, 0x3d, 0x3e, 0xa2, 0x04, 0xbe, 0xef, 0x5b, 0x21, 0xbe, 0x61, 0x5a, 0x01, 0xbb, 0x50, 0x39, 0x7d,
    0xbe, 0x73, 0x69, 0x28, 0xbe, 0x43, 0xdc, 0x0b, 0xbe, 0xb9, 0x6c, 0x3e, 0xbe, 0xcb, 0x93, 0xe0, 0x3d, 0x9a, 0xba,
    0x4e, 0xbe, 0x7c, 0x50, 0xff, 0xbd, 0x21, 0x19, 0x07, 0xbe, 0xc7, 0xd4, 0xec, 0xbd, 0xaf, 0xc4, 0x96, 0xbd, 0x29,
    0x33, 0x7e, 0xbe, 0x31, 0xab, 0x99, 0x3e, 0x73, 0x39, 0x62, 0xbe, 0x99, 0x24, 0x92, 0xbe, 0x3e, 0xfc, 0x48, 0xbc,
    0x13, 0x43, 0x8d, 0xbd, 0x06, 0xf7, 0x51, 0xbd, 0x36, 0xe8, 0xda, 0x3d, 0x3f, 0x6d, 0x88, 0x3c, 0x27, 0x58, 0x5a,
    0x3e, 0xa6, 0x8f, 0x31, 0x3e, 0x8d, 0x17, 0x93, 0xbd, 0x48, 0x1b, 0xf9, 0xbd, 0x22, 0x0e, 0x3f, 0x3e, 0xb0, 0x59,
    0x38, 0xbe, 0xac, 0xd7, 0x20, 0x3c, 0x75, 0x73, 0x05, 0x3d, 0x9c, 0x94, 0x2b, 0xba, 0xbd, 0x42, 0x03, 0x3d, 0x75,
    0x77, 0x94, 0xbe, 0x3e, 0xd9, 0xf8, 0x3c, 0x27, 0x29, 0x21, 0x3d, 0xab, 0x67, 0x5b, 0x3d, 0x65, 0xc1, 0x2a, 0xbe,
    0xb5, 0xcd, 0x78, 0x3d, 0x74, 0x66, 0x32, 0xbe, 0x41, 0x3e, 0xea, 0xbd, 0x1d, 0xae, 0x91, 0x3c, 0x96, 0x2f, 0xbe,
    0x3d, 0xb5, 0x9a, 0x3a, 0xbd, 0x43, 0x5e, 0x28, 0x3e, 0x69, 0x4c, 0xb5, 0xbc, 0xf9, 0xe1, 0xd2, 0x3c, 0x4b, 0x78,
    0x4b, 0x3e, 0xf7, 0x15, 0x6e, 0x3e, 0x0a, 0xe3, 0x1e, 0xbe, 0x9a, 0xe0, 0x30, 0xbb, 0xf7, 0x17, 0xce, 0x3d, 0xdd,
    0xa8, 0x24, 0x3d, 0x95, 0x39, 0x4b, 0x3d, 0xfe, 0x4c, 0x4d, 0x3c, 0xb7, 0xac, 0xbb, 0x3d, 0x98, 0x1d, 0xfd, 0x3b,
    0xbd, 0x9b, 0x3d, 0xbe, 0x17, 0x8f, 0x65, 0xbd, 0xf4, 0x9d, 0x61, 0xbe, 0x37, 0x11, 0xd4, 0x3d, 0x67, 0x25, 0xd6,
    0x3d, 0x33, 0x3a, 0xd0, 0xbb, 0x82, 0xa0, 0xda, 0xbd, 0x6f, 0xd4, 0x16, 0xbd, 0x3d, 0x64, 0xbd, 0x3d, 0xc4, 0x0a,
    0xd2, 0x3d, 0x29, 0xbd, 0xc9, 0x3e, 0x35, 0x45, 0x84, 0xbe, 0x89, 0xa7, 0x7c, 0x3d, 0xc8, 0x4f, 0x05, 0x3e, 0x41,
    0x9b, 0x5e, 0x3c, 0x9d, 0xb0, 0x14, 0x3e, 0x82, 0x04, 0x66, 0x3b, 0x70, 0xbd, 0x6d, 0x3e, 0x07, 0x29, 0xa9, 0x3d,
    0xfc, 0xe6, 0xdc, 0xbe, 0xa1, 0xeb, 0xd4, 0xbd, 0xe0, 0xa6, 0x86, 0x3d, 0x74, 0x8b, 0x97, 0x3e, 0xdc, 0x22, 0x38,
    0x3e, 0xdd, 0xbb, 0x6c, 0x3e, 0xe6, 0x1e, 0x3f, 0xbe, 0x29, 0x2f, 0xce, 0xbe, 0x97, 0xe8, 0x94, 0xbb, 0xe2, 0x73,
    0x8c, 0x3e, 0xb5, 0xc4, 0x1c, 0xbe, 0xcb, 0x61, 0x5d, 0x3e, 0xd6, 0xee, 0x92, 0x3e, 0x71, 0xb6, 0x37, 0x3e, 0x14,
    0x3e, 0x9b, 0x3e, 0xe3, 0x8e, 0xd8, 0x3e, 0x67, 0x53, 0x0d, 0xbe, 0x61, 0x06, 0xc3, 0x3e, 0xd2, 0xd8, 0x23, 0xbe,
    0xca, 0x23, 0xb4, 0x3e, 0xa7, 0xcf, 0xdb, 0x3c, 0xc7, 0x00, 0x94, 0xbd, 0x71, 0x23, 0x3f, 0x3d, 0x41, 0xcd, 0xc4,
    0xbd, 0x29, 0xf7, 0xaf, 0x3d, 0x85, 0x21, 0x48, 0xbb, 0xfd, 0x01, 0x09, 0xbe, 0xf7, 0x91, 0x32, 0x3e, 0xd2, 0x88,
    0x26, 0x3e, 0x24, 0xd7, 0xaf, 0xbd, 0x48, 0x6d, 0xf1, 0xba, 0x67, 0x0e, 0x79, 0x3c, 0xc9, 0x40, 0x99, 0x39, 0xde,
    0x2c, 0x2f, 0xbd, 0xf9, 0xc0, 0xab, 0xbb, 0xd0, 0xa3, 0xeb, 0x3d, 0x8a, 0x54, 0x17, 0x3e, 0x74, 0x04, 0xd1, 0x3c,
    0x09, 0x1d, 0xe6, 0x3d, 0x52, 0x62, 0x6b, 0xbd, 0x5e, 0xdc, 0xc6, 0xbd, 0xed, 0xf2, 0xf3, 0x3d, 0x3b, 0x17, 0xe6,
    0xba, 0xd9, 0x36, 0x31, 0xbd, 0xa8, 0x20, 0xf3, 0xbd, 0x09, 0x98, 0x57, 0xbe, 0xa7, 0x08, 0x80, 0xbe, 0x51, 0x74,
    0x0c, 0x3c, 0xb6, 0x31, 0x53, 0xbe, 0x73, 0x46, 0xa0, 0x3d, 0xb3, 0x78, 0x2a, 0xbe, 0x68, 0xad, 0xc6, 0xbc, 0x18,
    0x31, 0x89, 0xbd, 0xb6, 0x35, 0xf1, 0xbd, 0x3f, 0xc1, 0xb1, 0x3d, 0x80, 0x7f, 0x98, 0x3e, 0xfa, 0x81, 0xa1, 0xbe,
    0xad, 0x11, 0xa2, 0x3d, 0xa0, 0x4f, 0x4d, 0xbe, 0xc0, 0xd5, 0x8a, 0x3c, 0xb3, 0xc6, 0xb2, 0x3e, 0xf4, 0x07, 0x32,
    0x3e, 0x95, 0xea, 0xe6, 0x3c, 0x78, 0xeb, 0x88, 0xbd, 0xed, 0x8f, 0xcb, 0xbe, 0xb7, 0x26, 0x2a, 0xbe, 0x50, 0x9b,
    0x1b, 0x3c, 0x13, 0x5b, 0x14, 0x3f, 0x3c, 0x0d, 0xf2, 0x3b, 0x81, 0x26, 0xb0, 0x3e, 0x15, 0xbe, 0x04, 0xbe, 0x7b,
    0x83, 0xb0, 0xbe, 0x3e, 0x25, 0x5d, 0x3e, 0xc4, 0x4c, 0xb1, 0x3d, 0x21, 0xaa, 0x06, 0xbe, 0xf7, 0x18, 0xfd, 0x3e,
    0xa4, 0x36, 0x58, 0x3e, 0x5b, 0x41, 0x91, 0xbe, 0xe7, 0x45, 0x6f, 0x3d, 0x66, 0xa0, 0xc6, 0x3e, 0x54, 0xc3, 0x71,
    0x3e, 0x44, 0xa7, 0x48, 0x3e, 0xf3, 0x15, 0x61, 0xbe, 0xa0, 0xef, 0x1f, 0x3f, 0x8b, 0x07, 0x6a, 0x3e, 0x80, 0xce,
    0xeb, 0x3d, 0x5d, 0x29, 0xd6, 0xbe, 0x21, 0x9b, 0x07, 0x3f, 0x21, 0x75, 0x5b, 0x3e, 0xed, 0xf8, 0xaa, 0x3e, 0x81,
    0xcb, 0x59, 0x3d, 0xbd, 0xfb, 0xae, 0x3e, 0xe9, 0x68, 0x6d, 0x3e, 0x27, 0x64, 0x04, 0x3f, 0xf0, 0x7e, 0x6c, 0xbe,
    0xfb, 0xf8, 0xc0, 0xbe, 0xa4, 0x18, 0xa0, 0xbe, 0x20, 0x75, 0x78, 0xbf, 0xd2, 0x77, 0x6d, 0xbf, 0x97, 0xcd, 0x5c,
    0x3d, 0x15, 0x5d, 0x13, 0x3c, 0xd8, 0x85, 0x63, 0xbe, 0x4e, 0x2a, 0x2b, 0xbe, 0xc9, 0x51, 0x1d, 0xbe, 0x9e, 0x43,
    0xe6, 0xbe, 0x18, 0x27, 0x9e, 0x3e, 0x4f, 0xab, 0x2f, 0xbf, 0x94, 0x0c, 0xe8, 0x3d, 0x5a, 0xc4, 0x48, 0xbe, 0xa0,
    0x7c, 0x60, 0x3d, 0xdf, 0x1e, 0x81, 0x3f, 0xf8, 0x81, 0xf8, 0x3d, 0x01, 0x01, 0x2f, 0x3f, 0x74, 0xdf, 0x27, 0x3e,
    0x61, 0xc8, 0x22, 0xbf, 0xd4, 0x9b, 0xf7, 0xbd, 0x47, 0x8f, 0x3b, 0x3f, 0x50, 0x49, 0x9d, 0xbe, 0x5f, 0xeb, 0x87,
    0x3d, 0x8c, 0x1d, 0x14, 0xbc, 0x01, 0x3e, 0x09, 0xbe, 0xb8, 0x0b, 0x35, 0x3b, 0xce, 0xfb, 0x1b, 0xbe, 0xb9, 0xf1,
    0x43, 0xbe, 0xa2, 0x32, 0x91, 0x3e, 0xf9, 0xf5, 0x91, 0x36, 0xe7, 0x95, 0x84, 0x3e, 0xfb, 0xe7, 0x0c, 0x3e, 0x79,
    0x73, 0x0f, 0xbd, 0xdf, 0x0a, 0xd7, 0xbc, 0x28, 0x7a, 0xa1, 0xbd, 0xe6, 0xa8, 0x05, 0x3e, 0x40, 0xf4, 0xd7, 0xbd,
    0xdc, 0xcb, 0x13, 0xbe, 0xf1, 0x84, 0x71, 0xbd, 0x1c, 0x5c, 0xdb, 0x3d, 0x19, 0x1a, 0xbe, 0x3d, 0x55, 0xe0, 0x9d,
    0x3c, 0x1c, 0xdd, 0x58, 0xbe, 0x18, 0xee, 0x0e, 0xbd, 0x15, 0xf0, 0x23, 0x3e, 0x65, 0xaf, 0xd0, 0xbd, 0xf5, 0x60,
    0xc6, 0xbe, 0xde, 0xea, 0x77, 0xbc, 0x88, 0xa5, 0x2d, 0xbe, 0x74, 0x14, 0x92, 0xbe, 0xc6, 0x59, 0x8c, 0xbd, 0xab,
    0xe2, 0x8a, 0xbd, 0x53, 0x8d, 0xd4, 0x3d, 0x9f, 0xeb, 0xae, 0x3d, 0x0a, 0xab, 0x4f, 0xbd, 0xb0, 0x47, 0x69, 0xbd,
    0x4a, 0xe8, 0x01, 0xbe, 0x54, 0xa7, 0x8f, 0x3d, 0x52, 0x9b, 0x04, 0xbe, 0x1b, 0x38, 0x06, 0x3d, 0xec, 0x27, 0xdf,
    0x3d, 0x8d, 0x5a, 0x94, 0xbc, 0xab, 0x0f, 0xd1, 0xbc, 0xf5, 0xa8, 0x4d, 0xbd, 0xb2, 0x59, 0xd8, 0xbb, 0xb9, 0x04,
    0x0b, 0x3e, 0x01, 0x68, 0x10, 0xbe, 0xe4, 0x85, 0x1e, 0xbc, 0xbb, 0x03, 0x51, 0x3e, 0xfe, 0x59, 0xc0, 0x3d, 0x37,
    0xd7, 0x8e, 0xbb, 0x1b, 0x44, 0xe7, 0x3c, 0x91, 0xe8, 0x07, 0xbe, 0x59, 0xe9, 0x12, 0x3e, 0xd0, 0x6e, 0x3b, 0x3e,
    0xcd, 0x3e, 0x34, 0xbb, 0xa7, 0x1b, 0x41, 0xbd, 0x04, 0x56, 0xde, 0xbd, 0x4f, 0x3b, 0x31, 0x3e, 0xd9, 0x42, 0xa3,
    0x3d, 0xfb, 0x0c, 0x6f, 0x3d, 0x11, 0xe5, 0x35, 0xbd, 0x15, 0xd0, 0x8a, 0x3d, 0xb5, 0x8d, 0x1a, 0xbe, 0x32, 0xb6,
    0x4c, 0xbe, 0xfe, 0x1b, 0x22, 0xbc, 0xf7, 0xf7, 0x8e, 0x3d, 0x2b, 0xbc, 0x20, 0x3e, 0x65, 0x7d, 0x2a, 0xbd, 0xec,
    0x73, 0xc9, 0xbb, 0x4c, 0xc4, 0x09, 0x3e, 0x67, 0xbd, 0xf5, 0x3b, 0x92, 0x47, 0xc5, 0xbd, 0xba, 0x68, 0x7a, 0x3e,
    0x8d, 0xca, 0xe1, 0x3d, 0xea, 0xa6, 0x5a, 0x3d, 0x55, 0x72, 0xae, 0x3c, 0xb1, 0x27, 0xbd, 0xbd, 0xe7, 0x1b, 0x44,
    0xbc, 0x4d, 0xae, 0x9c, 0xbd, 0xec, 0xc9, 0x63, 0x3e, 0x2e, 0x69, 0x1d, 0xbd, 0x64, 0xe0, 0x0a, 0x3e, 0xd7, 0x66,
    0x89, 0xbd, 0x33, 0x26, 0xc3, 0x3d, 0x86, 0x04, 0x8d, 0x3d, 0x73, 0x62, 0x64, 0x3e, 0x47, 0x8a, 0x02, 0xbe, 0x53,
    0xbb, 0x6a, 0xbd, 0xf6, 0x2a, 0xa6, 0x3c, 0x3b, 0x5d, 0x8c, 0xbc, 0x29, 0x66, 0x26, 0x3d, 0xc4, 0xfd, 0xa7, 0xbd,
    0x14, 0x87, 0xeb, 0x3d, 0x44, 0xc4, 0x8b, 0x3d, 0x9c, 0x64, 0xa2, 0x3d, 0x22, 0xdf, 0xe9, 0x3d, 0x6e, 0xfb, 0x9a,
    0xbd, 0xd3, 0x61, 0x6b, 0xbe, 0x22, 0xb4, 0x86, 0x3e, 0x4f, 0xa5, 0x5e, 0xba, 0xdd, 0x41, 0x81, 0x3e, 0x29, 0x65,
    0x85, 0x3d, 0x4d, 0x3b, 0x70, 0xbe, 0x96, 0xb5, 0xd9, 0x3d, 0x55, 0x97, 0xb3, 0x3e, 0x03, 0x6d, 0xaf, 0xbd, 0xf3,
    0x07, 0x42, 0xbe, 0xa2, 0x6e, 0x68, 0xbd, 0x7e, 0xbe, 0x16, 0xbe, 0x6b, 0x4e, 0xc0, 0x3d, 0x38, 0xe3, 0xef, 0xbd,
    0xae, 0x40, 0x0c, 0x3e, 0xad, 0xc7, 0x1b, 0xbe, 0xfa, 0x7d, 0xb3, 0xbe, 0x59, 0x58, 0xd9, 0x3b, 0x63, 0x9c, 0x66,
    0xbe, 0xc0, 0x5f, 0x74, 0x3e, 0x70, 0x14, 0x4b, 0x3c, 0x37, 0x10, 0xeb, 0xbb, 0x9f, 0x13, 0x14, 0xbe, 0xfb, 0xe4,
    0x20, 0x3e, 0x33, 0x0e, 0xc9, 0x3d, 0x45, 0x66, 0x1c, 0x3e, 0x60, 0xcd, 0x95, 0x3e, 0x80, 0x06, 0x1f, 0x3e, 0x47,
    0x21, 0x70, 0xbd, 0x05, 0xa0, 0x95, 0xbd, 0x2a, 0x71, 0x6a, 0x3e, 0x76, 0xdc, 0x45, 0xbe, 0x41, 0x08, 0x3e, 0x3d,
    0xe9, 0x17, 0x4c, 0xbe, 0x53, 0xd3, 0x2f, 0xbe, 0x5a, 0xe4, 0x80, 0xbe, 0xf1, 0xdc, 0x90, 0x3c, 0xbb, 0x9b, 0x5a,
    0xbe, 0xbe, 0x11, 0xe4, 0x3d, 0x98, 0x84, 0xee, 0x3c, 0xab, 0x85, 0xad, 0x3e, 0x9b, 0xea, 0x47, 0x3d, 0x7e, 0xe2,
    0x13, 0x3e, 0xc7, 0xc5, 0x9c, 0xbd, 0xe7, 0x49, 0x6d, 0x3d, 0xf4, 0x31, 0xe9, 0xbd, 0x03, 0x21, 0xe1, 0x3d, 0x7a,
    0x7c, 0x9c, 0x3d, 0x4d, 0xc3, 0x5d, 0x3d, 0x1b, 0x3c, 0xb5, 0xbb, 0xa5, 0x58, 0x04, 0x3e, 0x0c, 0x00, 0x08, 0xbe,
    0x0f, 0xc7, 0xa8, 0x3d, 0x5f, 0xa9, 0xff, 0xbc, 0x13, 0x3c, 0x37, 0xbe, 0xb4, 0xd2, 0x9e, 0xbe, 0x6b, 0xbf, 0x0a,
    0xbf, 0x97, 0xf2, 0xe9, 0xbe, 0x76, 0xcc, 0x7e, 0xbe, 0x61, 0xa9, 0xcf, 0xbd, 0xc9, 0x97, 0x12, 0xbe, 0xaf, 0xf9,
    0x3a, 0x3d, 0xcf, 0x5e, 0x97, 0x3d, 0xaa, 0xff, 0xde, 0xbd, 0x92, 0x15, 0xd9, 0x3d, 0xa7, 0x56, 0x00, 0xbd, 0x0b,
    0xa4, 0x37, 0xbd, 0x28, 0x38, 0x87, 0x3e, 0xb3, 0xda, 0xe7, 0x3d, 0x03, 0x0f, 0x83, 0x3e, 0x73, 0xca, 0x93, 0xbd,
    0xae, 0xbd, 0xc3, 0xbd, 0xfb, 0x24, 0x65, 0xbe, 0x28, 0x6a, 0x58, 0x3e, 0xbb, 0x98, 0x65, 0xbc, 0xb5, 0x9a, 0x1d,
    0x3e, 0x63, 0x37, 0x71, 0x3e, 0x83, 0xf4, 0x33, 0x3e, 0xce, 0x8d, 0x95, 0x3e, 0xd5, 0xda, 0xce, 0x3e, 0x6e, 0xec,
    0x01, 0xbd, 0x85, 0xcb, 0x98, 0xbd, 0x25, 0x73, 0x27, 0xbd, 0x3d, 0x29, 0x19, 0xbe, 0x98, 0xdf, 0xa4, 0xbd, 0x87,
    0xa1, 0x0e, 0x3e, 0xe1, 0x5a, 0x53, 0x3e, 0x79, 0x7b, 0xdb, 0x3d, 0x1d, 0x37, 0x9c, 0x3e, 0x59, 0xab, 0x5f, 0x3e,
    0x70, 0x34, 0x17, 0x3b, 0x31, 0x8a, 0x5d, 0x3e, 0x63, 0xd5, 0x56, 0xbe, 0xea, 0x11, 0x7e, 0x3d, 0x84, 0x93, 0x58,
    0xbd, 0x07, 0xd8, 0x8b, 0x3d, 0xa2, 0x27, 0xa8, 0x3e, 0xbe, 0x59, 0x02, 0x3e, 0x42, 0x86, 0xef, 0xbe, 0x7b, 0xb8,
    0x9f, 0x3e, 0x76, 0xa7, 0x7f, 0xbe, 0x97, 0x01, 0x48, 0xbd, 0xff, 0x82, 0xee, 0xbd, 0x66, 0x48, 0xcd, 0x3d, 0x65,
    0x47, 0x6a, 0x3d, 0x82, 0xc3, 0xce, 0x3d, 0x02, 0xc0, 0x66, 0x3d, 0x44, 0x57, 0x8f, 0x3e, 0x31, 0xac, 0x11, 0x3e,
    0x6f, 0x4a, 0x8b, 0xbd, 0x7c, 0x79, 0xf6, 0x3d, 0x3b, 0xb6, 0x5b, 0x3e, 0xa7, 0xcd, 0x01, 0x3e, 0x6d, 0xe2, 0xa5,
    0xbe, 0x0d, 0x46, 0x16, 0xbd, 0x41, 0x59, 0x11, 0xbe, 0x2a, 0xf1, 0x26, 0xbc, 0x4f, 0x5e, 0x0c, 0xbe, 0x5c, 0x57,
    0x85, 0x3e, 0xe1, 0xc8, 0xc1, 0xbe, 0xf1, 0x0e, 0x37, 0x3f, 0x65, 0xd8, 0xc2, 0x3e, 0xcc, 0x6d, 0x0b, 0x3f, 0x98,
    0x4e, 0x54, 0x3c, 0xcf, 0x39, 0xd7, 0xbd, 0x4d, 0x04, 0xdd, 0x3d, 0xd3, 0x9f, 0x5e, 0x3e, 0xa5, 0x84, 0xe0, 0x3d,
    0x1d, 0xa2, 0x17, 0xbd, 0x0b, 0xd0, 0x0c, 0x3f, 0x59, 0xa8, 0x53, 0xbd, 0x87, 0x76, 0x82, 0xbb, 0x30, 0x23, 0x84,
    0xbe, 0xfe, 0x4e, 0xee, 0xbc, 0x44, 0x9b, 0x20, 0x3e, 0x19, 0x0a, 0x13, 0x3e, 0xaa, 0x62, 0x3e, 0xbe, 0xe6, 0x3d,
    0x00, 0xbf, 0xe6, 0xdb, 0xd4, 0xbd, 0x77, 0x74, 0xd9, 0x3e, 0x94, 0x30, 0xb8, 0xbe, 0x90, 0x33, 0x56, 0x3e, 0x20,
    0xa4, 0x5e, 0x3e, 0x8e, 0x98, 0x38, 0xbb, 0x55, 0x44, 0x0b, 0xbf, 0x15, 0x42, 0xb9, 0xbe, 0x79, 0xbe, 0x0b, 0xbd,
    0x56, 0x7a, 0x7e, 0xbe, 0x7b, 0xf3, 0xe2, 0xbe, 0x6c, 0x1d, 0xe1, 0x3c, 0x6e, 0xc2, 0x94, 0x3d, 0xc9, 0x8f, 0x14,
    0xbf, 0x35, 0xf9, 0xaf, 0x3e, 0xe6, 0x86, 0x9a, 0x3d, 0xb3, 0xd3, 0x42, 0x3e, 0xa3, 0x27, 0xa8, 0x3e, 0xaf, 0xa7,
    0xac, 0xbe, 0x6b, 0xdc, 0x64, 0x3e, 0x84, 0xd6, 0x16, 0x3f, 0x53, 0xa2, 0xa6, 0xbe, 0x53, 0xf5, 0x47, 0xba, 0x02,
    0x95, 0x85, 0x3b, 0x56, 0x60, 0x6c, 0xbe, 0x68, 0x3c, 0x43, 0x3e, 0x89, 0x3f, 0xc3, 0xbd, 0xa0, 0xc5, 0xe1, 0x3c,
    0x02, 0xdd, 0x17, 0x3e, 0xb3, 0xe1, 0xd8, 0x3d, 0x5f, 0x36, 0xf8, 0xbe, 0xce, 0x84, 0x1c, 0x3a, 0x97, 0xd3, 0xe4,
    0xbd, 0xb8, 0xa2, 0x72, 0x3e, 0x2a, 0xb9, 0xeb, 0xbd, 0xf8, 0x5b, 0x7e, 0xbd, 0x1e, 0x5c, 0x67, 0x3e, 0x1b, 0xf4,
    0xac, 0xbb, 0x60, 0xbc, 0xa2, 0x3d, 0x3b, 0x18, 0x79, 0x3d, 0x7b, 0x7f, 0x7c, 0x3b, 0x6d, 0x6e, 0x49, 0x3e, 0xff,
    0xe8, 0xfe, 0x3d, 0xf3, 0x7a, 0x6c, 0xbc, 0xc0, 0x60, 0xda, 0x3d, 0x75, 0xbd, 0xe7, 0xbc, 0x01, 0xec, 0xc6, 0x3b,
    0x7c, 0xd7, 0x95, 0x3e, 0xc9, 0xcb, 0x0d, 0x3e, 0x54, 0x33, 0x5b, 0x3e, 0xd5, 0xec, 0xc9, 0xbe, 0xb2, 0x6f, 0x40,
    0xbd, 0xb5, 0xca, 0x9b, 0xbd, 0xda, 0x45, 0x8f, 0xbd, 0x43, 0x1d, 0xc3, 0x3c, 0xa1, 0xd9, 0x9d, 0x3c, 0x73, 0x98,
    0x18, 0xbe, 0x23, 0xab, 0x8a, 0x3d, 0xbe, 0x4d, 0x41, 0xbe, 0x6e, 0xe4, 0x60, 0xbe, 0xa2, 0xcc, 0xcf, 0xbd, 0x74,
    0xe1, 0xf6, 0xbc, 0x3e, 0x28, 0x15, 0xbc, 0x1b, 0x80, 0x83, 0xbc, 0x25, 0x27, 0xf3, 0x3d, 0x14, 0x40, 0xb0, 0x3d,
    0xe3, 0x43, 0x8b, 0x3c, 0x6a, 0x43, 0xbd, 0xbc, 0x8d, 0x2c, 0x3a, 0xbe, 0xd4, 0x82, 0x66, 0xbd, 0x9d, 0x07, 0xab,
    0x3b, 0xdb, 0x92, 0x8e, 0x3d, 0x2d, 0xac, 0x15, 0xbd, 0x7d, 0xdb, 0x4b, 0xbc, 0x48, 0x0a, 0x63, 0xbe, 0x76, 0x70,
    0x10, 0xbe, 0x59, 0x3b, 0x2a, 0x3d, 0xc7, 0x5c, 0x8a, 0x3d, 0xac, 0xd5, 0x1d, 0x3e, 0x5e, 0x38, 0x5a, 0xbe, 0x43,
    0x33, 0x20, 0xbd, 0x32, 0x25, 0x71, 0x3e, 0xd1, 0xf0, 0xfb, 0xbd, 0xa4, 0xe6, 0xb7, 0x3d, 0xc1, 0x39, 0xaa, 0xbd,
    0xb9, 0x6f, 0x73, 0x3d, 0xad, 0x45, 0xe1, 0x3d, 0x4b, 0xfe, 0x22, 0x3e, 0x98, 0x07, 0x40, 0xbc, 0x4e, 0x4b, 0x7b,
    0x3e, 0xd1, 0xfc, 0x1c, 0xbd, 0x21, 0x55, 0x7e, 0xbe, 0x1b, 0xab, 0xb6, 0x3d, 0xbe, 0xa2, 0x0e, 0xbe, 0x70, 0xdf,
    0x4f, 0x3e, 0x0c, 0x91, 0x26, 0xbe, 0xef, 0x7b, 0xff, 0xbd, 0x7c, 0xac, 0xa9, 0xbd, 0x55, 0x1a, 0x25, 0x3e, 0xab,
    0x77, 0x8b, 0x3a, 0x24, 0xf9, 0x51, 0x3e, 0x31, 0x22, 0x9c, 0xbd, 0xf1, 0xc3, 0x0e, 0xbe, 0x7e, 0x6c, 0x81, 0xbe,
    0x0b, 0x48, 0xb3, 0xbd, 0xf4, 0x72, 0x25, 0xbe, 0x3a, 0x8c, 0x66, 0xbd, 0x1e, 0x08, 0x37, 0xbe, 0x7c, 0x01, 0x66,
    0x3e, 0xb8, 0x11, 0x0f, 0xbf, 0x87, 0x7e, 0xb6, 0xbe, 0x76, 0x24, 0xb9, 0xbd, 0x96, 0xa4, 0x77, 0xbe, 0xd6, 0x7f,
    0xa8, 0x3d, 0x24, 0x02, 0x21, 0xbd, 0x85, 0x2e, 0x4a, 0xbd, 0xcd, 0x94, 0x86, 0x3e, 0x6a, 0x84, 0x4c, 0xbe, 0x43,
    0xb9, 0xb3, 0x3d, 0xc6, 0x62, 0xd4, 0xbb, 0x0d, 0x9c, 0xdf, 0xbc, 0x87, 0x90, 0xd8, 0xbd, 0x44, 0x4e, 0xfb, 0x3d,
    0x35, 0xe5, 0x82, 0xbd, 0x29, 0x86, 0x51, 0xbe, 0x4b, 0x88, 0xa8, 0xbd, 0x69, 0xf7, 0x56, 0xbc, 0x62, 0xd0, 0x32,
    0xbd, 0x05, 0x10, 0xb6, 0xbc, 0x4c, 0x63, 0xf1, 0xbd, 0x03, 0x7a, 0xd7, 0x3d, 0xaf, 0x5d, 0x3e, 0xbe, 0xbc, 0xae,
    0x80, 0x39, 0xb0, 0x37, 0xb2, 0x3d, 0xd1, 0x58, 0xdd, 0x3d, 0x5c, 0x3a, 0x01, 0xbe, 0x73, 0x50, 0x31, 0xbd, 0x46,
    0x71, 0xf5, 0x3c, 0x6a, 0xc8, 0x39, 0x3e, 0x67, 0xeb, 0x05, 0xbe, 0x80, 0x37, 0x98, 0x3d, 0x84, 0xdd, 0xe3, 0x3d,
    0x35, 0x31, 0x80, 0x3e, 0xe8, 0x33, 0x08, 0x3c, 0x06, 0x83, 0x98, 0x3d, 0x28, 0xa1, 0x2a, 0xbe, 0xb3, 0x1e, 0x2c,
    0xbe, 0x01, 0x67, 0xcf, 0x3d, 0x84, 0x4a, 0xbc, 0x3d, 0x6a, 0x97, 0x45, 0xbe, 0xca, 0x39, 0xa0, 0x3c, 0xf3, 0x30,
    0x8d, 0xbd, 0x24, 0xb7, 0x9e, 0x3b, 0x7a, 0x16, 0x50, 0xbd, 0x4a, 0x44, 0xd8, 0x3d, 0x8d, 0x94, 0x05, 0x3d, 0xae,
    0x7f, 0xe6, 0xbc, 0x74, 0x7a, 0x33, 0xbd, 0xfc, 0x1c, 0x30, 0xbe, 0xa4, 0x2f, 0x09, 0xbe, 0xf7, 0xc9, 0x8c, 0x3d,
    0x8f, 0x40, 0x26, 0xbe, 0x74, 0xe6, 0x0f, 0x3d, 0x2b, 0x52, 0xb5, 0xbb, 0x54, 0xdf, 0x76, 0x3e, 0x39, 0x18, 0xf3,
    0xbd, 0x90, 0x09, 0xa9, 0xba, 0xde, 0x44, 0x64, 0xbe, 0xbb, 0x96, 0xb0, 0x3d, 0xfe, 0x76, 0xba, 0xbd, 0xde, 0x48,
    0x92, 0x3d, 0x59, 0x62, 0x79, 0xbb, 0x90, 0xf1, 0x95, 0x3e, 0xc4, 0x59, 0x5b, 0x3e, 0xa0, 0x47, 0xb7, 0x3d, 0x0d,
    0x10, 0xe9, 0x3d, 0x16, 0xd4, 0x32, 0x3e, 0x96, 0xd1, 0x99, 0x3d, 0x29, 0xed, 0x15, 0x3e, 0xbf, 0xb2, 0x49, 0x3c,
    0x45, 0xd1, 0x21, 0xbe, 0x42, 0x07, 0xdc, 0xbd, 0x17, 0xdb, 0x8d, 0xbe, 0x53, 0x2a, 0xc2, 0x3d, 0xca, 0x72, 0xc3,
    0xbd, 0x10, 0xda, 0x58, 0x3e, 0xe4, 0xbe, 0xb2, 0x3c, 0x30, 0x0c, 0x81, 0xbd, 0xf1, 0x39, 0x1a, 0x3e, 0xcf, 0x24,
    0x95, 0x3e, 0x46, 0x52, 0xae, 0x3d, 0x43, 0x9c, 0x74, 0x3d, 0xbf, 0x38, 0xf4, 0x3d, 0x0b, 0x09, 0x12, 0xbe, 0xf9,
    0x0e, 0x1c, 0x3e, 0x82, 0x56, 0xd9, 0x3d, 0x1c, 0x89, 0x09, 0x3e, 0x6f, 0xaf, 0x44, 0xbd, 0x60, 0x77, 0xb0, 0x3d,
    0x4e, 0xcd, 0xbc, 0xbd, 0x99, 0x8a, 0x6e, 0xbd, 0xf2, 0x54, 0x20, 0x3e, 0x5c, 0x65, 0xb6, 0x3d, 0xb4, 0x3d, 0x91,
    0xbd, 0x02, 0xe5, 0x06, 0x3e, 0x15, 0x48, 0x5c, 0x3d, 0xf0, 0x5f, 0x1f, 0xbe, 0x90, 0x5d, 0x81, 0xbd, 0x20, 0x97,
    0x75, 0x3b, 0x4b, 0x00, 0x2c, 0xbe, 0x29, 0x11, 0x19, 0xbe, 0xfe, 0x48, 0x5d, 0xbe, 0x68, 0x32, 0x8f, 0x3c, 0xf8,
    0x86, 0x4f, 0x3e, 0x13, 0xb1, 0x13, 0x3e, 0x2d, 0x0b, 0x3b, 0xbe, 0xeb, 0x4e, 0xf9, 0xbd, 0x7c, 0x2f, 0xdf, 0xbe,
    0x5c, 0x4e, 0xb3, 0xbe, 0x02, 0x9f, 0x98, 0xbe, 0x75, 0x40, 0xc3, 0x3d, 0x7a, 0x07, 0x75, 0x3d, 0x6a, 0xe2, 0xc1,
    0x3b, 0xe2, 0x01, 0x1c, 0xbe, 0x2e, 0x3c, 0x4f, 0xbe, 0x7f, 0x59, 0x66, 0xbe, 0xfa, 0x0f, 0x20, 0x3e, 0x45, 0xda,
    0x12, 0x3e, 0xba, 0xa0, 0x06, 0xbe, 0x1c, 0xe0, 0x9d, 0xbe, 0xfd, 0x37, 0xa6, 0x3d, 0xe1, 0xb0, 0x78, 0x3d, 0x15,
    0xdc, 0x22, 0x3e, 0xd9, 0x96, 0x33, 0x3e, 0x64, 0x16, 0xf1, 0xbc, 0x22, 0xaa, 0xea, 0xbd, 0x2e, 0x8f, 0x92, 0xbd,
    0x89, 0x65, 0x41, 0x3d, 0xc7, 0xb1, 0x9d, 0xbe, 0xa2, 0x8d, 0x3d, 0xbe, 0x45, 0xd3, 0xe7, 0x3d, 0x5a, 0xca, 0x3b,
    0xbe, 0x7b, 0x7d, 0x17, 0xbe, 0x00, 0xa8, 0xe7, 0x3d, 0xd4, 0xd5, 0x2a, 0xbd, 0x38, 0x65, 0x59, 0xbe, 0x4b, 0x45,
    0x2a, 0x3e, 0x61, 0x42, 0x3b, 0xbe, 0x35, 0xdc, 0x25, 0x3e, 0xf7, 0x36, 0x46, 0xbd, 0xad, 0xfd, 0x18, 0x3e, 0x13,
    0x74, 0xe2, 0xbd, 0x23, 0x49, 0xa3, 0x3d, 0xcd, 0x45, 0x09, 0xbe, 0xd0, 0x20, 0x60, 0xbd, 0x62, 0xb0, 0x89, 0xbd,
    0xaa, 0x7d, 0xf0, 0x3d, 0x76, 0xed, 0x40, 0x3e, 0x41, 0x96, 0x6b, 0x3d, 0xb6, 0x58, 0xcf, 0xbd, 0x5e, 0xb6, 0x47,
    0xbd, 0x98, 0xba, 0x7a, 0xbe, 0xd0, 0x41, 0x73, 0x3c, 0x43, 0xe0, 0x13, 0xbe, 0x8c, 0xa2, 0xe1, 0x3d, 0xe0, 0xa3,
    0x06, 0x3d, 0x81, 0xa6, 0x1f, 0xbd, 0x74, 0xfb, 0x95, 0x3c, 0x78, 0xb0, 0xef, 0x3c, 0xfb, 0x2b, 0xce, 0x3d, 0x08,
    0x1d, 0x39, 0x3e, 0xf7, 0x35, 0xbd, 0xbb, 0xfe, 0xe9, 0x9c, 0x3a, 0x5d, 0xe5, 0xe4, 0xbc, 0x76, 0xe7, 0xc3, 0x3c,
    0x22, 0x6f, 0x0d, 0x3d, 0xe5, 0xd2, 0xa0, 0xbb, 0x9f, 0x1e, 0xff, 0x3b, 0x81, 0x6c, 0x0b, 0xbe, 0x52, 0xdc, 0xe7,
    0x3c, 0x9a, 0x25, 0xee, 0xbd, 0xc6, 0xc8, 0x5d, 0xbe, 0x7f, 0x13, 0x03, 0x3e, 0x52, 0x2e, 0x83, 0xbd, 0x4d, 0xe0,
    0xbc, 0x3c, 0x71, 0x5f, 0xac, 0xbe, 0x29, 0xfd, 0xf9, 0x3d, 0x25, 0xb7, 0xf7, 0xbc, 0xc7, 0x62, 0x36, 0x3d, 0x93,
    0xcc, 0x5c, 0x3e, 0xfe, 0x8d, 0x77, 0x3e, 0xfc, 0x46, 0x33, 0xbc, 0x74, 0xae, 0x35, 0x3c, 0xfe, 0x43, 0x94, 0x3e,
    0x6b, 0x5c, 0x2b, 0x3e, 0x1f, 0x90, 0x39, 0xbe, 0x4b, 0x80, 0xbb, 0xbe, 0x77, 0xee, 0xf4, 0xbd, 0xdd, 0x6c, 0x92,
    0x3e, 0x55, 0xd0, 0x0a, 0x3e, 0xbc, 0xea, 0xe9, 0x3c, 0xbd, 0x0c, 0x1e, 0x3d, 0x5b, 0x60, 0xa7, 0x3e, 0x40, 0x6c,
    0x86, 0xbe, 0x88, 0xe2, 0x1b, 0xbe, 0x72, 0x27, 0x4b, 0x3d, 0xbb, 0x6e, 0xae, 0xbc, 0xab, 0xee, 0x17, 0xbe, 0x6a,
    0xb6, 0x5e, 0xbe, 0xb9, 0xc8, 0x22, 0xbe, 0xb0, 0x8e, 0x21, 0x3e, 0xcd, 0x2f, 0x3c, 0x3d, 0xca, 0x1a, 0xd3, 0x3d,
    0x37, 0x1d, 0x05, 0xbe, 0x79, 0xb2, 0xce, 0xbe, 0x94, 0xea, 0xc8, 0xbb, 0x26, 0xfc, 0x82, 0x3e, 0x33, 0x89, 0x37,
    0x3e, 0x00, 0x9f, 0xf2, 0xbe, 0x16, 0xc0, 0x75, 0x3d, 0x37, 0xe8, 0x81, 0x3c, 0xa6, 0xbc, 0x59, 0xbe, 0xa7, 0x16,
    0x9a, 0xbe, 0x99, 0xa5, 0xc0, 0x3d, 0x59, 0x51, 0xf9, 0xbc, 0x84, 0xa2, 0x50, 0x3d, 0x7f, 0x5c, 0xea, 0xbd, 0xc5,
    0x48, 0x11, 0x3e, 0xdf, 0xc6, 0xf6, 0x3d, 0x29, 0x17, 0x73, 0x3e, 0x7d, 0x18, 0xec, 0x3d, 0xe7, 0xb4, 0xf4, 0x3d,
    0x5d, 0xa1, 0x14, 0xbe, 0x78, 0xf0, 0x41, 0xbd, 0x84, 0xb5, 0x8b, 0xbd, 0x26, 0x23, 0x4d, 0xbe, 0x51, 0x3f, 0x2f,
    0x3d, 0x80, 0x6a, 0x06, 0x3e, 0x92, 0x43, 0x2f, 0xbd, 0xcb, 0xdf, 0xd3, 0xbd, 0x4f, 0x99, 0xb6, 0xbd, 0xa1, 0x3d,
    0xfc, 0x3d, 0x7c, 0xd1, 0xc8, 0x3d, 0xee, 0xe1, 0xa4, 0x3d, 0x11, 0x56, 0xa6, 0x3d, 0x2d, 0xd9, 0x23, 0x3e, 0xee,
    0x0f, 0x91, 0xbd, 0xde, 0x04, 0x8f, 0xbe, 0x00, 0x8d, 0xc8, 0xbc, 0x45, 0xdc, 0x80, 0x3e, 0x2c, 0x78, 0xa7, 0x3e,
    0x2a, 0x44, 0xfa, 0xbd, 0x37, 0x3c, 0x2a, 0xbe, 0x23, 0xc9, 0xf7, 0x3c, 0xe1, 0x4d, 0x95, 0x3d, 0x5a, 0x46, 0xdc,
    0xbd, 0x38, 0x4f, 0x1d, 0x3d, 0xcb, 0xd3, 0x1b, 0xbe, 0x24, 0xf0, 0x78, 0xbe, 0x5d, 0x99, 0x87, 0xbd, 0xd1, 0xac,
    0xb2, 0xbe, 0x0a, 0x5f, 0xb7, 0x3e, 0x3b, 0x39, 0x5a, 0x3e, 0x02, 0x56, 0x56, 0x3e, 0x6a, 0xc9, 0x31, 0xbd, 0xf4,
    0xa7, 0xb1, 0x3d, 0x5e, 0xc4, 0x8f, 0x3c, 0x81, 0x46, 0xec, 0xbd, 0x94, 0x76, 0x68, 0x3e, 0xa4, 0x71, 0x59, 0xbe,
    0x7a, 0xf3, 0xab, 0x3d, 0xb4, 0x5c, 0x93, 0xbe, 0xa0, 0x00, 0x73, 0x3d, 0xd8, 0xe2, 0x98, 0xbd, 0x1e, 0xd2, 0xe3,
    0xbd, 0x9a, 0x0d, 0x25, 0x3e, 0xea, 0x69, 0x2b, 0x3d, 0xb1, 0x8b, 0x07, 0x3e, 0x95, 0x0f, 0xf1, 0xbd, 0xde, 0x8f,
    0x15, 0xbe, 0x1f, 0xd1, 0x7a, 0x3e, 0x54, 0xfd, 0xb5, 0x3d, 0x74, 0xb1, 0x1f, 0x3e, 0x77, 0xdd, 0x6e, 0x3d, 0x05,
    0xf8, 0x4e, 0xbd, 0x79, 0xe7, 0x42, 0xbe, 0x46, 0x89, 0x4b, 0xbe, 0x3a, 0xcd, 0x11, 0xbd, 0x10, 0xc6, 0x1c, 0xbe,
    0xf4, 0x3a, 0xdc, 0xbd, 0x4d, 0xdf, 0x38, 0xbe, 0x9d, 0x6a, 0x91, 0x3e, 0xbb, 0xed, 0xdb, 0xbd, 0xcf, 0xea, 0x66,
    0xbe, 0x79, 0x44, 0x24, 0xbe, 0x0e, 0xb8, 0x45, 0x3b, 0x57, 0xfd, 0x7e, 0xbd, 0x11, 0x5b, 0x4a, 0xbe, 0x67, 0x93,
    0xcc, 0xbd, 0xfe, 0xe9, 0xa6, 0xbe, 0x64, 0xb9, 0x46, 0xbc, 0xdc, 0x29, 0x65, 0x3d, 0xac, 0xf8, 0x69, 0x3d, 0x1c,
    0x54, 0x52, 0x3e, 0x4c, 0x2b, 0x61, 0x3e, 0x1e, 0x76, 0x58, 0xbe, 0xa9, 0xfa, 0x3b, 0x3d, 0x05, 0xcd, 0x8d, 0x3e,
    0x90, 0xb1, 0x46, 0xbe, 0xea, 0x28, 0xf0, 0x3d, 0xef, 0x81, 0x81, 0xbe, 0x07, 0xef, 0x27, 0xbe, 0xd6, 0x9b, 0xce,
    0x3e, 0xd5, 0xcd, 0xe1, 0x3c, 0x70, 0x13, 0xa0, 0xbc, 0x2c, 0xa9, 0x12, 0xbf, 0xe2, 0x63, 0x32, 0xbf, 0x28, 0xb0,
    0x80, 0xbe, 0xfc, 0xdc, 0x1a, 0xbe, 0xf6, 0x1e, 0xb3, 0x3e, 0x32, 0x72, 0x83, 0xbc, 0x3f, 0x95, 0x12, 0x3e, 0xe6,
    0x8d, 0x15, 0xbf, 0x8e, 0x07, 0xc5, 0xbe, 0xa0, 0x1b, 0x68, 0xbe, 0x3c, 0x3d, 0xa7, 0x3e, 0x0a, 0x75, 0x9a, 0xbe,
    0x18, 0x50, 0xab, 0x3e, 0x91, 0xc4, 0xf1, 0x3e, 0x50, 0xad, 0xa8, 0x3d, 0x0b, 0x91, 0x4c, 0x3e, 0xe2, 0xfb, 0x5c,
    0x3e, 0x69, 0xf5, 0x2b, 0x3e, 0xcc, 0xe9, 0x14, 0x3e, 0x05, 0xef, 0x85, 0xbd, 0xaf, 0x0f, 0xcb, 0x3e, 0x41, 0xdd,
    0x1b, 0x3f, 0x24, 0x2a, 0xe2, 0xbe, 0x00, 0x53, 0xdc, 0xbc, 0xd8, 0x84, 0xe5, 0x3d, 0x44, 0x9b, 0xb6, 0xbb, 0x85,
    0x54, 0xd2, 0x3d, 0x19, 0x9d, 0x97, 0x3d, 0xe8, 0x7b, 0x15, 0x3e, 0xc6, 0x4c, 0x57, 0xbd, 0xe4, 0x79, 0xe0, 0xbd,
    0xc5, 0x0d, 0x48, 0x3e, 0x69, 0x91, 0x23, 0xbe, 0xd0, 0x12, 0x5d, 0x3d, 0xc7, 0x36, 0xce, 0x3d, 0x36, 0x92, 0x8e,
    0xbd, 0xd0, 0xe5, 0x53, 0x3d, 0x32, 0x3d, 0xa1, 0x3c, 0xa8, 0x7b, 0xd6, 0xbd, 0x10, 0x24, 0x3c, 0xbd, 0x5b, 0xb5,
    0x0d, 0x3d, 0x59, 0x75, 0x03, 0xbd, 0x43, 0x0d, 0xa9, 0x3c, 0xff, 0xf5, 0xf3, 0x3a, 0xf6, 0xeb, 0x70, 0xbd, 0x97,
    0xce, 0x11, 0xbe, 0x56, 0x2d, 0x64, 0xbe, 0x54, 0xc9, 0x6d, 0xbd, 0xf2, 0xef, 0x12, 0xbd, 0xb8, 0xa5, 0xac, 0x3d,
    0x6d, 0x6f, 0x4c, 0xbd, 0x72, 0x85, 0x69, 0x3d, 0x20, 0xb4, 0x22, 0x3e, 0xe0, 0x4d, 0x13, 0x3d, 0xdf, 0x05, 0x89,
    0xb8, 0x0c, 0x91, 0x5d, 0x3d, 0x87, 0x2b, 0x43, 0xbe, 0x76, 0x9e, 0x9c, 0x3b, 0xe4, 0xba, 0x83, 0xbe, 0x2c, 0x53,
    0x01, 0xbe, 0x67, 0xf5, 0x08, 0xbe, 0x0b, 0x0a, 0x1a, 0x3d, 0x54, 0x4f, 0x31, 0xbe, 0x2f, 0x03, 0x07, 0xbe, 0x5a,
    0xac, 0x2e, 0x3e, 0xd7, 0x83, 0x6a, 0x38, 0x1a, 0x7c, 0xc1, 0x3d, 0xd5, 0x59, 0x38, 0x3e, 0x3e, 0x62, 0x9a, 0xbd,
    0x89, 0xd1, 0x99, 0xbd, 0x88, 0x2a, 0x68, 0xbe, 0x7e, 0x7b, 0xfd, 0x3d, 0x3b, 0x2c, 0xd2, 0xbc, 0x36, 0xff, 0x3d,
    0x3e, 0x57, 0xd5, 0x0e, 0xbd, 0x83, 0xc4, 0x91, 0xbe, 0x15, 0x56, 0xe0, 0x3d, 0xf9, 0xda, 0x06, 0x3d, 0x2f, 0xe9,
    0x83, 0x3d, 0x02, 0x32, 0xd9, 0xbe, 0xee, 0x3e, 0x0d, 0x3e, 0x1c, 0xf1, 0xd0, 0xbe, 0x90, 0x3c, 0x61, 0xbd, 0x3d,
    0xb7, 0x00, 0xbe, 0xae, 0x74, 0x2a, 0x3e, 0x50, 0x08, 0x25, 0xbd, 0xa3, 0x64, 0x8e, 0xbd, 0x3d, 0xaa, 0xd5, 0x3d,
    0xa5, 0x5e, 0x77, 0xbd, 0x14, 0xb0, 0x9f, 0xbd, 0x94, 0x6d, 0x00, 0xbe, 0x69, 0xc0, 0x07, 0x3e, 0x2b, 0xd2, 0xc7,
    0xbd, 0x83, 0x0d, 0xa2, 0x3d, 0x2b, 0xad, 0x90, 0x3c, 0x30, 0x60, 0xa0, 0xbd, 0x12, 0x42, 0xb3, 0xbd, 0x08, 0x45,
    0xeb, 0x3d, 0xdb, 0x21, 0xb2, 0xbc, 0x83, 0x24, 0x63, 0xbc, 0x80, 0x07, 0xba, 0xbd, 0x9a, 0x89, 0x8d, 0xbe, 0xdc,
    0xb5, 0xe8, 0x3d, 0x72, 0xba, 0xeb, 0x3c, 0xc9, 0x19, 0x46, 0x3d, 0x41, 0x38, 0x15, 0xbe, 0x76, 0x2b, 0x80, 0x3d,
    0xf7, 0xa9, 0x2f, 0xbe, 0x11, 0x41, 0xc8, 0x3b, 0x2c, 0x54, 0x1a, 0x3e, 0x33, 0xe5, 0x17, 0xbb, 0x2d, 0x0d, 0x21,
    0x3e, 0x7c, 0x8e, 0x75, 0x3d, 0x22, 0x1a, 0x0c, 0xbe, 0xb8, 0x75, 0x19, 0xbd, 0x01, 0xe1, 0xa8, 0xbd, 0xe9, 0xb7,
    0xa9, 0xbc, 0xbb, 0xf0, 0x81, 0xba, 0xd9, 0x88, 0x4e, 0x3d, 0xe6, 0xfe, 0xff, 0xff, 0x04, 0x00, 0x00, 0x00, 0x80,
    0x00, 0x00, 0x00, 0x48, 0x81, 0xa9, 0x3b, 0xa5, 0x56, 0x24, 0x3e, 0x7e, 0x80, 0x99, 0xbc, 0x77, 0xe8, 0xf6, 0x3a,
    0x7e, 0x6e, 0x7d, 0x3e, 0x14, 0xcb, 0x0c, 0x39, 0xa4, 0x9c, 0x46, 0xbe, 0xfd, 0xc0, 0x9e, 0xbd, 0x2c, 0xf4, 0xa2,
    0x3b, 0xe2, 0xa9, 0x09, 0x3b, 0xc3, 0xcf, 0xb8, 0x3b, 0x86, 0x9b, 0x92, 0x3c, 0x7f, 0xbb, 0x48, 0x3c, 0xab, 0x33,
    0xee, 0xba, 0x39, 0x4d, 0x3f, 0xbd, 0xf2, 0x8e, 0xab, 0xbe, 0x5f, 0xa4, 0xc8, 0x3a, 0x20, 0xcc, 0x2c, 0xbb, 0x48,
    0x19, 0x7f, 0x3c, 0x1c, 0x63, 0xe1, 0xb9, 0xf7, 0x0e, 0xaf, 0x3a, 0x72, 0x93, 0xde, 0xb9, 0xb2, 0x63, 0x81, 0xbb,
    0xdd, 0x69, 0x05, 0xba, 0x56, 0x98, 0x07, 0xbd, 0xc0, 0xd1, 0x12, 0xbb, 0xcf, 0xe4, 0x77, 0x3b, 0xf8, 0x47, 0x7e,
    0x3c, 0x2f, 0x59, 0xa1, 0x3e, 0xc1, 0x6d, 0x14, 0x3b, 0xf3, 0x3c, 0xb0, 0xba, 0xba, 0xdf, 0x44, 0xbb, 0x72, 0xff,
    0xff, 0xff, 0x04, 0x00, 0x00, 0x00, 0x80, 0x00, 0x00, 0x00, 0x1c, 0x02, 0xb5, 0xbe, 0xcd, 0xf0, 0xae, 0x3c, 0x11,
    0xb5, 0x49, 0xbe, 0xe0, 0x5c, 0x98, 0xbd, 0xc3, 0x71, 0xdd, 0xbe, 0xd3, 0xad, 0x42, 0xbb, 0xd0, 0xc1, 0xb0, 0xbe,
    0x85, 0xcf, 0xf0, 0xbd, 0xc9, 0x2e, 0x23, 0xbd, 0x42, 0xb7, 0xb4, 0xbd, 0x88, 0x15, 0x5b, 0xbd, 0x50, 0xb1, 0xcb,
    0x3d, 0xbe, 0x33, 0x41, 0x3d, 0x0c, 0xcd, 0x0c, 0xbe, 0x43, 0xaf, 0x19, 0xbe, 0xb3, 0x18, 0x25, 0xbe, 0x61, 0xbd,
    0x55, 0xbe, 0xab, 0x25, 0x93, 0x3d, 0xb4, 0xbc, 0xcd, 0xbd, 0xf4, 0xe8, 0x0d, 0xbd, 0x3f, 0x41, 0x05, 0x3e, 0x3d,
    0x91, 0x29, 0xbe, 0xf3, 0x3f, 0x01, 0x3e, 0x53, 0xc4, 0xcb, 0xbd, 0xf5, 0xbe, 0xd5, 0xbd, 0xe2, 0x0c, 0xe3, 0xbd,
    0x84, 0x11, 0x95, 0xbc, 0xba, 0xfb, 0x54, 0x3d, 0x75, 0xab, 0x14, 0xbf, 0x25, 0x6e, 0xff, 0x3d, 0x0d, 0xe7, 0x4e,
    0xbe, 0x2d, 0x3e, 0xb5, 0x3d, 0x00, 0x00, 0x06, 0x00, 0x08, 0x00, 0x04, 0x00, 0x06, 0x00, 0x00, 0x00, 0x04, 0x00,
    0x00, 0x00, 0x04, 0x00, 0x00, 0x00, 0x65, 0xf0, 0x76, 0xbd, 0x38, 0xfa, 0xff, 0xff, 0x3c, 0xfa, 0xff, 0xff, 0x0f,
    0x00, 0x00, 0x00, 0x4d, 0x4c, 0x49, 0x52, 0x20, 0x43, 0x6f, 0x6e, 0x76, 0x65, 0x72, 0x74, 0x65, 0x64, 0x2e, 0x00,
    0x01, 0x00, 0x00, 0x00, 0x14, 0x00, 0x00, 0x00, 0x00, 0x00, 0x0e, 0x00, 0x18, 0x00, 0x14, 0x00, 0x10, 0x00, 0x0c,
    0x00, 0x08, 0x00, 0x04, 0x00, 0x0e, 0x00, 0x00, 0x00, 0x14, 0x00, 0x00, 0x00, 0x1c, 0x00, 0x00, 0x00, 0x40, 0x01,
    0x00, 0x00, 0x44, 0x01, 0x00, 0x00, 0x48, 0x01, 0x00, 0x00, 0x04, 0x00, 0x00, 0x00, 0x6d, 0x61, 0x69, 0x6e, 0x00,
    0x00, 0x00, 0x00, 0x06, 0x00, 0x00, 0x00, 0xf4, 0x00, 0x00, 0x00, 0xc0, 0x00, 0x00, 0x00, 0x80, 0x00, 0x00, 0x00,
    0x5c, 0x00, 0x00, 0x00, 0x28, 0x00, 0x00, 0x00, 0x04, 0x00, 0x00, 0x00, 0x5e, 0xff, 0xff, 0xff, 0x0c, 0x00, 0x00,
    0x00, 0x10, 0x00, 0x00, 0x00, 0x02, 0x00, 0x00, 0x00, 0x01, 0x00, 0x00, 0x00, 0x0c, 0x00, 0x00, 0x00, 0x01, 0x00,
    0x00, 0x00, 0x0b, 0x00, 0x00, 0x00, 0x52, 0xff, 0xff, 0xff, 0x10, 0x00, 0x00, 0x00, 0x00, 0x00, 0x00, 0x08, 0x0c,
    0x00, 0x00, 0x00, 0x10, 0x00, 0x00, 0x00, 0xe0, 0xfa, 0xff, 0xff, 0x01, 0x00, 0x00, 0x00, 0x0b, 0x00, 0x00, 0x00,
    0x03, 0x00, 0x00, 0x00, 0x0a, 0x00, 0x00, 0x00, 0x03, 0x00, 0x00, 0x00, 0x01, 0x00, 0x00, 0x00, 0xae, 0xff, 0xff,
    0xff, 0x0c, 0x00, 0x00, 0x00, 0x10, 0x00, 0x00, 0x00, 0x01, 0x00, 0x00, 0x00, 0x01, 0x00, 0x00, 0x00, 0x0a, 0x00,
    0x00, 0x00, 0x01, 0x00, 0x00, 0x00, 0x09, 0x00, 0x00, 0x00, 0xa2, 0xff, 0xff, 0xff, 0x10, 0x00, 0x00, 0x00, 0x00,
    0x00, 0x00, 0x08, 0x0c, 0x00, 0x00, 0x00, 0x10, 0x00, 0x00, 0x00, 0x30, 0xfb, 0xff, 0xff, 0x01, 0x00, 0x00, 0x00,
    0x09, 0x00, 0x00, 0x00, 0x03, 0x00, 0x00, 0x00, 0x08, 0x00, 0x00, 0x00, 0x04, 0x00, 0x00, 0x00, 0x02, 0x00, 0x00,
    0x00, 0x00, 0x00, 0x0a, 0x00, 0x10, 0x00, 0x0c, 0x00, 0x08, 0x00, 0x04, 0x00, 0x0a, 0x00, 0x00, 0x00, 0x0c, 0x00,
    0x00, 0x00, 0x10, 0x00, 0x00, 0x00, 0x01, 0x00, 0x00, 0x00, 0x01, 0x00, 0x00, 0x00, 0x08, 0x00, 0x00, 0x00, 0x01,
    0x00, 0x00, 0x00, 0x07, 0x00, 0x00, 0x00, 0x00, 0x00, 0x0e, 0x00, 0x14, 0x00, 0x00, 0x00, 0x10, 0x00, 0x0c, 0x00,
    0x0b, 0x00, 0x04, 0x00, 0x0e, 0x00, 0x00, 0x00, 0x10, 0x00, 0x00, 0x00, 0x00, 0x00, 0x00, 0x08, 0x0c, 0x00, 0x00,
    0x00, 0x10, 0x00, 0x00, 0x00, 0x9c, 0xfb, 0xff, 0xff, 0x01, 0x00, 0x00, 0x00, 0x07, 0x00, 0x00, 0x00, 0x03, 0x00,
    0x00, 0x00, 0x00, 0x00, 0x00, 0x00, 0x05, 0x00, 0x00, 0x00, 0x06, 0x00, 0x00, 0x00, 0x01, 0x00, 0x00, 0x00, 0x0c,
    0x00, 0x00, 0x00, 0x01, 0x00, 0x00, 0x00, 0x00, 0x00, 0x00, 0x00, 0x0d, 0x00, 0x00, 0x00, 0x1c, 0x04, 0x00, 0x00,
    0xb4, 0x03, 0x00, 0x00, 0x64, 0x03, 0x00, 0x00, 0x14, 0x03, 0x00, 0x00, 0xc4, 0x02, 0x00, 0x00, 0x74, 0x02, 0x00,
    0x00, 0x24, 0x02, 0x00, 0x00, 0xb4, 0x01, 0x00, 0x00, 0x70, 0x01, 0x00, 0x00, 0xfc, 0x00, 0x00, 0x00, 0xb4, 0x00,
    0x00, 0x00, 0x40, 0x00, 0x00, 0x00, 0x04, 0x00, 0x00, 0x00, 0x2e, 0xfc, 0xff, 0xff, 0x00, 0x00, 0x00, 0x01, 0x10,
    0x00, 0x00, 0x00, 0x10, 0x00, 0x00, 0x00, 0x0d, 0x00, 0x00, 0x00, 0x18, 0x00, 0x00, 0x00, 0x18, 0xfc, 0xff, 0xff,
    0x08, 0x00, 0x00, 0x00, 0x49, 0x64, 0x65, 0x6e, 0x74, 0x69, 0x74, 0x79, 0x00, 0x00, 0x00, 0x00, 0x02, 0x00, 0x00,
    0x00, 0x01, 0x00, 0x00, 0x00, 0x01, 0x00, 0x00, 0x00, 0x66, 0xfc, 0xff, 0xff, 0x00, 0x00, 0x00, 0x01, 0x10, 0x00,
    0x00, 0x00, 0x10, 0x00, 0x00, 0x00, 0x0c, 0x00, 0x00, 0x00, 0x50, 0x00, 0x00, 0x00, 0x50, 0xfc, 0xff, 0xff, 0x42,
    0x00, 0x00, 0x00, 0x6d, 0x6f, 0x64, 0x65, 0x6c, 0x2f, 0x74, 0x66, 0x2e, 0x6c, 0x69, 0x6e, 0x61, 0x6c, 0x67, 0x2e,
    0x6d, 0x61, 0x74, 0x6d, 0x75, 0x6c, 0x5f, 0x32, 0x2f, 0x4d, 0x61, 0x74, 0x4d, 0x75, 0x6c, 0x3b, 0x6d, 0x6f, 0x64,
    0x65, 0x6c, 0x2f, 0x74, 0x66, 0x2e, 0x5f, 0x5f, 0x6f, 0x70, 0x65, 0x72, 0x61, 0x74, 0x6f, 0x72, 0x73, 0x5f, 0x5f,
    0x2e, 0x61, 0x64, 0x64, 0x5f, 0x32, 0x2f, 0x41, 0x64, 0x64, 0x56, 0x32, 0x00, 0x00, 0x02, 0x00, 0x00, 0x00, 0x01,
    0x00, 0x00, 0x00, 0x01, 0x00, 0x00, 0x00, 0xd6, 0xfc, 0xff, 0xff, 0x00, 0x00, 0x00, 0x01, 0x10, 0x00, 0x00, 0x00,
    0x10, 0x00, 0x00, 0x00, 0x0b, 0x00, 0x00, 0x00, 0x24, 0x00, 0x00, 0x00, 0xc0, 0xfc, 0xff, 0xff, 0x15, 0x00, 0x00,
    0x00, 0x6d, 0x6f, 0x64, 0x65, 0x6c, 0x2f, 0x74, 0x66, 0x2e, 0x6e, 0x6e, 0x2e, 0x65, 0x6c, 0x75, 0x5f, 0x31, 0x2f,
    0x45, 0x6c, 0x75, 0x00, 0x00, 0x00, 0x02, 0x00, 0x00, 0x00, 0x01, 0x00, 0x00, 0x00, 0x20, 0x00, 0x00, 0x00, 0x1a,
    0xfd, 0xff, 0xff, 0x00, 0x00, 0x00, 0x01, 0x10, 0x00, 0x00, 0x00, 0x10, 0x00, 0x00, 0x00, 0x0a, 0x00, 0x00, 0x00,
    0x50, 0x00, 0x00, 0x00, 0x04, 0xfd, 0xff, 0xff, 0x42, 0x00, 0x00, 0x00, 0x6d, 0x6f, 0x64, 0x65, 0x6c, 0x2f, 0x74,
    0x66, 0x2e, 0x6c, 0x69, 0x6e, 0x61, 0x6c, 0x67, 0x2e, 0x6d, 0x61, 0x74, 0x6d, 0x75, 0x6c, 0x5f, 0x31, 0x2f, 0x4d,
    0x61, 0x74, 0x4d, 0x75, 0x6c, 0x3b, 0x6d, 0x6f, 0x64, 0x65, 0x6c, 0x2f, 0x74, 0x66, 0x2e, 0x5f, 0x5f, 0x6f, 0x70,
    0x65, 0x72, 0x61, 0x74, 0x6f, 0x72, 0x73, 0x5f, 0x5f, 0x2e, 0x61, 0x64, 0x64, 0x5f, 0x31, 0x2f, 0x41, 0x64, 0x64,
    0x56, 0x32, 0x00, 0x00, 0x02, 0x00, 0x00, 0x00, 0x01, 0x00, 0x00, 0x00, 0x20, 0x00, 0x00, 0x00, 0x8a, 0xfd, 0xff,
    0xff, 0x00, 0x00, 0x00, 0x01, 0x10, 0x00, 0x00, 0x00, 0x10, 0x00, 0x00, 0x00, 0x09, 0x00, 0x00, 0x00, 0x20, 0x00,
    0x00, 0x00, 0x74, 0xfd, 0xff, 0xff, 0x13, 0x00, 0x00, 0x00, 0x6d, 0x6f, 0x64, 0x65, 0x6c, 0x2f, 0x74, 0x66, 0x2e,
    0x6e, 0x6e, 0x2e, 0x65, 0x6c, 0x75, 0x2f, 0x45, 0x6c, 0x75, 0x00, 0x02, 0x00, 0x00, 0x00, 0x01, 0x00, 0x00, 0x00,
    0x20, 0x00, 0x00, 0x00, 0xca, 0xfd, 0xff, 0xff, 0x00, 0x00, 0x00, 0x01, 0x10, 0x00, 0x00, 0x00, 0x10, 0x00, 0x00,
    0x00, 0x08, 0x00, 0x00, 0x00, 0x4c, 0x00, 0x00, 0x00, 0xb4, 0xfd, 0xff, 0xff, 0x3e, 0x00, 0x00, 0x00, 0x6d, 0x6f,
    0x64, 0x65, 0x6c, 0x2f, 0x74, 0x66, 0x2e, 0x6c, 0x69, 0x6e, 0x61, 0x6c, 0x67, 0x2e, 0x6d, 0x61, 0x74, 0x6d, 0x75,
    0x6c, 0x2f, 0x4d, 0x61, 0x74, 0x4d, 0x75, 0x6c, 0x3b, 0x6d, 0x6f, 0x64, 0x65, 0x6c, 0x2f, 0x74, 0x66, 0x2e, 0x5f,
    0x5f, 0x6f, 0x70, 0x65, 0x72, 0x61, 0x74, 0x6f, 0x72, 0x73, 0x5f, 0x5f, 0x2e, 0x61, 0x64, 0x64, 0x2f, 0x41, 0x64,
    0x64, 0x56, 0x32, 0x00, 0x00, 0x02, 0x00, 0x00, 0x00, 0x01, 0x00, 0x00, 0x00, 0x20, 0x00, 0x00, 0x00, 0x36, 0xfe,
    0xff, 0xff, 0x00, 0x00, 0x00, 0x01, 0x10, 0x00, 0x00, 0x00, 0x10, 0x00, 0x00, 0x00, 0x07, 0x00, 0x00, 0x00, 0x30,
    0x00, 0x00, 0x00, 0x20, 0xfe, 0xff, 0xff, 0x20, 0x00, 0x00, 0x00, 0x6d, 0x6f, 0x64, 0x65, 0x6c, 0x2f, 0x74, 0x66,
    0x2e, 0x5f, 0x5f, 0x6f, 0x70, 0x65, 0x72, 0x61, 0x74, 0x6f, 0x72, 0x73, 0x5f, 0x5f, 0x2e, 0x61, 0x64, 0x64, 0x2f,
    0x41, 0x64, 0x64, 0x56, 0x32, 0x00, 0x00, 0x00, 0x00, 0x01, 0x00, 0x00, 0x00, 0x20, 0x00, 0x00, 0x00, 0x82, 0xfe,
    0xff, 0xff, 0x00, 0x00, 0x00, 0x01, 0x10, 0x00, 0x00, 0x00, 0x10, 0x00, 0x00, 0x00, 0x06, 0x00, 0x00, 0x00, 0x2c,
    0x00, 0x00, 0x00, 0x6c, 0xfe, 0xff, 0xff, 0x1d, 0x00, 0x00, 0x00, 0x6d, 0x6f, 0x64, 0x65, 0x6c, 0x2f, 0x74, 0x66,
    0x2e, 0x6c, 0x69, 0x6e, 0x61, 0x6c, 0x67, 0x2e, 0x6d, 0x61, 0x74, 0x6d, 0x75, 0x6c, 0x2f, 0x4d, 0x61, 0x74, 0x4d,
    0x75, 0x6c, 0x00, 0x00, 0x00, 0x02, 0x00, 0x00, 0x00, 0x20, 0x00, 0x00, 0x00, 0x05, 0x00, 0x00, 0x00, 0xce, 0xfe,
    0xff, 0xff, 0x00, 0x00, 0x00, 0x01, 0x10, 0x00, 0x00, 0x00, 0x10, 0x00, 0x00, 0x00, 0x05, 0x00, 0x00, 0x00, 0x2c,
    0x00, 0x00, 0x00, 0xb8, 0xfe, 0xff, 0xff, 0x1f, 0x00, 0x00, 0x00, 0x6d, 0x6f, 0x64, 0x65, 0x6c, 0x2f, 0x74, 0x66,
    0x2e, 0x6c, 0x69, 0x6e, 0x61, 0x6c, 0x67, 0x2e, 0x6d, 0x61, 0x74, 0x6d, 0x75, 0x6c, 0x5f, 0x31, 0x2f, 0x4d, 0x61,
    0x74, 0x4d, 0x75, 0x6c, 0x00, 0x02, 0x00, 0x00, 0x00, 0x20, 0x00, 0x00, 0x00, 0x20, 0x00, 0x00, 0x00, 0x1a, 0xff,
    0xff, 0xff, 0x00, 0x00, 0x00, 0x01, 0x10, 0x00, 0x00, 0x00, 0x10, 0x00, 0x00, 0x00, 0x04, 0x00, 0x00, 0x00, 0x2c,
    0x00, 0x00, 0x00, 0x04, 0xff, 0xff, 0xff, 0x1f, 0x00, 0x00, 0x00, 0x6d, 0x6f, 0x64, 0x65, 0x6c, 0x2f, 0x74, 0x66,
    0x2e, 0x6c, 0x69, 0x6e, 0x61, 0x6c, 0x67, 0x2e, 0x6d, 0x61, 0x74, 0x6d, 0x75, 0x6c, 0x5f, 0x32, 0x2f, 0x4d, 0x61,
    0x74, 0x4d, 0x75, 0x6c, 0x00, 0x02, 0x00, 0x00, 0x00, 0x01, 0x00, 0x00, 0x00, 0x20, 0x00, 0x00, 0x00, 0x66, 0xff,
    0xff, 0xff, 0x00, 0x00, 0x00, 0x01, 0x10, 0x00, 0x00, 0x00, 0x10, 0x00, 0x00, 0x00, 0x03, 0x00, 0x00, 0x00, 0x30,
    0x00, 0x00, 0x00, 0x50, 0xff, 0xff, 0xff, 0x22, 0x00, 0x00, 0x00, 0x6d, 0x6f, 0x64, 0x65, 0x6c, 0x2f, 0x74, 0x66,
    0x2e, 0x5f, 0x5f, 0x6f, 0x70, 0x65, 0x72, 0x61, 0x74, 0x6f, 0x72, 0x73, 0x5f, 0x5f, 0x2e, 0x61, 0x64, 0x64, 0x5f,
    0x31, 0x2f, 0x41, 0x64, 0x64, 0x56, 0x32, 0x00, 0x00, 0x01, 0x00, 0x00, 0x00, 0x20, 0x00, 0x00, 0x00, 0xb2, 0xff,
    0xff, 0xff, 0x00, 0x00, 0x00, 0x01, 0x10, 0x00, 0x00, 0x00, 0x10, 0x00, 0x00, 0x00, 0x02, 0x00, 0x00, 0x00, 0x30,
    0x00, 0x00, 0x00, 0x9c, 0xff, 0xff, 0xff, 0x22, 0x00, 0x00, 0x00, 0x6d, 0x6f, 0x64, 0x65, 0x6c, 0x2f, 0x74, 0x66,
    0x2e, 0x5f, 0x5f, 0x6f, 0x70, 0x65, 0x72, 0x61, 0x74, 0x6f, 0x72, 0x73, 0x5f, 0x5f, 0x2e, 0x61, 0x64, 0x64, 0x5f,
    0x32, 0x2f, 0x41, 0x64, 0x64, 0x56, 0x32, 0x00, 0x00, 0x01, 0x00, 0x00, 0x00, 0x01, 0x00, 0x00, 0x00, 0x00, 0x00,
    0x16, 0x00, 0x18, 0x00, 0x14, 0x00, 0x00, 0x00, 0x10, 0x00, 0x0c, 0x00, 0x08, 0x00, 0x00, 0x00, 0x00, 0x00, 0x00,
    0x00, 0x07, 0x00, 0x16, 0x00, 0x00, 0x00, 0x00, 0x00, 0x00, 0x01, 0x14, 0x00, 0x00, 0x00, 0x14, 0x00, 0x00, 0x00,
    0x01, 0x00, 0x00, 0x00, 0x14, 0x00, 0x00, 0x00, 0x04, 0x00, 0x04, 0x00, 0x04, 0x00, 0x00, 0x00, 0x03, 0x00, 0x00,
    0x00, 0x6f, 0x62, 0x73, 0x00, 0x02, 0x00, 0x00, 0x00, 0x01, 0x00, 0x00, 0x00, 0x05, 0x00, 0x00, 0x00, 0x03, 0x00,
    0x00, 0x00, 0x30, 0x00, 0x00, 0x00, 0x14, 0x00, 0x00, 0x00, 0x04, 0x00, 0x00, 0x00, 0xe8, 0xff, 0xff, 0xff, 0x1c,
    0x00, 0x00, 0x00, 0x00, 0x00, 0x00, 0x1c, 0xf4, 0xff, 0xff, 0xff, 0x6f, 0x00, 0x00, 0x00, 0x00, 0x00, 0x00, 0x6f,
    0x0c, 0x00, 0x0c, 0x00, 0x0b, 0x00, 0x00, 0x00, 0x00, 0x00, 0x04, 0x00, 0x0c, 0x00, 0x00, 0x00, 0x09, 0x00, 0x00,
    0x00, 0x00, 0x00, 0x00, 0x09};
inline constexpr unsigned int policy_model_len = 7168;
