unsigned char policy_model[] = {
    0x1c, 0x00, 0x00, 0x00, 0x54, 0x46, 0x4c, 0x33, 0x14, 0x00, 0x20, 0x00, 0x1c, 0x00, 0x18, 0x00, 0x14, 0x00, 0x10,
    0x00, 0x0c, 0x00, 0x00, 0x00, 0x08, 0x00, 0x04, 0x00, 0x14, 0x00, 0x00, 0x00, 0x1c, 0x00, 0x00, 0x00, 0x1c, 0x00,
    0x00, 0x00, 0x74, 0x00, 0x00, 0x00, 0xb0, 0x15, 0x00, 0x00, 0xc0, 0x15, 0x00, 0x00, 0xdc, 0x1a, 0x00, 0x00, 0x03,
    0x00, 0x00, 0x00, 0x00, 0x00, 0x00, 0x00, 0x02, 0x00, 0x00, 0x00, 0x34, 0x00, 0x00, 0x00, 0x04, 0x00, 0x00, 0x00,
    0xdc, 0xff, 0xff, 0xff, 0x0e, 0x00, 0x00, 0x00, 0x04, 0x00, 0x00, 0x00, 0x13, 0x00, 0x00, 0x00, 0x43, 0x4f, 0x4e,
    0x56, 0x45, 0x52, 0x53, 0x49, 0x4f, 0x4e, 0x5f, 0x4d, 0x45, 0x54, 0x41, 0x44, 0x41, 0x54, 0x41, 0x00, 0x08, 0x00,
    0x0c, 0x00, 0x08, 0x00, 0x04, 0x00, 0x08, 0x00, 0x00, 0x00, 0x0d, 0x00, 0x00, 0x00, 0x04, 0x00, 0x00, 0x00, 0x13,
    0x00, 0x00, 0x00, 0x6d, 0x69, 0x6e, 0x5f, 0x72, 0x75, 0x6e, 0x74, 0x69, 0x6d, 0x65, 0x5f, 0x76, 0x65, 0x72, 0x73,
    0x69, 0x6f, 0x6e, 0x00, 0x0f, 0x00, 0x00, 0x00, 0x38, 0x15, 0x00, 0x00, 0x30, 0x15, 0x00, 0x00, 0x1c, 0x15, 0x00,
    0x00, 0x84, 0x14, 0x00, 0x00, 0xf4, 0x13, 0x00, 0x00, 0xe4, 0x03, 0x00, 0x00, 0x54, 0x01, 0x00, 0x00, 0xc4, 0x00,
    0x00, 0x00, 0xbc, 0x00, 0x00, 0x00, 0xb4, 0x00, 0x00, 0x00, 0xac, 0x00, 0x00, 0x00, 0xa4, 0x00, 0x00, 0x00, 0x9c,
    0x00, 0x00, 0x00, 0x7c, 0x00, 0x00, 0x00, 0x04, 0x00, 0x00, 0x00, 0x1e, 0xeb, 0xff, 0xff, 0x04, 0x00, 0x00, 0x00,
    0x68, 0x00, 0x00, 0x00, 0x10, 0x00, 0x00, 0x00, 0x00, 0x00, 0x00, 0x00, 0x08, 0x00, 0x0e, 0x00, 0x08, 0x00, 0x04,
    0x00, 0x08, 0x00, 0x00, 0x00, 0x14, 0x00, 0x00, 0x00, 0x2c, 0x00, 0x00, 0x00, 0x00, 0x00, 0x0a, 0x00, 0x0c, 0x00,
    0x08, 0x00, 0x00, 0x00, 0x07, 0x00, 0x0a, 0x00, 0x00, 0x00, 0x00, 0x00, 0x00, 0x01, 0x04, 0x00, 0x00, 0x00, 0x00,
    0x00, 0x00, 0x00, 0x0c, 0x00, 0x18, 0x00, 0x14, 0x00, 0x10, 0x00, 0x0c, 0x00, 0x04, 0x00, 0x0c, 0x00, 0x00, 0x00,
    0x03, 0xa1, 0x42, 0x95, 0xc5, 0x87, 0x89, 0x84, 0x03, 0x00, 0x00, 0x00, 0x02, 0x00, 0x00, 0x00, 0x04, 0x00, 0x00,
    0x00, 0x06, 0x00, 0x00, 0x00, 0x32, 0x2e, 0x32, 0x31, 0x2e, 0x30, 0x00, 0x00, 0x92, 0xeb, 0xff, 0xff, 0x04, 0x00,
    0x00, 0x00, 0x10, 0x00, 0x00, 0x00, 0x31, 0x2e, 0x31, 0x34, 0x2e, 0x30, 0x00, 0x00, 0x00, 0x00, 0x00, 0x00, 0x00,
    0x00, 0x00, 0x00, 0x78, 0xe6, 0xff, 0xff, 0x7c, 0xe6, 0xff, 0xff, 0x80, 0xe6, 0xff, 0xff, 0x84, 0xe6, 0xff, 0xff,
    0x88, 0xe6, 0xff, 0xff, 0xc2, 0xeb, 0xff, 0xff, 0x04, 0x00, 0x00, 0x00, 0x80, 0x00, 0x00, 0x00, 0x9c, 0x81, 0x6a,
    0xbc, 0xcd, 0x81, 0x93, 0xbe, 0x3d, 0x0a, 0x70, 0x3e, 0xf3, 0xbe, 0xd2, 0x3c, 0xb8, 0xe6, 0x42, 0x3d, 0x36, 0x1c,
    0xf6, 0x3d, 0xee, 0xba, 0xd0, 0xbd, 0x15, 0x83, 0x56, 0xbd, 0x67, 0xb4, 0xe4, 0x3d, 0x15, 0xa2, 0x52, 0x3e, 0xe0,
    0xed, 0xfe, 0x3d, 0x25, 0x25, 0x2e, 0xbe, 0x27, 0x08, 0x00, 0xbd, 0x73, 0x40, 0x80, 0xbe, 0xad, 0xa7, 0xdc, 0xbe,
    0x5f, 0x04, 0x82, 0xbe, 0x88, 0xd7, 0x54, 0x3c, 0xf5, 0xd9, 0xbb, 0x3e, 0x45, 0xd4, 0x0c, 0x3e, 0x52, 0xbb, 0xdc,
    0xbe, 0xfe, 0x64, 0xa7, 0xbd, 0xe2, 0x0f, 0xab, 0xbd, 0x3b, 0xb3, 0x81, 0xbe, 0x1d, 0xdf, 0x93, 0xbc, 0x4d, 0x10,
    0x81, 0xbe, 0xd6, 0xb9, 0xbc, 0xbd, 0x37, 0x44, 0xcc, 0xbd, 0xfc, 0x46, 0xe2, 0xbe, 0x88, 0x61, 0xfc, 0xbc, 0xa1,
    0x06, 0xa9, 0xbe, 0xdf, 0xaf, 0x94, 0xbe, 0x56, 0x5d, 0x09, 0x3e, 0x4e, 0xec, 0xff, 0xff, 0x04, 0x00, 0x00, 0x00,
    0x80, 0x02, 0x00, 0x00, 0x25, 0x2c, 0xb8, 0xbe, 0xc1, 0x64, 0x0c, 0xbe, 0x78, 0xe2, 0x8d, 0xbe, 0x46, 0x63, 0xcb,
    0xbd, 0xfa, 0x38, 0xd8, 0xbe, 0xde, 0xf0, 0x65, 0x3e, 0xbb, 0x9a, 0x04, 0xbe, 0x26, 0x66, 0x48, 0x3e, 0xc4, 0x93,
    0x36, 0xbe, 0x20, 0xc3, 0x00, 0xbf, 0xc6, 0x2d, 0x1e, 0x3d, 0x5b, 0x79, 0x88, 0x3e, 0xb9, 0x3a, 0x51, 0x3e, 0xbc,
    0x69, 0x85, 0xbe, 0x94, 0x0f, 0xca, 0x3e, 0xb1, 0x45, 0x44, 0xbe, 0x4b, 0x03, 0xfa, 0x3d, 0xe0, 0xc7, 0xaa, 0xbc,
    0x20, 0xe8, 0xc6, 0xbe, 0xca, 0x13, 0x2c, 0x3e, 0x81, 0xb0, 0x2e, 0xbe, 0x79, 0xec, 0x90, 0x3e, 0xfe, 0xfe, 0x39,
    0x3e, 0xa2, 0x19, 0xb0, 0xbe, 0x0b, 0xf7, 0xa0, 0x3d, 0x58, 0xe9, 0xa2, 0x3e, 0x68, 0x2a, 0xe5, 0x3e, 0x68, 0x0f,
    0x52, 0xbe, 0x9f, 0xfc, 0x67, 0x3e, 0xca, 0x5e, 0x1b, 0x3f, 0x74, 0xd8, 0xf4, 0x3c, 0x37, 0xc9, 0x7d, 0xbd, 0x11,
    0x6f, 0x2f, 0x3c, 0xa8, 0x29, 0xe3, 0x3e, 0x51, 0x28, 0xe1, 0x3d, 0x37, 0x61, 0x12, 0xbe, 0x76, 0x2d, 0x1e, 0x3f,
    0xaa, 0x35, 0x4c, 0x3e, 0x62, 0x1a, 0x06, 0x3e, 0xdc, 0x7b, 0x63, 0x3f, 0x53, 0x4e, 0x25, 0xbf, 0x86, 0x2f, 0x2f,
    0xbf, 0x78, 0x6c, 0xa0, 0xbd, 0x1a, 0x41, 0xb5, 0x3a, 0xd8, 0xe4, 0x44, 0xbf, 0xd0, 0xb8, 0x9c, 0xbe, 0x4f, 0x79,
    0xd8, 0xbe, 0xa3, 0x1f, 0x93, 0x3d, 0xb9, 0xed, 0xb6, 0xbe, 0x2c, 0xb4, 0x13, 0xbf, 0xff, 0x06, 0xaf, 0x3e, 0xaa,
    0x6b, 0x10, 0x3e, 0x0a, 0xda, 0x86, 0xbd, 0xcb, 0xe8, 0x1a, 0x3f, 0x75, 0x29, 0x78, 0x3e, 0x6d, 0xac, 0xac, 0x3d,
    0x81, 0x77, 0x56, 0xbe, 0xe3, 0xc4, 0x09, 0x3e, 0x99, 0xd4, 0x00, 0x3f, 0xf7, 0xaa, 0x25, 0xbf, 0x76, 0xf0, 0x3a,
    0xbf, 0x13, 0x22, 0xd2, 0xbe, 0x7d, 0xa1, 0x32, 0xbe, 0xff, 0xc0, 0x7c, 0xbe, 0x18, 0xcd, 0x49, 0xbf, 0x00, 0x0e,
    0xa8, 0xbe, 0x59, 0x76, 0xa8, 0x3c, 0xe9, 0x8b, 0xcf, 0x3e, 0xd2, 0xc6, 0xd5, 0xbe, 0x02, 0x22, 0x40, 0x3f, 0x34,
    0x27, 0x02, 0x3f, 0x44, 0x7f, 0xb6, 0xbd, 0xfb, 0xed, 0x86, 0x3e, 0x71, 0x0b, 0x7a, 0xbc, 0xbb, 0x00, 0x2a, 0xbe,
    0xbc, 0x86, 0x6e, 0xbf, 0x9e, 0xcd, 0x86, 0xbf, 0x04, 0x5d, 0xdb, 0xbe, 0x18, 0xb1, 0xcc, 0xbe, 0xd0, 0x43, 0x2a,
    0xbf, 0x35, 0xe9, 0x1f, 0xbe, 0x7b, 0x3f, 0xc1, 0x3e, 0xb4, 0xbe, 0xec, 0xbe, 0x1b, 0xe7, 0xb4, 0x3d, 0x8a, 0xd1,
    0xce, 0x3e, 0x3c, 0x76, 0x7c, 0x3e, 0xa8, 0x14, 0x8b, 0x3e, 0x20, 0x19, 0x32, 0x3e, 0x3e, 0x2b, 0xdc, 0x3d, 0x41,
    0xcf, 0xb8, 0x3e, 0x1b, 0x31, 0x79, 0x3d, 0x96, 0x41, 0x81, 0xbe, 0xd3, 0x11, 0x20, 0x3e, 0x0e, 0xa7, 0x0b, 0xbf,
    0xb4, 0xb4, 0x9b, 0xbe, 0xe4, 0x66, 0x07, 0x3d, 0x0f, 0xcf, 0xa9, 0x3c, 0x64, 0xe3, 0x15, 0x3f, 0x21, 0x10, 0x37,
    0x3f, 0x4b, 0xf6, 0x40, 0x3f, 0x75, 0xa2, 0xe8, 0xbd, 0x57, 0xa0, 0x41, 0xbe, 0x5f, 0x7f, 0xf6, 0xbd, 0x42, 0x2d,
    0x05, 0x3f, 0x08, 0x72, 0xe4, 0xbe, 0x61, 0x45, 0x72, 0xbe, 0xd4, 0xc8, 0x43, 0x3e, 0x15, 0xdd, 0xc0, 0x3c, 0x56,
    0x79, 0x1b, 0x3e, 0x9e, 0xeb, 0xcd, 0x3e, 0x95, 0x55, 0x81, 0xbe, 0xc5, 0x02, 0x81, 0xbe, 0x13, 0x98, 0x95, 0xbe,
    0xe6, 0xdf, 0x9c, 0xbe, 0xf8, 0x34, 0xf7, 0xbd, 0x04, 0x0d, 0x12, 0xbe, 0xf0, 0xa9, 0x0d, 0x3e, 0x9d, 0x4d, 0x66,
    0x3f, 0x5d, 0xb0, 0x49, 0x3f, 0x78, 0xce, 0x74, 0x3f, 0xf9, 0x1b, 0xa9, 0x3e, 0x5b, 0x19, 0x8a, 0x3e, 0x4f, 0xf7,
    0xce, 0xbb, 0x95, 0x24, 0xf4, 0xbd, 0x96, 0x34, 0xac, 0x3e, 0x23, 0xd7, 0x66, 0x3d, 0x67, 0x72, 0x85, 0xbd, 0x13,
    0x56, 0xc8, 0xbe, 0x9c, 0x1e, 0x30, 0xbf, 0xc2, 0x82, 0xa0, 0xbe, 0xa3, 0x42, 0x3b, 0xbe, 0x5e, 0x88, 0x0e, 0x3f,
    0xab, 0x79, 0xb2, 0x3d, 0xfe, 0x61, 0xce, 0x3d, 0x1e, 0x10, 0x3e, 0x3f, 0xe1, 0xcf, 0xae, 0x3e, 0x25, 0x22, 0xef,
    0x3d, 0x74, 0x72, 0x67, 0xbf, 0x92, 0xfa, 0x65, 0xbd, 0x45, 0x7c, 0x58, 0xbf, 0xa9, 0x68, 0x4d, 0x3c, 0x4d, 0x80,
    0x9d, 0x3e, 0x07, 0x8b, 0x3d, 0xbe, 0x69, 0x84, 0xba, 0x3d, 0x75, 0x8f, 0xf8, 0x3e, 0x9b, 0x44, 0x53, 0xbe, 0xa2,
    0x95, 0xa1, 0xbe, 0x1b, 0x5f, 0x48, 0xbc, 0xc3, 0x2c, 0x9d, 0xbe, 0x69, 0x9a, 0xd7, 0xbc, 0xb2, 0xe5, 0x9c, 0x3d,
    0xf4, 0x31, 0x7c, 0xbe, 0x66, 0xb9, 0xa8, 0xbe, 0x21, 0xcc, 0x81, 0xbd, 0xe2, 0x7c, 0xf8, 0xbd, 0x35, 0x81, 0x48,
    0xbc, 0x9b, 0xfa, 0xeb, 0xbd, 0xa1, 0x2d, 0x67, 0xbc, 0x26, 0xc5, 0x0a, 0xbf, 0x8b, 0x77, 0x2b, 0xbd, 0xda, 0xee,
    0xff, 0xff, 0x04, 0x00, 0x00, 0x00, 0x00, 0x10, 0x00, 0x00, 0x64, 0x81, 0x79, 0xbc, 0xc7, 0x2e, 0x91, 0xbe, 0xa8,
    0x7e, 0xa5, 0x3d, 0x47, 0x42, 0x27, 0xbe, 0xed, 0x8c, 0x9c, 0xbd, 0x97, 0xc6, 0xcb, 0x3c, 0x81, 0x7f, 0xe4, 0xbd,
    0xf0, 0x97, 0xbe, 0x3e, 0x99, 0x36, 0x96, 0xbd, 0x00, 0x33, 0x45, 0xbe, 0x8f, 0x98, 0xaf, 0xbc, 0x35, 0x76, 0xfa,
    0x3d, 0x66, 0x32, 0x6a, 0xbe, 0x8b, 0x26, 0x36, 0xbe, 0xb4, 0x65, 0x69, 0xbe, 0x5b, 0xdc, 0x50, 0xbe, 0xc3, 0x00,
    0xd7, 0x3d, 0x7e, 0xac, 0x5d, 0x3c, 0xb6, 0xa4, 0x4b, 0xbe, 0xc2, 0xdd, 0xb9, 0x3d, 0x43, 0xc5, 0xd6, 0xbd, 0xcb,
    0x5b, 0xe3, 0x3b, 0x24, 0x71, 0x65, 0x3d, 0xec, 0x1e, 0xee, 0x3d, 0xb0, 0xa5, 0x32, 0x3e, 0x7a, 0x38, 0x91, 0xbc,
    0x5c, 0x84, 0x98, 0x3d, 0xe2, 0x65, 0x80, 0xbe, 0x99, 0x54, 0x52, 0x3e, 0x17, 0x8f, 0x82, 0x39, 0xf4, 0xc2, 0x32,
    0xbe, 0xbb, 0x56, 0x22, 0x3d, 0x4a, 0x03, 0xe3, 0x3c, 0x2e, 0xf9, 0xbb, 0xbd, 0x68, 0x12, 0x4f, 0x3e, 0x19, 0xad,
    0x75, 0xbd, 0x53, 0xd1, 0x4e, 0xbd, 0x54, 0x38, 0xad, 0x3e, 0xf5, 0x53, 0x12, 0xbd, 0x16, 0x16, 0x47, 0x3e, 0xd6,
    0x08, 0xa5, 0xbe, 0xaf, 0x2e, 0x38, 0xbe, 0x9f, 0x26, 0x04, 0x3e, 0x44, 0x83, 0x24, 0xbe, 0xf9, 0x72, 0x10, 0xbf,
    0x73, 0x07, 0x4a, 0xbe, 0x93, 0x2d, 0xa4, 0x3d, 0x0f, 0x25, 0x10, 0xbf, 0x65, 0x17, 0x80, 0xbc, 0x32, 0x8e, 0x84,
    0x3e, 0x6e, 0xe5, 0x10, 0xbd, 0x2e, 0x0a, 0x50, 0x3e, 0x9b, 0xf6, 0xa2, 0x3a, 0xa8, 0x84, 0x95, 0xbd, 0x0a, 0x73,
    0x17, 0xbe, 0x43, 0x2f, 0x51, 0x3f, 0x95, 0xa5, 0xf9, 0x3d, 0xf5, 0xa1, 0xd0, 0x3c, 0x0f, 0xaa, 0x30, 0x3d, 0xdd,
    0xe0, 0x80, 0xbe, 0x40, 0x27, 0xde, 0x3d, 0x2e, 0xec, 0x29, 0xbe, 0x37, 0x59, 0x57, 0xbd, 0x48, 0x6f, 0x11, 0xbe,
    0x77, 0x46, 0x98, 0xbe, 0x61, 0x2a, 0x4c, 0x3e, 0x70, 0x4c, 0x5b, 0xbe, 0xdc, 0xa6, 0xba, 0xbd, 0x27, 0xa9, 0xa2,
    0xbd, 0x3f, 0xe7, 0x5c, 0xbe, 0x49, 0x36, 0x99, 0x3e, 0x1d, 0xec, 0x92, 0x3d, 0x4e, 0xc3, 0x0d, 0xbe, 0xe5, 0x4b,
    0x05, 0xbe, 0x6a, 0xe5, 0x73, 0xbe, 0x94, 0x7e, 0xa1, 0xbe, 0xdc, 0xc7, 0x28, 0xbe, 0xdb, 0x5f, 0xbe, 0x3e, 0x70,
    0xb9, 0xfb, 0x3d, 0x28, 0x8e, 0xae, 0xbd, 0x68, 0x8d, 0x04, 0xbe, 0xa3, 0xd1, 0x8a, 0xbd, 0xd2, 0x56, 0xf2, 0xbd,
    0x6c, 0xc7, 0x84, 0x3e, 0xee, 0xb4, 0xd7, 0xbe, 0x0b, 0x60, 0x91, 0x3e, 0xae, 0x03, 0x5d, 0x3e, 0xb6, 0x68, 0x46,
    0xbe, 0x33, 0x4b, 0xbd, 0x3e, 0x11, 0x12, 0x8b, 0x3e, 0x37, 0x80, 0xf6, 0x3d, 0x8d, 0xd5, 0x3e, 0x3e, 0x52, 0x43,
    0x79, 0x3e, 0xe1, 0xd8, 0x3d, 0x3e, 0x85, 0x84, 0xa1, 0x3e, 0xc1, 0x2e, 0x5e, 0xbe, 0xe6, 0x47, 0xce, 0xbd, 0xf2,
    0x3a, 0x48, 0xbc, 0xc7, 0xe5, 0xcd, 0x3d, 0x88, 0xa1, 0x0e, 0xbe, 0x6c, 0x9a, 0xc4, 0x3c, 0x99, 0x20, 0x94, 0xbd,
    0x82, 0x7d, 0x44, 0xbd, 0xb7, 0x0c, 0xca, 0x3d, 0x2e, 0x1b, 0x9b, 0x3e, 0xa1, 0xe9, 0x22, 0xbd, 0xb7, 0x4a, 0x87,
    0x3e, 0xe9, 0xc2, 0x8b, 0xbb, 0xa2, 0x85, 0x08, 0x3e, 0x0b, 0xcb, 0x14, 0x3e, 0x7a, 0xbd, 0x1a, 0x3e, 0xb1, 0xcb,
    0xba, 0xbd, 0x9f, 0xac, 0x82, 0x3d, 0xdc, 0xc9, 0x33, 0x3e, 0xaf, 0x5a, 0x15, 0xbe, 0xfc, 0x1a, 0x2d, 0x3e, 0x76,
    0x5d, 0xfd, 0x3d, 0xb5, 0x15, 0xfa, 0x3d, 0x8f, 0x84, 0x17, 0xbe, 0x00, 0xf8, 0x58, 0xbe, 0x5a, 0x97, 0x6d, 0x3e,
    0x81, 0x5f, 0x51, 0xbe, 0x8d, 0x3d, 0x26, 0x3e, 0x98, 0x67, 0x32, 0x3d, 0xf3, 0x17, 0xf2, 0xbd, 0x57, 0x62, 0xde,
    0xbd, 0x28, 0x16, 0x1b, 0xbd, 0x77, 0x03, 0x51, 0xbe, 0x6c, 0xd4, 0xcd, 0x3d, 0xf0, 0x38, 0x64, 0x3e, 0x21, 0x84,
    0x97, 0xbe, 0x91, 0xbd, 0x9d, 0x3d, 0xd9, 0x92, 0x02, 0x3e, 0x80, 0x84, 0x0a, 0x3d, 0xcb, 0xc7, 0x0c, 0xbe, 0x88,
    0x71, 0xab, 0x3d, 0x7e, 0x45, 0x25, 0x3e, 0xd1, 0x0f, 0x31, 0x3e, 0xac, 0xfe, 0xbc, 0xbe, 0x03, 0xa1, 0x86, 0x3e,
    0xba, 0xd4, 0x58, 0x3e, 0x64, 0x59, 0xc6, 0x3e, 0x0e, 0x28, 0x44, 0x3e, 0xd1, 0xce, 0xd8, 0x3e, 0x0a, 0xcc, 0xe0,
    0x3d, 0x6c, 0xab, 0xee, 0xbe, 0x23, 0x3f, 0x58, 0x3e, 0x1a, 0xd6, 0x5d, 0x3e, 0x4e, 0x86, 0x8b, 0xbd, 0xb2, 0x64,
    0xf6, 0x3d, 0xc0, 0x07, 0x12, 0x3f, 0x9e, 0x3d, 0xe0, 0x3d, 0xfa, 0x83, 0x3c, 0x3e, 0x6e, 0x1a, 0x8e, 0x3e, 0x8b,
    0xc6, 0xb4, 0x3d, 0xb0, 0x4d, 0x64, 0x3e, 0x5d, 0xd0, 0xfc, 0xbd, 0xb3, 0xf1, 0x8f, 0x3e, 0x4c, 0x00, 0xce, 0x3d,
    0x09, 0xc2, 0xb2, 0xbd, 0xa1, 0x2d, 0x97, 0xb9, 0x65, 0x13, 0x96, 0xbd, 0x2e, 0xd7, 0xe0, 0x3d, 0x18, 0xc0, 0xcf,
    0x3c, 0x66, 0x9d, 0x53, 0xbd, 0xd8, 0x3a, 0xb2, 0x3c, 0xa1, 0x13, 0x39, 0x3e, 0x14, 0x09, 0x9a, 0xbd, 0xf9, 0x9f,
    0xdc, 0x3d, 0xbb, 0xa5, 0x5b, 0xbb, 0xdd, 0xd1, 0x01, 0xbc, 0xd2, 0xb0, 0xdf, 0xbc, 0x07, 0x88, 0x41, 0x3c, 0xdc,
    0xee, 0xd4, 0x3d, 0x07, 0xa0, 0x3f, 0x3d, 0xa4, 0x36, 0xe6, 0xbc, 0x51, 0x03, 0xc1, 0x3d, 0xf2, 0x64, 0xb2, 0xbd,
    0x9a, 0x75, 0x0a, 0xbe, 0xdf, 0x29, 0x27, 0x3e, 0xc2, 0xbb, 0xbf, 0xbd, 0xfc, 0x47, 0xa2, 0x3c, 0x33, 0xb0, 0x70,
    0xbe, 0xfe, 0x00, 0x24, 0xbe, 0x22, 0x97, 0x24, 0xbe, 0xf4, 0xe7, 0x52, 0x3d, 0x58, 0xd8, 0x04, 0xbe, 0x03, 0x23,
    0xcc, 0x3d, 0x99, 0x87, 0x0d, 0xbd, 0x19, 0x40, 0xaf, 0x3b, 0xa7, 0x7a, 0x16, 0xbe, 0x1a, 0xb5, 0xd9, 0xbd, 0x31,
    0xd6, 0xcd, 0x3d, 0xc3, 0x94, 0x31, 0x3e, 0x41, 0x71, 0xaa, 0x3c, 0xbe, 0x07, 0xc6, 0xbd, 0xb9, 0xea, 0x02, 0xbe,
    0x9d, 0x93, 0x86, 0xbd, 0x11, 0xd8, 0xea, 0x3d, 0x4b, 0x49, 0x87, 0x3d, 0x83, 0x2d, 0x7b, 0x3d, 0x43, 0x73, 0xec,
    0x3d, 0x0f, 0xe0, 0xa1, 0xbd, 0x90, 0x37, 0xb3, 0xbe, 0x8d, 0xb7, 0x5c, 0x3d, 0xa8, 0x0f, 0xc6, 0x3d, 0x9b, 0xb9,
    0x3a, 0x3d, 0x9c, 0xf0, 0x1a, 0xbd, 0x99, 0xcc, 0x21, 0xbe, 0x48, 0x68, 0xef, 0x3d, 0xcb, 0x70, 0x96, 0x3d, 0x02,
    0x77, 0x6b, 0x3e, 0x98, 0x25, 0x02, 0xbc, 0xcf, 0x19, 0xbd, 0x3d, 0xd6, 0xe3, 0x98, 0xbe, 0x58, 0xc2, 0x27, 0xbc,
    0x3d, 0xcc, 0xef, 0xbc, 0xc5, 0x4b, 0x1b, 0x3e, 0x57, 0x74, 0xc7, 0xbd, 0xae, 0xc3, 0x35, 0xbd, 0x1a, 0xfd, 0x1e,
    0xbd, 0xfe, 0xe3, 0x49, 0x3e, 0x48, 0xa3, 0x6d, 0xbd, 0x55, 0x19, 0x0d, 0x3d, 0xf9, 0x53, 0x3a, 0xbe, 0xed, 0xb6,
    0x8f, 0xbd, 0x90, 0x33, 0xdf, 0x3d, 0xf3, 0xe7, 0xe6, 0x3a, 0x54, 0x56, 0x95, 0xbd, 0x8a, 0x54, 0x80, 0x3d, 0xcf,
    0xf6, 0x8f, 0x3d, 0xdd, 0xdf, 0x79, 0x3e, 0x9e, 0x09, 0xd5, 0xbe, 0x65, 0xe6, 0x4b, 0xbe, 0x3f, 0x4e, 0xbf, 0xbc,
    0x27, 0xe3, 0x52, 0x3e, 0x18, 0xd4, 0x0b, 0xbf, 0x31, 0x02, 0x11, 0xbd, 0xbd, 0x8b, 0x86, 0xbe, 0x7d, 0xb9, 0xeb,
    0xbe, 0x9d, 0xfb, 0x43, 0xbd, 0xbc, 0x85, 0x1b, 0xbd, 0x67, 0x7d, 0x95, 0x3a, 0x1d, 0xb7, 0x8a, 0x3e, 0xbf, 0xb8,
    0x9f, 0xbe, 0x1b, 0xe8, 0x3d, 0xbc, 0x89, 0x7b, 0x11, 0xbe, 0xae, 0x40, 0x45, 0x3e, 0x1f, 0x66, 0xa1, 0x3c, 0xe1,
    0xc7, 0x70, 0xbe, 0x1e, 0xdd, 0xe8, 0x3d, 0x50, 0xc3, 0xa5, 0xbe, 0x89, 0x4a, 0xcc, 0xbd, 0xea, 0x03, 0x2b, 0xbe,
    0x15, 0x31, 0x04, 0x3e, 0x45, 0xcd, 0x8f, 0x3d, 0xe1, 0xe3, 0x8c, 0x3d, 0x4c, 0x87, 0xa0, 0xbc, 0xe3, 0xf5, 0x8f,
    0xbe, 0x41, 0x87, 0x02, 0xbe, 0xfe, 0xda, 0x8c, 0xbe, 0xcd, 0x7c, 0x03, 0xbe, 0x92, 0xe4, 0x2f, 0x3e, 0x9c, 0x1b,
    0x63, 0xbd, 0x9e, 0xfc, 0x10, 0xbd, 0xee, 0x12, 0x15, 0x3e, 0x9e, 0x3d, 0x00, 0x3d, 0x15, 0x90, 0xfc, 0x3c, 0xae,
    0xf9, 0xae, 0xbd, 0x5f, 0x9d, 0xa0, 0xb8, 0x7d, 0xd6, 0xdb, 0xbd, 0x64, 0x77, 0x44, 0xbe, 0x01, 0x0e, 0x33, 0x3d,
    0x1b, 0xd4, 0x86, 0x3d, 0x54, 0x9c, 0x0f, 0xbd, 0xd4, 0xed, 0x43, 0xbe, 0x04, 0xc0, 0xf8, 0xbd, 0x11, 0x94, 0xa1,
    0x3c, 0x5c, 0x0c, 0x57, 0x3d, 0xc3, 0xe0, 0xc6, 0xbe, 0x62, 0x00, 0x34, 0xbe, 0x44, 0x4c, 0x08, 0x3d, 0x41, 0xf4,
    0x97, 0xbd, 0xfb, 0xa7, 0xe3, 0x3b, 0xa6, 0x5a, 0x8c, 0xbd, 0x60, 0x89, 0x83, 0xbd, 0x82, 0x2f, 0x06, 0x3d, 0xed,
    0x7a, 0x19, 0x3e, 0xd3, 0x28, 0xa7, 0xbd, 0x82, 0xf9, 0x0a, 0xbe, 0x78, 0xba, 0x19, 0xbe, 0x75, 0x7f, 0x44, 0x3e,
    0x13, 0x48, 0x4d, 0xbd, 0x3d, 0x25, 0x36, 0x3d, 0x36, 0x23, 0x7f, 0x3d, 0xec, 0x31, 0x22, 0xbe, 0xa6, 0x3c, 0xed,
    0x3d, 0x0b, 0xc7, 0xea, 0xbd, 0x6c, 0x5f, 0xf1, 0x3b, 0x3d, 0x17, 0x59, 0xbd, 0x37, 0x13, 0x00, 0xbe, 0x45, 0xeb,
    0xce, 0xbb, 0xaf, 0x0b, 0x81, 0xbc, 0xc4, 0x61, 0x5c, 0x3c, 0x0f, 0x6f, 0x80, 0x3c, 0xfa, 0xb8, 0x2f, 0x3d, 0x9d,
    0x2d, 0x56, 0xbe, 0x82, 0x2f, 0xb2, 0x3c, 0x39, 0x07, 0x4a, 0x3e, 0x53, 0x5c, 0xac, 0x3d, 0xb9, 0x6a, 0xe6, 0xbd,
    0xa1, 0x56, 0x6a, 0xbe, 0x81, 0x0a, 0x91, 0x3d, 0xb4, 0x3e, 0x18, 0x3c, 0x9e, 0xa9, 0xfd, 0x3d, 0x5a, 0x59, 0x04,
    0xbe, 0x72, 0x7c, 0x0d, 0x3e, 0xf7, 0x64, 0x4a, 0xbd, 0x41, 0x23, 0x02, 0xbe, 0xca, 0x2a, 0xcc, 0x3d, 0x21, 0x26,
    0x9a, 0xbc, 0x23, 0xca, 0x18, 0x3e, 0x48, 0xa8, 0xfb, 0xbc, 0x2a, 0xf5, 0x47, 0x3c, 0x09, 0xbc, 0xed, 0x3d, 0xf7,
    0x46, 0xee, 0xbc, 0xbe, 0x10, 0x2f, 0xbe, 0x9b, 0xcd, 0x53, 0x3d, 0x7a, 0xf4, 0x2b, 0x3e, 0x16, 0xc5, 0x37, 0x3d,
    0x3f, 0xa7, 0x7e, 0x3c, 0xb8, 0x8d, 0xf7, 0xba, 0xd5, 0x53, 0xde, 0xbd, 0x3e, 0xf1, 0x16, 0xbe, 0xcd, 0xb0, 0x0f,
    0x3d, 0xe9, 0x32, 0xb2, 0xbd, 0x35, 0x2f, 0x65, 0x3e, 0x35, 0x58, 0x69, 0xbd, 0x56, 0x54, 0x31, 0x3e, 0x60, 0x70,
    0x30, 0xbd, 0x7e, 0x1c, 0x72, 0x3e, 0xcf, 0xeb, 0xe5, 0xbd, 0x01, 0x8a, 0xf6, 0xbc, 0xa3, 0x71, 0x1b, 0xbe, 0x4c,
    0xb8, 0x09, 0xbd, 0x22, 0xa0, 0x76, 0xbc, 0xb4, 0x29, 0x00, 0xbe, 0x03, 0xb6, 0xe4, 0xbc, 0xa9, 0xbd, 0x44, 0x3e,
    0x9b, 0x44, 0x99, 0x3d, 0x40, 0x57, 0x2d, 0x3d, 0x05, 0xf9, 0xe4, 0x3c, 0x1b, 0x12, 0x5a, 0xbe, 0xd3, 0x46, 0x6b,
    0x3e, 0x0c, 0xb3, 0xd3, 0xbd, 0x85, 0x2d, 0xbd, 0x3d, 0x68, 0x2a, 0xb3, 0xbc, 0xfa, 0x60, 0x18, 0xbe, 0xa8, 0xd7,
    0x60, 0x3d, 0xc5, 0xc3, 0xfb, 0x3d, 0xae, 0x9b, 0x56, 0xbe, 0xa3, 0xec, 0x7b, 0xbe, 0x47, 0xfa, 0xff, 0xbc, 0x1b,
    0xaa, 0x73, 0x3d, 0xc6, 0x46, 0x30, 0xbe, 0xbb, 0x62, 0xc9, 0xbd, 0xd4, 0x6a, 0xfd, 0x3d, 0x20, 0x00, 0xb6, 0xbe,
    0x00, 0xee, 0x09, 0xbe, 0x37, 0xbc, 0x2e, 0x3c, 0x37, 0x2f, 0xd5, 0x3c, 0x52, 0xdd, 0xdd, 0x3e, 0xf4, 0xa8, 0xe4,
    0x3d, 0x00, 0x78, 0x99, 0xbc, 0x7a, 0xf4, 0xb5, 0xbd, 0x40, 0xad, 0xff, 0x3e, 0x93, 0x58, 0x43, 0xbd, 0xd8, 0xad,
    0x7a, 0x3e, 0xc3, 0xdd, 0x51, 0x3e, 0x06, 0xe7, 0xdd, 0xbc, 0xe1, 0x2b, 0x2f, 0xbc, 0xfa, 0xe6, 0xd9, 0xbd, 0x05,
    0x03, 0x90, 0x3e, 0x94, 0xe1, 0xba, 0x3c, 0x99, 0x74, 0x75, 0x3d, 0x44, 0xbc, 0xff, 0xbd, 0x0f, 0x13, 0x58, 0xbe,
    0xb6, 0x68, 0xd5, 0xbd, 0xde, 0x3f, 0xb2, 0x3d, 0xc8, 0xe3, 0xb9, 0x3d, 0x47, 0xbf, 0xaf, 0xbc, 0xa4, 0xcb, 0xa5,
    0x3d, 0xbe, 0x6b, 0x08, 0x3d, 0x26, 0x03, 0xd2, 0xbd, 0x05, 0x0f, 0x81, 0x3e, 0x4c, 0x56, 0x5d, 0x3e, 0xa8, 0x8d,
    0x33, 0xbe, 0xb9, 0x81, 0x15, 0xbe, 0x57, 0x66, 0xc7, 0xbd, 0xf4, 0x1b, 0x3e, 0x3d, 0xb1, 0xcc, 0xad, 0x3e, 0x2d,
    0xc5, 0x6b, 0xbd, 0xff, 0x82, 0x5d, 0x3d, 0xcf, 0x2c, 0x50, 0xbe, 0x61, 0xab, 0x73, 0x3e, 0x38, 0xca, 0x2e, 0xbd,
    0x33, 0xee, 0x82, 0xbd, 0xa0, 0xe7, 0x3b, 0xbe, 0x27, 0x85, 0x95, 0xbe, 0x07, 0xaa, 0xd1, 0xbe, 0xc7, 0xa7, 0xce,
    0xbc, 0xe8, 0x5f, 0xca, 0xbd, 0x40, 0x45, 0x8b, 0x3e, 0xa1, 0xd0, 0x33, 0x3c, 0x72, 0x74, 0xe2, 0xbd, 0x8b, 0xf6,
    0x95, 0xbe, 0x28, 0x88, 0x93, 0xbc, 0x00, 0x6b, 0x64, 0xbe, 0x20, 0xf5, 0x27, 0xbe, 0xd3, 0xd1, 0xc7, 0xbd, 0x00,
    0x84, 0x24, 0xbe, 0x92, 0xa1, 0x85, 0x3d, 0x88, 0xb8, 0xdc, 0xbc, 0xf8, 0x47, 0xa3, 0xbc, 0xae, 0xbb, 0xfa, 0xbd,
    0xe2, 0xf8, 0x88, 0x3d, 0xb4, 0x5d, 0x71, 0xbd, 0xa7, 0xe7, 0x0f, 0xbe, 0xba, 0x8e, 0x3c, 0x3e, 0xfd, 0x57, 0x42,
    0xbc, 0x1b, 0xd2, 0xc9, 0x3d, 0x38, 0xc9, 0xd1, 0x3c, 0x7e, 0x68, 0x1b, 0xbe, 0x4a, 0x46, 0x94, 0x3d, 0x34, 0x5e,
    0xf6, 0xbd, 0x0b, 0x8c, 0x4f, 0xbd, 0x3b, 0x44, 0x5b, 0xbd, 0xfa, 0x32, 0x8b, 0x3d, 0x48, 0x9a, 0xcd, 0x3d, 0xf1,
    0x37, 0xcc, 0xbd, 0x19, 0xf6, 0x2a, 0xbe, 0xc3, 0x53, 0xe7, 0x3c, 0x9a, 0x66, 0x1c, 0xbe, 0x56, 0xe1, 0x0c, 0x3d,
    0xbf, 0x30, 0x86, 0x3e, 0x8c, 0x5d, 0x17, 0xbe, 0xa4, 0xa9, 0x1a, 0xbe, 0x9d, 0xd3, 0xf8, 0x3b, 0xd7, 0xff, 0xf9,
    0x3d, 0x1d, 0x9e, 0x29, 0xbd, 0x69, 0x3e, 0x2c, 0xbe, 0xb9, 0x83, 0xf0, 0x3d, 0x83, 0x47, 0x4e, 0xbe, 0x95, 0x38,
    0x0e, 0xbc, 0xe9, 0x3d, 0x0f, 0xbe, 0xde, 0xeb, 0xe4, 0x3c, 0x3d, 0xc5, 0xf0, 0x3d, 0x01, 0x53, 0x2b, 0xbd, 0x93,
    0x45, 0x03, 0x3e, 0xd8, 0xae, 0x17, 0xbe, 0x86, 0xcd, 0xaf, 0xbc, 0xe1, 0x00, 0x86, 0xbe, 0xa3, 0x77, 0xc4, 0xbd,
    0x64, 0x7f, 0x8e, 0xbd, 0x20, 0x24, 0xc6, 0x3c, 0x65, 0x97, 0xf3, 0x38, 0x2d, 0xcc, 0x35, 0xbe, 0xe5, 0xcd, 0x8a,
    0x3a, 0x6c, 0xa5, 0x59, 0x3e, 0x7d, 0x83, 0x4c, 0xbe, 0xdc, 0xb6, 0xa6, 0x3d, 0x44, 0x9d, 0x0a, 0xbe, 0x95, 0x50,
    0x5a, 0x3e, 0x95, 0xd7, 0x3b, 0xbc, 0x2e, 0x0c, 0x11, 0x3c, 0x46, 0xf8, 0x73, 0xbe, 0x07, 0x81, 0x52, 0x3e, 0x46,
    0xa4, 0x15, 0xbc, 0x8f, 0xe3, 0x16, 0x3e, 0x62, 0x49, 0xa0, 0x3d, 0xe4, 0xff, 0x4f, 0xbd, 0x35, 0x59, 0xce, 0xbd,
    0xa1, 0xe3, 0xe8, 0xbd, 0xa9, 0x9a, 0xdf, 0x3c, 0x3d, 0x4b, 0x52, 0xbb, 0x70, 0x7b, 0x7a, 0xbe, 0x49, 0xe3, 0x0b,
    0x3e, 0x9d, 0x89, 0xa0, 0x3d, 0xab, 0x1a, 0x12, 0xbe, 0x0d, 0xf3, 0xf3, 0x3c, 0x62, 0xa0, 0x55, 0x3e, 0xb9, 0x0b,
    0xec, 0x3e, 0x8e, 0xf9, 0xe8, 0x3d, 0xbd, 0xd9, 0x11, 0x3e, 0x40, 0xd7, 0x51, 0xbd, 0x6c, 0x74, 0x0c, 0xbe, 0x83,
    0x7b, 0x03, 0xbe, 0x2a, 0x60, 0x8f, 0xbe, 0x51, 0x96, 0x9a, 0xbc, 0xa1, 0xda, 0x71, 0xbd, 0xaf, 0x28, 0xc2, 0xbd,
    0x7c, 0xa7, 0xa9, 0xbd, 0x19, 0x8d, 0x81, 0xbe, 0x3a, 0x53, 0x93, 0xbe, 0xc5, 0x8e, 0x61, 0xbd, 0x0b, 0x2c, 0xc7,
    0xbe, 0xf9, 0xc6, 0xf0, 0x3d, 0x3f, 0x2a, 0x0f, 0x3e, 0xe8, 0x4f, 0x05, 0xbe, 0xfb, 0x8b, 0xc6, 0x3d, 0xa8, 0x30,
    0x24, 0xbd, 0x57, 0x7d, 0xa8, 0xbe, 0x5e, 0xc0, 0xb0, 0xbd, 0xcb, 0x88, 0x1b, 0xbe, 0x31, 0x03, 0x59, 0xbe, 0x73,
    0x09, 0x85, 0x3d, 0xdc, 0x21, 0xc4, 0x3c, 0x63, 0x23, 0x3e, 0xbd, 0x45, 0xc7, 0x9c, 0x3d, 0x28, 0xd8, 0x48, 0xbe,
    0x44, 0xe8, 0x5d, 0x3b, 0x84, 0x26, 0xea, 0x3c, 0x05, 0x25, 0x9d, 0xba, 0x0b, 0xcd, 0xb0, 0x3d, 0x0f, 0x77, 0x6a,
    0x3d, 0xce, 0xb4, 0x59, 0xbe, 0x9c, 0x73, 0x49, 0x3c, 0xfc, 0x63, 0xee, 0xbd, 0x60, 0xc2, 0xaf, 0x3d, 0xb0, 0xbe,
    0xf5, 0x3d, 0xb9, 0x2a, 0x17, 0xbe, 0xd7, 0xc0, 0x66, 0x3c, 0xe4, 0xe2, 0x2f, 0x3e, 0x78, 0xa5, 0xcb, 0xbd, 0x25,
    0xd7, 0x03, 0x3d, 0x7c, 0x9e, 0x8f, 0xbd, 0x82, 0x4a, 0xda, 0xbd, 0x2b, 0xe7, 0xce, 0x3d, 0x01, 0x9e, 0x55, 0xbd,
    0xfc, 0x09, 0x1b, 0x3d, 0xf2, 0x6d, 0xe8, 0xbd, 0x72, 0x8e, 0x8c, 0xbd, 0xb4, 0xd1, 0xc2, 0xbd, 0xc4, 0x29, 0xfc,
    0xbd, 0x3f, 0x17, 0x09, 0xbe, 0xe6, 0x66, 0xfb, 0x3d, 0xce, 0xbf, 0x2c, 0xbe, 0x2c, 0x1e, 0x04, 0x3e, 0x3b, 0xbc,
    0x92, 0xbc, 0xa5, 0x40, 0x08, 0xbf, 0xd8, 0x84, 0xd7, 0xbd, 0x1b, 0xee, 0x3a, 0xbe, 0x07, 0x85, 0x73, 0xbe, 0xdf,
    0x1c, 0x20, 0xbe, 0xa4, 0x41, 0x91, 0x3d, 0x73, 0xac, 0xe3, 0xbc, 0x48, 0x30, 0x21, 0xbd, 0x5f, 0xcd, 0xfe, 0x3d,
    0x5c, 0x58, 0x83, 0xbe, 0x1e, 0x06, 0xff, 0xbd, 0x59, 0xf0, 0xf8, 0xbc, 0x1c, 0xa7, 0xd4, 0xbc, 0xb5, 0x37, 0x55,
    0xbd, 0xde, 0xb3, 0xdd, 0x3c, 0x3c, 0x39, 0x7e, 0xbe, 0xe4, 0x92, 0x46, 0xbd, 0x91, 0xf3, 0xeb, 0x3b, 0x53, 0x77,
    0x9f, 0x3d, 0x70, 0x0d, 0xca, 0xbe, 0x14, 0x1b, 0x0a, 0xbd, 0x06, 0x7d, 0x1e, 0xbe, 0x79, 0xc6, 0x01, 0x3e, 0x55,
    0x4d, 0x89, 0xbe, 0x79, 0x70, 0x0c, 0x3d, 0x9f, 0xff, 0x07, 0xbd, 0xac, 0x03, 0xbd, 0x3d, 0xe8, 0x95, 0x28, 0x3e,
    0x1a, 0x48, 0xfa, 0x3d, 0xe0, 0x83, 0x78, 0xbd, 0x61, 0x68, 0xbc, 0x3d, 0x9d, 0xb9, 0xa8, 0x3d, 0x8c, 0xe9, 0x50,
    0xbe, 0xe4, 0x85, 0x88, 0xbd, 0x1f, 0xee, 0x88, 0xbd, 0xd2, 0x14, 0x29, 0xbd, 0x82, 0x4f, 0x06, 0xbe, 0x05, 0xc4,
    0xf6, 0xbb, 0x9b, 0x06, 0xc3, 0x3e, 0x88, 0x9b, 0x53, 0x3e, 0x14, 0x02, 0xec, 0xbd, 0x0b, 0x12, 0x85, 0x3e, 0x63,
    0x84, 0x06, 0x3e, 0xca, 0x37, 0x9a, 0xbd, 0x9a, 0x2f, 0x52, 0xbe, 0x2b, 0xa7, 0x93, 0xbc, 0xcd, 0x9c, 0x96, 0xbe,
    0xf1, 0x61, 0x2e, 0xbd, 0x60, 0x15, 0x86, 0xbe, 0x60, 0xe3, 0x60, 0x3e, 0x67, 0x14, 0x1e, 0xbf, 0x2c, 0x95, 0x0d,
    0xbd, 0xbf, 0xad, 0x4e, 0xbe, 0x21, 0x21, 0xd0, 0xbd, 0x1f, 0x85, 0x93, 0x3e, 0x67, 0x47, 0x57, 0x3c, 0x6c, 0xd8,
    0x1c, 0xbe, 0x8d, 0x0f, 0xb8, 0x3d, 0xb7, 0x05, 0x93, 0xbe, 0x2e, 0xd9, 0xf5, 0x3d, 0x55, 0x29, 0x66, 0xbd, 0xba,
    0x88, 0x8f, 0x3a, 0x4f, 0x29, 0xf6, 0xbd, 0x07, 0xa0, 0xe9, 0x3c, 0x8e, 0x1a, 0x1a, 0xbc, 0xea, 0x71, 0x28, 0xbe,
    0xd9, 0xad, 0x15, 0xbd, 0xcf, 0xa2, 0x29, 0xbe, 0xfd, 0x46, 0xa8, 0xbd, 0xb1, 0xfa, 0x71, 0x3d, 0x93, 0x03, 0xb2,
    0xbd, 0x51, 0xfe, 0x97, 0x3d, 0x94, 0xa1, 0x4f, 0xbe, 0x1e, 0xa5, 0x25, 0x3d, 0xb1, 0x68, 0x18, 0x3d, 0xa5, 0x3a,
    0x03, 0x3e, 0xbb, 0xbf, 0x54, 0xbd, 0x91, 0x9f, 0x5c, 0x3d, 0xd5, 0xd3, 0xa3, 0xbc, 0x58, 0x87, 0x74, 0x3e, 0x3e,
    0x6b, 0xa9, 0xbd, 0x95, 0x88, 0xf3, 0x3d, 0xa1, 0x50, 0x8f, 0x3d, 0x02, 0xc3, 0xc6, 0x3d, 0x21, 0x8f, 0xb3, 0x3c,
    0x53, 0x90, 0x86, 0x3d, 0x6c, 0x69, 0x17, 0xbe, 0x8e, 0x4f, 0x73, 0x3c, 0x1e, 0x04, 0x44, 0x3d, 0x95, 0x8a, 0xb6,
    0x3d, 0xe2, 0x37, 0xb1, 0xbd, 0x5c, 0xcb, 0x86, 0xbe, 0xdd, 0x6d, 0x6c, 0x3e, 0xf3, 0xb3, 0x00, 0x3e, 0x8d, 0x91,
    0xb6, 0x3d, 0x73, 0x04, 0x1a, 0x3d, 0xe8, 0x0c, 0xcb, 0x3d, 0x21, 0x51, 0x19, 0x3e, 0x59, 0x73, 0x52, 0xbe, 0xf7,
    0xf7, 0xc3, 0xbc, 0x62, 0xf6, 0x9d, 0xbe, 0x44, 0x9f, 0xec, 0xbc, 0xdf, 0x2d, 0x26, 0xbf, 0x0b, 0x2c, 0x98, 0x3d,
    0x13, 0xd1, 0x05, 0x3e, 0x45, 0x96, 0xf4, 0x3e, 0x71, 0x9c, 0x1b, 0x3d, 0x6a, 0xc3, 0x72, 0xbe, 0x25, 0x8b, 0x35,
    0xbe, 0xa3, 0xec, 0x7c, 0xbc, 0x88, 0xc5, 0x5c, 0x3e, 0x5f, 0x88, 0x86, 0xbe, 0x0b, 0xa6, 0x11, 0x3d, 0xb2, 0x0c,
    0x73, 0x3e, 0x7c, 0xc0, 0x0b, 0xbb, 0xdc, 0x2e, 0x22, 0x3f, 0xe2, 0x6c, 0xc2, 0x3e, 0xee, 0xeb, 0x7e, 0x3e, 0x7f,
    0xca, 0x1c, 0x3e, 0x96, 0x23, 0x37, 0x3e, 0x23, 0xee, 0x5a, 0x3e, 0x84, 0xda, 0x23, 0x3e, 0x74, 0x42, 0x5c, 0x3c,
    0x54, 0x5a, 0x6e, 0xbe, 0x1a, 0x4f, 0x2e, 0xbd, 0x74, 0x9f, 0x36, 0x3c, 0x29, 0x0d, 0xd0, 0x3d, 0x1f, 0xc2, 0x5d,
    0x3d, 0x42, 0x49, 0x72, 0x3e, 0xab, 0xce, 0x34, 0x3d, 0xf0, 0x48, 0xa8, 0x3e, 0xe1, 0x7e, 0x12, 0xbe, 0x09, 0x28,
    0x90, 0x3d, 0xb9, 0xfc, 0xa5, 0x3e, 0x65, 0x73, 0x3f, 0xbe, 0x66, 0x29, 0x27, 0xbb, 0x1f, 0x3d, 0x04, 0x3e, 0x1c,
    0x08, 0x7d, 0xbd, 0x80, 0x4c, 0x41, 0xbe, 0x8d, 0xb2, 0xa6, 0x3e, 0x8b, 0x3a, 0x2b, 0x3d, 0x33, 0xef, 0x04, 0xbe,
    0x7e, 0x73, 0xcf, 0x3d, 0x76, 0x8c, 0x58, 0x3e, 0x6d, 0xe0, 0xaf, 0xbc, 0x71, 0xca, 0x82, 0xbc, 0x31, 0xf1, 0xab,
    0x3e, 0x4c, 0x36, 0x02, 0xbe, 0x00, 0x6f, 0x6b, 0xbe, 0x08, 0x05, 0x9d, 0x3d, 0x2f, 0x12, 0x11, 0xbf, 0x9a, 0xe0,
    0xf1, 0x3d, 0xbb, 0xb8, 0x2f, 0xbe, 0x0d, 0xc8, 0x24, 0xbe, 0xc7, 0x6a, 0x73, 0x3e, 0x30, 0xe0, 0xdb, 0x3d, 0xb4,
    0xc4, 0x3f, 0xbd, 0x7e, 0x9a, 0x01, 0xbe, 0x06, 0x29, 0x30, 0xbe, 0x87, 0x34, 0x2f, 0xbe, 0x25, 0x1b, 0x98, 0xbd,
    0xdd, 0xa1, 0xc4, 0x3c, 0x6b, 0xf1, 0xe4, 0xb9, 0x55, 0xd2, 0xb5, 0x3d, 0xe0, 0x8b, 0x19, 0xbe, 0x57, 0x5c, 0xe4,
    0xbd, 0xb0, 0xd3, 0x55, 0x3c, 0x8b, 0x51, 0x07, 0x3d, 0x6f, 0x36, 0x2a, 0x3e, 0xe1, 0x88, 0xe8, 0x3d, 0x6b, 0x93,
    0x4e, 0xbe, 0xa1, 0x88, 0xaa, 0x3d, 0xe5, 0x86, 0xb2, 0x3b, 0x4e, 0x03, 0x84, 0x3d, 0x84, 0x19, 0xa9, 0xbd, 0xf7,
    0xa7, 0xc8, 0xbd, 0x63, 0x6e, 0x88, 0xbd, 0xda, 0x06, 0xc4, 0x3d, 0xba, 0xc6, 0x9a, 0x3d, 0xfa, 0x6f, 0xc0, 0x3d,
    0x68, 0xb2, 0x91, 0x3d, 0x25, 0x84, 0x3e, 0x3d, 0xad, 0x4a, 0x33, 0xbd, 0x0e, 0xde, 0x2d, 0xbc, 0x53, 0x2e, 0x12,
    0x3e, 0xc8, 0x34, 0xcc, 0xbd, 0xdb, 0x04, 0x23, 0xbe, 0x1f, 0xa0, 0x57, 0x3e, 0x32, 0xf9, 0xb5, 0xbe, 0x27, 0xdd,
    0xbe, 0x3d, 0x85, 0x28, 0xd6, 0xbd, 0xf0, 0x93, 0x08, 0xbd, 0x0d, 0xa5, 0x59, 0xbe, 0x64, 0xe1, 0x98, 0x3d, 0x28,
    0x61, 0xe8, 0xbd, 0x1a, 0xfe, 0x14, 0xbe, 0xbb, 0x66, 0x94, 0xbc, 0x90, 0x29, 0xdc, 0x3d, 0x65, 0xcd, 0x10, 0x3e,
    0x32, 0xdf, 0x00, 0x3e, 0x56, 0x47, 0xab, 0xbc, 0x3a, 0x1c, 0x1b, 0xbe, 0xa7, 0xb8, 0x3a, 0xbe, 0x03, 0xeb, 0xb8,
    0xbc, 0xac, 0xd1, 0x63, 0xbe, 0x12, 0x06, 0xa5, 0x3d, 0x38, 0x56, 0xc9, 0xbd, 0x8c, 0x83, 0x91, 0xbd, 0x2a, 0x5c,
    0x42, 0x3d, 0x44, 0x34, 0x6f, 0x3d, 0x15, 0x9b, 0xba, 0xbd, 0x92, 0xec, 0x84, 0xbd, 0xf0, 0x3a, 0x2c, 0xbc, 0x7e,
    0xd4, 0xa8, 0xbd, 0x55, 0xe8, 0x4f, 0xbd, 0x5d, 0x08, 0x69, 0x3d, 0xec, 0xed, 0x68, 0x3d, 0x35, 0xb6, 0xa1, 0xbd,
    0x55, 0x4f, 0x07, 0x3c, 0xad, 0x14, 0xb8, 0xbc, 0x0d, 0x85, 0x47, 0x3e, 0xe5, 0xcf, 0x41, 0xbe, 0xcb, 0x66, 0xbb,
    0x3c, 0xc5, 0x99, 0x9c, 0x3d, 0x6f, 0x8d, 0x73, 0xbe, 0x74, 0x75, 0xdf, 0x3d, 0x62, 0x2a, 0xad, 0xbe, 0xd4, 0x83,
    0x6a, 0x3e, 0xeb, 0xc5, 0x97, 0xbc, 0x3b, 0xd6, 0xd2, 0xbd, 0x81, 0x4c, 0x86, 0x3e, 0x4c, 0xba, 0xa1, 0x3e, 0x6d,
    0x04, 0x3b, 0xbe, 0xe6, 0x78, 0xb3, 0x3d, 0xe7, 0x25, 0x30, 0x3e, 0x37, 0x8e, 0x64, 0xbd, 0x0a, 0xd7, 0x95, 0xbe,
    0xfa, 0xf9, 0xf9, 0xbd, 0xd2, 0x31, 0x52, 0xbe, 0x3b, 0xe8, 0x96, 0x3e, 0x37, 0x37, 0x98, 0x3b, 0x76, 0x1e, 0x01,
    0x3e, 0xdf, 0xea, 0x5e, 0xbe, 0xd6, 0xd7, 0x31, 0x3e, 0x21, 0xed, 0x71, 0xbd, 0xd5, 0xd0, 0x9c, 0xbe, 0xf2, 0xc2,
    0x0e, 0x3c, 0x22, 0x82, 0x34, 0xbe, 0x53, 0x10, 0x26, 0xbe, 0x3b, 0x70, 0xba, 0xbd, 0xc0, 0x31, 0x3e, 0xbe, 0xe7,
    0x94, 0x5f, 0x3d, 0x11, 0xef, 0xf0, 0x3c, 0xf9, 0x16, 0x9c, 0x3d, 0xe5, 0x6c, 0xcd, 0x3d, 0x41, 0xdc, 0x0c, 0xbe,
    0xb4, 0xbc, 0x83, 0xbd, 0x99, 0xd4, 0x6c, 0x3e, 0xcb, 0xb2, 0x01, 0x3e, 0x6a, 0x09, 0xeb, 0x3c, 0x4f, 0x45, 0x1b,
    0x3e, 0xc3, 0x0b, 0x78, 0x3d, 0x7e, 0xc1, 0x13, 0xbe, 0xa8, 0x47, 0x25, 0xbe, 0xb3, 0xfc, 0x8f, 0x3c, 0x06, 0xd9,
    0x9a, 0xbd, 0x34, 0xe3, 0x9c, 0x3d, 0xac, 0x7b, 0x01, 0xbe, 0x8c, 0xfa, 0xe6, 0x3d, 0xa0, 0xc1, 0x1b, 0x3b, 0x91,
    0xe5, 0x1e, 0x3e, 0xbf, 0xc5, 0x1f, 0x3e, 0xf3, 0xe2, 0x25, 0x3e, 0x12, 0xdd, 0xae, 0xbd, 0xec, 0x6b, 0xc8, 0x3b,
    0x93, 0x19, 0xda, 0x3d, 0xf4, 0x2f, 0xdd, 0xbd, 0x87, 0x3b, 0xb6, 0xbd, 0x81, 0x12, 0x92, 0x3d, 0x21, 0x42, 0xb2,
    0xbd, 0x2e, 0xc1, 0x97, 0xbd, 0xc0, 0x0c, 0x43, 0xbe, 0x3a, 0x80, 0x5a, 0x3d, 0x39, 0x2d, 0xfd, 0xbd, 0x3e, 0xad,
    0x69, 0x3c, 0x11, 0x77, 0x5a, 0x3c, 0x30, 0x71, 0x2b, 0xbd, 0xe6, 0x30, 0xad, 0xbd, 0x76, 0xe1, 0x4c, 0x3d, 0x80,
    0xba, 0x29, 0xbe, 0x99, 0x7f, 0xae, 0x3d, 0x12, 0xcd, 0x65, 0x3e, 0xd1, 0x15, 0x3f, 0xbd, 0x71, 0x97, 0x7d, 0xbc,
    0x8a, 0x36, 0x8c, 0x3e, 0x81, 0x37, 0x2e, 0xbd, 0xd1, 0x9f, 0xcb, 0xbd, 0xd7, 0x48, 0xc2, 0x3d, 0x3d, 0xb7, 0x2c,
    0x39, 0x97, 0x1f, 0x72, 0xbd, 0xf7, 0x48, 0x93, 0xbd, 0x72, 0xdc, 0x09, 0xbd, 0x19, 0xb5, 0xfc, 0xba, 0x05, 0x2b,
    0x01, 0x3e, 0x48, 0xc4, 0x2f, 0x3e, 0x5c, 0x37, 0x0a, 0xbc, 0xc3, 0xb0, 0x17, 0xbe, 0x07, 0x06, 0xae, 0x3e, 0x9b,
    0x29, 0xf3, 0xbd, 0x2b, 0x05, 0xf3, 0x3d, 0xcb, 0xc2, 0x50, 0xbe, 0x33, 0xb7, 0x1a, 0xbd, 0x81, 0x63, 0xdc, 0xbd,
    0x06, 0xdb, 0x23, 0x3d, 0x98, 0xce, 0x5a, 0xbc, 0x0d, 0xfd, 0x1f, 0x3d, 0x10, 0x76, 0x0e, 0x3e, 0x94, 0x9a, 0xb5,
    0xbd, 0x59, 0x70, 0xa9, 0x3d, 0x5d, 0x16, 0x50, 0xbe, 0xb1, 0xef, 0x4d, 0xbe, 0xa7, 0xc4, 0x08, 0x3e, 0x26, 0x3a,
    0xbb, 0x3d, 0x35, 0x68, 0x6a, 0xbd, 0x74, 0x81, 0xef, 0x3d, 0xbf, 0xc4, 0xea, 0xba, 0x00, 0x03, 0x92, 0xbd, 0x4a,
    0xf1, 0x8d, 0xbc, 0x92, 0x8e, 0xd0, 0x3d, 0xce, 0x67, 0xcf, 0xbd, 0x2a, 0xab, 0x65, 0xbd, 0xca, 0xd5, 0x77, 0xbd,
    0x24, 0x3e, 0x5c, 0x3e, 0x5b, 0x31, 0x96, 0x3d, 0x72, 0x59, 0xd3, 0xbd, 0xbc, 0xbe, 0x20, 0xbe, 0xcf, 0x47, 0xe1,
    0x3c, 0x8a, 0xbf, 0x23, 0xbd, 0x96, 0x4e, 0xcf, 0xbd, 0x00, 0x62, 0xc7, 0xbd, 0x12, 0x12, 0x4d, 0xbe, 0x64, 0x61,
    0x38, 0xbc, 0xb7, 0xa7, 0xad, 0x3d, 0x6d, 0x42, 0x03, 0x3e, 0xf4, 0x09, 0x03, 0x3e, 0x58, 0xae, 0x15, 0x3e, 0xcb,
    0xa3, 0x86, 0xbd, 0xc8, 0x58, 0xbd, 0x3d, 0x4c, 0x2e, 0x05, 0x3e, 0xd1, 0x77, 0x55, 0xbe, 0xe4, 0xcc, 0xb9, 0x3d,
    0x79, 0x49, 0x0a, 0xbe, 0xee, 0x7e, 0xa0, 0xbd, 0x5e, 0x78, 0x94, 0x3e, 0x89, 0xf5, 0x4a, 0x3e, 0x7a, 0x87, 0xda,
    0xbe, 0xf3, 0x37, 0x63, 0xbe, 0xe0, 0x93, 0x79, 0xbf, 0xd5, 0xc5, 0x75, 0xbe, 0x0b, 0x90, 0x90, 0xbc, 0x02, 0xb2,
    0x08, 0x3f, 0xbf, 0x7e, 0x71, 0x3d, 0xaa, 0x7f, 0x57, 0xbd, 0x63, 0xdb, 0xa8, 0xbe, 0xf1, 0xd8, 0xda, 0xbe, 0x4f,
    0xcb, 0x20, 0xbe, 0xd8, 0xd5, 0x82, 0x3e, 0x48, 0x0e, 0x0e, 0xbf, 0x57, 0x64, 0xd8, 0x3e, 0xae, 0x24, 0x17, 0x3f,
    0xff, 0x5f, 0x81, 0x3d, 0x2b, 0x8d, 0xa8, 0x3d, 0x9b, 0x7f, 0x7f, 0x3e, 0x68, 0x36, 0xc5, 0x3e, 0xfb, 0xb7, 0x39,
    0x3e, 0xbe, 0xf8, 0x26, 0x3e, 0x6f, 0xd0, 0xa4, 0x3e, 0x02, 0x0a, 0xee, 0x3e, 0x25, 0xc3, 0xf0, 0xbc, 0xc0, 0xd1,
    0xd6, 0x3c, 0x9b, 0x73, 0xdc, 0x3d, 0x08, 0xa6, 0x5a, 0x3d, 0x07, 0x7b, 0x1a, 0x3e, 0xc8, 0x36, 0x0b, 0x3e, 0xdd,
    0xdd, 0xe4, 0x3c, 0xa2, 0x2b, 0x6b, 0x3d, 0x7c, 0x04, 0x09, 0xbb, 0xf0, 0x96, 0x5e, 0x3e, 0xb8, 0x46, 0x24, 0xbe,
    0x50, 0x67, 0x68, 0x3c, 0x1a, 0xe2, 0x81, 0xbd, 0x10, 0xbb, 0x6a, 0xbd, 0x38, 0x8e, 0x22, 0x3e, 0xa3, 0xbf, 0xb0,
    0x3c, 0x18, 0x37, 0x1c, 0xbd, 0x1e, 0xe2, 0x21, 0xbc, 0x2e, 0x96, 0xe9, 0x3c, 0x40, 0x13, 0x2e, 0xbc, 0x66, 0x9a,
    0x96, 0x3e, 0x17, 0xb4, 0xd3, 0x3c, 0x49, 0x16, 0x58, 0x3c, 0xa7, 0x94, 0x47, 0xbc, 0xec, 0xb5, 0x79, 0xbd, 0xa4,
    0x91, 0xc7, 0xbc, 0x13, 0xe7, 0xf5, 0xbc, 0x5d, 0x0a, 0x11, 0x3e, 0x43, 0x52, 0x1e, 0xbe, 0x15, 0x13, 0x67, 0xbc,
    0x1e, 0xee, 0x42, 0x3e, 0x51, 0xad, 0x7f, 0x3c, 0x0f, 0x21, 0x76, 0xbd, 0x1b, 0xb7, 0x8f, 0x3d, 0xc1, 0xac, 0x7d,
    0xbd, 0xfd, 0x06, 0xbf, 0x3c, 0xea, 0xa0, 0x3e, 0xbe, 0xfa, 0xdb, 0x4e, 0xbd, 0x71, 0xf6, 0x9c, 0xbe, 0xa8, 0x25,
    0x35, 0x3c, 0x4a, 0x46, 0x9a, 0xbe, 0x2e, 0xf7, 0x20, 0xbe, 0xd5, 0x5a, 0x11, 0x3e, 0x6e, 0x50, 0xfc, 0x3d, 0x35,
    0x19, 0x15, 0x3e, 0xbb, 0x0e, 0xa9, 0x3d, 0xb9, 0x45, 0x4a, 0xbe, 0xb8, 0xa9, 0x40, 0xbd, 0x95, 0x27, 0x28, 0xbe,
    0xdd, 0xf7, 0xff, 0x3d, 0x77, 0x9d, 0xa7, 0x3d, 0x55, 0x8d, 0x39, 0x3e, 0x19, 0x81, 0x39, 0xbe, 0xa4, 0xe9, 0x54,
    0xbe, 0xd9, 0x67, 0x89, 0x3d, 0xd2, 0x25, 0x27, 0xbe, 0xb2, 0x77, 0x45, 0xbe, 0x8e, 0xb8, 0x91, 0xbe, 0x0a, 0xc8,
    0xa8, 0xbc, 0xf7, 0xe2, 0xb8, 0xbe, 0xee, 0x5b, 0x32, 0x3e, 0xdb, 0x49, 0x04, 0x3e, 0x26, 0xb4, 0x34, 0x3e, 0x2b,
    0x62, 0x00, 0xbe, 0x07, 0xd0, 0xa8, 0xbd, 0x68, 0x56, 0x20, 0x3e, 0xb0, 0x8a, 0xd9, 0xbd, 0x8b, 0x46, 0x44, 0xbe,
    0x5f, 0x06, 0xdb, 0xbd, 0x7a, 0xbe, 0xd7, 0x3c, 0xb2, 0xd1, 0x88, 0xbd, 0x33, 0x09, 0x4b, 0x3d, 0x14, 0x41, 0x54,
    0x3d, 0xef, 0xd9, 0x86, 0xbe, 0x08, 0x73, 0xb1, 0xbd, 0x52, 0xd4, 0xbf, 0x3d, 0xe0, 0x1d, 0xfc, 0xbc, 0x10, 0x10,
    0x04, 0xbc, 0xe3, 0xde, 0xbb, 0xbd, 0xde, 0x94, 0x56, 0xbe, 0xb1, 0x07, 0x63, 0x3d, 0xb9, 0xf4, 0xc9, 0x3d, 0xe2,
    0xfc, 0xba, 0xbb, 0x61, 0xec, 0x65, 0xbe, 0x82, 0xb0, 0x94, 0xbd, 0x61, 0x14, 0x6e, 0xbe, 0x3b, 0x3d, 0xc7, 0x3c,
    0xe5, 0x7e, 0x2d, 0x3e, 0xc3, 0x2e, 0x11, 0xbe, 0xf9, 0xab, 0x02, 0x3e, 0x20, 0x52, 0x3d, 0x3d, 0x85, 0x24, 0xa1,
    0xbd, 0x6c, 0x63, 0x55, 0x3d, 0xfe, 0x12, 0xd1, 0x3d, 0x71, 0x02, 0xdd, 0xbd, 0xd9, 0x87, 0xe9, 0xbb, 0xdb, 0x04,
    0xa6, 0x3d, 0xe6, 0xfe, 0xff, 0xff, 0x04, 0x00, 0x00, 0x00, 0x80, 0x00, 0x00, 0x00, 0x22, 0xb8, 0xbb, 0xbc, 0x84,
    0x9b, 0x98, 0x3e, 0x1b, 0x16, 0x1c, 0xbe, 0x15, 0x08, 0x47, 0xbb, 0xba, 0x3b, 0x66, 0x3e, 0xaa, 0x4c, 0xe2, 0x3b,
    0x69, 0xd6, 0xd8, 0xbb, 0x32, 0xd7, 0x99, 0x3d, 0x0f, 0x81, 0xad, 0x3d, 0x1a, 0x0f, 0xe9, 0x3b, 0xa6, 0xa3, 0x12,
    0x3d, 0x96, 0x48, 0x5f, 0xbd, 0x1f, 0xb8, 0x9b, 0x3d, 0x10, 0xc7, 0x60, 0x3c, 0x2c, 0x77, 0xb1, 0x3c, 0x97, 0xc0,
    0x4e, 0x3b, 0x7d, 0xf5, 0x90, 0x3c, 0xd4, 0x40, 0xf4, 0xbb, 0x81, 0x96, 0x33, 0xbd, 0xe9, 0x73, 0x67, 0x39, 0xf2,
    0xe4, 0xd8, 0xbd, 0x0f, 0xbd, 0x25, 0x3e, 0xbf, 0x61, 0x03, 0xbc, 0x79, 0xb4, 0x40, 0xbb, 0x26, 0xb6, 0x1a, 0x3c,
    0xea, 0x8e, 0x7d, 0xbc, 0xbf, 0x09, 0x21, 0xbb, 0xb1, 0xbe, 0x30, 0xba, 0xf7, 0x28, 0xba, 0x3e, 0xa6, 0x68, 0xfc,
    0xbc, 0xdd, 0x2e, 0x8d, 0x3d, 0x00, 0xab, 0xf4, 0x3c, 0x72, 0xff, 0xff, 0xff, 0x04, 0x00, 0x00, 0x00, 0x80, 0x00,
    0x00, 0x00, 0x79, 0x8f, 0x4f, 0xbe, 0x8e, 0x9f, 0xdc, 0x3d, 0x7a, 0xd2, 0xaa, 0xbe, 0x93, 0xbf, 0xe6, 0xbd, 0x43,
    0x4c, 0x9a, 0xbe, 0x29, 0x1d, 0x4a, 0xbd, 0x8e, 0x26, 0x67, 0x3d, 0x9c, 0x98, 0x01, 0x3e, 0x41, 0xf9, 0xd9, 0xbc,
    0x4f, 0x8d, 0xc6, 0xbd, 0x0d, 0x54, 0xc8, 0xbc, 0x5b, 0xe9, 0x1e, 0x3e, 0xb9, 0x69, 0x13, 0x3d, 0x3d, 0x7a, 0x0a,
    0xbe, 0xc7, 0xfa, 0xd0, 0xbd, 0x6e, 0x43, 0x6b, 0x3d, 0x7a, 0x33, 0x11, 0xbe, 0x13, 0xe6, 0x82, 0x3d, 0x26, 0x38,
    0x2b, 0xbd, 0xe8, 0x4f, 0xcc, 0xbb, 0xed, 0xd6, 0x7c, 0x3c, 0x05, 0x46, 0x9f, 0xbd, 0x57, 0x5d, 0x08, 0x3e, 0x55,
    0x1b, 0xf8, 0xbd, 0x68, 0x7c, 0x39, 0xbe, 0x8c, 0x19, 0xff, 0xbd, 0x79, 0x73, 0x95, 0xbb, 0xd1, 0x3a, 0x25, 0x3b,
    0xaf, 0x7a, 0x0d, 0xbf, 0xff, 0xcf, 0xa9, 0x3d, 0xe9, 0x9a, 0x07, 0xbe, 0x26, 0x3c, 0x96, 0x3d, 0x00, 0x00, 0x06,
    0x00, 0x08, 0x00, 0x04, 0x00, 0x06, 0x00, 0x00, 0x00, 0x04, 0x00, 0x00, 0x00, 0x04, 0x00, 0x00, 0x00, 0x75, 0x44,
    0x1a, 0x3c, 0xe0, 0xfa, 0xff, 0xff, 0xe4, 0xfa, 0xff, 0xff, 0x0f, 0x00, 0x00, 0x00, 0x4d, 0x4c, 0x49, 0x52, 0x20,
    0x43, 0x6f, 0x6e, 0x76, 0x65, 0x72, 0x74, 0x65, 0x64, 0x2e, 0x00, 0x01, 0x00, 0x00, 0x00, 0x14, 0x00, 0x00, 0x00,
    0x00, 0x00, 0x0e, 0x00, 0x18, 0x00, 0x14, 0x00, 0x10, 0x00, 0x0c, 0x00, 0x08, 0x00, 0x04, 0x00, 0x0e, 0x00, 0x00,
    0x00, 0x14, 0x00, 0x00, 0x00, 0x1c, 0x00, 0x00, 0x00, 0x1c, 0x01, 0x00, 0x00, 0x20, 0x01, 0x00, 0x00, 0x24, 0x01,
    0x00, 0x00, 0x04, 0x00, 0x00, 0x00, 0x6d, 0x61, 0x69, 0x6e, 0x00, 0x00, 0x00, 0x00, 0x05, 0x00, 0x00, 0x00, 0xd0,
    0x00, 0x00, 0x00, 0x9c, 0x00, 0x00, 0x00, 0x5c, 0x00, 0x00, 0x00, 0x38, 0x00, 0x00, 0x00, 0x04, 0x00, 0x00, 0x00,
    0x52, 0xff, 0xff, 0xff, 0x10, 0x00, 0x00, 0x00, 0x00, 0x00, 0x00, 0x08, 0x0c, 0x00, 0x00, 0x00, 0x10, 0x00, 0x00,
    0x00, 0x64, 0xfb, 0xff, 0xff, 0x01, 0x00, 0x00, 0x00, 0x0b, 0x00, 0x00, 0x00, 0x03, 0x00, 0x00, 0x00, 0x0a, 0x00,
    0x00, 0x00, 0x03, 0x00, 0x00, 0x00, 0x01, 0x00, 0x00, 0x00, 0xae, 0xff, 0xff, 0xff, 0x0c, 0x00, 0x00, 0x00, 0x10,
    0x00, 0x00, 0x00, 0x01, 0x00, 0x00, 0x00, 0x01, 0x00, 0x00, 0x00, 0x0a, 0x00, 0x00, 0x00, 0x01, 0x00, 0x00, 0x00,
    0x09, 0x00, 0x00, 0x00, 0xa2, 0xff, 0xff, 0xff, 0x10, 0x00, 0x00, 0x00, 0x00, 0x00, 0x00, 0x08, 0x0c, 0x00, 0x00,
    0x00, 0x10, 0x00, 0x00, 0x00, 0xb4, 0xfb, 0xff, 0xff, 0x01, 0x00, 0x00, 0x00, 0x09, 0x00, 0x00, 0x00, 0x03, 0x00,
    0x00, 0x00, 0x08, 0x00, 0x00, 0x00, 0x04, 0x00, 0x00, 0x00, 0x02, 0x00, 0x00, 0x00, 0x00, 0x00, 0x0a, 0x00, 0x10,
    0x00, 0x0c, 0x00, 0x08, 0x00, 0x04, 0x00, 0x0a, 0x00, 0x00, 0x00, 0x0c, 0x00, 0x00, 0x00, 0x10, 0x00, 0x00, 0x00,
    0x01, 0x00, 0x00, 0x00, 0x01, 0x00, 0x00, 0x00, 0x08, 0x00, 0x00, 0x00, 0x01, 0x00, 0x00, 0x00, 0x07, 0x00, 0x00,
    0x00, 0x00, 0x00, 0x0e, 0x00, 0x14, 0x00, 0x00, 0x00, 0x10, 0x00, 0x0c, 0x00, 0x0b, 0x00, 0x04, 0x00, 0x0e, 0x00,
    0x00, 0x00, 0x10, 0x00, 0x00, 0x00, 0x00, 0x00, 0x00, 0x08, 0x0c, 0x00, 0x00, 0x00, 0x10, 0x00, 0x00, 0x00, 0x20,
    0xfc, 0xff, 0xff, 0x01, 0x00, 0x00, 0x00, 0x07, 0x00, 0x00, 0x00, 0x03, 0x00, 0x00, 0x00, 0x00, 0x00, 0x00, 0x00,
    0x05, 0x00, 0x00, 0x00, 0x06, 0x00, 0x00, 0x00, 0x01, 0x00, 0x00, 0x00, 0x0b, 0x00, 0x00, 0x00, 0x01, 0x00, 0x00,
    0x00, 0x00, 0x00, 0x00, 0x00, 0x0c, 0x00, 0x00, 0x00, 0x98, 0x03, 0x00, 0x00, 0x40, 0x03, 0x00, 0x00, 0xf0, 0x02,
    0x00, 0x00, 0xa0, 0x02, 0x00, 0x00, 0x50, 0x02, 0x00, 0x00, 0x00, 0x02, 0x00, 0x00, 0xb0, 0x01, 0x00, 0x00, 0x40,
    0x01, 0x00, 0x00, 0xfc, 0x00, 0x00, 0x00, 0x88, 0x00, 0x00, 0x00, 0x40, 0x00, 0x00, 0x00, 0x04, 0x00, 0x00, 0x00,
    0xae, 0xfc, 0xff, 0xff, 0x00, 0x00, 0x00, 0x01, 0x10, 0x00, 0x00, 0x00, 0x10, 0x00, 0x00, 0x00, 0x0c, 0x00, 0x00,
    0x00, 0x18, 0x00, 0x00, 0x00, 0x98, 0xfc, 0xff, 0xff, 0x08, 0x00, 0x00, 0x00, 0x49, 0x64, 0x65, 0x6e, 0x74, 0x69,
    0x74, 0x79, 0x00, 0x00, 0x00, 0x00, 0x02, 0x00, 0x00, 0x00, 0x01, 0x00, 0x00, 0x00, 0x01, 0x00, 0x00, 0x00, 0xe6,
    0xfc, 0xff, 0xff, 0x00, 0x00, 0x00, 0x01, 0x10, 0x00, 0x00, 0x00, 0x10, 0x00, 0x00, 0x00, 0x0b, 0x00, 0x00, 0x00,
    0x24, 0x00, 0x00, 0x00, 0xd0, 0xfc, 0xff, 0xff, 0x15, 0x00, 0x00, 0x00, 0x6d, 0x6f, 0x64, 0x65, 0x6c, 0x2f, 0x74,
    0x66, 0x2e, 0x6e, 0x6e, 0x2e, 0x65, 0x6c, 0x75, 0x5f, 0x31, 0x2f, 0x45, 0x6c, 0x75, 0x00, 0x00, 0x00, 0x02, 0x00,
    0x00, 0x00, 0x01, 0x00, 0x00, 0x00, 0x20, 0x00, 0x00, 0x00, 0x2a, 0xfd, 0xff, 0xff, 0x00, 0x00, 0x00, 0x01, 0x10,
    0x00, 0x00, 0x00, 0x10, 0x00, 0x00, 0x00, 0x0a, 0x00, 0x00, 0x00, 0x50, 0x00, 0x00, 0x00, 0x14, 0xfd, 0xff, 0xff,
    0x42, 0x00, 0x00, 0x00, 0x6d, 0x6f, 0x64, 0x65, 0x6c, 0x2f, 0x74, 0x66, 0x2e, 0x6c, 0x69, 0x6e, 0x61, 0x6c, 0x67,
    0x2e, 0x6d, 0x61, 0x74, 0x6d, 0x75, 0x6c, 0x5f, 0x31, 0x2f, 0x4d, 0x61, 0x74, 0x4d, 0x75, 0x6c, 0x3b, 0x6d, 0x6f,
    0x64, 0x65, 0x6c, 0x2f, 0x74, 0x66, 0x2e, 0x5f, 0x5f, 0x6f, 0x70, 0x65, 0x72, 0x61, 0x74, 0x6f, 0x72, 0x73, 0x5f,
    0x5f, 0x2e, 0x61, 0x64, 0x64, 0x5f, 0x31, 0x2f, 0x41, 0x64, 0x64, 0x56, 0x32, 0x00, 0x00, 0x02, 0x00, 0x00, 0x00,
    0x01, 0x00, 0x00, 0x00, 0x20, 0x00, 0x00, 0x00, 0x9a, 0xfd, 0xff, 0xff, 0x00, 0x00, 0x00, 0x01, 0x10, 0x00, 0x00,
    0x00, 0x10, 0x00, 0x00, 0x00, 0x09, 0x00, 0x00, 0x00, 0x20, 0x00, 0x00, 0x00, 0x84, 0xfd, 0xff, 0xff, 0x13, 0x00,
    0x00, 0x00, 0x6d, 0x6f, 0x64, 0x65, 0x6c, 0x2f, 0x74, 0x66, 0x2e, 0x6e, 0x6e, 0x2e, 0x65, 0x6c, 0x75, 0x2f, 0x45,
    0x6c, 0x75, 0x00, 0x02, 0x00, 0x00, 0x00, 0x01, 0x00, 0x00, 0x00, 0x20, 0x00, 0x00, 0x00, 0xda, 0xfd, 0xff, 0xff,
    0x00, 0x00, 0x00, 0x01, 0x10, 0x00, 0x00, 0x00, 0x10, 0x00, 0x00, 0x00, 0x08, 0x00, 0x00, 0x00, 0x4c, 0x00, 0x00,
    0x00, 0xc4, 0xfd, 0xff, 0xff, 0x3e, 0x00, 0x00, 0x00, 0x6d, 0x6f, 0x64, 0x65, 0x6c, 0x2f, 0x74, 0x66, 0x2e, 0x6c,
    0x69, 0x6e, 0x61, 0x6c, 0x67, 0x2e, 0x6d, 0x61, 0x74, 0x6d, 0x75, 0x6c, 0x2f, 0x4d, 0x61, 0x74, 0x4d, 0x75, 0x6c,
    0x3b, 0x6d, 0x6f, 0x64, 0x65, 0x6c, 0x2f, 0x74, 0x66, 0x2e, 0x5f, 0x5f, 0x6f, 0x70, 0x65, 0x72, 0x61, 0x74, 0x6f,
    0x72, 0x73, 0x5f, 0x5f, 0x2e, 0x61, 0x64, 0x64, 0x2f, 0x41, 0x64, 0x64, 0x56, 0x32, 0x00, 0x00, 0x02, 0x00, 0x00,
    0x00, 0x01, 0x00, 0x00, 0x00, 0x20, 0x00, 0x00, 0x00, 0x46, 0xfe, 0xff, 0xff, 0x00, 0x00, 0x00, 0x01, 0x10, 0x00,
    0x00, 0x00, 0x10, 0x00, 0x00, 0x00, 0x07, 0x00, 0x00, 0x00, 0x30, 0x00, 0x00, 0x00, 0x30, 0xfe, 0xff, 0xff, 0x20,
    0x00, 0x00, 0x00, 0x6d, 0x6f, 0x64, 0x65, 0x6c, 0x2f, 0x74, 0x66, 0x2e, 0x5f, 0x5f, 0x6f, 0x70, 0x65, 0x72, 0x61,
    0x74, 0x6f, 0x72, 0x73, 0x5f, 0x5f, 0x2e, 0x61, 0x64, 0x64, 0x2f, 0x41, 0x64, 0x64, 0x56, 0x32, 0x00, 0x00, 0x00,
    0x00, 0x01, 0x00, 0x00, 0x00, 0x20, 0x00, 0x00, 0x00, 0x92, 0xfe, 0xff, 0xff, 0x00, 0x00, 0x00, 0x01, 0x10, 0x00,
    0x00, 0x00, 0x10, 0x00, 0x00, 0x00, 0x06, 0x00, 0x00, 0x00, 0x2c, 0x00, 0x00, 0x00, 0x7c, 0xfe, 0xff, 0xff, 0x1d,
    0x00, 0x00, 0x00, 0x6d, 0x6f, 0x64, 0x65, 0x6c, 0x2f, 0x74, 0x66, 0x2e, 0x6c, 0x69, 0x6e, 0x61, 0x6c, 0x67, 0x2e,
    0x6d, 0x61, 0x74, 0x6d, 0x75, 0x6c, 0x2f, 0x4d, 0x61, 0x74, 0x4d, 0x75, 0x6c, 0x00, 0x00, 0x00, 0x02, 0x00, 0x00,
    0x00, 0x20, 0x00, 0x00, 0x00, 0x05, 0x00, 0x00, 0x00, 0xde, 0xfe, 0xff, 0xff, 0x00, 0x00, 0x00, 0x01, 0x10, 0x00,
    0x00, 0x00, 0x10, 0x00, 0x00, 0x00, 0x05, 0x00, 0x00, 0x00, 0x2c, 0x00, 0x00, 0x00, 0xc8, 0xfe, 0xff, 0xff, 0x1f,
    0x00, 0x00, 0x00, 0x6d, 0x6f, 0x64, 0x65, 0x6c, 0x2f, 0x74, 0x66, 0x2e, 0x6c, 0x69, 0x6e, 0x61, 0x6c, 0x67, 0x2e,
    0x6d, 0x61, 0x74, 0x6d, 0x75, 0x6c, 0x5f, 0x31, 0x2f, 0x4d, 0x61, 0x74, 0x4d, 0x75, 0x6c, 0x00, 0x02, 0x00, 0x00,
    0x00, 0x20, 0x00, 0x00, 0x00, 0x20, 0x00, 0x00, 0x00, 0x2a, 0xff, 0xff, 0xff, 0x00, 0x00, 0x00, 0x01, 0x10, 0x00,
    0x00, 0x00, 0x10, 0x00, 0x00, 0x00, 0x04, 0x00, 0x00, 0x00, 0x2c, 0x00, 0x00, 0x00, 0x14, 0xff, 0xff, 0xff, 0x1f,
    0x00, 0x00, 0x00, 0x6d, 0x6f, 0x64, 0x65, 0x6c, 0x2f, 0x74, 0x66, 0x2e, 0x6c, 0x69, 0x6e, 0x61, 0x6c, 0x67, 0x2e,
    0x6d, 0x61, 0x74, 0x6d, 0x75, 0x6c, 0x5f, 0x32, 0x2f, 0x4d, 0x61, 0x74, 0x4d, 0x75, 0x6c, 0x00, 0x02, 0x00, 0x00,
    0x00, 0x01, 0x00, 0x00, 0x00, 0x20, 0x00, 0x00, 0x00, 0x76, 0xff, 0xff, 0xff, 0x00, 0x00, 0x00, 0x01, 0x10, 0x00,
    0x00, 0x00, 0x10, 0x00, 0x00, 0x00, 0x03, 0x00, 0x00, 0x00, 0x30, 0x00, 0x00, 0x00, 0x60, 0xff, 0xff, 0xff, 0x22,
    0x00, 0x00, 0x00, 0x6d, 0x6f, 0x64, 0x65, 0x6c, 0x2f, 0x74, 0x66, 0x2e, 0x5f, 0x5f, 0x6f, 0x70, 0x65, 0x72, 0x61,
    0x74, 0x6f, 0x72, 0x73, 0x5f, 0x5f, 0x2e, 0x61, 0x64, 0x64, 0x5f, 0x31, 0x2f, 0x41, 0x64, 0x64, 0x56, 0x32, 0x00,
    0x00, 0x01, 0x00, 0x00, 0x00, 0x20, 0x00, 0x00, 0x00, 0xc2, 0xff, 0xff, 0xff, 0x00, 0x00, 0x00, 0x01, 0x10, 0x00,
    0x00, 0x00, 0x10, 0x00, 0x00, 0x00, 0x02, 0x00, 0x00, 0x00, 0x20, 0x00, 0x00, 0x00, 0xac, 0xff, 0xff, 0xff, 0x12,
    0x00, 0x00, 0x00, 0x6d, 0x6f, 0x64, 0x65, 0x6c, 0x2f, 0x61, 0x63, 0x74, 0x69, 0x6f, 0x6e, 0x2f, 0x41, 0x64, 0x64,
    0x56, 0x32, 0x00, 0x00, 0x01, 0x00, 0x00, 0x00, 0x01, 0x00, 0x00, 0x00, 0x00, 0x00, 0x16, 0x00, 0x18, 0x00, 0x14,
    0x00, 0x00, 0x00, 0x10, 0x00, 0x0c, 0x00, 0x08, 0x00, 0x00, 0x00, 0x00, 0x00, 0x00, 0x00, 0x07, 0x00, 0x16, 0x00,
    0x00, 0x00, 0x00, 0x00, 0x00, 0x01, 0x14, 0x00, 0x00, 0x00, 0x14, 0x00, 0x00, 0x00, 0x01, 0x00, 0x00, 0x00, 0x14,
    0x00, 0x00, 0x00, 0x04, 0x00, 0x04, 0x00, 0x04, 0x00, 0x00, 0x00, 0x03, 0x00, 0x00, 0x00, 0x6f, 0x62, 0x73, 0x00,
    0x02, 0x00, 0x00, 0x00, 0x01, 0x00, 0x00, 0x00, 0x05, 0x00, 0x00, 0x00, 0x02, 0x00, 0x00, 0x00, 0x20, 0x00, 0x00,
    0x00, 0x04, 0x00, 0x00, 0x00, 0xf4, 0xff, 0xff, 0xff, 0x6f, 0x00, 0x00, 0x00, 0x00, 0x00, 0x00, 0x6f, 0x0c, 0x00,
    0x0c, 0x00, 0x0b, 0x00, 0x00, 0x00, 0x00, 0x00, 0x04, 0x00, 0x0c, 0x00, 0x00, 0x00, 0x09, 0x00, 0x00, 0x00, 0x00,
    0x00, 0x00, 0x09};
unsigned int policy_model_len = 6976;
