unsigned char policy_model[] = {
    0x1c, 0x00, 0x00, 0x00, 0x54, 0x46, 0x4c, 0x33, 0x14, 0x00, 0x20, 0x00, 0x1c, 0x00, 0x18, 0x00, 0x14, 0x00, 0x10,
    0x00, 0x0c, 0x00, 0x00, 0x00, 0x08, 0x00, 0x04, 0x00, 0x14, 0x00, 0x00, 0x00, 0x1c, 0x00, 0x00, 0x00, 0x1c, 0x00,
    0x00, 0x00, 0x74, 0x00, 0x00, 0x00, 0xb0, 0x15, 0x00, 0x00, 0xc0, 0x15, 0x00, 0x00, 0xdc, 0x1a, 0x00, 0x00, 0x03,
    0x00, 0x00, 0x00, 0x00, 0x00, 0x00, 0x00, 0x02, 0x00, 0x00, 0x00, 0x34, 0x00, 0x00, 0x00, 0x04, 0x00, 0x00, 0x00,
    0xdc, 0xff, 0xff, 0xff, 0x0e, 0x00, 0x00, 0x00, 0x04, 0x00, 0x00, 0x00, 0x13, 0x00, 0x00, 0x00, 0x43, 0x4f, 0x4e,
    0x56, 0x45, 0x52, 0x53, 0x49, 0x4f, 0x4e, 0x5f, 0x4d, 0x45, 0x54, 0x41, 0x44, 0x41, 0x54, 0x41, 0x00, 0x08, 0x00,
    0x0c, 0x00, 0x08, 0x00, 0x04, 0x00, 0x08, 0x00, 0x00, 0x00, 0x0d, 0x00, 0x00, 0x00, 0x04, 0x00, 0x00, 0x00, 0x13,
    0x00, 0x00, 0x00, 0x6d, 0x69, 0x6e, 0x5f, 0x72, 0x75, 0x6e, 0x74, 0x69, 0x6d, 0x65, 0x5f, 0x76, 0x65, 0x72, 0x73,
    0x69, 0x6f, 0x6e, 0x00, 0x0f, 0x00, 0x00, 0x00, 0x38, 0x15, 0x00, 0x00, 0x30, 0x15, 0x00, 0x00, 0x1c, 0x15, 0x00,
    0x00, 0x84, 0x14, 0x00, 0x00, 0xf4, 0x13, 0x00, 0x00, 0xe4, 0x03, 0x00, 0x00, 0x54, 0x01, 0x00, 0x00, 0xc4, 0x00,
    0x00, 0x00, 0xbc, 0x00, 0x00, 0x00, 0xb4, 0x00, 0x00, 0x00, 0xac, 0x00, 0x00, 0x00, 0xa4, 0x00, 0x00, 0x00, 0x9c,
    0x00, 0x00, 0x00, 0x7c, 0x00, 0x00, 0x00, 0x04, 0x00, 0x00, 0x00, 0x1e, 0xeb, 0xff, 0xff, 0x04, 0x00, 0x00, 0x00,
    0x68, 0x00, 0x00, 0x00, 0x10, 0x00, 0x00, 0x00, 0x00, 0x00, 0x00, 0x00, 0x08, 0x00, 0x0e, 0x00, 0x08, 0x00, 0x04,
    0x00, 0x08, 0x00, 0x00, 0x00, 0x14, 0x00, 0x00, 0x00, 0x2c, 0x00, 0x00, 0x00, 0x00, 0x00, 0x0a, 0x00, 0x0c, 0x00,
    0x08, 0x00, 0x00, 0x00, 0x07, 0x00, 0x0a, 0x00, 0x00, 0x00, 0x00, 0x00, 0x00, 0x01, 0x04, 0x00, 0x00, 0x00, 0x00,
    0x00, 0x00, 0x00, 0x0c, 0x00, 0x18, 0x00, 0x14, 0x00, 0x10, 0x00, 0x0c, 0x00, 0x04, 0x00, 0x0c, 0x00, 0x00, 0x00,
    0x03, 0xa1, 0x42, 0x95, 0xc5, 0x87, 0x89, 0x84, 0x03, 0x00, 0x00, 0x00, 0x02, 0x00, 0x00, 0x00, 0x04, 0x00, 0x00,
    0x00, 0x06, 0x00, 0x00, 0x00, 0x32, 0x2e, 0x32, 0x31, 0x2e, 0x30, 0x00, 0x00, 0x92, 0xeb, 0xff, 0xff, 0x04, 0x00,
    0x00, 0x00, 0x10, 0x00, 0x00, 0x00, 0x31, 0x2e, 0x31, 0x34, 0x2e, 0x30, 0x00, 0x00, 0x00, 0x00, 0x00, 0x00, 0x00,
    0x00, 0x00, 0x00, 0x78, 0xe6, 0xff, 0xff, 0x7c, 0xe6, 0xff, 0xff, 0x80, 0xe6, 0xff, 0xff, 0x84, 0xe6, 0xff, 0xff,
    0x88, 0xe6, 0xff, 0xff, 0xc2, 0xeb, 0xff, 0xff, 0x04, 0x00, 0x00, 0x00, 0x80, 0x00, 0x00, 0x00, 0xc5, 0x11, 0x2a,
    0xbf, 0x8f, 0x2f, 0x6c, 0xbe, 0x62, 0x69, 0x82, 0x3f, 0xf4, 0xc7, 0x27, 0xbf, 0x02, 0x4a, 0x65, 0xbc, 0x0e, 0x9d,
    0x2c, 0x3e, 0x0a, 0xb5, 0xa5, 0xbe, 0x18, 0x3e, 0x15, 0xbf, 0x60, 0xda, 0xe3, 0x3d, 0x4b, 0xe3, 0xe5, 0x3d, 0x19,
    0x45, 0x3b, 0x3f, 0x44, 0x4a, 0x8f, 0xbe, 0x98, 0x29, 0x53, 0xbf, 0xa4, 0x91, 0x2d, 0xbf, 0x0e, 0x64, 0x0b, 0xbf,
    0xce, 0xdb, 0xf1, 0xbe, 0x42, 0x62, 0xc4, 0xbd, 0xe6, 0xb9, 0x8b, 0x3f, 0xca, 0x2c, 0xb1, 0xbe, 0x79, 0x55, 0x5e,
    0xbe, 0xf8, 0xdd, 0xa2, 0xbc, 0xc6, 0x74, 0x3e, 0xbf, 0x03, 0x43, 0x31, 0xbf, 0x48, 0x4d, 0x26, 0x3f, 0xed, 0xaf,
    0x52, 0xbe, 0x85, 0xe7, 0xb9, 0xbe, 0x81, 0x8a, 0x44, 0xbf, 0x96, 0x99, 0x8f, 0xbe, 0xe5, 0xb7, 0xcc, 0x3e, 0x58,
    0x91, 0x44, 0xbf, 0xa8, 0x98, 0xd0, 0xbe, 0x9f, 0xbe, 0x1d, 0x3f, 0x4e, 0xec, 0xff, 0xff, 0x04, 0x00, 0x00, 0x00,
    0x80, 0x02, 0x00, 0x00, 0xc1, 0x24, 0x2f, 0x3e, 0xf6, 0x49, 0xe9, 0x3e, 0xd1, 0xe9, 0x14, 0xbf, 0x34, 0xc5, 0x18,
    0xbf, 0xd7, 0x3c, 0xa4, 0xbf, 0xa3, 0x3a, 0x0a, 0xbf, 0x77, 0xad, 0x3c, 0xbe, 0xa3, 0xb7, 0x02, 0x3f, 0x21, 0x7e,
    0xf5, 0x3d, 0x19, 0xca, 0x9a, 0x3e, 0x8c, 0xd4, 0x9b, 0x3e, 0x6c, 0x9c, 0xe8, 0x3d, 0x9a, 0x79, 0xf4, 0xbd, 0x41,
    0x4c, 0xe9, 0x3e, 0xf9, 0x2e, 0x90, 0x3d, 0xa8, 0xc1, 0x12, 0xbe, 0x18, 0x13, 0xff, 0x3e, 0x23, 0x0f, 0x04, 0xbf,
    0x9c, 0xc1, 0x70, 0xbf, 0xb1, 0x67, 0x41, 0x3e, 0x43, 0x70, 0xa5, 0xbe, 0x16, 0xc8, 0xd2, 0x3e, 0x01, 0xb0, 0x4a,
    0xbd, 0xc4, 0xaa, 0x36, 0xbf, 0xd9, 0x4d, 0xe9, 0xbd, 0xbc, 0x61, 0xd5, 0x3d, 0x4e, 0x20, 0x10, 0x3f, 0xa7, 0x08,
    0xde, 0xbe, 0x0f, 0x86, 0x3e, 0x3f, 0x43, 0x42, 0x78, 0x3e, 0xec, 0xd7, 0xc4, 0x3c, 0x22, 0x5f, 0xa5, 0xbe, 0x79,
    0x00, 0x88, 0x3f, 0x5f, 0x1f, 0x93, 0xbe, 0xfb, 0x4d, 0x20, 0x3e, 0xdf, 0x31, 0xb8, 0xbe, 0x99, 0x82, 0x14, 0xbe,
    0x3e, 0x4a, 0x25, 0xbf, 0xce, 0x6b, 0x37, 0x3d, 0xba, 0x0b, 0xfc, 0x3e, 0x8f, 0xae, 0x70, 0xbe, 0xc5, 0x88, 0xe0,
    0xbf, 0x00, 0x38, 0xd5, 0x3e, 0x57, 0x8a, 0x7b, 0xbe, 0x8d, 0xc3, 0x4d, 0xbe, 0x06, 0x4f, 0x0a, 0xbc, 0x64, 0xeb,
    0x94, 0xbe, 0xcf, 0x44, 0x36, 0xbf, 0xc4, 0x13, 0xb3, 0xbe, 0x76, 0x1f, 0x93, 0xbe, 0x43, 0x7e, 0xb8, 0xbe, 0xc7,
    0xe3, 0xd3, 0xbe, 0xb2, 0xaf, 0x4f, 0x3e, 0x4d, 0x36, 0x5e, 0x3f, 0xc4, 0x9c, 0x50, 0x3f, 0x67, 0x05, 0x7e, 0xbe,
    0x53, 0x9f, 0x2d, 0xbf, 0x25, 0xaf, 0xcd, 0xbe, 0x90, 0x79, 0xfe, 0x3e, 0x3b, 0x47, 0xf1, 0x3e, 0x81, 0x5a, 0xa0,
    0xbe, 0x69, 0xa4, 0xd0, 0x3d, 0x3f, 0xae, 0x3f, 0x3e, 0x1e, 0xae, 0xf8, 0xbe, 0x85, 0x38, 0x11, 0xbf, 0x01, 0xb4,
    0xfe, 0x3d, 0x71, 0x35, 0xcc, 0x3e, 0x1c, 0x44, 0x0b, 0xbf, 0x8c, 0xc7, 0xef, 0x3e, 0xdb, 0x12, 0x77, 0x3e, 0xaa,
    0x1e, 0x26, 0x3e, 0x54, 0x14, 0xc1, 0x3d, 0x7b, 0x69, 0x1b, 0xba, 0x3a, 0x4c, 0x9a, 0x3e, 0x85, 0x36, 0xcd, 0xbe,
    0x06, 0x35, 0x54, 0xbf, 0xb2, 0x88, 0x89, 0xbf, 0xc4, 0xb3, 0x04, 0xbf, 0xd3, 0x28, 0x52, 0xbf, 0xe3, 0x5b, 0xaa,
    0x3e, 0x35, 0xe9, 0x38, 0x3d, 0x05, 0x47, 0x8c, 0x3e, 0xa6, 0xbf, 0x76, 0xbf, 0xb0, 0x38, 0x36, 0x3e, 0x06, 0x32,
    0x0e, 0x3e, 0xc7, 0x96, 0xb6, 0x3d, 0x87, 0xc4, 0x27, 0x3e, 0xa9, 0x16, 0x31, 0x3e, 0x10, 0x77, 0xf4, 0x3e, 0xc2,
    0xdb, 0xfc, 0x3d, 0xef, 0x71, 0x03, 0x3f, 0xa4, 0x00, 0x65, 0x3e, 0x10, 0x3d, 0xad, 0xbe, 0x36, 0x15, 0xfe, 0xbe,
    0xa8, 0x24, 0x03, 0xbf, 0xf8, 0x2c, 0x37, 0x3f, 0x2f, 0xac, 0xbd, 0xbd, 0xc9, 0xa8, 0xcb, 0x3f, 0x1c, 0x9b, 0xf1,
    0x3e, 0x80, 0x17, 0x6b, 0x3e, 0x29, 0x34, 0x0a, 0xbf, 0xed, 0x93, 0x3d, 0xbf, 0x54, 0x19, 0x3d, 0xbd, 0xfc, 0xe9,
    0x9e, 0x3e, 0xfc, 0x83, 0xe2, 0x3e, 0x16, 0x9a, 0x90, 0xbf, 0x29, 0xa6, 0x70, 0xbe, 0x67, 0xcf, 0x9a, 0xbf, 0xca,
    0x7c, 0xf7, 0xbe, 0x2f, 0x71, 0xfc, 0x3e, 0x2d, 0x60, 0xad, 0x3e, 0x4b, 0x26, 0xa8, 0x3e, 0xa3, 0xcd, 0xc1, 0xbe,
    0xa3, 0x3b, 0x32, 0xbf, 0xe4, 0x05, 0x6e, 0xbe, 0x80, 0x31, 0xaa, 0xbe, 0xf0, 0x11, 0xde, 0xbe, 0xa7, 0xd4, 0x76,
    0x3e, 0x63, 0x63, 0x6e, 0x3f, 0x97, 0x15, 0x1d, 0x3f, 0x85, 0x5c, 0x35, 0x3f, 0x39, 0x9e, 0x00, 0x3f, 0xb2, 0x8e,
    0x4a, 0x3f, 0x5d, 0x4c, 0x90, 0xbe, 0xe5, 0x95, 0xc4, 0x3e, 0x8d, 0xe0, 0xde, 0x3e, 0x81, 0x76, 0x52, 0x3e, 0x44,
    0x66, 0x72, 0x3d, 0xa5, 0x22, 0x27, 0xbf, 0xc1, 0xb9, 0x13, 0xbf, 0x45, 0x7b, 0x6d, 0xbf, 0x4a, 0x10, 0x62, 0xbe,
    0x35, 0xf1, 0x8c, 0xbf, 0xdd, 0xac, 0xa6, 0xbe, 0x8e, 0xb1, 0xe5, 0x3e, 0x29, 0x8e, 0xba, 0xbd, 0xf8, 0x91, 0x8e,
    0x3e, 0x15, 0x3f, 0x92, 0xbe, 0xb4, 0x10, 0xc8, 0x3e, 0xe0, 0x83, 0xe0, 0xbe, 0x7f, 0x49, 0xa6, 0x3e, 0x5f, 0x0c,
    0x64, 0x3f, 0x81, 0xe5, 0x4e, 0x3f, 0x3e, 0x10, 0xd7, 0x3e, 0x94, 0xdb, 0x61, 0x3e, 0x47, 0xfc, 0x10, 0xbf, 0x37,
    0xec, 0x52, 0xbe, 0xee, 0xf1, 0xd9, 0x3e, 0xa6, 0x6e, 0x44, 0xbe, 0x6c, 0x30, 0x0d, 0xbe, 0xf2, 0x9d, 0xd8, 0xbd,
    0x6a, 0x01, 0x22, 0xbf, 0xc9, 0x4e, 0x10, 0x3e, 0x99, 0x1f, 0x00, 0x3f, 0xe8, 0x93, 0xf8, 0x3e, 0x8a, 0x85, 0xf9,
    0x3e, 0xb2, 0x21, 0x9f, 0xbd, 0xd8, 0xe6, 0x63, 0x3d, 0x16, 0xc5, 0x97, 0xbe, 0xac, 0x94, 0x0e, 0x3d, 0xda, 0xee,
    0xff, 0xff, 0x04, 0x00, 0x00, 0x00, 0x00, 0x10, 0x00, 0x00, 0x14, 0x8c, 0xaa, 0xbd, 0x77, 0x1c, 0x37, 0x3d, 0x9d,
    0x01, 0x14, 0xbe, 0x34, 0xef, 0x56, 0x3c, 0x2d, 0xaf, 0x81, 0xbd, 0xec, 0xde, 0xde, 0xbd, 0x4c, 0x58, 0x41, 0x3e,
    0x6e, 0xac, 0x99, 0x3d, 0x77, 0x8a, 0xd4, 0x3d, 0xdf, 0x68, 0x29, 0xbe, 0xcd, 0x03, 0x95, 0xbe, 0xf7, 0x7a, 0xf4,
    0xbd, 0x95, 0xba, 0x38, 0x3d, 0xaa, 0xfd, 0x23, 0x3e, 0xba, 0x92, 0x97, 0xbd, 0x18, 0x32, 0x6a, 0xba, 0xcb, 0xfd,
    0xae, 0xbd, 0x94, 0xcf, 0x8e, 0xbe, 0x15, 0x2a, 0xac, 0x3d, 0xfd, 0xf3, 0x86, 0x3d, 0x1e, 0xc3, 0x8a, 0xbe, 0x87,
    0x8a, 0xbf, 0xbd, 0xe6, 0x43, 0xbc, 0x3e, 0x09, 0x96, 0x5c, 0xbe, 0x36, 0x20, 0x6e, 0x3e, 0x53, 0xb8, 0x4f, 0x3e,
    0x1d, 0x59, 0x4b, 0xbe, 0xd8, 0x45, 0xbc, 0xbe, 0x3d, 0x9a, 0xcc, 0x3b, 0x3f, 0x4c, 0xc4, 0x3e, 0xba, 0x44, 0x30,
    0xbd, 0x80, 0x8f, 0xcd, 0x3d, 0x1f, 0x38, 0xe5, 0x3e, 0xc3, 0x67, 0x89, 0x3d, 0xa3, 0x17, 0xd4, 0xba, 0x16, 0x45,
    0x62, 0xbe, 0x9b, 0x09, 0x24, 0xbf, 0xae, 0xd8, 0x80, 0x3e, 0x79, 0xf3, 0x81, 0xbf, 0x31, 0xdc, 0xbd, 0x3c, 0x28,
    0x26, 0x35, 0xbf, 0x4b, 0x04, 0x51, 0xbe, 0x3f, 0xc8, 0xc0, 0x3c, 0xf6, 0x8b, 0x10, 0x3f, 0x96, 0xcf, 0x0f, 0xbe,
    0xf8, 0x7c, 0xfa, 0xbd, 0x96, 0x6e, 0xae, 0x3e, 0x81, 0xce, 0x91, 0xbe, 0x33, 0x75, 0x1d, 0xbe, 0xa8, 0x28, 0xee,
    0xbd, 0x8a, 0xd8, 0xb3, 0xbd, 0xed, 0x9b, 0x1e, 0xbf, 0x9f, 0x56, 0xa2, 0x3c, 0xa3, 0xc5, 0xdf, 0xbd, 0x33, 0xcc,
    0xab, 0xbd, 0x64, 0x0c, 0x3d, 0x3d, 0x05, 0xa5, 0x8e, 0xbe, 0x59, 0x65, 0x6f, 0xbd, 0xbc, 0xec, 0x0a, 0x3d, 0xb3,
    0xf6, 0xe1, 0x3e, 0x3a, 0xbb, 0x17, 0xbe, 0xc6, 0xba, 0x8b, 0x3e, 0xea, 0x54, 0xbd, 0x3e, 0xfc, 0xbc, 0xc8, 0xbe,
    0x0e, 0x5a, 0x94, 0x3e, 0xa8, 0xc0, 0xda, 0x3e, 0xae, 0x5a, 0x81, 0xbf, 0x01, 0xe2, 0x1c, 0x3f, 0xb0, 0x67, 0xae,
    0x3e, 0xf5, 0x1b, 0x12, 0xbf, 0x65, 0xd9, 0x89, 0x3e, 0xb7, 0xfd, 0x15, 0xbe, 0xe9, 0x43, 0x96, 0xbe, 0x57, 0x07,
    0x48, 0xbd, 0x1b, 0x53, 0x2c, 0xbf, 0xcc, 0x86, 0x18, 0xbf, 0xbd, 0xb2, 0xd6, 0x3d, 0xfb, 0xda, 0x9f, 0x3e, 0xa7,
    0x9d, 0x83, 0xbe, 0xd9, 0x78, 0xed, 0xbe, 0xdb, 0x00, 0x28, 0x3b, 0x03, 0xa8, 0x20, 0xbf, 0x21, 0x27, 0xc9, 0xbd,
    0x64, 0xea, 0x70, 0xbe, 0x4c, 0x13, 0x81, 0xbe, 0x6e, 0x49, 0x14, 0xbe, 0x33, 0xf1, 0x58, 0x3f, 0xc3, 0x23, 0x23,
    0xbf, 0xfa, 0x59, 0x79, 0xbe, 0xec, 0xf1, 0x0a, 0xbe, 0x9d, 0x57, 0x78, 0xbe, 0x08, 0xdf, 0xb6, 0xbe, 0x54, 0x01,
    0xc3, 0xbe, 0x53, 0xe5, 0xdb, 0x3e, 0x1b, 0xd3, 0x30, 0x3e, 0xa5, 0x71, 0xf4, 0xbe, 0x11, 0x6a, 0xc2, 0xbe, 0xf9,
    0xe8, 0x94, 0xbe, 0x1e, 0x09, 0xa4, 0x3d, 0x9d, 0x68, 0x56, 0x3e, 0x9e, 0x49, 0xe4, 0xbd, 0x11, 0x82, 0x16, 0x3e,
    0x36, 0xcc, 0x34, 0xbd, 0x7d, 0xe1, 0x2a, 0xbd, 0x06, 0xb1, 0x4e, 0x3e, 0xd8, 0xd6, 0x00, 0xbe, 0xae, 0xfe, 0x35,
    0xbd, 0xac, 0xdb, 0xe1, 0xbb, 0x01, 0x95, 0xbf, 0xbd, 0x3b, 0x45, 0xd5, 0x3e, 0x48, 0x0b, 0x58, 0x3e, 0x2a, 0x6e,
    0x12, 0xbe, 0xaf, 0x8d, 0xa2, 0x3e, 0xfb, 0x98, 0xa5, 0x3d, 0xa5, 0x97, 0xf7, 0xbd, 0x16, 0x79, 0xac, 0x3e, 0xbf,
    0x87, 0x5b, 0xbe, 0xe1, 0x71, 0x85, 0x3d, 0x3d, 0x48, 0x9c, 0x3a, 0x11, 0x68, 0xc4, 0xbb, 0xa1, 0xc5, 0x72, 0xbd,
    0x1c, 0xba, 0x30, 0xbe, 0x75, 0xba, 0x22, 0x3e, 0x68, 0x13, 0x98, 0x3e, 0xe1, 0x2b, 0xb8, 0x3d, 0xf2, 0x6b, 0x3f,
    0xbe, 0x46, 0xa3, 0x21, 0x3d, 0xeb, 0x15, 0x3e, 0xbd, 0x43, 0x49, 0x27, 0xbe, 0xb4, 0x1c, 0x0d, 0x3e, 0x9d, 0x19,
    0xcb, 0xbd, 0xc9, 0xdd, 0xa2, 0xbc, 0x11, 0xfe, 0x9d, 0x3e, 0x32, 0xc8, 0x64, 0x3e, 0xee, 0x60, 0xba, 0xbe, 0xae,
    0xff, 0x4f, 0xbe, 0x41, 0x72, 0x90, 0x3d, 0x66, 0x07, 0x63, 0xbc, 0x9d, 0xc1, 0x1f, 0xbe, 0x66, 0xc9, 0x1e, 0xbe,
    0xca, 0x23, 0x9b, 0xbd, 0xb0, 0x44, 0xd7, 0x3d, 0x94, 0xc9, 0x20, 0x3e, 0x17, 0x85, 0x89, 0xbe, 0x08, 0xf0, 0xcd,
    0x3c, 0xef, 0x6c, 0x27, 0xbe, 0xb1, 0x37, 0xab, 0xbb, 0x03, 0x2b, 0xff, 0x3c, 0x1f, 0xa9, 0x03, 0xbe, 0xd9, 0x3c,
    0x94, 0xbe, 0x44, 0x4c, 0x05, 0xbc, 0x35, 0xc1, 0x55, 0x3d, 0x16, 0x30, 0xc2, 0xbd, 0xba, 0x03, 0x83, 0x3d, 0xa7,
    0x1e, 0xd6, 0xbe, 0xa9, 0x82, 0xd7, 0x3e, 0xb5, 0x6f, 0x5c, 0xbe, 0x73, 0x4e, 0xf0, 0x3d, 0x07, 0x45, 0x06, 0xbe,
    0xdb, 0x1b, 0x06, 0x3b, 0x68, 0x97, 0xb2, 0x3d, 0x60, 0x74, 0xda, 0xbd, 0x40, 0x99, 0x8f, 0x3d, 0xa2, 0x30, 0xe0,
    0x3d, 0x58, 0x80, 0x5d, 0xbc, 0xf8, 0x98, 0x38, 0x3e, 0xf1, 0x11, 0x16, 0x3e, 0x7d, 0x99, 0x50, 0xbd, 0xf1, 0x5d,
    0x0a, 0x3e, 0x34, 0xff, 0xf9, 0x3c, 0xd7, 0xbe, 0x7e, 0x39, 0x59, 0xe6, 0x22, 0x3d, 0x57, 0xac, 0xc8, 0x3d, 0x86,
    0x3a, 0xd0, 0x3d, 0xa1, 0x4b, 0x24, 0xbd, 0xa5, 0x2c, 0x21, 0xbc, 0xda, 0x44, 0x6d, 0x3e, 0xc6, 0x97, 0x8f, 0xbd,
    0x58, 0xe4, 0x2d, 0xbe, 0x11, 0xf9, 0x60, 0x3e, 0xb0, 0xa8, 0x8b, 0xbd, 0x6c, 0xe5, 0xdc, 0xbc, 0xbf, 0x73, 0x35,
    0xbe, 0x61, 0x2d, 0xed, 0x3b, 0x9b, 0x08, 0x5e, 0xbe, 0x7b, 0x0c, 0xa0, 0xbc, 0xb3, 0x9b, 0x14, 0xbe, 0xda, 0x36,
    0xc1, 0x3c, 0x2a, 0x01, 0xfb, 0x3c, 0x21, 0xf4, 0x3c, 0xbd, 0xd2, 0x8a, 0xb8, 0xbd, 0xb8, 0xbc, 0x20, 0xbe, 0x2a,
    0x1b, 0xce, 0x3e, 0xad, 0xad, 0xd7, 0x3e, 0x72, 0x37, 0x23, 0xbf, 0x9c, 0x71, 0xb2, 0x3e, 0x79, 0xd4, 0x1e, 0xbe,
    0x2d, 0xcc, 0xe4, 0xbe, 0xe8, 0x80, 0x4e, 0xbe, 0x2d, 0xa0, 0x6c, 0x3e, 0x16, 0xfd, 0x34, 0xbc, 0x7c, 0xe4, 0x4d,
    0x3e, 0xca, 0x32, 0x11, 0xbf, 0x3b, 0x1b, 0xdc, 0x3d, 0x9c, 0x09, 0xd6, 0x3e, 0xfb, 0xf2, 0x28, 0x3e, 0x74, 0x50,
    0x70, 0x3e, 0x97, 0x04, 0x53, 0x3e, 0x47, 0x63, 0x99, 0xbe, 0xad, 0xc3, 0x02, 0xbf, 0x3b, 0x24, 0xab, 0x3e, 0x4b,
    0x8c, 0x8f, 0xbe, 0xd4, 0xda, 0x82, 0x39, 0xcc, 0x1c, 0x96, 0xbc, 0x36, 0xb1, 0x01, 0x3f, 0x1d, 0xea, 0xf5, 0xbe,
    0xd5, 0x1d, 0x45, 0xbe, 0xef, 0x90, 0xa2, 0x3e, 0xa5, 0x7a, 0x56, 0xbd, 0xe0, 0x4a, 0xf4, 0xbe, 0xf7, 0xa3, 0xe5,
    0xbe, 0x32, 0xd7, 0xce, 0x3e, 0xa1, 0x65, 0x3f, 0x3f, 0x1d, 0xa7, 0x51, 0x3d, 0xad, 0x6a, 0x3c, 0x3e, 0x33, 0xf7,
    0xb8, 0x3e, 0x8a, 0xc5, 0x98, 0xbe, 0x41, 0x30, 0x8c, 0x3e, 0xaa, 0xf4, 0x90, 0xbc, 0xc6, 0xe9, 0xaa, 0xbd, 0x7e,
    0x97, 0x82, 0x3e, 0x67, 0x6d, 0x9a, 0x3e, 0x87, 0xa0, 0xcd, 0xbd, 0x6c, 0x13, 0x10, 0xbe, 0x2d, 0x23, 0x44, 0xbf,
    0x7f, 0xff, 0xed, 0xbc, 0x94, 0x9b, 0x46, 0x3d, 0x93, 0x7f, 0x3d, 0x3f, 0x32, 0x0b, 0x09, 0x3e, 0xac, 0xf7, 0x74,
    0xbd, 0x84, 0x7f, 0xe8, 0x3c, 0x3f, 0xd5, 0x27, 0xbf, 0xff, 0x2c, 0x44, 0x3e, 0x74, 0xc7, 0x01, 0x3e, 0x8d, 0x0d,
    0xb5, 0xbe, 0xcb, 0x71, 0x5d, 0x3e, 0xe7, 0x51, 0x8f, 0x3e, 0xb9, 0xed, 0x31, 0xbf, 0xd5, 0xc0, 0x30, 0x3f, 0x42,
    0x96, 0x83, 0x3c, 0xb0, 0x3d, 0xaa, 0x3e, 0xb9, 0x62, 0x38, 0x3d, 0x94, 0xb2, 0xe1, 0xbd, 0x3a, 0xab, 0x19, 0x3f,
    0xff, 0x1c, 0xf4, 0x3d, 0x79, 0xcf, 0x8c, 0xbe, 0xdc, 0xa3, 0xca, 0x3d, 0x04, 0x11, 0x54, 0x3e, 0xc8, 0x0f, 0x2d,
    0xbe, 0x1b, 0x41, 0x92, 0x3d, 0xb1, 0xdc, 0x13, 0xbd, 0x80, 0x96, 0xb7, 0xbd, 0x52, 0x5e, 0x1e, 0x3f, 0x68, 0xf9,
    0x52, 0x3e, 0xa6, 0x90, 0x23, 0xbe, 0xd4, 0x1c, 0xcd, 0x3d, 0xab, 0x6b, 0x4f, 0xbd, 0x3f, 0xd3, 0x7b, 0xbe, 0xa3,
    0x50, 0x36, 0xbe, 0xa2, 0x0f, 0xe4, 0x3d, 0x0b, 0x87, 0xb1, 0xbd, 0x73, 0xa1, 0x5a, 0xbe, 0xc4, 0x1f, 0xda, 0x3c,
    0x7e, 0x3d, 0xc2, 0x3d, 0x08, 0x81, 0x59, 0xbd, 0xa1, 0x9c, 0x5c, 0xbd, 0xce, 0x84, 0xed, 0xbe, 0x5d, 0xa7, 0xbb,
    0xbc, 0xad, 0xe4, 0x1b, 0x3e, 0xc0, 0xc7, 0x24, 0xbe, 0xfd, 0xdb, 0x8c, 0x3d, 0x59, 0x6a, 0x1a, 0xbd, 0x11, 0x9e,
    0xde, 0x3c, 0x79, 0x14, 0x38, 0xbe, 0xc3, 0x07, 0x46, 0xbd, 0x30, 0x5a, 0x8d, 0xbd, 0xb6, 0xbf, 0x0b, 0x3b, 0x28,
    0x06, 0x2d, 0xbc, 0xc2, 0x00, 0x44, 0xbe, 0xd0, 0x64, 0xd4, 0xbc, 0xb5, 0x58, 0x81, 0xbd, 0xdc, 0x9e, 0x6b, 0x3e,
    0xfb, 0x5b, 0xb3, 0x3c, 0x35, 0x9d, 0xbd, 0x3d, 0x4f, 0x71, 0xef, 0x3d, 0xde, 0xb6, 0x0c, 0xbe, 0x45, 0xf4, 0x5b,
    0x3e, 0x0d, 0x6c, 0x83, 0xbd, 0x94, 0x0d, 0x96, 0xbd, 0xb1, 0xa1, 0x38, 0xbe, 0xf6, 0x30, 0x1e, 0xbe, 0xed, 0xe7,
    0xfe, 0x3d, 0xee, 0x6d, 0xa2, 0x3c, 0xa3, 0x53, 0xe4, 0x3d, 0x90, 0x5f, 0x8c, 0x3d, 0x2a, 0x7c, 0x8f, 0x3d, 0xc5,
    0x2a, 0xa0, 0xbd, 0xac, 0x2f, 0x55, 0x3c, 0x17, 0x04, 0x6f, 0xbc, 0xbe, 0x72, 0xb0, 0x3b, 0xa5, 0xfa, 0x30, 0xbd,
    0x86, 0xd5, 0x3d, 0xbe, 0xcf, 0x46, 0xfd, 0xbc, 0x04, 0x8c, 0x92, 0x3d, 0x39, 0x62, 0x94, 0x3d, 0x5a, 0x9a, 0x84,
    0xbc, 0xeb, 0xe8, 0x8b, 0x3d, 0xd8, 0xde, 0x12, 0xbc, 0x66, 0xa1, 0x33, 0xbe, 0x35, 0xac, 0x32, 0x3c, 0x96, 0xee,
    0x5b, 0x3f, 0xf4, 0xe1, 0xc6, 0x3e, 0x7e, 0x89, 0x50, 0xbf, 0xdf, 0x77, 0xab, 0x3e, 0xdc, 0x3f, 0x87, 0x3f, 0xf8,
    0x6f, 0xad, 0xbe, 0x84, 0xd2, 0xfd, 0x3e, 0xf6, 0x22, 0xbb, 0x3d, 0xd9, 0xda, 0x56, 0x3e, 0x78, 0x8d, 0x2e, 0x3d,
    0xec, 0x73, 0x26, 0xbf, 0x44, 0xc9, 0xce, 0xbe, 0xcc, 0x6c, 0x55, 0x3f, 0xb8, 0x9c, 0x81, 0x3d, 0x27, 0x02, 0xc6,
    0x3e, 0xbe, 0xe0, 0x12, 0x3e, 0xc0, 0x58, 0x7b, 0xbe, 0xde, 0xfd, 0x02, 0xbf, 0xc8, 0x7f, 0x00, 0x3f, 0xfe, 0xe0,
    0xee, 0x3e, 0x70, 0x51, 0xe2, 0x3d, 0xf9, 0xca, 0xcb, 0x3e, 0xab, 0xa2, 0x13, 0x3f, 0xc9, 0x0a, 0x0e, 0xbf, 0x62,
    0x77, 0x62, 0x3e, 0x42, 0x9c, 0x37, 0x3f, 0x26, 0x0c, 0xac, 0x3e, 0xa8, 0x8d, 0xa3, 0x3e, 0xdd, 0x1f, 0x77, 0x3e,
    0x77, 0x30, 0x6b, 0x3f, 0x5b, 0x86, 0x6a, 0xbf, 0x93, 0xab, 0x02, 0xbf, 0xb5, 0xfc, 0x66, 0x3e, 0x4c, 0x29, 0x7c,
    0x3e, 0xe7, 0x19, 0xf4, 0xbe, 0x37, 0xe6, 0x5a, 0xbe, 0x50, 0xda, 0xaf, 0xbe, 0x6a, 0xe4, 0xdb, 0xbd, 0x01, 0x2f,
    0x81, 0x3e, 0x13, 0x08, 0xd9, 0x3e, 0x44, 0x40, 0xb9, 0xbd, 0x0d, 0x72, 0x53, 0xbe, 0x05, 0x5f, 0x50, 0x3e, 0x21,
    0x31, 0x19, 0x3f, 0xfd, 0xee, 0xb5, 0x3e, 0x0b, 0xcc, 0x83, 0x3e, 0x9c, 0x13, 0x66, 0xbc, 0xeb, 0x85, 0xb6, 0x3c,
    0x10, 0x56, 0xd1, 0x3c, 0x20, 0x83, 0x80, 0xbe, 0x52, 0xbc, 0x9d, 0x3d, 0x0d, 0x4d, 0x29, 0xbd, 0x42, 0x2a, 0xb7,
    0x3e, 0x05, 0xac, 0xfd, 0x3e, 0x39, 0x8c, 0x52, 0xbd, 0x98, 0xca, 0x29, 0x3e, 0x04, 0xe7, 0xc2, 0x3d, 0x44, 0xd1,
    0x70, 0x3d, 0x42, 0x62, 0x17, 0x3f, 0x8a, 0x0e, 0xce, 0xbe, 0x05, 0x49, 0x22, 0x3d, 0x5c, 0xf4, 0x04, 0x3f, 0x09,
    0xd6, 0x8a, 0x3f, 0xba, 0x92, 0xa2, 0xbe, 0x3c, 0x4f, 0xc2, 0x3e, 0xb5, 0xcf, 0x83, 0x3d, 0xc4, 0x68, 0x9f, 0xbe,
    0xc2, 0x96, 0x21, 0xbe, 0x2b, 0x40, 0x63, 0xbd, 0x85, 0x65, 0xbf, 0x3d, 0xaa, 0x83, 0x2d, 0x3e, 0x01, 0x6c, 0x34,
    0x3e, 0x76, 0xcc, 0x30, 0xbc, 0x57, 0xe2, 0x08, 0xbe, 0xa1, 0x77, 0x05, 0x3e, 0xf2, 0xb3, 0xe7, 0x3d, 0x13, 0x89,
    0xc4, 0x3d, 0x7f, 0xa9, 0x14, 0x3e, 0xfb, 0x75, 0x3d, 0xbe, 0x86, 0x3a, 0x51, 0x3e, 0xe6, 0x75, 0x69, 0x3e, 0x1c,
    0xf5, 0xaf, 0xbe, 0xf5, 0x13, 0xe0, 0x3c, 0x3b, 0x91, 0xcd, 0x3b, 0x61, 0x2b, 0xab, 0x3d, 0x2f, 0x12, 0xc1, 0x3e,
    0x40, 0x73, 0x4c, 0x3e, 0x8a, 0xd5, 0x10, 0x3c, 0xd9, 0xd0, 0x20, 0x3e, 0xd8, 0x96, 0x74, 0xbe, 0xc9, 0x1b, 0xb0,
    0x3e, 0xac, 0x7b, 0xd3, 0xbe, 0x0a, 0x51, 0x82, 0x3e, 0x9d, 0x12, 0x9b, 0x3e, 0xc7, 0xbc, 0x9d, 0x3e, 0x01, 0x69,
    0x6f, 0xbe, 0x96, 0xa1, 0xbb, 0x3d, 0x9f, 0xc5, 0x5c, 0xbd, 0x39, 0xde, 0x0f, 0xbd, 0x41, 0x41, 0x80, 0xbe, 0xe2,
    0x0a, 0x39, 0xbe, 0x09, 0x67, 0x87, 0x3d, 0x19, 0x8c, 0xfc, 0xbe, 0x9a, 0x5a, 0x95, 0x3d, 0x5e, 0x4e, 0xd9, 0xbe,
    0x11, 0x4e, 0xb7, 0xbd, 0x7b, 0xc7, 0xe0, 0xbd, 0x11, 0x27, 0xb5, 0xbd, 0xe5, 0x78, 0x52, 0x3e, 0xa0, 0x6a, 0xe3,
    0xbd, 0x86, 0xb0, 0x6a, 0x3e, 0x53, 0x19, 0x1d, 0xbe, 0x5c, 0x9f, 0x03, 0xbe, 0x14, 0x8a, 0x1a, 0x3c, 0x1c, 0x4f,
    0x8b, 0xbe, 0x90, 0xdf, 0x3c, 0xbe, 0x42, 0xff, 0x0d, 0xbe, 0x08, 0x6b, 0x77, 0x3d, 0x22, 0x1c, 0x88, 0xbe, 0x54,
    0x85, 0x1a, 0xbe, 0x27, 0xc7, 0x9c, 0xbe, 0x86, 0x9e, 0x23, 0x3d, 0x0e, 0x12, 0x2d, 0xbe, 0xe1, 0x61, 0xe3, 0x3d,
    0x1f, 0x1e, 0xfd, 0x3d, 0xf8, 0xf9, 0xf2, 0xbd, 0x8e, 0x8d, 0xb5, 0x39, 0x02, 0xa6, 0x45, 0xbe, 0x5d, 0x9b, 0xfb,
    0x3d, 0xe1, 0x9b, 0xea, 0xbb, 0xce, 0xb0, 0x8a, 0xbd, 0xda, 0x12, 0x5d, 0x3e, 0x7d, 0xf8, 0xaa, 0xbe, 0xdf, 0x57,
    0x10, 0xbe, 0x1e, 0x21, 0xd9, 0x3d, 0x6d, 0xb0, 0xc7, 0x3d, 0xcf, 0x2a, 0x0d, 0x3e, 0xd0, 0x34, 0x3c, 0x3e, 0xb0,
    0x79, 0xa0, 0x3d, 0x1a, 0x0a, 0xf3, 0x3a, 0xe8, 0xc6, 0x8b, 0xbd, 0xa4, 0x1c, 0xe5, 0xbd, 0xe7, 0xfe, 0xfa, 0xbd,
    0x7f, 0xfc, 0xb6, 0x3d, 0xf9, 0x58, 0x9a, 0xbd, 0x07, 0x61, 0x0c, 0xbd, 0xa0, 0x2f, 0x37, 0x3e, 0x00, 0x6b, 0x81,
    0x3e, 0xfd, 0xf5, 0x33, 0x3e, 0x80, 0xa2, 0x48, 0xbe, 0x95, 0xa8, 0xab, 0x3e, 0x09, 0xec, 0xcd, 0xbd, 0x38, 0xb8,
    0xfb, 0x3e, 0xa8, 0x46, 0x6b, 0xbd, 0xc5, 0x46, 0xc4, 0xbd, 0xb9, 0xa2, 0x53, 0xbe, 0x8c, 0x2c, 0xa6, 0x3d, 0x73,
    0x7a, 0x12, 0x3d, 0x0f, 0xee, 0x78, 0x3e, 0x03, 0xfc, 0xdc, 0x3c, 0x43, 0x20, 0x1c, 0x3e, 0x4a, 0x97, 0x11, 0x3e,
    0xce, 0x7a, 0x10, 0x3e, 0x82, 0xb0, 0x68, 0xbe, 0x28, 0x9e, 0x97, 0xbe, 0x83, 0xb8, 0x7f, 0x3c, 0xa0, 0xb8, 0x21,
    0xbf, 0x53, 0xb4, 0xad, 0xbd, 0x08, 0x52, 0x39, 0xbf, 0x97, 0x34, 0x27, 0xbe, 0xe1, 0x40, 0x4b, 0x3b, 0x24, 0xe4,
    0x79, 0x3e, 0x02, 0x6e, 0xc2, 0x3c, 0x39, 0x20, 0x25, 0xbe, 0x3c, 0x49, 0x88, 0x3e, 0x78, 0x97, 0xc8, 0xbe, 0x55,
    0xfd, 0x0c, 0xbe, 0x17, 0x4f, 0x31, 0xbe, 0x0f, 0xf6, 0x94, 0x3c, 0xb1, 0x91, 0xcd, 0xbe, 0xdb, 0x1f, 0xa7, 0xbe,
    0x81, 0x1b, 0x52, 0xbe, 0x2a, 0x7b, 0x5d, 0xbe, 0x97, 0xba, 0x89, 0xbe, 0x71, 0xea, 0x9d, 0xbd, 0x24, 0x61, 0xd2,
    0x3c, 0x63, 0x1c, 0x28, 0x3d, 0x19, 0xd6, 0x86, 0x3d, 0xff, 0xeb, 0x25, 0xbe, 0x97, 0xa4, 0x65, 0x3a, 0xce, 0x74,
    0x4a, 0x3e, 0xb7, 0xbb, 0xfe, 0xbd, 0x3a, 0x96, 0x8f, 0x3d, 0x12, 0xef, 0x69, 0xbc, 0x15, 0x00, 0x27, 0xbd, 0x7b,
    0xa0, 0x0e, 0x3e, 0x38, 0xd6, 0x9a, 0x3e, 0x9f, 0xee, 0x06, 0xbe, 0x4b, 0x67, 0x3c, 0x3e, 0x9f, 0x17, 0x88, 0x3d,
    0xe5, 0x94, 0x2f, 0xbc, 0x07, 0x67, 0x55, 0x3e, 0x63, 0xc9, 0x64, 0xbc, 0x38, 0x66, 0xf2, 0xbd, 0xab, 0xa8, 0x42,
    0x3d, 0xfb, 0x0e, 0x4c, 0xbd, 0xcf, 0x88, 0x43, 0xbe, 0x53, 0xd7, 0x6b, 0xbd, 0xfa, 0xd9, 0xb0, 0x3d, 0x61, 0x26,
    0x2a, 0x3e, 0x7f, 0xd5, 0x1f, 0xbb, 0xab, 0xfc, 0xf3, 0x3d, 0xdb, 0x1a, 0x00, 0x3e, 0x41, 0xc9, 0xb2, 0xbc, 0x22,
    0x65, 0xaa, 0x3d, 0xcf, 0xbe, 0xa1, 0x3d, 0x77, 0x7b, 0x4b, 0x3d, 0x30, 0x2b, 0x6b, 0x3d, 0x49, 0xdd, 0x4a, 0xbd,
    0xa3, 0xc1, 0x6a, 0xbd, 0x3a, 0x1b, 0xea, 0xbc, 0x45, 0x49, 0x96, 0xba, 0xfa, 0xc9, 0x22, 0xbe, 0x83, 0x30, 0x98,
    0xbd, 0x4e, 0x4f, 0x25, 0xbe, 0x5d, 0xf7, 0xa5, 0x3e, 0xc2, 0x11, 0xbf, 0x3c, 0x5a, 0x63, 0x84, 0xbd, 0x5c, 0x83,
    0x0d, 0xbf, 0xa2, 0xcf, 0x03, 0xbf, 0x31, 0x22, 0x8c, 0x3e, 0xe4, 0xd8, 0x01, 0xbd, 0x5d, 0x7f, 0x13, 0x3e, 0x56,
    0x34, 0x70, 0x3d, 0x74, 0x6a, 0x83, 0x3e, 0xa2, 0xaf, 0xac, 0x3d, 0x33, 0x53, 0x3f, 0xbd, 0x24, 0x2e, 0x4e, 0xbf,
    0x5d, 0x01, 0x9a, 0xbe, 0xf1, 0xfe, 0xba, 0xbe, 0xc6, 0x05, 0xa6, 0xbf, 0x37, 0x0b, 0xb1, 0x3d, 0xe9, 0x94, 0x8e,
    0xbe, 0xb4, 0xae, 0x12, 0x3e, 0x9e, 0x16, 0x0e, 0x3e, 0xf2, 0x80, 0x0b, 0xbf, 0xa4, 0x86, 0xad, 0xbe, 0x86, 0x7b,
    0xb9, 0x3d, 0xc3, 0x88, 0x15, 0x3e, 0x66, 0x18, 0xbc, 0xbe, 0xfb, 0x02, 0xda, 0xbe, 0x7e, 0xfb, 0xd0, 0xbd, 0x24,
    0x9b, 0x51, 0x3c, 0xe9, 0xe6, 0x5b, 0xbe, 0xd9, 0x0e, 0x1f, 0x3e, 0xe4, 0x67, 0x96, 0xbd, 0x2a, 0x3c, 0x5b, 0x3f,
    0x25, 0x4b, 0xe3, 0x3e, 0x3b, 0x21, 0x2d, 0xbf, 0x1c, 0x42, 0xd2, 0x3e, 0x58, 0x0e, 0x06, 0x3d, 0x21, 0xc9, 0x1b,
    0xbf, 0xd6, 0xb1, 0x37, 0xbd, 0x4f, 0x3b, 0xb8, 0xbd, 0xc2, 0x4b, 0x5c, 0xbe, 0xaa, 0x03, 0xe7, 0xbd, 0xc0, 0xe3,
    0x89, 0xbf, 0x13, 0xe9, 0x1d, 0xbe, 0x7d, 0x3d, 0xfa, 0x3e, 0xd4, 0x5c, 0x4e, 0x3e, 0x96, 0x9e, 0x18, 0x3f, 0x95,
    0x04, 0xa7, 0xbe, 0x63, 0xfe, 0xf2, 0xbd, 0x33, 0xc4, 0x4f, 0xbf, 0x14, 0x8f, 0x0f, 0x3e, 0x29, 0x0a, 0x1b, 0xbf,
    0xc2, 0x8a, 0x31, 0xbe, 0xcb, 0x4f, 0x1c, 0xbf, 0x2f, 0x1d, 0x45, 0x3f, 0xed, 0x49, 0x82, 0xbf, 0xb4, 0xf2, 0x3b,
    0xbe, 0x6b, 0x22, 0x89, 0x3e, 0x1e, 0x78, 0xdf, 0xbe, 0xbc, 0x3e, 0x5e, 0x3d, 0x7a, 0x6f, 0x0b, 0xbf, 0xa0, 0x15,
    0xa2, 0x3e, 0x94, 0xe2, 0x67, 0x3e, 0xf8, 0x71, 0xd4, 0xbe, 0x52, 0xc9, 0x07, 0x3f, 0x41, 0x6c, 0x85, 0x3e, 0x11,
    0x56, 0x91, 0xbe, 0xef, 0xf5, 0x31, 0xbd, 0xf3, 0xa5, 0xa7, 0x3e, 0xff, 0xf7, 0x39, 0xbf, 0xa0, 0x22, 0x54, 0x3e,
    0x54, 0x28, 0x3b, 0xbe, 0x61, 0x48, 0x97, 0xbd, 0xed, 0x01, 0xe7, 0xbc, 0xf7, 0xc2, 0xdf, 0xbe, 0x96, 0xc2, 0xb0,
    0xbe, 0x8c, 0x53, 0xa5, 0x3e, 0xd3, 0xd8, 0x84, 0xbe, 0x0a, 0xb3, 0xc9, 0x3e, 0xa3, 0x07, 0x06, 0xbe, 0x21, 0xfc,
    0x27, 0xbe, 0x21, 0x8d, 0x82, 0xbe, 0x0c, 0x84, 0xd0, 0x3e, 0x3d, 0x5b, 0x99, 0xbe, 0x11, 0x82, 0x89, 0xbd, 0x3e,
    0x26, 0x75, 0xbe, 0x82, 0x00, 0x20, 0x3e, 0x62, 0xa6, 0x94, 0xbe, 0xe4, 0x60, 0x19, 0xbf, 0x82, 0xdd, 0x7d, 0x3e,
    0xfd, 0x6a, 0x82, 0xbe, 0x26, 0xc7, 0x44, 0x3d, 0x04, 0xd3, 0xc3, 0xbe, 0xad, 0x43, 0x99, 0x3e, 0xe1, 0xb9, 0x17,
    0xbd, 0xcb, 0x36, 0xc9, 0xbe, 0x95, 0x64, 0xf7, 0x3f, 0xbc, 0xbe, 0x43, 0x3e, 0x7a, 0x40, 0x76, 0xbf, 0xe9, 0x3f,
    0x3f, 0x3f, 0xbe, 0x2f, 0x9d, 0x3e, 0x56, 0x9d, 0x74, 0xbf, 0x2b, 0xe5, 0xa0, 0xbe, 0x38, 0x56, 0x93, 0xbe, 0x26,
    0x5d, 0xae, 0xbe, 0x4f, 0x62, 0xc8, 0x3c, 0x8d, 0xb5, 0x0e, 0xc0, 0x26, 0xc4, 0x3e, 0xbf, 0x36, 0x07, 0x61, 0x3f,
    0xb4, 0x8e, 0x7d, 0x3d, 0x6c, 0x12, 0x5f, 0x3f, 0xb4, 0xf6, 0x00, 0xbf, 0x2c, 0x51, 0x0b, 0xbf, 0x4c, 0xe8, 0x95,
    0xbf, 0x75, 0x80, 0x07, 0x3f, 0x9b, 0x1d, 0x09, 0xbf, 0xb4, 0xa3, 0xd2, 0xbe, 0x08, 0x7d, 0x2a, 0xbf, 0x81, 0xe0,
    0xa7, 0x3f, 0x73, 0x43, 0xa7, 0xbf, 0x2e, 0xa7, 0x83, 0xbe, 0x40, 0x12, 0x1b, 0x3f, 0x9d, 0x7b, 0xa1, 0xbe, 0x01,
    0x0e, 0xd7, 0x3d, 0x1f, 0xbf, 0x73, 0xbf, 0x53, 0x26, 0x1f, 0x3f, 0x9f, 0x14, 0x29, 0xbe, 0xc1, 0xde, 0xb2, 0xbe,
    0xde, 0x76, 0xb2, 0x3e, 0x24, 0x79, 0x3e, 0x3e, 0xba, 0xe0, 0xb4, 0xbe, 0x75, 0x75, 0xa2, 0xbc, 0x62, 0x94, 0x2e,
    0xbe, 0x99, 0xa0, 0x34, 0x3e, 0x28, 0xbc, 0x60, 0x3d, 0x4f, 0x52, 0x09, 0x3f, 0x03, 0xd8, 0xb5, 0xbe, 0xdf, 0x15,
    0xa1, 0x3c, 0x26, 0x9e, 0x9c, 0x3e, 0x07, 0x6d, 0x14, 0x3f, 0xd8, 0x66, 0xa8, 0x3e, 0xea, 0x06, 0xf8, 0x3e, 0x0c,
    0x44, 0xe5, 0xbd, 0x6d, 0x32, 0x10, 0x3e, 0xd1, 0x18, 0xe4, 0x3e, 0x94, 0xf3, 0xac, 0xbe, 0x22, 0x86, 0xfd, 0x3d,
    0x26, 0x10, 0x83, 0xbe, 0x97, 0xc1, 0xb7, 0x3e, 0xca, 0xe6, 0x0d, 0x3f, 0xae, 0xd8, 0xb7, 0x3e, 0xff, 0x74, 0x07,
    0x3e, 0x24, 0x81, 0xb8, 0xbd, 0x61, 0x25, 0x8f, 0xbd, 0xa6, 0xdc, 0x11, 0x3f, 0x3b, 0xb3, 0xee, 0xbe, 0xe2, 0x48,
    0x75, 0xbe, 0x33, 0x9c, 0x55, 0x3e, 0x7e, 0x3e, 0x69, 0x3f, 0x09, 0x8f, 0x80, 0xbe, 0x9c, 0x75, 0x93, 0xbd, 0x95,
    0x03, 0xd1, 0x3e, 0x13, 0x09, 0x9b, 0x3d, 0x1c, 0x39, 0xbb, 0xbe, 0x0b, 0x2a, 0xc5, 0x3d, 0x7d, 0xbf, 0x6e, 0xbd,
    0x31, 0x69, 0x06, 0x3e, 0x6d, 0x10, 0x15, 0xbf, 0xfb, 0x46, 0x69, 0xbd, 0xce, 0x9c, 0xa2, 0xbe, 0xd3, 0x6f, 0x40,
    0xbe, 0x36, 0x38, 0xdb, 0xbe, 0x65, 0x60, 0x51, 0xbd, 0xb9, 0xda, 0xc2, 0xbe, 0xc2, 0x8f, 0xa7, 0x3e, 0x3e, 0x84,
    0x1e, 0xbf, 0x68, 0x4f, 0x0e, 0xbf, 0x8e, 0x39, 0xec, 0x3d, 0x54, 0x6a, 0x38, 0xbd, 0x4e, 0xb1, 0xde, 0xbd, 0xd7,
    0x93, 0x55, 0xbe, 0x2b, 0xfd, 0x2e, 0xbf, 0xb0, 0x9f, 0xd7, 0xbd, 0x43, 0xac, 0x66, 0x3b, 0x51, 0x54, 0xa1, 0xbd,
    0x3a, 0x3c, 0x02, 0x3e, 0xb3, 0xcc, 0x27, 0xbf, 0x53, 0xfb, 0x9f, 0x3d, 0xc4, 0xe7, 0x68, 0xbc, 0x76, 0x37, 0x32,
    0x3e, 0x51, 0xf1, 0x99, 0xbe, 0xfa, 0xc2, 0x4f, 0x3c, 0x0a, 0xa0, 0x18, 0x3e, 0x4b, 0xfe, 0x66, 0xbd, 0x11, 0x40,
    0x72, 0x3e, 0xc3, 0x53, 0xea, 0xbd, 0x55, 0x93, 0xa0, 0xbd, 0x90, 0xe4, 0x1f, 0xbe, 0x06, 0x69, 0xa0, 0x3e, 0xa5,
    0xc1, 0x09, 0xbe, 0x6d, 0xb2, 0x16, 0xbd, 0xe6, 0x2d, 0xb8, 0x3c, 0x97, 0xc6, 0x08, 0x3e, 0x73, 0xa5, 0xf0, 0x3c,
    0x94, 0x7e, 0x97, 0x3d, 0x56, 0xa5, 0x0a, 0xbd, 0xe3, 0x71, 0x63, 0x3c, 0xc0, 0xfe, 0x81, 0xbe, 0x7a, 0x49, 0xcb,
    0xbd, 0xae, 0x79, 0x2f, 0xbe, 0x1f, 0xb7, 0x07, 0x3e, 0x2d, 0x6f, 0x09, 0x3e, 0xaa, 0x1c, 0x35, 0xbd, 0xae, 0x9c,
    0xaa, 0xbe, 0xc4, 0x4c, 0x79, 0xba, 0x22, 0x2c, 0x39, 0x3e, 0x85, 0xb7, 0x8d, 0x3e, 0x92, 0x95, 0x4d, 0xbd, 0x3b,
    0x6b, 0xd1, 0xbe, 0x6f, 0x8c, 0x11, 0xbd, 0xaa, 0x7a, 0xeb, 0x3d, 0x39, 0xa2, 0x61, 0x3c, 0x7c, 0xf1, 0x9f, 0x3d,
    0xee, 0xbf, 0xdd, 0xbd, 0x91, 0x32, 0xdd, 0xbe, 0x74, 0xde, 0xfe, 0x3e, 0x34, 0x99, 0x91, 0x3d, 0x9a, 0xa6, 0x02,
    0x3d, 0x63, 0xc4, 0xaf, 0x3e, 0xb3, 0x1e, 0x7f, 0xbe, 0xd2, 0xed, 0x28, 0x3f, 0x66, 0xbb, 0x1f, 0xbf, 0xf0, 0x7d,
    0xf0, 0x3e, 0xd3, 0xab, 0x51, 0xbe, 0x84, 0x1c, 0xff, 0xbc, 0x39, 0x73, 0xc2, 0xbe, 0x48, 0x8e, 0x6f, 0x3e, 0x3a,
    0xca, 0x0b, 0xbe, 0x21, 0xc7, 0xf7, 0xbc, 0x91, 0xb5, 0x9f, 0x3d, 0x00, 0x32, 0xaf, 0xbe, 0xa2, 0x5b, 0x3a, 0xbd,
    0xcd, 0x12, 0x6b, 0xbe, 0x91, 0x5c, 0x37, 0x3e, 0xee, 0x8b, 0x6c, 0x3e, 0x99, 0x7d, 0xb6, 0xbe, 0xbf, 0x82, 0x01,
    0x3c, 0xf0, 0x01, 0xff, 0x3c, 0x8b, 0x51, 0x96, 0xbc, 0xef, 0x8d, 0xa5, 0xbd, 0x50, 0x88, 0x42, 0xbf, 0x5b, 0x93,
    0xc7, 0xbe, 0x8e, 0x23, 0x1c, 0xbd, 0xe8, 0x98, 0x93, 0x3d, 0x3a, 0x9f, 0x4c, 0xbe, 0x67, 0xce, 0xfc, 0x3d, 0xeb,
    0x3e, 0xe6, 0xbd, 0x84, 0xa3, 0x84, 0xbe, 0xb3, 0xf6, 0xd5, 0x3d, 0x36, 0xad, 0x0d, 0x3f, 0xe0, 0xb9, 0x75, 0xbe,
    0xbf, 0xa1, 0x32, 0x3e, 0x17, 0xbd, 0x6f, 0x3e, 0xa9, 0x65, 0x2e, 0x3e, 0xd3, 0x97, 0x70, 0xbd, 0x0a, 0x94, 0x0e,
    0x3e, 0xa8, 0xf0, 0xb1, 0xbc, 0xe3, 0x08, 0x50, 0xbe, 0xcc, 0x17, 0x90, 0xbe, 0xd8, 0x4a, 0x6b, 0x3e, 0xec, 0xb6,
    0x1b, 0xbe, 0xfd, 0x2d, 0x15, 0x3d, 0x2a, 0xc1, 0x30, 0x3e, 0x67, 0x02, 0x14, 0x3e, 0x3f, 0x24, 0x36, 0xbd, 0xe3,
    0x44, 0xab, 0x3e, 0x6b, 0x32, 0xbe, 0xbd, 0xef, 0x8f, 0x19, 0x3e, 0xc5, 0x79, 0x22, 0xbd, 0xbb, 0x0e, 0xd0, 0x3d,
    0x1f, 0xba, 0x69, 0x3d, 0x21, 0x52, 0xa7, 0xbe, 0x0a, 0x72, 0xd8, 0x3c, 0xff, 0x13, 0x3d, 0x3e, 0x01, 0x5b, 0x89,
    0x3e, 0x7b, 0x07, 0x9d, 0xbe, 0x40, 0x45, 0x9e, 0xbe, 0x96, 0xed, 0xd9, 0x3d, 0x2d, 0x06, 0xd6, 0xbd, 0x91, 0x68,
    0x0f, 0xbe, 0x54, 0xb8, 0x1f, 0xbe, 0x3c, 0x4e, 0x9f, 0x3e, 0x61, 0x57, 0x8c, 0x3e, 0x84, 0xbb, 0x1c, 0xbd, 0xb1,
    0x45, 0x30, 0xbf, 0xa0, 0x8c, 0xba, 0x3e, 0xee, 0xd2, 0x94, 0x3e, 0xd0, 0x18, 0x72, 0x3e, 0x9b, 0xe0, 0xa1, 0xbe,
    0x3e, 0x60, 0x6f, 0x3e, 0x52, 0x62, 0x32, 0x3e, 0x0b, 0x00, 0x29, 0x3e, 0x8c, 0x3d, 0xfc, 0x3d, 0xca, 0x91, 0xd6,
    0x3e, 0x93, 0xfc, 0xcd, 0x3e, 0x37, 0x57, 0x8b, 0xbe, 0x24, 0x2a, 0x9b, 0xbc, 0xfe, 0x78, 0x08, 0xbf, 0x94, 0x64,
    0xde, 0x3d, 0x4e, 0xf7, 0x0a, 0x3f, 0x84, 0xfe, 0x43, 0x3d, 0x3b, 0x32, 0x9b, 0xbe, 0x7d, 0x90, 0x24, 0xbe, 0x9f,
    0x44, 0x9c, 0x3b, 0xdd, 0x27, 0x10, 0x3f, 0xce, 0x64, 0x68, 0x3e, 0xc4, 0xb9, 0x0e, 0xbf, 0x6e, 0x70, 0x14, 0x3e,
    0xcc, 0xd6, 0x48, 0xbe, 0xa2, 0x1c, 0x12, 0xbf, 0xc4, 0x5e, 0x8d, 0x3d, 0x8f, 0x4c, 0xe5, 0x3d, 0x32, 0xa1, 0x63,
    0xbc, 0x48, 0xd7, 0xa5, 0x3c, 0x59, 0x4e, 0x3d, 0xbe, 0x4c, 0x2f, 0x8c, 0x3d, 0x8a, 0xd3, 0x2d, 0x3e, 0x73, 0x2e,
    0x49, 0xbc, 0x72, 0x56, 0x1e, 0xbd, 0x1a, 0x1e, 0xd7, 0x3d, 0xdc, 0x50, 0xe1, 0xbd, 0x62, 0x82, 0x20, 0xbd, 0xcf,
    0xb0, 0x96, 0xbc, 0x35, 0x52, 0x7b, 0x3d, 0xb3, 0x48, 0x77, 0xbd, 0x9e, 0x03, 0x2a, 0x3d, 0xea, 0x42, 0x48, 0xbd,
    0x49, 0x62, 0x84, 0x3e, 0x52, 0x4d, 0x4f, 0x3c, 0xec, 0xae, 0x9d, 0xbd, 0x12, 0x69, 0x95, 0x3b, 0xae, 0x3f, 0x23,
    0x3d, 0xb1, 0x0a, 0xf5, 0x3d, 0x4c, 0x48, 0xae, 0xbd, 0x26, 0xf0, 0x0c, 0xbe, 0x9c, 0x61, 0x2e, 0xbe, 0x65, 0xf2,
    0x4f, 0xbd, 0x77, 0xf1, 0x83, 0x3e, 0xd4, 0xae, 0x34, 0x3e, 0xc0, 0xc3, 0x07, 0x3e, 0x2d, 0xce, 0xfa, 0x3d, 0xa2,
    0x9f, 0xec, 0x3c, 0xe7, 0xcc, 0xe6, 0x3e, 0x18, 0x06, 0x29, 0x3c, 0x2c, 0xc1, 0x2c, 0xbe, 0x33, 0x78, 0x3f, 0x3d,
    0xae, 0x52, 0xc8, 0x3e, 0xe9, 0x7e, 0xa8, 0x3d, 0x7c, 0x04, 0xc7, 0xbe, 0x1c, 0x73, 0xac, 0xbd, 0x00, 0x2c, 0xd4,
    0xbe, 0x32, 0xc4, 0xaa, 0x3d, 0xa9, 0x16, 0x01, 0xbf, 0xf0, 0xc0, 0x06, 0xbe, 0x2b, 0xf1, 0x81, 0x3e, 0x25, 0x9b,
    0x04, 0xbd, 0x01, 0xaf, 0x6c, 0x3d, 0x72, 0x52, 0x8a, 0xbe, 0x02, 0xa5, 0xcd, 0xbd, 0xa3, 0x36, 0x5e, 0xbe, 0x41,
    0xe6, 0x32, 0xbd, 0xfc, 0xed, 0xf8, 0xbe, 0x5c, 0x3f, 0x33, 0xbd, 0xf8, 0x98, 0xa3, 0xbc, 0x25, 0xc2, 0x0e, 0x3e,
    0xfc, 0x93, 0xa2, 0xbe, 0x44, 0x44, 0x11, 0xbf, 0x85, 0x27, 0x39, 0xbe, 0x3c, 0xf5, 0x21, 0x3d, 0x6e, 0x48, 0x0c,
    0x3f, 0xc9, 0x0b, 0x18, 0xbe, 0x84, 0xa5, 0x38, 0x3e, 0xe6, 0x50, 0x72, 0x3d, 0xb2, 0x4b, 0xb5, 0xbe, 0x52, 0x61,
    0x13, 0x3d, 0x44, 0x4b, 0x65, 0xbc, 0xb5, 0xb6, 0xcc, 0xbc, 0xf7, 0xee, 0x1b, 0x3e, 0xc7, 0xd5, 0xdd, 0x3d, 0x2a,
    0x1f, 0x4b, 0x3e, 0xf8, 0xed, 0x12, 0xbe, 0xdd, 0xa4, 0x9e, 0xbd, 0xdb, 0x71, 0x77, 0x3e, 0x81, 0xf9, 0xf4, 0xbd,
    0x90, 0x78, 0xc3, 0xbd, 0x5c, 0x80, 0x00, 0xbd, 0x61, 0x0b, 0x0c, 0x3d, 0xd1, 0xea, 0x15, 0x3e, 0xd0, 0xf4, 0x34,
    0xba, 0xc5, 0xa5, 0x5f, 0xbd, 0x60, 0x87, 0x8e, 0x3c, 0x0d, 0x8e, 0x8e, 0x3d, 0xba, 0xf6, 0x3b, 0xbd, 0x48, 0x27,
    0x5c, 0x3e, 0x69, 0x32, 0x56, 0x3d, 0xa9, 0x34, 0x83, 0xbd, 0x83, 0x09, 0xf5, 0x3b, 0x52, 0x67, 0xea, 0xbd, 0xf5,
    0x32, 0xba, 0xbd, 0x08, 0x31, 0xd3, 0xbd, 0x6f, 0x70, 0xdf, 0x3d, 0x80, 0xaa, 0x2a, 0x3e, 0xda, 0xda, 0xc6, 0x3d,
    0xef, 0x96, 0x18, 0x3e, 0x8b, 0x08, 0xec, 0xbd, 0x72, 0x1a, 0x89, 0xbc, 0x7b, 0x4f, 0xd3, 0x3f, 0x74, 0x41, 0xde,
    0x3e, 0x4e, 0xe7, 0x36, 0xbf, 0x5c, 0x36, 0x0e, 0x3f, 0x4a, 0x83, 0xa3, 0x3e, 0x20, 0x90, 0x86, 0xbf, 0xc0, 0xde,
    0xc9, 0xbd, 0xc6, 0x25, 0x5d, 0xbe, 0x09, 0x5f, 0xd9, 0xbe, 0xb8, 0xd4, 0x2e, 0x3e, 0xa8, 0x78, 0xfa, 0xbf, 0xd2,
    0x3d, 0xa0, 0xbe, 0x4a, 0xdb, 0x3e, 0x3f, 0x4c, 0xe6, 0x74, 0xbc, 0x23, 0xfc, 0x38, 0x3f, 0x66, 0xee, 0xe3, 0xbe,
    0xc2, 0x06, 0x85, 0xbe, 0x08, 0x91, 0x69, 0xbf, 0x20, 0xca, 0x0b, 0x3f, 0x38, 0x5a, 0xdf, 0xbe, 0x76, 0xd1, 0x0a,
    0xbf, 0x0b, 0xba, 0xb4, 0xbe, 0x43, 0xba, 0x71, 0x3f, 0x6b, 0x35, 0x95, 0xbf, 0x7d, 0x8c, 0xea, 0xbe, 0x4d, 0xcf,
    0x13, 0x3f, 0x03, 0x3d, 0x0a, 0xbf, 0xbc, 0x9e, 0x3b, 0x3e, 0x89, 0xa8, 0x28, 0xbf, 0xa8, 0xb2, 0x21, 0x3f, 0x80,
    0x86, 0x2b, 0xbc, 0x8c, 0xbd, 0xcb, 0xbe, 0xbd, 0x60, 0xcb, 0x3d, 0x2f, 0xb0, 0x5e, 0x3e, 0x5f, 0x4c, 0x77, 0xbe,
    0x27, 0xf9, 0xc1, 0x3e, 0xe8, 0x60, 0x17, 0x3f, 0x7b, 0xf5, 0xac, 0x3c, 0x11, 0xf5, 0xb9, 0x3e, 0x9d, 0x64, 0x92,
    0x3e, 0x5b, 0x24, 0x7f, 0xbe, 0xaa, 0xc3, 0x07, 0xbd, 0xc6, 0xab, 0xa5, 0x3a, 0x5c, 0xd4, 0x40, 0xbe, 0x1a, 0x9e,
    0x02, 0x3c, 0x5c, 0x59, 0x76, 0x3e, 0xf5, 0x96, 0x81, 0xbe, 0x3a, 0x73, 0x50, 0x3e, 0xf2, 0xa5, 0xa7, 0x3e, 0xf8,
    0xa0, 0x36, 0xbe, 0x87, 0x77, 0x26, 0xbe, 0x40, 0x64, 0xb0, 0xbd, 0x5c, 0x95, 0xdd, 0xbe, 0xe1, 0x18, 0x5e, 0x3e,
    0x96, 0xa5, 0x9d, 0x3e, 0xe0, 0x06, 0x31, 0xbe, 0x68, 0xc4, 0xa1, 0x3e, 0x76, 0xe9, 0x07, 0x3e, 0x28, 0xbf, 0xf8,
    0x3d, 0x62, 0xff, 0xe4, 0x3d, 0xaf, 0x30, 0xd0, 0x3b, 0x36, 0x37, 0xfa, 0x3c, 0x8b, 0x67, 0x97, 0xbd, 0x45, 0x3f,
    0x77, 0xbe, 0xe6, 0xfe, 0xff, 0xff, 0x04, 0x00, 0x00, 0x00, 0x80, 0x00, 0x00, 0x00, 0xb4, 0x12, 0xa5, 0x3d, 0xb6,
    0xb8, 0x29, 0x3e, 0xbd, 0x4d, 0x86, 0xbe, 0xb2, 0x03, 0x9d, 0x3a, 0xb3, 0x32, 0x02, 0xbd, 0x10, 0x03, 0xb8, 0xbc,
    0x81, 0x11, 0xf6, 0xbd, 0x52, 0x56, 0xd6, 0xbc, 0x7d, 0x09, 0xc2, 0xbb, 0x48, 0x10, 0x1d, 0x3d, 0x23, 0x9f, 0x02,
    0x3f, 0xd2, 0x5b, 0x74, 0x3e, 0xe3, 0xd9, 0x3d, 0xbc, 0xfe, 0xc7, 0xbf, 0xbd, 0x7f, 0x43, 0x50, 0x3d, 0x1b, 0x8b,
    0x8f, 0xbd, 0xef, 0xde, 0x26, 0xbb, 0x4d, 0x46, 0xc2, 0xbe, 0x19, 0x5a, 0x83, 0xbe, 0x86, 0x7b, 0x76, 0x3e, 0xde,
    0x03, 0x48, 0xbf, 0x0c, 0xd9, 0xc6, 0x3e, 0x8f, 0x1f, 0x52, 0x3e, 0x54, 0x30, 0x96, 0xbd, 0x21, 0xed, 0x03, 0x3e,
    0x18, 0xef, 0xe5, 0xbd, 0x46, 0xdc, 0x9d, 0xbe, 0x0d, 0xd6, 0x56, 0xbc, 0x93, 0x8b, 0xc0, 0x3e, 0x82, 0xa8, 0x8d,
    0x3b, 0xdf, 0xd7, 0xfb, 0xbe, 0x77, 0x70, 0x17, 0xbe, 0x72, 0xff, 0xff, 0xff, 0x04, 0x00, 0x00, 0x00, 0x80, 0x00,
    0x00, 0x00, 0x2f, 0xcb, 0xa1, 0xbe, 0xbc, 0x45, 0x91, 0xbe, 0xf3, 0x8f, 0xde, 0xbe, 0x91, 0x02, 0x83, 0xbe, 0xaf,
    0x3e, 0xe5, 0xbd, 0xd3, 0xa8, 0x91, 0xbd, 0x91, 0x0f, 0x4f, 0xbe, 0x28, 0x83, 0x70, 0xbe, 0xbf, 0x82, 0xc5, 0xbb,
    0x11, 0xb2, 0x2b, 0x3d, 0x3e, 0x53, 0x07, 0xbf, 0x94, 0x87, 0x7a, 0xbe, 0xc6, 0xcb, 0x8b, 0xbe, 0x5d, 0x1a, 0xa9,
    0xbd, 0xf1, 0xe4, 0x76, 0xbd, 0xf3, 0xe4, 0x36, 0x3d, 0x19, 0x75, 0x03, 0xbd, 0x59, 0x7b, 0xe9, 0x3d, 0x55, 0x04,
    0xa3, 0xbe, 0x74, 0x81, 0xa1, 0xbd, 0x72, 0xd7, 0xbc, 0xbe, 0x8a, 0x30, 0x0e, 0xbf, 0xe7, 0xa9, 0x56, 0x3e, 0x64,
    0x85, 0xf8, 0xbc, 0xaa, 0xd2, 0x5e, 0x3a, 0x8d, 0x7e, 0x0e, 0xbe, 0x7c, 0x83, 0xb9, 0x3c, 0xdb, 0xf6, 0x24, 0xbd,
    0xb8, 0xfb, 0x9d, 0xbe, 0xfa, 0xd3, 0xa8, 0x3d, 0xbd, 0x5b, 0x24, 0xbf, 0xf0, 0xed, 0x62, 0x3d, 0x00, 0x00, 0x06,
    0x00, 0x08, 0x00, 0x04, 0x00, 0x06, 0x00, 0x00, 0x00, 0x04, 0x00, 0x00, 0x00, 0x04, 0x00, 0x00, 0x00, 0xfc, 0x9e,
    0x88, 0xbe, 0xe0, 0xfa, 0xff, 0xff, 0xe4, 0xfa, 0xff, 0xff, 0x0f, 0x00, 0x00, 0x00, 0x4d, 0x4c, 0x49, 0x52, 0x20,
    0x43, 0x6f, 0x6e, 0x76, 0x65, 0x72, 0x74, 0x65, 0x64, 0x2e, 0x00, 0x01, 0x00, 0x00, 0x00, 0x14, 0x00, 0x00, 0x00,
    0x00, 0x00, 0x0e, 0x00, 0x18, 0x00, 0x14, 0x00, 0x10, 0x00, 0x0c, 0x00, 0x08, 0x00, 0x04, 0x00, 0x0e, 0x00, 0x00,
    0x00, 0x14, 0x00, 0x00, 0x00, 0x1c, 0x00, 0x00, 0x00, 0x1c, 0x01, 0x00, 0x00, 0x20, 0x01, 0x00, 0x00, 0x24, 0x01,
    0x00, 0x00, 0x04, 0x00, 0x00, 0x00, 0x6d, 0x61, 0x69, 0x6e, 0x00, 0x00, 0x00, 0x00, 0x05, 0x00, 0x00, 0x00, 0xd0,
    0x00, 0x00, 0x00, 0x9c, 0x00, 0x00, 0x00, 0x5c, 0x00, 0x00, 0x00, 0x38, 0x00, 0x00, 0x00, 0x04, 0x00, 0x00, 0x00,
    0x52, 0xff, 0xff, 0xff, 0x10, 0x00, 0x00, 0x00, 0x00, 0x00, 0x00, 0x08, 0x0c, 0x00, 0x00, 0x00, 0x10, 0x00, 0x00,
    0x00, 0x64, 0xfb, 0xff, 0xff, 0x01, 0x00, 0x00, 0x00, 0x0b, 0x00, 0x00, 0x00, 0x03, 0x00, 0x00, 0x00, 0x0a, 0x00,
    0x00, 0x00, 0x03, 0x00, 0x00, 0x00, 0x01, 0x00, 0x00, 0x00, 0xae, 0xff, 0xff, 0xff, 0x0c, 0x00, 0x00, 0x00, 0x10,
    0x00, 0x00, 0x00, 0x01, 0x00, 0x00, 0x00, 0x01, 0x00, 0x00, 0x00, 0x0a, 0x00, 0x00, 0x00, 0x01, 0x00, 0x00, 0x00,
    0x09, 0x00, 0x00, 0x00, 0xa2, 0xff, 0xff, 0xff, 0x10, 0x00, 0x00, 0x00, 0x00, 0x00, 0x00, 0x08, 0x0c, 0x00, 0x00,
    0x00, 0x10, 0x00, 0x00, 0x00, 0xb4, 0xfb, 0xff, 0xff, 0x01, 0x00, 0x00, 0x00, 0x09, 0x00, 0x00, 0x00, 0x03, 0x00,
    0x00, 0x00, 0x08, 0x00, 0x00, 0x00, 0x04, 0x00, 0x00, 0x00, 0x02, 0x00, 0x00, 0x00, 0x00, 0x00, 0x0a, 0x00, 0x10,
    0x00, 0x0c, 0x00, 0x08, 0x00, 0x04, 0x00, 0x0a, 0x00, 0x00, 0x00, 0x0c, 0x00, 0x00, 0x00, 0x10, 0x00, 0x00, 0x00,
    0x01, 0x00, 0x00, 0x00, 0x01, 0x00, 0x00, 0x00, 0x08, 0x00, 0x00, 0x00, 0x01, 0x00, 0x00, 0x00, 0x07, 0x00, 0x00,
    0x00, 0x00, 0x00, 0x0e, 0x00, 0x14, 0x00, 0x00, 0x00, 0x10, 0x00, 0x0c, 0x00, 0x0b, 0x00, 0x04, 0x00, 0x0e, 0x00,
    0x00, 0x00, 0x10, 0x00, 0x00, 0x00, 0x00, 0x00, 0x00, 0x08, 0x0c, 0x00, 0x00, 0x00, 0x10, 0x00, 0x00, 0x00, 0x20,
    0xfc, 0xff, 0xff, 0x01, 0x00, 0x00, 0x00, 0x07, 0x00, 0x00, 0x00, 0x03, 0x00, 0x00, 0x00, 0x00, 0x00, 0x00, 0x00,
    0x05, 0x00, 0x00, 0x00, 0x06, 0x00, 0x00, 0x00, 0x01, 0x00, 0x00, 0x00, 0x0b, 0x00, 0x00, 0x00, 0x01, 0x00, 0x00,
    0x00, 0x00, 0x00, 0x00, 0x00, 0x0c, 0x00, 0x00, 0x00, 0x98, 0x03, 0x00, 0x00, 0x40, 0x03, 0x00, 0x00, 0xf0, 0x02,
    0x00, 0x00, 0xa0, 0x02, 0x00, 0x00, 0x50, 0x02, 0x00, 0x00, 0x00, 0x02, 0x00, 0x00, 0xb0, 0x01, 0x00, 0x00, 0x40,
    0x01, 0x00, 0x00, 0xfc, 0x00, 0x00, 0x00, 0x88, 0x00, 0x00, 0x00, 0x40, 0x00, 0x00, 0x00, 0x04, 0x00, 0x00, 0x00,
    0xae, 0xfc, 0xff, 0xff, 0x00, 0x00, 0x00, 0x01, 0x10, 0x00, 0x00, 0x00, 0x10, 0x00, 0x00, 0x00, 0x0c, 0x00, 0x00,
    0x00, 0x18, 0x00, 0x00, 0x00, 0x98, 0xfc, 0xff, 0xff, 0x08, 0x00, 0x00, 0x00, 0x49, 0x64, 0x65, 0x6e, 0x74, 0x69,
    0x74, 0x79, 0x00, 0x00, 0x00, 0x00, 0x02, 0x00, 0x00, 0x00, 0x01, 0x00, 0x00, 0x00, 0x01, 0x00, 0x00, 0x00, 0xe6,
    0xfc, 0xff, 0xff, 0x00, 0x00, 0x00, 0x01, 0x10, 0x00, 0x00, 0x00, 0x10, 0x00, 0x00, 0x00, 0x0b, 0x00, 0x00, 0x00,
    0x24, 0x00, 0x00, 0x00, 0xd0, 0xfc, 0xff, 0xff, 0x15, 0x00, 0x00, 0x00, 0x6d, 0x6f, 0x64, 0x65, 0x6c, 0x2f, 0x74,
    0x66, 0x2e, 0x6e, 0x6e, 0x2e, 0x65, 0x6c, 0x75, 0x5f, 0x31, 0x2f, 0x45, 0x6c, 0x75, 0x00, 0x00, 0x00, 0x02, 0x00,
    0x00, 0x00, 0x01, 0x00, 0x00, 0x00, 0x20, 0x00, 0x00, 0x00, 0x2a, 0xfd, 0xff, 0xff, 0x00, 0x00, 0x00, 0x01, 0x10,
    0x00, 0x00, 0x00, 0x10, 0x00, 0x00, 0x00, 0x0a, 0x00, 0x00, 0x00, 0x50, 0x00, 0x00, 0x00, 0x14, 0xfd, 0xff, 0xff,
    0x42, 0x00, 0x00, 0x00, 0x6d, 0x6f, 0x64, 0x65, 0x6c, 0x2f, 0x74, 0x66, 0x2e, 0x6c, 0x69, 0x6e, 0x61, 0x6c, 0x67,
    0x2e, 0x6d, 0x61, 0x74, 0x6d, 0x75, 0x6c, 0x5f, 0x31, 0x2f, 0x4d, 0x61, 0x74, 0x4d, 0x75, 0x6c, 0x3b, 0x6d, 0x6f,
    0x64, 0x65, 0x6c, 0x2f, 0x74, 0x66, 0x2e, 0x5f, 0x5f, 0x6f, 0x70, 0x65, 0x72, 0x61, 0x74, 0x6f, 0x72, 0x73, 0x5f,
    0x5f, 0x2e, 0x61, 0x64, 0x64, 0x5f, 0x31, 0x2f, 0x41, 0x64, 0x64, 0x56, 0x32, 0x00, 0x00, 0x02, 0x00, 0x00, 0x00,
    0x01, 0x00, 0x00, 0x00, 0x20, 0x00, 0x00, 0x00, 0x9a, 0xfd, 0xff, 0xff, 0x00, 0x00, 0x00, 0x01, 0x10, 0x00, 0x00,
    0x00, 0x10, 0x00, 0x00, 0x00, 0x09, 0x00, 0x00, 0x00, 0x20, 0x00, 0x00, 0x00, 0x84, 0xfd, 0xff, 0xff, 0x13, 0x00,
    0x00, 0x00, 0x6d, 0x6f, 0x64, 0x65, 0x6c, 0x2f, 0x74, 0x66, 0x2e, 0x6e, 0x6e, 0x2e, 0x65, 0x6c, 0x75, 0x2f, 0x45,
    0x6c, 0x75, 0x00, 0x02, 0x00, 0x00, 0x00, 0x01, 0x00, 0x00, 0x00, 0x20, 0x00, 0x00, 0x00, 0xda, 0xfd, 0xff, 0xff,
    0x00, 0x00, 0x00, 0x01, 0x10, 0x00, 0x00, 0x00, 0x10, 0x00, 0x00, 0x00, 0x08, 0x00, 0x00, 0x00, 0x4c, 0x00, 0x00,
    0x00, 0xc4, 0xfd, 0xff, 0xff, 0x3e, 0x00, 0x00, 0x00, 0x6d, 0x6f, 0x64, 0x65, 0x6c, 0x2f, 0x74, 0x66, 0x2e, 0x6c,
    0x69, 0x6e, 0x61, 0x6c, 0x67, 0x2e, 0x6d, 0x61, 0x74, 0x6d, 0x75, 0x6c, 0x2f, 0x4d, 0x61, 0x74, 0x4d, 0x75, 0x6c,
    0x3b, 0x6d, 0x6f, 0x64, 0x65, 0x6c, 0x2f, 0x74, 0x66, 0x2e, 0x5f, 0x5f, 0x6f, 0x70, 0x65, 0x72, 0x61, 0x74, 0x6f,
    0x72, 0x73, 0x5f, 0x5f, 0x2e, 0x61, 0x64, 0x64, 0x2f, 0x41, 0x64, 0x64, 0x56, 0x32, 0x00, 0x00, 0x02, 0x00, 0x00,
    0x00, 0x01, 0x00, 0x00, 0x00, 0x20, 0x00, 0x00, 0x00, 0x46, 0xfe, 0xff, 0xff, 0x00, 0x00, 0x00, 0x01, 0x10, 0x00,
    0x00, 0x00, 0x10, 0x00, 0x00, 0x00, 0x07, 0x00, 0x00, 0x00, 0x30, 0x00, 0x00, 0x00, 0x30, 0xfe, 0xff, 0xff, 0x20,
    0x00, 0x00, 0x00, 0x6d, 0x6f, 0x64, 0x65, 0x6c, 0x2f, 0x74, 0x66, 0x2e, 0x5f, 0x5f, 0x6f, 0x70, 0x65, 0x72, 0x61,
    0x74, 0x6f, 0x72, 0x73, 0x5f, 0x5f, 0x2e, 0x61, 0x64, 0x64, 0x2f, 0x41, 0x64, 0x64, 0x56, 0x32, 0x00, 0x00, 0x00,
    0x00, 0x01, 0x00, 0x00, 0x00, 0x20, 0x00, 0x00, 0x00, 0x92, 0xfe, 0xff, 0xff, 0x00, 0x00, 0x00, 0x01, 0x10, 0x00,
    0x00, 0x00, 0x10, 0x00, 0x00, 0x00, 0x06, 0x00, 0x00, 0x00, 0x2c, 0x00, 0x00, 0x00, 0x7c, 0xfe, 0xff, 0xff, 0x1d,
    0x00, 0x00, 0x00, 0x6d, 0x6f, 0x64, 0x65, 0x6c, 0x2f, 0x74, 0x66, 0x2e, 0x6c, 0x69, 0x6e, 0x61, 0x6c, 0x67, 0x2e,
    0x6d, 0x61, 0x74, 0x6d, 0x75, 0x6c, 0x2f, 0x4d, 0x61, 0x74, 0x4d, 0x75, 0x6c, 0x00, 0x00, 0x00, 0x02, 0x00, 0x00,
    0x00, 0x20, 0x00, 0x00, 0x00, 0x05, 0x00, 0x00, 0x00, 0xde, 0xfe, 0xff, 0xff, 0x00, 0x00, 0x00, 0x01, 0x10, 0x00,
    0x00, 0x00, 0x10, 0x00, 0x00, 0x00, 0x05, 0x00, 0x00, 0x00, 0x2c, 0x00, 0x00, 0x00, 0xc8, 0xfe, 0xff, 0xff, 0x1f,
    0x00, 0x00, 0x00, 0x6d, 0x6f, 0x64, 0x65, 0x6c, 0x2f, 0x74, 0x66, 0x2e, 0x6c, 0x69, 0x6e, 0x61, 0x6c, 0x67, 0x2e,
    0x6d, 0x61, 0x74, 0x6d, 0x75, 0x6c, 0x5f, 0x31, 0x2f, 0x4d, 0x61, 0x74, 0x4d, 0x75, 0x6c, 0x00, 0x02, 0x00, 0x00,
    0x00, 0x20, 0x00, 0x00, 0x00, 0x20, 0x00, 0x00, 0x00, 0x2a, 0xff, 0xff, 0xff, 0x00, 0x00, 0x00, 0x01, 0x10, 0x00,
    0x00, 0x00, 0x10, 0x00, 0x00, 0x00, 0x04, 0x00, 0x00, 0x00, 0x2c, 0x00, 0x00, 0x00, 0x14, 0xff, 0xff, 0xff, 0x1f,
    0x00, 0x00, 0x00, 0x6d, 0x6f, 0x64, 0x65, 0x6c, 0x2f, 0x74, 0x66, 0x2e, 0x6c, 0x69, 0x6e, 0x61, 0x6c, 0x67, 0x2e,
    0x6d, 0x61, 0x74, 0x6d, 0x75, 0x6c, 0x5f, 0x32, 0x2f, 0x4d, 0x61, 0x74, 0x4d, 0x75, 0x6c, 0x00, 0x02, 0x00, 0x00,
    0x00, 0x01, 0x00, 0x00, 0x00, 0x20, 0x00, 0x00, 0x00, 0x76, 0xff, 0xff, 0xff, 0x00, 0x00, 0x00, 0x01, 0x10, 0x00,
    0x00, 0x00, 0x10, 0x00, 0x00, 0x00, 0x03, 0x00, 0x00, 0x00, 0x30, 0x00, 0x00, 0x00, 0x60, 0xff, 0xff, 0xff, 0x22,
    0x00, 0x00, 0x00, 0x6d, 0x6f, 0x64, 0x65, 0x6c, 0x2f, 0x74, 0x66, 0x2e, 0x5f, 0x5f, 0x6f, 0x70, 0x65, 0x72, 0x61,
    0x74, 0x6f, 0x72, 0x73, 0x5f, 0x5f, 0x2e, 0x61, 0x64, 0x64, 0x5f, 0x31, 0x2f, 0x41, 0x64, 0x64, 0x56, 0x32, 0x00,
    0x00, 0x01, 0x00, 0x00, 0x00, 0x20, 0x00, 0x00, 0x00, 0xc2, 0xff, 0xff, 0xff, 0x00, 0x00, 0x00, 0x01, 0x10, 0x00,
    0x00, 0x00, 0x10, 0x00, 0x00, 0x00, 0x02, 0x00, 0x00, 0x00, 0x20, 0x00, 0x00, 0x00, 0xac, 0xff, 0xff, 0xff, 0x12,
    0x00, 0x00, 0x00, 0x6d, 0x6f, 0x64, 0x65, 0x6c, 0x2f, 0x61, 0x63, 0x74, 0x69, 0x6f, 0x6e, 0x2f, 0x41, 0x64, 0x64,
    0x56, 0x32, 0x00, 0x00, 0x01, 0x00, 0x00, 0x00, 0x01, 0x00, 0x00, 0x00, 0x00, 0x00, 0x16, 0x00, 0x18, 0x00, 0x14,
    0x00, 0x00, 0x00, 0x10, 0x00, 0x0c, 0x00, 0x08, 0x00, 0x00, 0x00, 0x00, 0x00, 0x00, 0x00, 0x07, 0x00, 0x16, 0x00,
    0x00, 0x00, 0x00, 0x00, 0x00, 0x01, 0x14, 0x00, 0x00, 0x00, 0x14, 0x00, 0x00, 0x00, 0x01, 0x00, 0x00, 0x00, 0x14,
    0x00, 0x00, 0x00, 0x04, 0x00, 0x04, 0x00, 0x04, 0x00, 0x00, 0x00, 0x03, 0x00, 0x00, 0x00, 0x6f, 0x62, 0x73, 0x00,
    0x02, 0x00, 0x00, 0x00, 0x01, 0x00, 0x00, 0x00, 0x05, 0x00, 0x00, 0x00, 0x02, 0x00, 0x00, 0x00, 0x20, 0x00, 0x00,
    0x00, 0x04, 0x00, 0x00, 0x00, 0xf4, 0xff, 0xff, 0xff, 0x6f, 0x00, 0x00, 0x00, 0x00, 0x00, 0x00, 0x6f, 0x0c, 0x00,
    0x0c, 0x00, 0x0b, 0x00, 0x00, 0x00, 0x00, 0x00, 0x04, 0x00, 0x0c, 0x00, 0x00, 0x00, 0x09, 0x00, 0x00, 0x00, 0x00,
    0x00, 0x00, 0x09};
unsigned int policy_model_len = 6976;
